{
  "version": "1.0",
  "truncation": null,
  "padding": null,
  "added_tokens": [
    {
      "id": 0,
      "content": "<pad>",
      "single_word": false,
      "lstrip": false,
      "rstrip": false,
      "normalized": false,
      "special": true
    },
    {
      "id": 1,
      "content": "<bos>",
      "single_word": false,
      "lstrip": false,
      "rstrip": false,
      "normalized": false,
      "special": true
    },
    {
      "id": 2,
      "content": "<eos>",
      "single_word": false,
      "lstrip": false,
      "rstrip": false,
      "normalized": false,
      "special": true
    },
    {
      "id": 3,
      "content": "<unk>",
      "single_word": false,
      "lstrip": false,
      "rstrip": false,
      "normalized": false,
      "special": true
    }
  ],
  "normalizer": null,
  "pre_tokenizer": {
    "type": "ByteLevel",
    "add_prefix_space": false,
    "trim_offsets": true,
    "use_regex": true
  },
  "post_processor": null,
  "decoder": {
    "type": "ByteLevel",
    "add_prefix_space": true,
    "trim_offsets": true,
    "use_regex": true
  },
  "model": {
    "type": "BPE",
    "dropout": null,
    "unk_token": "<unk>",
    "continuing_subword_prefix": null,
    "end_of_word_suffix": null,
    "fuse_unk": false,
    "byte_fallback": true,
    "ignore_merges": false,
    "vocab": {
      "<pad>": 0,
      "<bos>": 1,
      "<eos>": 2,
      "<unk>": 3,
      "!": 4,
      "\"": 5,
      "#": 6,
      "$": 7,
      "%": 8,
      "&": 9,
      "'": 10,
      "(": 11,
      ")": 12,
      "*": 13,
      "+": 14,
      ",": 15,
      "-": 16,
      ".": 17,
      "/": 18,
      "0": 19,
      "1": 20,
      "2": 21,
      "3": 22,
      "4": 23,
      "5": 24,
      "6": 25,
      "7": 26,
      "8": 27,
      "9": 28,
      ":": 29,
      ";": 30,
      "<": 31,
      "=": 32,
      ">": 33,
      "?": 34,
      "@": 35,
      "A": 36,
      "B": 37,
      "C": 38,
      "D": 39,
      "E": 40,
      "F": 41,
      "G": 42,
      "H": 43,
      "I": 44,
      "J": 45,
      "K": 46,
      "L": 47,
      "M": 48,
      "N": 49,
      "O": 50,
      "P": 51,
      "Q": 52,
      "R": 53,
      "S": 54,
      "T": 55,
      "U": 56,
      "V": 57,
      "W": 58,
      "X": 59,
      "Y": 60,
      "Z": 61,
      "[": 62,
      "\\": 63,
      "]": 64,
      "^": 65,
      "_": 66,
      "`": 67,
      "a": 68,
      "b": 69,
      "c": 70,
      "d": 71,
      "e": 72,
      "f": 73,
      "g": 74,
      "h": 75,
      "i": 76,
      "j": 77,
      "k": 78,
      "l": 79,
      "m": 80,
      "n": 81,
      "o": 82,
      "p": 83,
      "q": 84,
      "r": 85,
      "s": 86,
      "t": 87,
      "u": 88,
      "v": 89,
      "w": 90,
      "x": 91,
      "y": 92,
      "z": 93,
      "{": 94,
      "|": 95,
      "}": 96,
      "~": 97,
      "¡": 98,
      "¢": 99,
      "£": 100,
      "¤": 101,
      "¥": 102,
      "¦": 103,
      "§": 104,
      "¨": 105,
      "©": 106,
      "ª": 107,
      "«": 108,
      "¬": 109,
      "®": 110,
      "¯": 111,
      "°": 112,
      "±": 113,
      "²": 114,
      "³": 115,
      "´": 116,
      "µ": 117,
      "¶": 118,
      "·": 119,
      "¸": 120,
      "¹": 121,
      "º": 122,
      "»": 123,
      "¼": 124,
      "½": 125,
      "¾": 126,
      "¿": 127,
      "Â": 128,
      "Ã": 129,
      "Ä": 130,
      "Å": 131,
      "Æ": 132,
      "Ç": 133,
      "È": 134,
      "É": 135,
      "Ê": 136,
      "Ë": 137,
      "Ì": 138,
      "Í": 139,
      "Î": 140,
      "Ï": 141,
      "Ð": 142,
      "Ñ": 143,
      "Ò": 144,
      "Ó": 145,
      "Ô": 146,
      "Õ": 147,
      "Ö": 148,
      "×": 149,
      "Ø": 150,
      "Ù": 151,
      "Ú": 152,
      "Û": 153,
      "Ü": 154,
      "à": 155,
      "á": 156,
      "â": 157,
      "ã": 158,
      "ä": 159,
      "å": 160,
      "æ": 161,
      "ç": 162,
      "è": 163,
      "é": 164,
      "ê": 165,
      "ë": 166,
      "ì": 167,
      "í": 168,
      "î": 169,
      "ï": 170,
      "ð": 171,
      "ó": 172,
      "ĉ": 173,
      "Ċ": 174,
      "č": 175,
      "Ġ": 176,
      "Ģ": 177,
      "ģ": 178,
      "Ĥ": 179,
      "ĥ": 180,
      "Ħ": 181,
      "ħ": 182,
      "Ĩ": 183,
      "ĩ": 184,
      "Ī": 185,
      "ī": 186,
      "Ĭ": 187,
      "ĭ": 188,
      "Į": 189,
      "į": 190,
      "İ": 191,
      "ı": 192,
      "Ĳ": 193,
      "ĳ": 194,
      "Ĵ": 195,
      "ĵ": 196,
      "Ķ": 197,
      "ķ": 198,
      "ĸ": 199,
      "Ĺ": 200,
      "ĺ": 201,
      "Ļ": 202,
      "ļ": 203,
      "Ľ": 204,
      "ľ": 205,
      "Ŀ": 206,
      "ŀ": 207,
      "Ł": 208,
      "ł": 209,
      "Ń": 210,
      "Ġt": 211,
      "Ġa": 212,
      "he": 213,
      "in": 214,
      "Ġthe": 215,
      "on": 216,
      "er": 217,
      "en": 218,
      "st": 219,
      "re": 220,
      "at": 221,
      "Ġc": 222,
      "Ġs": 223,
      "or": 224,
      "an": 225,
      "ou": 226,
      "Ġan": 227,
      "ar": 228,
      "Ġf": 229,
      "it": 230,
      "le": 231,
      "Ġw": 232,
      "ing": 233,
      "Ġp": 234,
      "is": 235,
      "im": 236,
      "ion": 237,
      "es": 238,
      "Ġo": 239,
      "al": 240,
      "ed": 241,
      "as": 242,
      "Ġb": 243,
      "Ġin": 244,
      "Ġto": 245,
      "Ġm": 246,
      "Ġd": 247,
      "Ġand": 248,
      "ent": 249,
      "ic": 250,
      "|>": 251,
      "<|": 252,
      "Ġof": 253,
      "ro": 254,
      "ct": 255,
      "Ġì": 256,
      "Ġre": 257,
      "Ġth": 258,
      "et": 259,
      "Ġh": 260,
      "Ġn": 261,
      "Ġe": 262,
      "Ġis": 263,
      "us": 264,
      "end": 265,
      "ll": 266,
      "art": 267,
      "Ġl": 268,
      "Ġg": 269,
      "om": 270,
      "ĠT": 271,
      "ve": 272,
      "id": 273,
      "ist": 274,
      "ation": 275,
      "am": 276,
      "ce": 277,
      "Ġas": 278,
      "start": 279,
      "Ġë": 280,
      "ot": 281,
      "Ġst": 282,
      "Ġy": 283,
      "ut": 284,
      "un": 285,
      "ìĿ": 286,
      "ur": 287,
      "ant": 288,
      "ly": 289,
      "ĠA": 290,
      "ld": 291,
      "ow": 292,
      "if": 293,
      "Ġbe": 294,
      "ate": 295,
      "Ġfor": 296,
      "Ġthat": 297,
      "ith": 298,
      "ig": 299,
      "You": 300,
      "Ġare": 301,
      "Ġ\"": 302,
      "ch": 303,
      "se": 304,
      "ass": 305,
      "Ġyou": 306,
      "ĠI": 307,
      "od": 308,
      "ay": 309,
      "Ġpro": 310,
      "Ġcon": 311,
      "em": 312,
      "ad": 313,
      "Ġ`": 314,
      "ir": 315,
      "Ġon": 316,
      "ĠS": 317,
      "ĠThe": 318,
      "ag": 319,
      "ue": 320,
      "Ġwith": 321,
      "ple": 322,
      "ep": 323,
      "ver": 324,
      "Ġit": 325,
      "ul": 326,
      "ri": 327,
      "ment": 328,
      "ol": 329,
      "istant": 330,
      "ëĭ": 331,
      "ĠC": 332,
      "Ġhe": 333,
      "ction": 334,
      "il": 335,
      "pe": 336,
      "íķ": 337,
      "``": 338,
      "Ġex": 339,
      "ile": 340,
      "ask": 341,
      "Ġwh": 342,
      "ra": 343,
      "ers": 344,
      "ke": 345,
      "Ġcom": 346,
      "iv": 347,
      "ess": 348,
      "out": 349,
      "res": 350,
      "and": 351,
      "um": 352,
      "ive": 353,
      "Ġv": 354,
      "Ġê": 355,
      "Ġtask": 356,
      "Ġ=": 357,
      "user": 358,
      "sw": 359,
      "'s": 360,
      "el": 361,
      "Ġ1": 362,
      "ill": 363,
      "Ġor": 364,
      "Ġsh": 365,
      "her": 366,
      "swer": 367,
      "pp": 368,
      "ould": 369,
      "ab": 370,
      "ter": 371,
      "Ġne": 372,
      "ie": 373,
      "Ġde": 374,
      "ĠP": 375,
      "os": 376,
      "ain": 377,
      "ac": 378,
      "pt": 379,
      "oun": 380,
      "ĠM": 381,
      "ort": 382,
      "ust": 383,
      "Ġ(": 384,
      "ĠB": 385,
      "ĠW": 386,
      "te": 387,
      "Ġim": 388,
      "ence": 389,
      "orm": 390,
      "Ġanswer": 391,
      "rom": 392,
      "ëĬ": 393,
      "th": 394,
      "assistant": 395,
      "Ġ-": 396,
      "age": 397,
      "ëĬĶ": 398,
      "Ġsu": 399,
      "ame": 400,
      "yst": 401,
      "ìĹ": 402,
      "ĠH": 403,
      "Ġcan": 404,
      "form": 405,
      "igh": 406,
      "Ġse": 407,
      "Ġthis": 408,
      "oc": 409,
      "ore": 410,
      "Ġnot": 411,
      "Ġus": 412,
      "ystem": 413,
      "pl": 414,
      "ity": 415,
      "Ġle": 416,
      "ĠR": 417,
      "Ġr": 418,
      "ĠD": 419,
      "Ġfun": 420,
      "Ġby": 421,
      "ĠYou": 422,
      "Ġfrom": 423,
      "Ġass": 424,
      "ĠE": 425,
      "Ġcl": 426,
      "Ġal": 427,
      "ìĿ´": 428,
      "Ġwas": 429,
      "Ġ2": 430,
      "ëĭ¤": 431,
      "qu": 432,
      "ies": 433,
      "que": 434,
      "Ġch": 435,
      "ide": 436,
      "urn": 437,
      "Ġat": 438,
      "Ġwe": 439,
      "Ġun": 440,
      "ĠF": 441,
      "ial": 442,
      "Ġwill": 443,
      "Ġret": 444,
      "Ġfunction": 445,
      "Ġ'": 446,
      "Ġfo": 447,
      "Ġha": 448,
      "ure": 449,
      "per": 450,
      "```": 451,
      "iz": 452,
      "The": 453,
      "ëĭĪ": 454,
      "ak": 455,
      "iven": 456,
      "ect": 457,
      "Ġj": 458,
      "llow": 459,
      "ĠU": 460,
      "ans": 461,
      "Ġab": 462,
      "cl": 463,
      "Ġpl": 464,
      "ud": 465,
      "ight": 466,
      "Ġte": 467,
      "put": 468,
      "Ġshould": 469,
      "cess": 470,
      "Ġen": 471,
      "system": 472,
      "Ġsent": 473,
      "ĠL": 474,
      "ëĭĪëĭ¤": 475,
      "ge": 476,
      "ine": 477,
      "Ġtr": 478,
      "Ġprov": 479,
      "Ġ{": 480,
      "ìĹĲ": 481,
      "xt": 482,
      "Ġreturn": 483,
      "all": 484,
      "ĠN": 485,
      "ĠG": 486,
      "Ġassistant": 487,
      "ĠTh": 488,
      "quest": 489,
      "Ġí": 490,
      "ord": 491,
      "ire": 492,
      "ong": 493,
      "Ġar": 494,
      "og": 495,
      "ich": 496,
      "our": 497,
      "ions": 498,
      "eth": 499,
      "ìĦ": 500,
      "able": 501,
      "Ġgiven": 502,
      "ated": 503,
      "ê°": 504,
      "ult": 505,
      "ary": 506,
      "ther": 507,
      "Ġtheir": 508,
      "Ġgo": 509,
      "ĠĊ": 510,
      "ĠìĿ": 511,
      "Ġcont": 512,
      "Ġad": 513,
      "int": 514,
      "Ġfollow": 515,
      "Ġhave": 516,
      "Ġstep": 517,
      "Ġper": 518,
      "St": 519,
      "ìļ": 520,
      "Ġli": 521,
      "ase": 522,
      "Ġyour": 523,
      "ind": 524,
      "Ġspe": 525,
      "Ġres": 526,
      "ard": 527,
      "ru": 528,
      "ice": 529,
      "ink": 530,
      "ack": 531,
      "Ġk": 532,
      "ĠJ": 533,
      "Ġif": 534,
      "port": 535,
      "Ġhis": 536,
      "ìĿĦ": 537,
      "Ġìŀ": 538,
      "ê³": 539,
      "up": 540,
      "ast": 541,
      "ĠAI": 542,
      "íķĺ": 543,
      "act": 544,
      "ì§": 545,
      "ub": 546,
      "op": 547,
      "plement": 548,
      "Ġwhe": 549,
      "gh": 550,
      "ë¡": 551,
      "ethod": 552,
      "ome": 553,
      "ĠO": 554,
      "ata": 555,
      "Ġquest": 556,
      "ound": 557,
      "Ġclass": 558,
      "Ġsentence": 559,
      "00": 560,
      "ally": 561,
      "ber": 562,
      "oo": 563,
      "Ġint": 564,
      "rit": 565,
      "Ġdet": 566,
      "Ġdo": 567,
      "Ġout": 568,
      "ring": 569,
      "Ġmethod": 570,
      "ount": 571,
      "Ġwhich": 572,
      "ear": 573,
      "ĠIn": 574,
      "ener": 575,
      "ates": 576,
      "der": 577,
      "Ġwho": 578,
      "ff": 579,
      "Ġac": 580,
      "Ġhas": 581,
      "In": 582,
      "ime": 583,
      "()": 584,
      "ach": 585,
      "ap": 586,
      "ance": 587,
      "ish": 588,
      "ë¡ľ": 589,
      "Ġspec": 590,
      "Ġme": 591,
      "ìł": 592,
      "ë¥": 593,
      "ìŀ": 594,
      "Ġlike": 595,
      "Ġabout": 596,
      "ous": 597,
      ".\"": 598,
      "Ġmo": 599,
      "are": 600,
      "one": 601,
      "Ġthey": 602,
      "ble": 603,
      "Ġimplement": 604,
      "ê°Ģ": 605,
      "ations": 606,
      "âĢ": 607,
      "con": 608,
      "av": 609,
      "Ġquestion": 610,
      "ace": 611,
      "ough": 612,
      "Ġfollowing": 613,
      "ìĿĺ": 614,
      "ory": 615,
      "ify": 616,
      "ific": 617,
      "ject": 618,
      "Ġpre": 619,
      "fer": 620,
      "ĠWh": 621,
      "ased": 622,
      "ê¸": 623,
      "ìĬ": 624,
      "vie": 625,
      "ork": 626,
      "ĊĊ": 627,
      "ìľ": 628,
      "formation": 629,
      "ser": 630,
      "ces": 631,
      "ating": 632,
      "ode": 633,
      "lic": 634,
      "du": 635,
      "ull": 636,
      "ition": 637,
      "ìĦľ": 638,
      "Ġman": 639,
      "ign": 640,
      "Ġsc": 641,
      "Ġprovid": 642,
      "ìĿĢ": 643,
      "les": 644,
      "ang": 645,
      "Ġ}": 646,
      "ake": 647,
      "lp": 648,
      "Ġinformation": 649,
      "Ġval": 650,
      "Ġcre": 651,
      "ress": 652,
      "Ġother": 653,
      "Ġcomple": 654,
      "ip": 655,
      "Step": 656,
      "Ġhelp": 657,
      "ays": 658,
      "Ġapp": 659,
      "Ġdis": 660,
      "Ġpos": 661,
      "ents": 662,
      "Ġ3": 663,
      "led": 664,
      "ì§Ģ": 665,
      "Ġdef": 666,
      "ia": 667,
      "ath": 668,
      "ĠThis": 669,
      "´ë": 670,
      "ck": 671,
      "Ġgener": 672,
      "rib": 673,
      "ail": 674,
      "Ġpar": 675,
      "ne": 676,
      "ict": 677,
      "Ġdes": 678,
      "Ġher": 679,
      "Ġup": 680,
      "ical": 681,
      "ry": 682,
      "Ġbut": 683,
      "ise": 684,
      "ĠYour": 685,
      "pon": 686,
      "iled": 687,
      "own": 688,
      "yth": 689,
      "Ġtw": 690,
      "Ġperform": 691,
      "irst": 692,
      "Ġnew": 693,
      "Ġso": 694,
      "so": 695,
      "ere": 696,
      "ĠIt": 697,
      "Ġind": 698,
      "Ġpe": 699,
      "Ġyear": 700,
      "Ġev": 701,
      "Ġjust": 702,
      "):": 703,
      "ìĸ": 704,
      "ari": 705,
      "ments": 706,
      "íķľ": 707,
      "ailed": 708,
      "Ġneed": 709,
      "sel": 710,
      "get": 711,
      "hes": 712,
      "clud": 713,
      "erm": 714,
      "Ġro": 715,
      "Ġpart": 716,
      "ê¸°": 717,
      "ĠSt": 718,
      "ook": 719,
      ").": 720,
      "ĠìŀĪ": 721,
      "//": 722,
      "Ġmore": 723,
      "ë¥¼": 724,
      "Ġadd": 725,
      "Ġsa": 726,
      "ople": 727,
      "ied": 728,
      "ef": 729,
      "ë¦": 730,
      "Ġits": 731,
      "ĠK": 732,
      "ption": 733,
      "Ġnum": 734,
      "Ġco": 735,
      "bject": 736,
      "yp": 737,
      "Ġpr": 738,
      "Ġê²": 739,
      "Ġcomm": 740,
      "ëı": 741,
      "Ġcomplete": 742,
      "',": 743,
      "ens": 744,
      "Ġfile": 745,
      "Ġtrans": 746,
      "com": 747,
      "by": 748,
      "ython": 749,
      "Ġinto": 750,
      "si": 751,
      "Ĥĺ": 752,
      "ph": 753,
      "Ġfe": 754,
      "Ġexpl": 755,
      "Ġinput": 756,
      "Ġ19": 757,
      "Ġlong": 758,
      "lo": 759,
      "Ġfirst": 760,
      "Ġall": 761,
      "self": 762,
      "Ġpo": 763,
      "ater": 764,
      "Ġpeople": 765,
      "gr": 766,
      "Ġê°": 767,
      "Ġthink": 768,
      "ê³ł": 769,
      "elf": 770,
      "vers": 771,
      "Ġgr": 772,
      "view": 773,
      "Ġem": 774,
      "ë©": 775,
      "key": 776,
      "Ġlist": 777,
      "ful": 778,
      "est": 779,
      "Ġprovided": 780,
      "Ġwould": 781,
      "ors": 782,
      "ìĬµ": 783,
      "Ġone": 784,
      "Ġprocess": 785,
      "Ġrep": 786,
      "Ġser": 787,
      "\",": 788,
      "aus": 789,
      "Ġtime": 790,
      "ully": 791,
      "Ġcomp": 792,
      "Ġë°": 793,
      "Ġdata": 794,
      "vel": 795,
      "Ġìķ": 796,
      "Ġsp": 797,
      "Ġalso": 798,
      "Ġself": 799,
      "ê²": 800,
      "ìĬµëĭĪëĭ¤": 801,
      "Ĥ¬": 802,
      "ype": 803,
      "ìľ¼": 804,
      "ild": 805,
      "Ġdetailed": 806,
      "Ġusing": 807,
      "ution": 808,
      "Ġform": 809,
      "Ġunder": 810,
      "we": 811,
      "Ġinter": 812,
      "ize": 813,
      "Ġset": 814,
      "Ġìł": 815,
      "Ġtwo": 816,
      "Ġcor": 817,
      "ĠWhile": 818,
      "Ġthem": 819,
      "Īĺ": 820,
      "ìĭ": 821,
      "ìķ": 822,
      "fully": 823,
      "ative": 824,
      "Ġsteps": 825,
      "ng": 826,
      "Ġover": 827,
      "Ġgoal": 828,
      "resent": 829,
      "fter": 830,
      "Ġwork": 831,
      "oth": 832,
      "ex": 833,
      "Ġ#": 834,
      "Ġcal": 835,
      "ublic": 836,
      "Ġany": 837,
      "ruct": 838,
      "Ġno": 839,
      "Ġatt": 840,
      "Ġmod": 841,
      "Ġmust": 842,
      "Ġgive": 843,
      "Ġprovide": 844,
      "ëıĦ": 845,
      "ick": 846,
      "ĠìĿ´": 847,
      "Ġsome": 848,
      "ĠV": 849,
      "Ġthese": 850,
      "'t": 851,
      "cre": 852,
      "Ġeach": 853,
      "Ŀ¼": 854,
      "ample": 855,
      "Ġbased": 856,
      "text": 857,
      "Ġbet": 858,
      ");": 859,
      "ĠCh": 860,
      "ian": 861,
      "Ġfa": 862,
      "Ġë§": 863,
      "akes": 864,
      "ings": 865,
      "Ġuser": 866,
      "ë¦¬": 867,
      "Ġgenerate": 868,
      "Ġrel": 869,
      "Ġwere": 870,
      "ĠAn": 871,
      "ose": 872,
      "Ġ4": 873,
      "ss": 874,
      "val": 875,
      "Ġwhen": 876,
      "step": 877,
      "Ġ//": 878,
      "ual": 879,
      "Ġsol": 880,
      "Ġdif": 881,
      "Ġhand": 882,
      "Ġplay": 883,
      "ite": 884,
      "Ġstate": 885,
      "ree": 886,
      "tic": 887,
      "Ġkn": 888,
      "Ġhad": 889,
      "ìļĶ": 890,
      "ec": 891,
      "Ġdoes": 892,
      "irect": 893,
      "Ġ[": 894,
      "ëĿ¼": 895,
      "Ġbec": 896,
      "Ġinclud": 897,
      "uring": 898,
      "row": 899,
      "ìĸ´": 900,
      "ni": 901,
      "Your": 902,
      "ĠIf": 903,
      "Ġfind": 904,
      "pect": 905,
      "Ġph": 906,
      "ract": 907,
      "Ġacc": 908,
      "ìĹĲìĦľ": 909,
      "ove": 910,
      "Ġname": 911,
      "Ġinst": 912,
      "Ġreview": 913,
      "ified": 914,
      "),": 915,
      "ĠÐ": 916,
      "Ġ5": 917,
      "rough": 918,
      "rite": 919,
      "ìĿ¸": 920,
      "Ġthere": 921,
      "Ġcons": 922,
      "Ġshe": 923,
      "©ëĭĪëĭ¤": 924,
      "Ġact": 925,
      "ror": 926,
      "__": 927,
      "Ġext": 928,
      "ues": 929,
      "Ġcode": 930,
      "Ġ.": 931,
      "Ġag": 932,
      "urr": 933,
      "Ġspecific": 934,
      "ëĵ": 935,
      "Ġ0": 936,
      "ĠUser": 937,
      "Ġget": 938,
      "Ġfaith": 939,
      "name": 940,
      "íķ´": 941,
      "Ġqu": 942,
      "ident": 943,
      "ause": 944,
      "very": 945,
      "Ġjustify": 946,
      "erson": 947,
      "Ġold": 948,
      "ëĤĺ": 949,
      "ark": 950,
      "âĢĻ": 951,
      "Ġkey": 952,
      "oy": 953,
      "Ġele": 954,
      "stand": 955,
      "Ġfaithfully": 956,
      "Ġvari": 957,
      "Ġtra": 958,
      "pro": 959,
      "Ġprodu": 960,
      "ock": 961,
      "Ġword": 962,
      "ìľ¼ë¡ľ": 963,
      "Ġ+": 964,
      "ë¬": 965,
      "Ġrem": 966,
      "enc": 967,
      "Ġam": 968,
      "Ġnumber": 969,
      "ëĲ": 970,
      "ë§": 971,
      "arch": 972,
      "ient": 973,
      "Ġtext": 974,
      "Ġperforming": 975,
      "Ġoff": 976,
      "Ġcol": 977,
      "Ġwhere": 978,
      "Ġthen": 979,
      "hen": 980,
      "Ġstring": 981,
      "Ġbeen": 982,
      "Ġimport": 983,
      "ange": 984,
      "Ġent": 985,
      "Ġanswering": 986,
      "Ġrec": 987,
      "An": 988,
      "Ġstr": 989,
      "Ġdiffer": 990,
      "ting": 991,
      "Ġsuch": 992,
      "old": 993,
      "ield": 994,
      "Ġsim": 995,
      "iss": 996,
      "ptions": 997,
      "ĮĢ": 998,
      "Ð¾": 999,
      "ences": 1000,
      "Ġ20": 1001,
      "Ġdesc": 1002,
      "Ġëĭ": 1003,
      "rect": 1004,
      "ĠìĪĺ": 1005,
      "tain": 1006,
      "Ġchar": 1007,
      "Ġfil": 1008,
      "ways": 1009,
      "ft": 1010,
      "inal": 1011,
      "ities": 1012,
      "Ġpass": 1013,
      "Ġ$": 1014,
      "ost": 1015,
      "itive": 1016,
      "ĠHe": 1017,
      "python": 1018,
      "ob": 1019,
      "Ġmay": 1020,
      "ved": 1021,
      "Ġhow": 1022,
      "Ġafter": 1023,
      "Ġsaid": 1024,
      "ade": 1025,
      "lish": 1026,
      "Ġvalue": 1027,
      "sible": 1028,
      "ning": 1029,
      "Ġresult": 1030,
      "ĠìĹ": 1031,
      "Ġcount": 1032,
      "essage": 1033,
      "Ġthrough": 1034,
      "Ġmain": 1035,
      "Ġfive": 1036,
      "Ġthan": 1037,
      "Ġcould": 1038,
      "Ġcontain": 1039,
      "Ġlet": 1040,
      "Ġwhat": 1041,
      "ìĥ": 1042,
      "Ġuse": 1043,
      "ax": 1044,
      "Ġalways": 1045,
      "ĠìĤ¬": 1046,
      "Ġra": 1047,
      "cul": 1048,
      "Ġobject": 1049,
      "aking": 1050,
      "Ġused": 1051,
      "Ġboth": 1052,
      "Ġsign": 1053,
      "ĠĊĠĊ": 1054,
      "Ġreg": 1055,
      "ween": 1056,
      "ribut": 1057,
      "Ġtransl": 1058,
      "atch": 1059,
      "ures": 1060,
      "Ġwhile": 1061,
      "othes": 1062,
      "ential": 1063,
      "ctions": 1064,
      "ving": 1065,
      "..": 1066,
      "Ġrepresent": 1067,
      "ê²Į": 1068,
      "Ġtasked": 1069,
      "Ġreturns": 1070,
      "Ġperson": 1071,
      "ves": 1072,
      "::": 1073,
      "Ðµ": 1074,
      "Ġbu": 1075,
      "Ġbetween": 1076,
      "Ġtakes": 1077,
      "Ġë¬": 1078,
      "Ġê²ĥ": 1079,
      "Ġloc": 1080,
      ",\"": 1081,
      "fore": 1082,
      "Ġdirect": 1083,
      "Ġunderstand": 1084,
      "eng": 1085,
      "hed": 1086,
      "ason": 1087,
      "ìļ©": 1088,
      "Ġ<": 1089,
      "ë©´": 1090,
      "Ġel": 1091,
      "anation": 1092,
      "dd": 1093,
      "Con": 1094,
      "Ġcontext": 1095,
      "Ġmake": 1096,
      "Ġconf": 1097,
      "Ġrequ": 1098,
      "ustom": 1099,
      "ature": 1100,
      "Ġcorrect": 1101,
      "Ġche": 1102,
      "Ġê³": 1103,
      "(\"": 1104,
      "ypothes": 1105,
      "Ġpublic": 1106,
      "Ġmost": 1107,
      "ention": 1108,
      "Ġìĭ": 1109,
      "mer": 1110,
      "sh": 1111,
      "ypothesis": 1112,
      "ĠUn": 1113,
      "Ġsystem": 1114,
      "ily": 1115,
      "ë¶": 1116,
      "ê³¼": 1117,
      "oup": 1118,
      "Wh": 1119,
      "ys": 1120,
      "ages": 1121,
      "ĠìĦ": 1122,
      "ok": 1123,
      "Ġexper": 1124,
      "ĠEng": 1125,
      "ript": 1126,
      "io": 1127,
      "def": 1128,
      "Ġdec": 1129,
      "mise": 1130,
      "ility": 1131,
      "ger": 1132,
      "Ġbeing": 1133,
      "ider": 1134,
      "ines": 1135,
      "Ġhim": 1136,
      "orld": 1137,
      "ëł": 1138,
      "Ġconst": 1139,
      "riend": 1140,
      "Ġeff": 1141,
      "ited": 1142,
      "lect": 1143,
      "Ġla": 1144,
      "ìŀħ": 1145,
      "Ġfl": 1146,
      "pport": 1147,
      "Ġlog": 1148,
      "ëŀ": 1149,
      "Ġexplanation": 1150,
      "Ġbecause": 1151,
      "cc": 1152,
      "Ġstart": 1153,
      "Ġwell": 1154,
      "ĠThink": 1155,
      "str": 1156,
      "ames": 1157,
      "Ð°": 1158,
      "ious": 1159,
      "Ġ,": 1160,
      "ray": 1161,
      "ices": 1162,
      "Ġ*": 1163,
      "ìĻ": 1164,
      "ticle": 1165,
      "ppet": 1166,
      "Ġer": 1167,
      "Ġbl": 1168,
      "Ġsub": 1169,
      "ĠPro": 1170,
      "gram": 1171,
      "vice": 1172,
      "ool": 1173,
      "ower": 1174,
      "ĠCon": 1175,
      "ife": 1176,
      "Ġsolution": 1177,
      "nippet": 1178,
      "Ġfound": 1179,
      "cond": 1180,
      "Ġsame": 1181,
      "Ġë¶": 1182,
      "Ġìĥ": 1183,
      "Ġìľ": 1184,
      "angu": 1185,
      "êµ": 1186,
      "side": 1187,
      "ience": 1188,
      "`:": 1189,
      "ular": 1190,
      "file": 1191,
      "íķ©ëĭĪëĭ¤": 1192,
      "Ġonly": 1193,
      "Ġback": 1194,
      "Ġhelpful": 1195,
      "Ġrequire": 1196,
      "Ġdifferent": 1197,
      "app": 1198,
      "Th": 1199,
      "Ġexp": 1200,
      "Ġinv": 1201,
      "urrent": 1202,
      "Ġend": 1203,
      "Ã©": 1204,
      "Ġê·": 1205,
      "Ġrespon": 1206,
      "wn": 1207,
      "rop": 1208,
      "ell": 1209,
      "ty": 1210,
      "ë°": 1211,
      "ib": 1212,
      "Ġimplementation": 1213,
      "day": 1214,
      "ew": 1215,
      "ren": 1216,
      "Ġsm": 1217,
      "Ġproper": 1218,
      "Ġlead": 1219,
      "ĠY": 1220,
      "Ġsnippet": 1221,
      "ever": 1222,
      "its": 1223,
      "Ġì§": 1224,
      "Ġpol": 1225,
      "Ġìĺ": 1226,
      "ìŀħëĭĪëĭ¤": 1227,
      "Ġë³": 1228,
      "ĠRe": 1229,
      "Ġhigh": 1230,
      "ases": 1231,
      "Ġspecified": 1232,
      "Ð¸": 1233,
      "Ġduring": 1234,
      "other": 1235,
      "ķĮ": 1236,
      "read": 1237,
      "Ġtype": 1238,
      "ash": 1239,
      "amet": 1240,
      "à¤": 1241,
      "ward": 1242,
      "Ġìĸ": 1243,
      "Ã¤": 1244,
      "ts": 1245,
      "Ġpositive": 1246,
      "ars": 1247,
      "íķĺëĬĶ": 1248,
      "Ġhypothesis": 1249,
      "ĠìŀĪìĬµëĭĪëĭ¤": 1250,
      "ational": 1251,
      "to": 1252,
      "Ġpoint": 1253,
      "raph": 1254,
      "ÑĤ": 1255,
      "Ġens": 1256,
      "iction": 1257,
      "gan": 1258,
      "Ġfam": 1259,
      "ix": 1260,
      "red": 1261,
      "Ġap": 1262,
      "Ġknow": 1263,
      "ier": 1264,
      "Ġoper": 1265,
      "Ġlangu": 1266,
      "Ġcreate": 1267,
      "Ġdon": 1268,
      "itial": 1269,
      "Ġdescrib": 1270,
      "Ġprogram": 1271,
      "ten": 1272,
      "Ġstruct": 1273,
      "ĠâĢ": 1274,
      "Ġê°Ģ": 1275,
      "Ġdown": 1276,
      "alk": 1277,
      "co": 1278,
      "ìłģ": 1279,
      "Ġcharact": 1280,
      "ics": 1281,
      "class": 1282,
      "Ġmean": 1283,
      "ense": 1284,
      "rans": 1285,
      "ug": 1286,
      "ĠEnglish": 1287,
      "reat": 1288,
      "`.": 1289,
      "Ġdid": 1290,
      "ek": 1291,
      "Ġneg": 1292,
      "ĠëķĮ": 1293,
      "`,": 1294,
      "itle": 1295,
      "Ġëĵ": 1296,
      "\":": 1297,
      "Ġimp": 1298,
      "ze": 1299,
      "Ġread": 1300,
      "Ġpremise": 1301,
      "anc": 1302,
      "Ġcalled": 1303,
      "ator": 1304,
      "ëĵ¤": 1305,
      "Ġaut": 1306,
      "ern": 1307,
      "gest": 1308,
      "ank": 1309,
      "Answer": 1310,
      "ĠHow": 1311,
      "£¼": 1312,
      "Ġwithin": 1313,
      "Ġshow": 1314,
      "Ġplace": 1315,
      "ron": 1316,
      "Ġmy": 1317,
      "ather": 1318,
      "íĻ": 1319,
      "iew": 1320,
      "\".": 1321,
      "Ġmem": 1322,
      "als": 1323,
      "Ġmight": 1324,
      "yn": 1325,
      "ted": 1326,
      "Ġtest": 1327,
      "pr": 1328,
      "To": 1329,
      "ized": 1330,
      "Ġ201": 1331,
      "\")": 1332,
      "Ġmessage": 1333,
      "Ġdep": 1334,
      "Ġê¸": 1335,
      "Ġgu": 1336,
      "ale": 1337,
      "Ġ6": 1338,
      "Ġcar": 1339,
      "ccess": 1340,
      "Ġarticle": 1341,
      "ined": 1342,
      "Ġproduct": 1343,
      "Ġ200": 1344,
      "Ġwant": 1345,
      "data": 1346,
      "ince": 1347,
      "Ġwater": 1348,
      "land": 1349,
      "ĠCom": 1350,
      "ĠThey": 1351,
      "ality": 1352,
      "Ġfilm": 1353,
      "Que": 1354,
      "Ġtrue": 1355,
      "Ġcase": 1356,
      "Ġ->": 1357,
      "Ġpossible": 1358,
      "Ġsum": 1359,
      "ìĻĢ": 1360,
      "Ġparamet": 1361,
      "Ġwords": 1362,
      "Write": 1363,
      "import": 1364,
      "ìĭľ": 1365,
      "Ġcustom": 1366,
      "Ġsecond": 1367,
      "tern": 1368,
      "ins": 1369,
      "Ġpot": 1370,
      "Ġfriend": 1371,
      "ood": 1372,
      "Ġlanguage": 1373,
      "Ġfact": 1374,
      "hip": 1375,
      "ë³": 1376,
      "Ġmovie": 1377,
      "Ð½": 1378,
      "Ġimplementing": 1379,
      "Ex": 1380,
      "ëĲĺ": 1381,
      "Ġstud": 1382,
      "ëŁ": 1383,
      "Ġmus": 1384,
      "br": 1385,
      "Ġrele": 1386,
      "par": 1387,
      "any": 1388,
      "Ġcle": 1389,
      "Ġtake": 1390,
      "Ġnegative": 1391,
      "Ġi": 1392,
      "':": 1393,
      "vent": 1394,
      "ner": 1395,
      "Ġfield": 1396,
      "iment": 1397,
      "amp": 1398,
      "tle": 1399,
      "Ġstatement": 1400,
      "Ġgroup": 1401,
      "Ġê·¸": 1402,
      "ton": 1403,
      "Ġcurrent": 1404,
      "Ġequ": 1405,
      "Ġoutput": 1406,
      "uch": 1407,
      "Ġsearch": 1408,
      "Ġmany": 1409,
      "Ġëª": 1410,
      "Ġsupport": 1411,
      "ule": 1412,
      "Ġbel": 1413,
      "sc": 1414,
      "ìŀĲ": 1415,
      "cept": 1416,
      "Ġop": 1417,
      "oci": 1418,
      "Ġmin": 1419,
      "ĠëĮĢ": 1420,
      "Ġyears": 1421,
      "Ġprint": 1422,
      "ĠPython": 1423,
      "--": 1424,
      "Ġask": 1425,
      "Ġmade": 1426,
      "ermine": 1427,
      "Ġmethods": 1428,
      "What": 1429,
      "Ġsit": 1430,
      "ë©°": 1431,
      "Ñģ": 1432,
      "oint": 1433,
      "ision": 1434,
      "air": 1435,
      "Ġpri": 1436,
      "path": 1437,
      "Ġdist": 1438,
      "ë§Į": 1439,
      "Ġmodel": 1440,
      "Ġbefore": 1441,
      "ists": 1442,
      "ivid": 1443,
      "Ġexample": 1444,
      "bers": 1445,
      "ĠAl": 1446,
      "Ġcare": 1447,
      "ager": 1448,
      "Ġindic": 1449,
      "ìķĦ": 1450,
      "Ġconsider": 1451,
      "ĠAdd": 1452,
      "ÑĢ": 1453,
      "olog": 1454,
      "ĨĮ": 1455,
      "('": 1456,
      "ìĬ¤": 1457,
      "Ġsay": 1458,
      "play": 1459,
      "ì¹": 1460,
      "Ġtell": 1461,
      "Ġmention": 1462,
      "aly": 1463,
      "rie": 1464,
      "set": 1465,
      "ouse": 1466,
      "íĥ": 1467,
      "word": 1468,
      "ĠìĿ´ë": 1469,
      "Ġlook": 1470,
      "Ġpop": 1471,
      "meric": 1472,
      "Ġagain": 1473,
      "Ä±": 1474,
      "Ġcreating": 1475,
      "line": 1476,
      "Ġmult": 1477,
      "íķł": 1478,
      "ìļ°": 1479,
      "oid": 1480,
      "ĠAr": 1481,
      "date": 1482,
      "ì²": 1483,
      "Ġchild": 1484,
      "This": 1485,
      "Ġcho": 1486,
      "atic": 1487,
      "son": 1488,
      "Ġinitial": 1489,
      "Ġvarious": 1490,
      "Ġlife": 1491,
      "work": 1492,
      "not": 1493,
      "clus": 1494,
      "Ġworld": 1495,
      "iron": 1496,
      "Ġêµ": 1497,
      "Ġcheck": 1498,
      "Ġtyp": 1499,
      "gu": 1500,
      "ism": 1501,
      "ource": 1502,
      "Ġcalcul": 1503,
      "erg": 1504,
      "Ġsuccess": 1505,
      "ural": 1506,
      "tal": 1507,
      "ateg": 1508,
      "ems": 1509,
      "arm": 1510,
      "blem": 1511,
      "Ġfood": 1512,
      "ails": 1513,
      "Ġinte": 1514,
      "Ġeven": 1515,
      "Ð¾Ð": 1516,
      "ness": 1517,
      "ë¬¸": 1518,
      "Ġsk": 1519,
      "Ġincre": 1520,
      "ĠAs": 1521,
      "ìĺ": 1522,
      "Ġorig": 1523,
      "Ġevent": 1524,
      "Ġsur": 1525,
      "Ġë¹": 1526,
      "me": 1527,
      "ĠEx": 1528,
      "Ġcommand": 1529,
      "Ġbre": 1530,
      "Ġpotential": 1531,
      "ives": 1532,
      "ately": 1533,
      "ced": 1534,
      "Ġav": 1535,
      "Quest": 1536,
      "Ġbook": 1537,
      "Ġgood": 1538,
      "Ġinvol": 1539,
      "Ġëĭ¤": 1540,
      "Ġ10": 1541,
      "Ġallow": 1542,
      "tt": 1543,
      "ĠëĲ": 1544,
      "alth": 1545,
      "Ġreason": 1546,
      "ody": 1547,
      "ah": 1548,
      "ually": 1549,
      "ê¹": 1550,
      "orn": 1551,
      "Ġinf": 1552,
      "Ġdiction": 1553,
      "Re": 1554,
      "ave": 1555,
      "Ġref": 1556,
      "Question": 1557,
      "ĠAmeric": 1558,
      "Ġelse": 1559,
      "Ġnecess": 1560,
      "Ġoptions": 1561,
      "gs": 1562,
      "uc": 1563,
      "Ġterm": 1564,
      "velop": 1565,
      "íĺ": 1566,
      "Ġdem": 1567,
      "Ġteam": 1568,
      "Ġrun": 1569,
      "way": 1570,
      "ric": 1571,
      "Ġour": 1572,
      "man": 1573,
      "ĠìĤ¬ìļ©": 1574,
      "Ġfeel": 1575,
      "ency": 1576,
      "Ġ7": 1577,
      "¤ĳ": 1578,
      "Ġvalid": 1579,
      "oman": 1580,
      "Ġhapp": 1581,
      "Ġmuch": 1582,
      "ĠØ": 1583,
      "Ġrepresenting": 1584,
      "Ġob": 1585,
      "Ġway": 1586,
      "Ġright": 1587,
      "Ġgame": 1588,
      "ization": 1589,
      "ling": 1590,
      "ĠëĤ": 1591,
      "Ġident": 1592,
      "dent": 1593,
      "ement": 1594,
      "ants": 1595,
      "ared": 1596,
      "')": 1597,
      "ets": 1598,
      "Ġ==": 1599,
      "Ġvis": 1600,
      "Ġoutside": 1601,
      "ven": 1602,
      "ëį": 1603,
      "ìŀ¥": 1604,
      "the": 1605,
      "Ġtop": 1606,
      "viron": 1607,
      "Ġscript": 1608,
      "Ġ8": 1609,
      "ë²": 1610,
      "Ġhandle": 1611,
      "Ġtotal": 1612,
      "Ġìļ": 1613,
      "ert": 1614,
      "ength": 1615,
      "¯¸": 1616,
      "Ġday": 1617,
      "Ġfamily": 1618,
      "Ġsug": 1619,
      "ital": 1620,
      "ìĤ¬": 1621,
      "Ġmon": 1622,
      "Ġuni": 1623,
      "Ġformat": 1624,
      "Ġvery": 1625,
      "oh": 1626,
      "ining": 1627,
      "utput": 1628,
      "Ġest": 1629,
      "ream": 1630,
      "Ġcent": 1631,
      "Ġlast": 1632,
      "Ġhum": 1633,
      "ĠëĶ": 1634,
      "li": 1635,
      "lease": 1636,
      "version": 1637,
      "Ġproblem": 1638,
      "ĠHowever": 1639,
      "Pro": 1640,
      "Ġdat": 1641,
      "Ġbest": 1642,
      "Ġeffect": 1643,
      "Ġlar": 1644,
      "uation": 1645,
      "Ġwrit": 1646,
      "Ġcontin": 1647,
      "ìĦ±": 1648,
      "add": 1649,
      "Ġocc": 1650,
      "ute": 1651,
      "Ġê²½": 1652,
      "Ġdictionary": 1653,
      "Ġpartic": 1654,
      "Ġíķĺ": 1655,
      "ìĥģ": 1656,
      "string": 1657,
      "ĠIm": 1658,
      "Ġpath": 1659,
      "Ġhelps": 1660,
      "pos": 1661,
      "Ġê¸°": 1662,
      "Ġì°": 1663,
      "Ġappe": 1664,
      "ond": 1665,
      "ception": 1666,
      "Ġaround": 1667,
      "light": 1668,
      "Ġvalues": 1669,
      "imes": 1670,
      "chool": 1671,
      "ĠÃ": 1672,
      "here": 1673,
      "Ġëı": 1674,
      "ransl": 1675,
      "Ġstructure": 1676,
      "ĠWhat": 1677,
      "ĠNew": 1678,
      "Ġlo": 1679,
      "arn": 1680,
      "Ġcr": 1681,
      "ording": 1682,
      "Ġpres": 1683,
      "Ġexplain": 1684,
      "Ġincluding": 1685,
      "ĠìĿ¼": 1686,
      "atus": 1687,
      "Ġsubject": 1688,
      "hor": 1689,
      "ìľł": 1690,
      "Ġmed": 1691,
      "ìĽ": 1692,
      "alse": 1693,
      "Ġorder": 1694,
      "ìłķ": 1695,
      "ox": 1696,
      "Ġmet": 1697,
      "ĠWe": 1698,
      "Ġphr": 1699,
      "Ġown": 1700,
      "Ġì§Ģ": 1701,
      "Ġëĵ±": 1702,
      "Ġbeh": 1703,
      "de": 1704,
      "Ġsignific": 1705,
      "Ġmat": 1706,
      "rror": 1707,
      "Ġindivid": 1708,
      "Ġerror": 1709,
      "Ġimportant": 1710,
      "clusion": 1711,
      "ym": 1712,
      "Ġstore": 1713,
      "Ġrest": 1714,
      "Ġarray": 1715,
      "ĠIdent": 1716,
      "Ġdevelop": 1717,
      "Ġmulti": 1718,
      "comm": 1719,
      "clude": 1720,
      "Ġstory": 1721,
      "ession": 1722,
      "ances": 1723,
      "000": 1724,
      "Ġed": 1725,
      "min": 1726,
      "Ġextract": 1727,
      "Ġnext": 1728,
      "ĠThere": 1729,
      "amed": 1730,
      "ê¹Į": 1731,
      "Ġnecessary": 1732,
      "aut": 1733,
      "ĠSp": 1734,
      "Ġsom": 1735,
      "itions": 1736,
      "vironment": 1737,
      "Ġmaking": 1738,
      "Ġknown": 1739,
      "ãģ": 1740,
      "entence": 1741,
      "Ġíĺ": 1742,
      "Ġpur": 1743,
      "Ġmeaning": 1744,
      "Ġexperience": 1745,
      "az": 1746,
      "10": 1747,
      "ically": 1748,
      "from": 1749,
      "ann": 1750,
      "ery": 1751,
      "Ġindividual": 1752,
      "Ġthree": 1753,
      "vern": 1754,
      "itional": 1755,
      "ìĿ¼": 1756,
      "Ġimage": 1757,
      "Ġcontent": 1758,
      "Ġsentiment": 1759,
      "ĠIdentify": 1760,
      "Ġgrow": 1761,
      "Ġà": 1762,
      "Ġcond": 1763,
      "Ġapplic": 1764,
      "apt": 1765,
      "Ġrequest": 1766,
      "Ġsing": 1767,
      "Ġoption": 1768,
      "Ġver": 1769,
      "Ġevery": 1770,
      "Ġensure": 1771,
      "Ch": 1772,
      "Ġdisc": 1773,
      "Ġhome": 1774,
      "au": 1775,
      "ON": 1776,
      "Ġbuild": 1777,
      "ropri": 1778,
      "Ġve": 1779,
      "20": 1780,
      "Ġcall": 1781,
      "Ġlit": 1782,
      "Ġfr": 1783,
      "Ġexec": 1784,
      "uration": 1785,
      "Ġdi": 1786,
      "Ġ18": 1787,
      "face": 1788,
      "±°": 1789,
      "ĠìŀĲ": 1790,
      "iness": 1791,
      "Ġorgan": 1792,
      "oose": 1793,
      "Ġhere": 1794,
      "Ġretrie": 1795,
      "Ġexpress": 1796,
      "Ġíķ": 1797,
      "vate": 1798,
      "uss": 1799,
      "rue": 1800,
      "Ġsuggest": 1801,
      "¡°": 1802,
      "Ġtem": 1803,
      "ĠLe": 1804,
      "Ġmeans": 1805,
      "It": 1806,
      "Ġaction": 1807,
      "ĠUnited": 1808,
      "))": 1809,
      "ë¶Ģ": 1810,
      "cial": 1811,
      "Ġthose": 1812,
      "action": 1813,
      "Ġconc": 1814,
      "Ġcity": 1815,
      "ĠëĶ°": 1816,
      "Ġair": 1817,
      "Ġview": 1818,
      "ries": 1819,
      "vide": 1820,
      "],": 1821,
      "Ġcharacter": 1822,
      "Äĥ": 1823,
      "aces": 1824,
      "ĠSo": 1825,
      "sp": 1826,
      "Ġtry": 1827,
      "Ġless": 1828,
      "Com": 1829,
      "íĸ": 1830,
      "ìĪĺ": 1831,
      "íĻĶ": 1832,
      "Ġnow": 1833,
      "ler": 1834,
      "ëª": 1835,
      "Ġz": 1836,
      "Ġsmall": 1837,
      "Ġarea": 1838,
      "ination": 1839,
      "Ġfin": 1840,
      "ext": 1841,
      "Ġwhether": 1842,
      "Ġsentences": 1843,
      "Ġhist": 1844,
      "Ġcommun": 1845,
      "ĠëĤĺ": 1846,
      "Ġdel": 1847,
      "ĠìłĦ": 1848,
      "Ġopen": 1849,
      "Ġattribut": 1850,
      "uro": 1851,
      "Ġappropri": 1852,
      "Ġì¤ĳ": 1853,
      "Ġmusic": 1854,
      "Ġ9": 1855,
      "Ġcap": 1856,
      "Error": 1857,
      "Ġinc": 1858,
      "Ġwithout": 1859,
      "ape": 1860,
      "Ġanother": 1861,
      "ding": 1862,
      "ired": 1863,
      "arly": 1864,
      "Ġbir": 1865,
      "ocus": 1866,
      "Ġconfig": 1867,
      "ieve": 1868,
      "Ġmark": 1869,
      "Ġoriginal": 1870,
      "Ġsee": 1871,
      "Ġprovides": 1872,
      "ĠFor": 1873,
      "Ġsever": 1874,
      "Ġline": 1875,
      "ĠìķĦ": 1876,
      "Ġiss": 1877,
      "Ġlevel": 1878,
      "Ġresponse": 1879,
      "Ġenc": 1880,
      "ister": 1881,
      "Ġenvironment": 1882,
      "Ġsignificant": 1883,
      "Ġgre": 1884,
      "ending": 1885,
      "ĠìľĦ": 1886,
      "Ġcontro": 1887,
      "ball": 1888,
      "raw": 1889,
      "Ġpat": 1890,
      "value": 1891,
      "Ġë¬´": 1892,
      "esc": 1893,
      "Ġstand": 1894,
      "urther": 1895,
      "Ġinclude": 1896,
      "Ġparameters": 1897,
      "abel": 1898,
      "Ġthough": 1899,
      "fig": 1900,
      "ertain": 1901,
      "Ġart": 1902,
      "();": 1903,
      "Ġabove": 1904,
      "respon": 1905,
      "time": 1906,
      "ĠìķĬ": 1907,
      "Ġeng": 1908,
      "orth": 1909,
      "less": 1910,
      "ì£¼": 1911,
      "Ġhealth": 1912,
      "ìłľ": 1913,
      "Ġremain": 1914,
      "ĠDe": 1915,
      "Ġhead": 1916,
      "num": 1917,
      "ìłĦ": 1918,
      "Ġpresent": 1919,
      "aj": 1920,
      "Ġelements": 1921,
      "ranslate": 1922,
      "aw": 1923,
      "arget": 1924,
      "Ġ/": 1925,
      "ral": 1926,
      "be": 1927,
      "ĠëķĮë¬¸": 1928,
      "Ġìĸ´ë": 1929,
      "Ġdetermine": 1930,
      "ëĮĢ": 1931,
      "ault": 1932,
      "ĠSh": 1933,
      "ories": 1934,
      "Ġactiv": 1935,
      "Ġvariable": 1936,
      "mary": 1937,
      "ĠProvide": 1938,
      "Ġcountry": 1939,
      "Ġdue": 1940,
      "gether": 1941,
      "Ġtogether": 1942,
      "print": 1943,
      "Ġjob": 1944,
      "ê°ĢìļĶ": 1945,
      "iving": 1946,
      "test": 1947,
      "mod": 1948,
      "init": 1949,
      "ailable": 1950,
      "Ġwrite": 1951,
      "oss": 1952,
      "Ġnamed": 1953,
      "Ġìĭľ": 1954,
      "Ġfocus": 1955,
      "Ġschool": 1956,
      "ĠInd": 1957,
      "Ġleft": 1958,
      "Ġtalk": 1959,
      "ohn": 1960,
      "izes": 1961,
      "ĠSe": 1962,
      "ĠFr": 1963,
      "Ġì¢": 1964,
      "ĠShe": 1965,
      "Ġrefer": 1966,
      "ë¶Ħ": 1967,
      "ìĹ¬": 1968,
      "Ġrelations": 1969,
      "Ø§": 1970,
      "Ġagainst": 1971,
      "ë¬¼": 1972,
      "abase": 1973,
      "Ġbr": 1974,
      "Ġcompon": 1975,
      "ĠIs": 1976,
      "ety": 1977,
      "ides": 1978,
      "ĠíĻ": 1979,
      "Ġke": 1980,
      "Ġappropriate": 1981,
      "Ġexpect": 1982,
      "Ġaddress": 1983,
      "ross": 1984,
      "Ġtri": 1985,
      "Ġargu": 1986,
      "ote": 1987,
      "ane": 1988,
      "Ġassoci": 1989,
      "ived": 1990,
      "unction": 1991,
      "ules": 1992,
      "ior": 1993,
      "Ġyes": 1994,
      "Ġbus": 1995,
      "vest": 1996,
      "Ġbig": 1997,
      "Ġfollows": 1998,
      "fe": 1999,
      "ĠìĻ": 2000,
      "aur": 2001,
      "Ġinstru": 2002,
      "ik": 2003,
      "alyze": 2004,
      "ume": 2005,
      "Ġbro": 2006,
      "ription": 2007,
      "ump": 2008,
      "Ġrece": 2009,
      "Ġgovern": 2010,
      "count": 2011,
      "Ġcontains": 2012,
      "Ġreport": 2013,
      "ĠFin": 2014,
      "Ġmove": 2015,
      "ov": 2016,
      "´Ģ": 2017,
      "ender": 2018,
      "ration": 2019,
      "Ġ__": 2020,
      "Ġapplication": 2021,
      "ĠëĶ°ëĿ¼": 2022,
      "Ġcommon": 2023,
      "Ġbetter": 2024,
      "ì§Ģë§Į": 2025,
      "Ġsl": 2026,
      "ava": 2027,
      "Ġìľł": 2028,
      "Ġprof": 2029,
      "Ġprivate": 2030,
      "Ġaff": 2031,
      "Ġë¶Ģ": 2032,
      "Ġcrit": 2033,
      "Ġë°©": 2034,
      "ene": 2035,
      "Ġpower": 2036,
      "ible": 2037,
      "ele": 2038,
      "ething": 2039,
      "ification": 2040,
      "lu": 2041,
      "Ġmiss": 2042,
      "String": 2043,
      "Ġë³´": 2044,
      "']": 2045,
      "ina": 2046,
      "Man": 2047,
      "ift": 2048,
      "Ġdetails": 2049,
      "Ġunique": 2050,
      "aring": 2051,
      "Ġrequirements": 2052,
      "ctor": 2053,
      "Ġ&": 2054,
      "ìĭĿ": 2055,
      "ëŁ¬": 2056,
      "Ġuses": 2057,
      "amm": 2058,
      "Ġach": 2059,
      "Ġbody": 2060,
      "Ġrange": 2061,
      "Ġoften": 2062,
      "nection": 2063,
      "ats": 2064,
      "Ġbreak": 2065,
      "Ġx": 2066,
      "Ġsimple": 2067,
      "Ġrole": 2068,
      "Ð»": 2069,
      "ĠìĿ¸": 2070,
      "Ġtitle": 2071,
      "ished": 2072,
      "Ġquestions": 2073,
      "vant": 2074,
      "ĠìŀĪëĬĶ": 2075,
      "Ġaccount": 2076,
      "ĠAmerican": 2077,
      "ĠList": 2078,
      "ëį°": 2079,
      "ney": 2080,
      "ulation": 2081,
      "Ġweek": 2082,
      "outh": 2083,
      "Ġmanag": 2084,
      "Ġdesign": 2085,
      "ĠStates": 2086,
      "ush": 2087,
      "back": 2088,
      "Ġrequired": 2089,
      "log": 2090,
      "Ġmentioned": 2091,
      "Ġenerg": 2092,
      "Ġcontaining": 2093,
      "Ġstates": 2094,
      "Ġ--": 2095,
      "Ġweb": 2096,
      "Ġide": 2097,
      "Ġanim": 2098,
      "Ġaccess": 2099,
      "che": 2100,
      "Ġchang": 2101,
      "ons": 2102,
      "Ġrelationship": 2103,
      "load": 2104,
      "for": 2105,
      "nect": 2106,
      "Ġconclusion": 2107,
      "Ġrecord": 2108,
      "Ġsomething": 2109,
      "oard": 2110,
      "ci": 2111,
      "Ġoverall": 2112,
      "Name": 2113,
      "Ġdisplay": 2114,
      "Ġstill": 2115,
      "oney": 2116,
      "ê·": 2117,
      "Ã¼": 2118,
      "Ġpack": 2119,
      "ently": 2120,
      "For": 2121,
      "||": 2122,
      "êµŃ": 2123,
      "Ġcour": 2124,
      "Ġë°ľ": 2125,
      "RL": 2126,
      "ties": 2127,
      "urs": 2128,
      "fo": 2129,
      "Ġpoints": 2130,
      "Type": 2131,
      "ability": 2132,
      "Ġmaintain": 2133,
      "Ġê²½ìļ°": 2134,
      "idd": 2135,
      "verage": 2136,
      "Ġìłķ": 2137,
      "Ġmultiple": 2138,
      "ìĹĪ": 2139,
      "Ġenergy": 2140,
      "Ġpolit": 2141,
      "Ġaccur": 2142,
      "itionally": 2143,
      "enn": 2144,
      "atures": 2145,
      "Ġdirectory": 2146,
      "Ġlikely": 2147,
      "Ġworking": 2148,
      "Ġsince": 2149,
      "Ġkeep": 2150,
      "âĢĿ": 2151,
      "Ġcomb": 2152,
      "Ġaccording": 2153,
      "Ġimpact": 2154,
      "ĠCl": 2155,
      "process": 2156,
      "Ġleg": 2157,
      "bal": 2158,
      "Ĥ°": 2159,
      "ëĤ": 2160,
      "Ġhuman": 2161,
      "ĠEuro": 2162,
      "Ġstd": 2163,
      "Based": 2164,
      "Ġoffic": 2165,
      "ĠEn": 2166,
      "ĠAnd": 2167,
      "ê¹ĮìļĶ": 2168,
      "ources": 2169,
      "Ġseveral": 2170,
      "ey": 2171,
      "As": 2172,
      "Ġamount": 2173,
      "Ġtoo": 2174,
      "ĠThese": 2175,
      "Ġìłľ": 2176,
      "Ġlight": 2177,
      "Ġversion": 2178,
      "Ġì²": 2179,
      "Ġìĥģ": 2180,
      "Ġexist": 2181,
      "Ġcontribut": 2182,
      "Ġdr": 2183,
      "Ġrelated": 2184,
      "Ġservice": 2185,
      "Ġtech": 2186,
      "êµ¬": 2187,
      "Ġ199": 2188,
      "irl": 2189,
      "lection": 2190,
      "Ġ12": 2191,
      "Ġchildren": 2192,
      "ì¹ĺ": 2193,
      "ëħ": 2194,
      "ively": 2195,
      "duct": 2196,
      "ember": 2197,
      "How": 2198,
      "ÃŃ": 2199,
      "Ġlocation": 2200,
      "ìķ¼": 2201,
      "Ġshort": 2202,
      "my": 2203,
      "Ġcome": 2204,
      "íĬ": 2205,
      "Ġess": 2206,
      "Ġconstruct": 2207,
      "ait": 2208,
      "Ġlittle": 2209,
      "Ġsense": 2210,
      "Ġë¹Ħ": 2211,
      "Ġusage": 2212,
      "íĦ": 2213,
      "Ġnames": 2214,
      "ê°Ħ": 2215,
      "Ġë¬¼": 2216,
      "Ġsize": 2217,
      "ĠString": 2218,
      "Ġëį": 2219,
      "Ġì¶": 2220,
      "Ġchoice": 2221,
      "ìĨĮ": 2222,
      "Ġproject": 2223,
      "Ġauthor": 2224,
      "Val": 2225,
      "joy": 2226,
      "type": 2227,
      "Ġë§Į": 2228,
      "Ġwhy": 2229,
      "Ġsoc": 2230,
      "valid": 2231,
      "Ġprim": 2232,
      "public": 2233,
      "Ġinvest": 2234,
      "?\"": 2235,
      "ìĹĲëĬĶ": 2236,
      "Ġspecial": 2237,
      "Ġposition": 2238,
      "wards": 2239,
      "Ġdri": 2240,
      "Data": 2241,
      "Ġì£¼": 2242,
      "let": 2243,
      "pty": 2244,
      "onstr": 2245,
      "Ġmen": 2246,
      "Ġcharacters": 2247,
      "Ġinterest": 2248,
      "resents": 2249,
      "arr": 2250,
      "list": 2251,
      "eet": 2252,
      "Ġëª¨": 2253,
      "ì°": 2254,
      "ìĦ¸": 2255,
      "ĠBut": 2256,
      "url": 2257,
      "Ġfurther": 2258,
      "Ġmodule": 2259,
      "Ġ=>": 2260,
      "Ġappro": 2261,
      "Ġcorrespon": 2262,
      "cle": 2263,
      "Ġlibr": 2264,
      "ison": 2265,
      "osp": 2266,
      "Ġtable": 2267,
      "ĠZ": 2268,
      "ĠTo": 2269,
      "Ġreal": 2270,
      "swers": 2271,
      "Ġcannot": 2272,
      "ĠWhen": 2273,
      "Ġë²": 2274,
      "__(": 2275,
      "Ĩį": 2276,
      "Ġturn": 2277,
      "Ĩµ": 2278,
      "ĠRep": 2279,
      "otion": 2280,
      "Ġmatch": 2281,
      "ee": 2282,
      "Ġcompany": 2283,
      "ends": 2284,
      "Ġ15": 2285,
      "ĠPl": 2286,
      "ìĸĳ": 2287,
      "Ġfinal": 2288,
      "Ġmax": 2289,
      "gin": 2290,
      "of": 2291,
      "Ġchange": 2292,
      "Ġanswers": 2293,
      "Ġput": 2294,
      "12": 2295,
      "Ġsummary": 2296,
      "Ġdemonstr": 2297,
      "Ġprote": 2298,
      "])": 2299,
      "els": 2300,
      "enerate": 2301,
      "Manager": 2302,
      "Ġaspect": 2303,
      "Ġintern": 2304,
      "['": 2305,
      "En": 2306,
      "Ġprom": 2307,
      "ĠâĢľ": 2308,
      "Ġplan": 2309,
      "Ġhold": 2310,
      "ches": 2311,
      "'re": 2312,
      "ĠOn": 2313,
      "Ġdefin": 2314,
      "Ġ:": 2315,
      "Ġoperations": 2316,
      "Ġsomeone": 2317,
      "ë¹": 2318,
      "Ġcell": 2319,
      "Ġwoman": 2320,
      "Ġsituation": 2321,
      "ĠìĥĿ": 2322,
      "ì¶": 2323,
      "ĠEurope": 2324,
      "Ġavailable": 2325,
      "ĠSc": 2326,
      "Ġdatabase": 2327,
      "Ġenjoy": 2328,
      "Ġlaw": 2329,
      "att": 2330,
      "Ġthings": 2331,
      "Ġstrong": 2332,
      "agraph": 2333,
      "Ġfriends": 2334,
      "Ġflo": 2335,
      "Ġinstance": 2336,
      "Ġassociated": 2337,
      "til": 2338,
      "Ġtranslation": 2339,
      "miss": 2340,
      "Ġside": 2341,
      "ê¸Ī": 2342,
      "ĠImplement": 2343,
      "arth": 2344,
      "cho": 2345,
      "ouble": 2346,
      "19": 2347,
      "Ġnear": 2348,
      "etwork": 2349,
      "versity": 2350,
      "tro": 2351,
      "ended": 2352,
      "vices": 2353,
      "ìĿ¸ê°ĢìļĶ": 2354,
      "Ġmar": 2355,
      "new": 2356,
      "Ġfour": 2357,
      "atis": 2358,
      "ë¯¸": 2359,
      "Ġcolor": 2360,
      "ë£": 2361,
      "ots": 2362,
      "Res": 2363,
      "aim": 2364,
      "Ġê²ĥìĿ´": 2365,
      "Ã¡": 2366,
      "ĠJohn": 2367,
      "pre": 2368,
      "ma": 2369,
      "ER": 2370,
      "Ġland": 2371,
      "Ġu": 2372,
      "Ġyoung": 2373,
      "med": 2374,
      "ĠQ": 2375,
      "arl": 2376,
      "Ġupd": 2377,
      "Ġêµ¬": 2378,
      "Ġfew": 2379,
      "íĬ¸": 2380,
      "osed": 2381,
      "ocu": 2382,
      "Ġwon": 2383,
      "Ġtweet": 2384,
      "Ġvoid": 2385,
      "Ġrepresents": 2386,
      "ê±°": 2387,
      "Ġdate": 2388,
      "ilar": 2389,
      "cent": 2390,
      "Ġtranslated": 2391,
      "ury": 2392,
      "Ġdog": 2393,
      "rist": 2394,
      "Ġgovernment": 2395,
      "ware": 2396,
      "ëĵľ": 2397,
      "ĠOutput": 2398,
      "Ġcontrol": 2399,
      "ead": 2400,
      "Ġë¬´ìĹ": 2401,
      "ds": 2402,
      "Ġet": 2403,
      "rench": 2404,
      "íĦ°": 2405,
      "Ġconclude": 2406,
      "=\"": 2407,
      "ĊĠĊ": 2408,
      "ĠNo": 2409,
      "Ġdoesn": 2410,
      "Ġeas": 2411,
      "Ġimpro": 2412,
      "Ġsec": 2413,
      "ology": 2414,
      "Ġment": 2415,
      "Ġelement": 2416,
      "Ġë¬´ìĹĩ": 2417,
      "alcul": 2418,
      "Ġmoney": 2419,
      "Ġdiscuss": 2420,
      "atisf": 2421,
      "Ġwin": 2422,
      "ĠAdditionally": 2423,
      "ĠBe": 2424,
      "Ġcaus": 2425,
      "ĠÙ": 2426,
      "struct": 2427,
      "Ġsw": 2428,
      "Im": 2429,
      "ĠìĿ´ìľł": 2430,
      "ST": 2431,
      "Ġothers": 2432,
      "Ġfoot": 2433,
      "illion": 2434,
      "Ġequation": 2435,
      "Now": 2436,
      "ĠNone": 2437,
      "Ġrese": 2438,
      "Ġelect": 2439,
      "ĳľ": 2440,
      "ai": 2441,
      "su": 2442,
      "Ġlogic": 2443,
      "à®": 2444,
      "Ġfac": 2445,
      "Ġparagraph": 2446,
      "yle": 2447,
      "ills": 2448,
      "à°": 2449,
      "Ġtarget": 2450,
      "input": 2451,
      "iod": 2452,
      "à¦": 2453,
      "go": 2454,
      "Ġhouse": 2455,
      "ready": 2456,
      "Ġcult": 2457,
      "Ġhig": 2458,
      "Ġfiles": 2459,
      "Ġseries": 2460,
      "Ar": 2461,
      "vert": 2462,
      "arning": 2463,
      "conom": 2464,
      "ĠGerm": 2465,
      "Ġlibrary": 2466,
      "Ġplayer": 2467,
      "Ġgen": 2468,
      "Please": 2469,
      "Ġsong": 2470,
      "bum": 2471,
      "Ġaway": 2472,
      "Ġalong": 2473,
      "ĠìĨĮ": 2474,
      "íĮ": 2475,
      "Ġstatus": 2476,
      "ĠBrit": 2477,
      "Ġreviewer": 2478,
      "Ġcateg": 2479,
      "Ġcost": 2480,
      "now": 2481,
      "Ġgoing": 2482,
      "Ġê³ł": 2483,
      "Ġessential": 2484,
      "py": 2485,
      "mit": 2486,
      "ilit": 2487,
      "ĠURL": 2488,
      "Ġnat": 2489,
      "omen": 2490,
      "Ġes": 2491,
      "Ġdescribed": 2492,
      "umn": 2493,
      "Ġíķľ": 2494,
      "hold": 2495,
      "Ġadditional": 2496,
      "por": 2497,
      "Ġì°¨": 2498,
      "reate": 2499,
      "Ġimpl": 2500,
      "Ġcorresponding": 2501,
      "Ġlocal": 2502,
      "Ġlarge": 2503,
      "Options": 2504,
      "Ġcalculate": 2505,
      "Ġport": 2506,
      "ground": 2507,
      "ëł¤": 2508,
      "Ġgreat": 2509,
      "ĠíĮ": 2510,
      "...": 2511,
      "Ġable": 2512,
      "Ġevents": 2513,
      "Ġlove": 2514,
      "und": 2515,
      "Ġincludes": 2516,
      "Ġsays": 2517,
      "ĠìĽ": 2518,
      "Ġachieve": 2519,
      "ĠëĲĺ": 2520,
      "rain": 2521,
      "Ġgirl": 2522,
      "Ġmonth": 2523,
      "col": 2524,
      "Ġadding": 2525,
      "Translate": 2526,
      "ploy": 2527,
      "Ġtypes": 2528,
      "Ġoffer": 2529,
      "ĠëķĮë¬¸ìĹĲ": 2530,
      "Ġë§İ": 2531,
      "ĠìĹĨ": 2532,
      "Ñĥ": 2533,
      "ster": 2534,
      "ged": 2535,
      "ĠRet": 2536,
      "Ġclear": 2537,
      "Ġbehav": 2538,
      "ards": 2539,
      "ĺĲ": 2540,
      "Ġconfiguration": 2541,
      "Ġroom": 2542,
      "Ġrestaur": 2543,
      "Ġgl": 2544,
      "ps": 2545,
      "gen": 2546,
      "indow": 2547,
      "Ġchall": 2548,
      "ÛĮ": 2549,
      "ids": 2550,
      "Ġplayed": 2551,
      "Ġexperi": 2552,
      "Ġalready": 2553,
      "Ġê±": 2554,
      "Ġìĸ´ëĸ": 2555,
      "Ġdescribe": 2556,
      "Ġproperty": 2557,
      "We": 2558,
      "Ġnon": 2559,
      "Ðº": 2560,
      "Ġpersonal": 2561,
      "ledge": 2562,
      "use": 2563,
      "ml": 2564,
      "ìłģìľ¼ë¡ľ": 2565,
      "Ġestab": 2566,
      "ging": 2567,
      "->": 2568,
      "anish": 2569,
      "ĠID": 2570,
      "Ġnumbers": 2571,
      "So": 2572,
      "Ġprocesses": 2573,
      "Ġsingle": 2574,
      "Ġlay": 2575,
      "íĶ": 2576,
      "Ġconnection": 2577,
      "Ġcertain": 2578,
      "Ġband": 2579,
      "Ġfunctionality": 2580,
      "ams": 2581,
      "Given": 2582,
      "uck": 2583,
      "lling": 2584,
      "ĠDet": 2585,
      "Ġque": 2586,
      "ģ¬": 2587,
      "ament": 2588,
      "though": 2589,
      "ĠFrench": 2590,
      "Ġphrase": 2591,
      "íķĺê³ł": 2592,
      "olution": 2593,
      "year": 2594,
      "izing": 2595,
      "Ġparameter": 2596,
      "ĠThen": 2597,
      "Ġhard": 2598,
      "Ġpay": 2599,
      "Ġsep": 2600,
      "ĠAss": 2601,
      "Ñĭ": 2602,
      "asing": 2603,
      "Ġproperties": 2604,
      "ì²´": 2605,
      "Se": 2606,
      "icult": 2607,
      "Ġdeath": 2608,
      "Ġê³µ": 2609,
      "Ġsource": 2610,
      "Ġclose": 2611,
      "ajor": 2612,
      "down": 2613,
      "ĠìĿĺ": 2614,
      "ë¥¸": 2615,
      "ë²ķ": 2616,
      "point": 2617,
      "Cl": 2618,
      "ìłģìĿ¸": 2619,
      "Ġinflu": 2620,
      "ì§Ī": 2621,
      "cer": 2622,
      "util": 2623,
      "reg": 2624,
      "Ġbusiness": 2625,
      "ised": 2626,
      "Ġsimilar": 2627,
      "Ġalbum": 2628,
      "ëŀĺ": 2629,
      "AT": 2630,
      "ĠRes": 2631,
      "Ġsocial": 2632,
      "ĠìĬ": 2633,
      "Ġfore": 2634,
      "Ġlater": 2635,
      "icient": 2636,
      "Ġrock": 2637,
      "empt": 2638,
      "ley": 2639,
      "Ġins": 2640,
      "Ġactions": 2641,
      "Ġreally": 2642,
      "requ": 2643,
      "Ġtook": 2644,
      "Ġhaving": 2645,
      "Ġseason": 2646,
      "].": 2647,
      "Ġparticular": 2648,
      "Ġ_": 2649,
      "Ġbecome": 2650,
      "dict": 2651,
      "Ġbal": 2652,
      "Ġhistory": 2653,
      "Ġsure": 2654,
      "Ġplaying": 2655,
      "alculate": 2656,
      "ott": 2657,
      "ller": 2658,
      "avor": 2659,
      "Ġphys": 2660,
      "ulate": 2661,
      "Ġcomput": 2662,
      "Ser": 2663,
      "Ġrespect": 2664,
      "ë³´": 2665,
      "ĠCan": 2666,
      "Ġë¨": 2667,
      "Ġpost": 2668,
      "sequ": 2669,
      "Ġclean": 2670,
      "Ġhour": 2671,
      "ama": 2672,
      "Ġguid": 2673,
      "'ll": 2674,
      "à´": 2675,
      "Ġtranslate": 2676,
      "Id": 2677,
      "ĠMr": 2678,
      "View": 2679,
      "Ġunderstanding": 2680,
      "acher": 2681,
      "Ġ198": 2682,
      "Ġmeet": 2683,
      "ML": 2684,
      "sian": 2685,
      "Ġaud": 2686,
      "ograph": 2687,
      "reme": 2688,
      "ĠAfter": 2689,
      "wh": 2690,
      "Ġíķ©ëĭĪëĭ¤": 2691,
      "Ġì¹": 2692,
      "augh": 2693,
      "Ġiter": 2694,
      "Ġlim": 2695,
      "Ġ16": 2696,
      "Ġê°Ļ": 2697,
      "ication": 2698,
      "Ġupdate": 2699,
      "ìĸ´ë": 2700,
      "oes": 2701,
      "Ġpress": 2702,
      "tings": 2703,
      "Ġcorrectly": 2704,
      "ĠWorld": 2705,
      "Ġpain": 2706,
      "verse": 2707,
      "Ġrelevant": 2708,
      "right": 2709,
      "uture": 2710,
      "ird": 2711,
      "ëıĻ": 2712,
      "ĠìķĮ": 2713,
      "PI": 2714,
      "ese": 2715,
      "ĠPr": 2716,
      "ĠChe": 2717,
      "Ġuntil": 2718,
      "Ġpast": 2719,
      "ì§Ħ": 2720,
      "Ġspace": 2721,
      "Ġprice": 2722,
      "rong": 2723,
      "Ġred": 2724,
      "size": 2725,
      "Ġpub": 2726,
      "ĳĲ": 2727,
      "aterial": 2728,
      "ĠX": 2729,
      "Ġmakes": 2730,
      "Ġasking": 2731,
      "ĠGiven": 2732,
      "ones": 2733,
      "ìĦł": 2734,
      "Ġcapt": 2735,
      "ĠCol": 2736,
      "ĠMon": 2737,
      "Ġpassage": 2738,
      "Al": 2739,
      "Ġtimes": 2740,
      "Ġterms": 2741,
      "Ġitem": 2742,
      "imum": 2743,
      "Ġeconom": 2744,
      "ters": 2745,
      "vious": 2746,
      "Ġsepar": 2747,
      "gress": 2748,
      "Ġë°Ķ": 2749,
      "Ġpract": 2750,
      "ìĤ°": 2751,
      "Ġri": 2752,
      "Ġnight": 2753,
      "\"\"": 2754,
      "wise": 2755,
      "uild": 2756,
      "ĽĦ": 2757,
      "Ġperformance": 2758,
      "ĠMar": 2759,
      "Ġenough": 2760,
      "ĠëĺĲ": 2761,
      "pped": 2762,
      "ìĽĲ": 2763,
      "IN": 2764,
      "à¸": 2765,
      "Ġplot": 2766,
      "Ġrestaurant": 2767,
      "Ġparts": 2768,
      "Ġvide": 2769,
      "Ġamong": 2770,
      "Ġoperation": 2771,
      "Ġcareer": 2772,
      "Ġlength": 2773,
      "irm": 2774,
      "cing": 2775,
      "ĠGr": 2776,
      "une": 2777,
      "Ġemail": 2778,
      "Ġdays": 2779,
      "Ġtrad": 2780,
      "Ñı": 2781,
      "Ġhighlight": 2782,
      "ension": 2783,
      "ogn": 2784,
      "Ġperiod": 2785,
      "Ġitems": 2786,
      "Ġrepl": 2787,
      "Mod": 2788,
      "Ġobjects": 2789,
      "ken": 2790,
      "Ġexpected": 2791,
      "ÅŁ": 2792,
      "ief": 2793,
      "acy": 2794,
      "ĠHT": 2795,
      "Ġresults": 2796,
      "iver": 2797,
      "ured": 2798,
      "ë¥´": 2799,
      "andom": 2800,
      "aps": 2801,
      "ying": 2802,
      "Ġì¡°": 2803,
      "ìĿĮ": 2804,
      "50": 2805,
      "Ġever": 2806,
      "ìĥĿ": 2807,
      "ĠAd": 2808,
      "Ġadded": 2809,
      "Ġprofession": 2810,
      "íŀ": 2811,
      "Ġfactors": 2812,
      "Ġclaim": 2813,
      "List": 2814,
      "oll": 2815,
      "Ġinteger": 2816,
      "ÙĨ": 2817,
      "Ġnatural": 2818,
      "íķĺìĹ¬": 2819,
      "Ġlearn": 2820,
      "ront": 2821,
      "ks": 2822,
      "à¥": 2823,
      "Ġneeds": 2824,
      "ffer": 2825,
      "Ġconsidered": 2826,
      "Ġhappen": 2827,
      "af": 2828,
      "gg": 2829,
      "ache": 2830,
      "ĠPh": 2831,
      "Ġíĥ": 2832,
      "Sentence": 2833,
      "config": 2834,
      "Ġbase": 2835,
      "àª": 2836,
      "Ġ100": 2837,
      "ounter": 2838,
      "Ġchecks": 2839,
      "Ġsuper": 2840,
      "ĠTr": 2841,
      "ëªħ": 2842,
      "ports": 2843,
      "Ġexecut": 2844,
      "Ġcustomer": 2845,
      "Ġindicating": 2846,
      "Ġindex": 2847,
      "**": 2848,
      "ike": 2849,
      "Ġdirectly": 2850,
      "Ġboy": 2851,
      "ung": 2852,
      "ope": 2853,
      "Ġ30": 2854,
      "Ġknowledge": 2855,
      "Ġmembers": 2856,
      "Ġconditions": 2857,
      "Ġredu": 2858,
      "Output": 2859,
      "ĠUS": 2860,
      "ĠExample": 2861,
      ".,": 2862,
      "aster": 2863,
      "oring": 2864,
      "ges": 2865,
      "Ġmom": 2866,
      "Ġempty": 2867,
      "Ġpopular": 2868,
      "Ġbirth": 2869,
      "Ġcreated": 2870,
      "Ø±": 2871,
      "ither": 2872,
      "Ġtechn": 2873,
      "Ġcompet": 2874,
      "Ġsound": 2875,
      "ëĲľ": 2876,
      "ĠAt": 2877,
      "reen": 2878,
      "Ġfunctions": 2879,
      "Ġwrong": 2880,
      "ĠDef": 2881,
      "ored": 2882,
      "aken": 2883,
      ")`": 2884,
      "ëł¥": 2885,
      "Ġanal": 2886,
      "Ġpair": 2887,
      "ader": 2888,
      "Ġattempt": 2889,
      "ything": 2890,
      "Ã¶": 2891,
      "Is": 2892,
      "Ġretrieve": 2893,
      "fort": 2894,
      "ĠíĶ": 2895,
      "sib": 2896,
      "imately": 2897,
      "ĠëĶ°ëĿ¼ìĦľ": 2898,
      "Ġdiff": 2899,
      "Ġpie": 2900,
      "idence": 2901,
      "ë¹Ħ": 2902,
      "ocument": 2903,
      "Ġsupp": 2904,
      "Ġselect": 2905,
      "Ġgot": 2906,
      "oken": 2907,
      "Ġlabel": 2908,
      "Ġglo": 2909,
      "ĠSentence": 2910,
      "íĴ": 2911,
      "Ġissues": 2912,
      "Ġtre": 2913,
      "const": 2914,
      "ĠSpanish": 2915,
      "ĠëįĶ": 2916,
      "Ġíķ´": 2917,
      "arily": 2918,
      "urity": 2919,
      "osit": 2920,
      "Ġmag": 2921,
      "ĠBl": 2922,
      "ìĥī": 2923,
      "Ġconnect": 2924,
      "ĠEm": 2925,
      "Ġsuggests": 2926,
      "urb": 2927,
      "aper": 2928,
      "Ġregion": 2929,
      "aves": 2930,
      "Ġmess": 2931,
      "11": 2932,
      "Ġfuture": 2933,
      "ium": 2934,
      "Ġtemper": 2935,
      "Ġë§Ī": 2936,
      "Ġwalk": 2937,
      "ìĭł": 2938,
      "Ġbehavior": 2939,
      "Ġfull": 2940,
      "Ġris": 2941,
      "ores": 2942,
      "ëĿ¼ëĬĶ": 2943,
      "Ġcomponents": 2944,
      "Ġconve": 2945,
      "Ġ17": 2946,
      "Ġsym": 2947,
      "Ġ@": 2948,
      "bre": 2949,
      "Ġdiv": 2950,
      "Ġneeded": 2951,
      "Ġdevelopment": 2952,
      "Ð²": 2953,
      "Ġearly": 2954,
      "Ġtaking": 2955,
      "Ġmaterial": 2956,
      "Ġthing": 2957,
      "Ġpolitical": 2958,
      "abor": 2959,
      "Ġlocated": 2960,
      "Ġrules": 2961,
      "If": 2962,
      "Ð¼": 2963,
      "over": 2964,
      "ĠYork": 2965,
      "ê³Ħ": 2966,
      "Ġmajor": 2967,
      "Ġ<<": 2968,
      "Ġchanges": 2969,
      "ìĹĲìĦľëĬĶ": 2970,
      "iting": 2971,
      "ched": 2972,
      "ĠâĢĵ": 2973,
      "íı": 2974,
      "mber": 2975,
      "Ġofficial": 2976,
      "ĠSome": 2977,
      "aging": 2978,
      "Ġindust": 2979,
      "Ġattributes": 2980,
      "Ġì¢ĭ": 2981,
      "On": 2982,
      "elines": 2983,
      "ë§Ī": 2984,
      "pping": 2985,
      "ë°ĺ": 2986,
      "Ġstarting": 2987,
      "Ġattack": 2988,
      "cret": 2989,
      "Ġnetwork": 2990,
      "ude": 2991,
      "Ġrecomm": 2992,
      "Ġaverage": 2993,
      "Ġfree": 2994,
      "Ġidentify": 2995,
      "irt": 2996,
      "Ġter": 2997,
      "ĠAp": 2998,
      "fl": 2999,
      "ëĬ¥": 3000,
      "Ġaffect": 3001,
      "Ġìĺģ": 3002,
      "File": 3003,
      "gers": 3004,
      "inary": 3005,
      "uple": 3006,
      "apan": 3007,
      "ĠUni": 3008,
      "inter": 3009,
      "Ġsun": 3010,
      "Ġben": 3011,
      "ĠBy": 3012,
      "aving": 3013,
      "lood": 3014,
      "Ġcountries": 3015,
      "Ġoccur": 3016,
      "Ġcases": 3017,
      "íŀĪ": 3018,
      "Ġíı": 3019,
      "cont": 3020,
      "Ġfall": 3021,
      "íķĺê²Į": 3022,
      "ì¡°": 3023,
      "Ġtold": 3024,
      "ë¯": 3025,
      "Ġdest": 3026,
      "Ġextreme": 3027,
      "Ġbecom": 3028,
      "Ġsuccessful": 3029,
      "Ġpattern": 3030,
      "ysis": 3031,
      "Ġìĺ¤": 3032,
      "ags": 3033,
      "olve": 3034,
      "ued": 3035,
      "lean": 3036,
      "Ġborn": 3037,
      "Ġcir": 3038,
      "ĠAust": 3039,
      "Ġdefault": 3040,
      "ilities": 3041,
      "otal": 3042,
      "Ġtown": 3043,
      "ĠìĹ¬": 3044,
      "Ġphrases": 3045,
      "ires": 3046,
      "Ã³": 3047,
      "ìĿ´ëĤĺ": 3048,
      "Ġphot": 3049,
      "oot": 3050,
      "ĠTherefore": 3051,
      "Input": 3052,
      "ouch": 3053,
      "ept": 3054,
      "Ġlate": 3055,
      "32": 3056,
      "ming": 3057,
      "Ġage": 3058,
      "Ġ14": 3059,
      "rors": 3060,
      "pose": 3061,
      "30": 3062,
      "atter": 3063,
      "alf": 3064,
      "No": 3065,
      "Ġabs": 3066,
      "ii": 3067,
      "ĠPar": 3068,
      "Ġdecision": 3069,
      "Ġstudents": 3070,
      "Ġjour": 3071,
      "Value": 3072,
      "Ġmissing": 3073,
      "Ġblock": 3074,
      "Ġ11": 3075,
      "Ġdidn": 3076,
      "book": 3077,
      "Ġlow": 3078,
      "ĠWith": 3079,
      "SON": 3080,
      "Ġ197": 3081,
      "ĠSer": 3082,
      "Ġremo": 3083,
      "Ġgrowth": 3084,
      "ators": 3085,
      "Ġadv": 3086,
      "Ġheart": 3087,
      "Ġfilter": 3088,
      "Ġleading": 3089,
      "pite": 3090,
      "Ġchalleng": 3091,
      "rown": 3092,
      "ober": 3093,
      "ĠChrist": 3094,
      "Ġdescription": 3095,
      "ients": 3096,
      "Ġlower": 3097,
      "ĠFinally": 3098,
      "ĠQuestion": 3099,
      "Ġrate": 3100,
      "Ġpackage": 3101,
      "Ġface": 3102,
      "no": 3103,
      "aries": 3104,
      "ĠPres": 3105,
      "Ġconcern": 3106,
      "Ġdeb": 3107,
      "Ġbuilding": 3108,
      "Ġinstruction": 3109,
      "Ġmeas": 3110,
      "ìŀ¬": 3111,
      "Ġacross": 3112,
      "rb": 3113,
      "ĠìĿ´ëŁ": 3114,
      "Ġeduc": 3115,
      "íĸī": 3116,
      "Ġfeatures": 3117,
      "Ġìļ°": 3118,
      "User": 3119,
      "Ġinterface": 3120,
      "II": 3121,
      "ìľĦ": 3122,
      "íĥĢ": 3123,
      "ference": 3124,
      "rad": 3125,
      "Ġresearch": 3126,
      "Ġrating": 3127,
      "Ġemploy": 3128,
      "Ġsolve": 3129,
      "Ġcapital": 3130,
      "Ġà¤": 3131,
      "Ġnever": 3132,
      "Ġarguments": 3133,
      "Here": 3134,
      "Ġreleased": 3135,
      "Ġfootball": 3136,
      "ĠHis": 3137,
      "ĠDetermine": 3138,
      "Ġwent": 3139,
      "Ġaspects": 3140,
      "epend": 3141,
      "odes": 3142,
      "ĠInst": 3143,
      "Ġdefined": 3144,
      "ole": 3145,
      "Ġkind": 3146,
      "Ġserver": 3147,
      "ëŀĮ": 3148,
      "istic": 3149,
      "ëĲ©ëĭĪëĭ¤": 3150,
      ")`:": 3151,
      "rem": 3152,
      "cover": 3153,
      "Ġjo": 3154,
      "Ġthought": 3155,
      "pare": 3156,
      "ëŀĢ": 3157,
      "ights": 3158,
      "Ġled": 3159,
      "Ġpolice": 3160,
      "lex": 3161,
      "utes": 3162,
      "Ġgra": 3163,
      "Ġìłģ": 3164,
      "ĠëıĻ": 3165,
      "There": 3166,
      "Ġdeep": 3167,
      "aff": 3168,
      "dom": 3169,
      "ĠìķĪ": 3170,
      "----": 3171,
      "Ġscen": 3172,
      "Ġrefers": 3173,
      "ta": 3174,
      "ëĭ¤ëĬĶ": 3175,
      "Ġrout": 3176,
      "Ġpun": 3177,
      "Ġvideo": 3178,
      "ĠReturn": 3179,
      "Ġmillion": 3180,
      "lished": 3181,
      "ĠSw": 3182,
      "Ġ>": 3183,
      "Ġ25": 3184,
      "sub": 3185,
      "field": 3186,
      "By": 3187,
      "ĠìĦ¸": 3188,
      "Ġtool": 3189,
      "ĠAf": 3190,
      "ìľ¼ë©°": 3191,
      "inst": 3192,
      "ague": 3193,
      "Yes": 3194,
      "Ġpopulation": 3195,
      "Ġlive": 3196,
      "cript": 3197,
      "board": 3198,
      "ĠYes": 3199,
      "Ġindividuals": 3200,
      "Ġensuring": 3201,
      "ĠJapan": 3202,
      "ĠBritish": 3203,
      "aker": 3204,
      "ĠHere": 3205,
      "Ġ196": 3206,
      "Ġcause": 3207,
      "Ġwomen": 3208,
      "ĠëĨ": 3209,
      "ĠGo": 3210,
      "Ġwatch": 3211,
      "Ġë§Ĳ": 3212,
      "Ġcat": 3213,
      "Ġprocessing": 3214,
      "Ġball": 3215,
      "15": 3216,
      "Ġtrack": 3217,
      "ëħĦ": 3218,
      "erc": 3219,
      "ê°ľ": 3220,
      "rodu": 3221,
      "íķĺê¸°": 3222,
      "Ġfields": 3223,
      "result": 3224,
      "fil": 3225,
      "ĠAm": 3226,
      "Ġaccom": 3227,
      "Ġcru": 3228,
      "ises": 3229,
      "ĠOr": 3230,
      "Ġeat": 3231,
      "Ġemotion": 3232,
      "ĠRus": 3233,
      "RE": 3234,
      "Col": 3235,
      "Ġpolic": 3236,
      "ë¥ĺ": 3237,
      "Ġchoose": 3238,
      "Ġmarket": 3239,
      "Ġëħ": 3240,
      "ili": 3241,
      "ech": 3242,
      "Ġmember": 3243,
      "Ġbecame": 3244,
      "He": 3245,
      "order": 3246,
      "Ġquality": 3247,
      "Ġdraw": 3248,
      "rel": 3249,
      "ably": 3250,
      "met": 3251,
      "Ġimplemented": 3252,
      "Ð´": 3253,
      "Ġann": 3254,
      "plete": 3255,
      "Ġlot": 3256,
      "bol": 3257,
      "Ġsoft": 3258,
      "idth": 3259,
      "aset": 3260,
      "Ġbegin": 3261,
      "amer": 3262,
      "ried": 3263,
      "Ġaccept": 3264,
      "Ġeffort": 3265,
      "ĠWar": 3266,
      "Ġseems": 3267,
      "Ġnational": 3268,
      "Ġmother": 3269,
      "Ġprevious": 3270,
      "ê´Ģ": 3271,
      "16": 3272,
      "Ġdifficult": 3273,
      "Ġcommit": 3274,
      "rest": 3275,
      "ony": 3276,
      "raft": 3277,
      "Ġinvolved": 3278,
      "Ġë¬´ìĹĩìĿ¸ê°ĢìļĶ": 3279,
      "'.": 3280,
      "Ġexce": 3281,
      "plit": 3282,
      "Ġvol": 3283,
      "ĠVal": 3284,
      "ĠëĲ©ëĭĪëĭ¤": 3285,
      "Ġcoll": 3286,
      "Ġbehind": 3287,
      "Ġlooking": 3288,
      "mission": 3289,
      "Ġability": 3290,
      "Ġëĭ¨": 3291,
      "Ġgramm": 3292,
      "ĠGerman": 3293,
      "Ġbring": 3294,
      "ÑģÑĤ": 3295,
      "ret": 3296,
      "ÑĮ": 3297,
      "Ġusers": 3298,
      "Ġbox": 3299,
      "do": 3300,
      "yd": 3301,
      "Ġappear": 3302,
      "Ġcamp": 3303,
      "lying": 3304,
      "Ġtasks": 3305,
      "args": 3306,
      "ĠHel": 3307,
      "eria": 3308,
      "encies": 3309,
      "Ġdeterm": 3310,
      "Ġnews": 3311,
      "Ġguidelines": 3312,
      "Ġlack": 3313,
      "ms": 3314,
      "aced": 3315,
      "Ġ{}": 3316,
      "Title": 3317,
      "Ġëĵ¤": 3318,
      "lete": 3319,
      "Ġfeature": 3320,
      "ì¦": 3321,
      "Add": 3322,
      "íĺ¸": 3323,
      "ID": 3324,
      "Ġ+=": 3325,
      "ãĤ": 3326,
      "ëĤĺìļĶ": 3327,
      "Ġtowards": 3328,
      "Ġanalyze": 3329,
      "Ġwar": 3330,
      "Ġsets": 3331,
      "Ġblood": 3332,
      "Ġconcept": 3333,
      "ìĺ¤": 3334,
      "Ġformer": 3335,
      "ì¡": 3336,
      "Ġidea": 3337,
      "Ġdefinition": 3338,
      "Ġattribute": 3339,
      "Ġprotect": 3340,
      "Ġrad": 3341,
      "Ġë¯¸": 3342,
      "yl": 3343,
      "bs": 3344,
      "ë¡Ŀ": 3345,
      "ĠGe": 3346,
      "info": 3347,
      "ìļ´": 3348,
      "image": 3349,
      "Ġê´Ģ": 3350,
      "enced": 3351,
      "ĠÐ¿": 3352,
      "</": 3353,
      "()`": 3354,
      "Ġhandling": 3355,
      "Ġmilit": 3356,
      "ĠìĽĲ": 3357,
      "Ġboo": 3358,
      "True": 3359,
      "erous": 3360,
      "Ġbas": 3361,
      "Ġund": 3362,
      "Ġconvers": 3363,
      "Example": 3364,
      "Ġframe": 3365,
      "¬íķľ": 3366,
      "='": 3367,
      "Ġstop": 3368,
      "ëĵ¤ìĿ´": 3369,
      "Ġresponsible": 3370,
      "Ġanalysis": 3371,
      "Ġìŀĳ": 3372,
      "append": 3373,
      "ĠOne": 3374,
      "ifier": 3375,
      "artment": 3376,
      "ĠSouth": 3377,
      "ĠWest": 3378,
      "Ġ!": 3379,
      "Ġlearning": 3380,
      "ĠEach": 3381,
      "imate": 3382,
      "index": 3383,
      "Ġincrease": 3384,
      "ĠTw": 3385,
      "ĠPol": 3386,
      "Ġproviding": 3387,
      "Ġincor": 3388,
      "Ġ13": 3389,
      "ordin": 3390,
      "25": 3391,
      "ĠAnalyze": 3392,
      "Ġload": 3393,
      "Ġseen": 3394,
      "ht": 3395,
      "ising": 3396,
      "Exception": 3397,
      "Ġrow": 3398,
      "Ġsatisf": 3399,
      "Ġ×": 3400,
      "leep": 3401,
      "Ġcomplex": 3402,
      "iddle": 3403,
      "iles": 3404,
      "Ġsetting": 3405,
      "function": 3406,
      "ĠCity": 3407,
      "Ġbeaut": 3408,
      "Ġmanagement": 3409,
      "run": 3410,
      "Ġwritten": 3411,
      "($": 3412,
      "ļĮ": 3413,
      "leg": 3414,
      "ĠJSON": 3415,
      "Ġvisit": 3416,
      "Ġspecifically": 3417,
      "Ġextremely": 3418,
      "Ġexception": 3419,
      "reet": 3420,
      "Ġsal": 3421,
      "Ġê¶": 3422,
      "Ġimprove": 3423,
      "ÙĦ": 3424,
      "Ġhot": 3425,
      "Ġíĳľ": 3426,
      "Ġcame": 3427,
      "Ġson": 3428,
      "tra": 3429,
      "vision": 3430,
      "message": 3431,
      "ĠLet": 3432,
      "Ġsignature": 3433,
      "Ġwriting": 3434,
      "ĠPresident": 3435,
      "íĴĪ": 3436,
      "ival": 3437,
      "Un": 3438,
      "Ġfather": 3439,
      "Ġgeneral": 3440,
      "Ġlink": 3441,
      "Ġfalse": 3442,
      "Ġtraining": 3443,
      "Ġrecogn": 3444,
      "Ġtaken": 3445,
      "Ġtravel": 3446,
      "Ġreasoning": 3447,
      "Ġë°ĺ": 3448,
      "Ġactivities": 3449,
      "Ġvi": 3450,
      "Ġë¶Ī": 3451,
      "Ġremove": 3452,
      "bl": 3453,
      "Ġhours": 3454,
      "Ġchoices": 3455,
      "Ġphysical": 3456,
      "ĠMay": 3457,
      "Ġtypically": 3458,
      "´Ī": 3459,
      "ĠPer": 3460,
      "ĠìĹ°": 3461,
      "Ġindicates": 3462,
      "lor": 3463,
      "Ġsuit": 3464,
      "Ġfig": 3465,
      "cher": 3466,
      "ê°ģ": 3467,
      "Ġsche": 3468,
      "Ġsyn": 3469,
      "Ġey": 3470,
      "ĠíĬ": 3471,
      "off": 3472,
      "ĠMc": 3473,
      "ĠìĦł": 3474,
      "ê³µ": 3475,
      "xy": 3476,
      "ians": 3477,
      "à¨": 3478,
      "Ġeither": 3479,
      "Ġleast": 3480,
      "Ġcut": 3481,
      "rame": 3482,
      "LE": 3483,
      "Ġ[]": 3484,
      "ands": 3485,
      "ë¬´": 3486,
      "ĠEuropean": 3487,
      "max": 3488,
      "Ġparty": 3489,
      "Ġëĭ¤ë¥¸": 3490,
      "Ġdig": 3491,
      "Ġasked": 3492,
      "Ġrunning": 3493,
      "Ġtopic": 3494,
      "words": 3495,
      "Ġhost": 3496,
      "code": 3497,
      "Ġmentions": 3498,
      "Ġtele": 3499,
      "Ġliving": 3500,
      "Ġemb": 3501,
      "ĠìľĦíķ´": 3502,
      "Ġbalance": 3503,
      "Ġloss": 3504,
      "ulf": 3505,
      "Ġtreat": 3506,
      "Ġblack": 3507,
      "'m": 3508,
      "uth": 3509,
      "oad": 3510,
      "uel": 3511,
      "pecial": 3512,
      "Ġplant": 3513,
      "Ġhigher": 3514,
      "Ġcommunity": 3515,
      "íĨµ": 3516,
      "Ġprofessional": 3517,
      "Ġinvolves": 3518,
      "Ġshare": 3519,
      "Ġstay": 3520,
      "Ġallows": 3521,
      "Ġdepend": 3522,
      "Ġfavor": 3523,
      "Key": 3524,
      "ĠDis": 3525,
      "ĠRead": 3526,
      "Ġfinanc": 3527,
      "Ġden": 3528,
      "Ġexc": 3529,
      "Ġerrors": 3530,
      "eter": 3531,
      "Ġconsist": 3532,
      "Ġcrucial": 3533,
      "rix": 3534,
      "Ġobser": 3535,
      "come": 3536,
      "Ġ\\": 3537,
      "Ġtour": 3538,
      "Ġmedia": 3539,
      "íĤ": 3540,
      "aged": 3541,
      "Ġreceived": 3542,
      "ĠAll": 3543,
      "ada": 3544,
      "Ġê²ĥìŀħëĭĪëĭ¤": 3545,
      "Ġcomponent": 3546,
      "Ġresources": 3547,
      "arter": 3548,
      "ĠìĦ±": 3549,
      "ensive": 3550,
      "Ġnp": 3551,
      "osing": 3552,
      "Ġprimary": 3553,
      "Ġmessages": 3554,
      "pass": 3555,
      "ĠThat": 3556,
      "Ġreturned": 3557,
      "Ġpict": 3558,
      "Ġbenef": 3559,
      "ĠTrue": 3560,
      "ĠCreate": 3561,
      "ĠëĺĲíķľ": 3562,
      "ĠìĿ´ëŁ¬íķľ": 3563,
      "hentic": 3564,
      "ossible": 3565,
      "Ġbar": 3566,
      "Ġsort": 3567,
      "uate": 3568,
      "rap": 3569,
      "ilt": 3570,
      "eral": 3571,
      "Ġcolumn": 3572,
      "Ġwait": 3573,
      "oud": 3574,
      "Ġë¬¸": 3575,
      "Ġë°©ë²ķ": 3576,
      "ĠUnder": 3577,
      "Ġquick": 3578,
      "Ġimplies": 3579,
      "Ġnode": 3580,
      "Ġê°ľ": 3581,
      "Ġground": 3582,
      "uly": 3583,
      "ĠìĬ¤": 3584,
      "ivity": 3585,
      "Ġë§Įëĵ¤": 3586,
      "ÙĪ": 3587,
      "opy": 3588,
      "ifies": 3589,
      "oe": 3590,
      "\");": 3591,
      "tes": 3592,
      "izer": 3593,
      "Ġtrying": 3594,
      "Ġclub": 3595,
      "ìł¸": 3596,
      "phas": 3597,
      "OR": 3598,
      "vi": 3599,
      "room": 3600,
      "ĠUniversity": 3601,
      "Ġbegan": 3602,
      "ana": 3603,
      "plate": 3604,
      "Ġvict": 3605,
      "Ġcover": 3606,
      "dir": 3607,
      "ì°¨": 3608,
      "'ve": 3609,
      "ĠSystem": 3610,
      "Ġstarted": 3611,
      "Ġge": 3612,
      "Ġdescribes": 3613,
      "eds": 3614,
      "())": 3615,
      "Ġflow": 3616,
      "Ġshows": 3617,
      "Ġaccurate": 3618,
      "Ġinvestig": 3619,
      "Ġhistor": 3620,
      "Ġglobal": 3621,
      "ë°©": 3622,
      "sum": 3623,
      "Ġë¶Ħ": 3624,
      "istance": 3625,
      "ìĪ": 3626,
      "Ġrepresented": 3627,
      "Ġfar": 3628,
      "ĠíĺĦ": 3629,
      "Ġdam": 3630,
      "ĠíĿ": 3631,
      "Ġder": 3632,
      "Ġkeys": 3633,
      "Ġê°ĻìĿĢ": 3634,
      "Ġbad": 3635,
      "Ġfrequ": 3636,
      "aling": 3637,
      "ìŀĳ": 3638,
      "ĠKing": 3639,
      "mat": 3640,
      "Ġmot": 3641,
      "Ġareas": 3642,
      "Ġbooks": 3643,
      "Ġdoing": 3644,
      "Ġcook": 3645,
      "Ġotherwise": 3646,
      "ĠRussian": 3647,
      "pack": 3648,
      "head": 3649,
      "ëĲĺìĸ´": 3650,
      "Ġopp": 3651,
      "\"]": 3652,
      "Ġopt": 3653,
      "ĠRoman": 3654,
      "Ġbo": 3655,
      "ĠSim": 3656,
      "Ġissue": 3657,
      "Pl": 3658,
      "Ġbackground": 3659,
      "Ġos": 3660,
      "Ġpercent": 3661,
      "Ġdefine": 3662,
      "Ġnature": 3663,
      "ĠNorth": 3664,
      "ĠMin": 3665,
      "ica": 3666,
      "Ġregard": 3667,
      "ĠÂ": 3668,
      "Ġseem": 3669,
      "gor": 3670,
      "aste": 3671,
      "Ġtouch": 3672,
      "Ġstream": 3673,
      "uf": 3674,
      "Ġ\"\"\"": 3675,
      "pper": 3676,
      "model": 3677,
      "Ã§": 3678,
      "Ġservices": 3679,
      "Ġthird": 3680,
      "Ġentire": 3681,
      "actions": 3682,
      "mar": 3683,
      "ĠCount": 3684,
      "():": 3685,
      "íķĺë©´": 3686,
      "Ġsides": 3687,
      "Ġverb": 3688,
      "ëĭ¹": 3689,
      "Ġemphas": 3690,
      "dis": 3691,
      "sole": 3692,
      "Ġgetting": 3693,
      "Ġid": 3694,
      "ipe": 3695,
      "Ġinside": 3696,
      "18": 3697,
      "atform": 3698,
      "like": 3699,
      "ĠJan": 3700,
      "Ġspaces": 3701,
      "Ġpage": 3702,
      "Ġonce": 3703,
      "Ġstrateg": 3704,
      "ĠìĺĪ": 3705,
      "Ġseek": 3706,
      "ev": 3707,
      "Ġcontinue": 3708,
      "itor": 3709,
      "itch": 3710,
      "ĠEarth": 3711,
      "ĠRem": 3712,
      "ales": 3713,
      "this": 3714,
      "Ġscore": 3715,
      "Ġê±°": 3716,
      "Ġanimals": 3717,
      "ĠìĿ´ìľłëĬĶ": 3718,
      "ided": 3719,
      "Ġcategory": 3720,
      "ocol": 3721,
      "pportun": 3722,
      "Ġactual": 3723,
      "Ġminutes": 3724,
      "Ġdevice": 3725,
      "Ġ50": 3726,
      "íĥľ": 3727,
      "Ġworks": 3728,
      "Ä±n": 3729,
      "Ġstar": 3730,
      "ĠSun": 3731,
      "Ġwhite": 3732,
      "ĠCheck": 3733,
      "ìĹĪìĬµëĭĪëĭ¤": 3734,
      "Ĥ´": 3735,
      "Ġregular": 3736,
      "Ġbelow": 3737,
      "ached": 3738,
      "Ġaccompl": 3739,
      "udd": 3740,
      "output": 3741,
      "Ø¯": 3742,
      "àº": 3743,
      "Ġstatic": 3744,
      "Ġeval": 3745,
      "Ġwide": 3746,
      "Ġmilitary": 3747,
      "imal": 3748,
      "://": 3749,
      "Set": 3750,
      "Ġsqu": 3751,
      "Ġíĸ": 3752,
      "arp": 3753,
      "Ġrather": 3754,
      "ĠWill": 3755,
      "Ġkil": 3756,
      "with": 3757,
      "Ġìĭł": 3758,
      "ression": 3759,
      "Ġsus": 3760,
      "Time": 3761,
      "Ġcand": 3762,
      "gorith": 3763,
      "Ġìĸ´ëĸ¤": 3764,
      "Ġtemperature": 3765,
      "Ġhalf": 3766,
      "Ġraise": 3767,
      "Ġestablish": 3768,
      "ont": 3769,
      "hand": 3770,
      "most": 3771,
      "ĠMan": 3772,
      "ensor": 3773,
      "ĠëĨĴ": 3774,
      "Ġteacher": 3775,
      "orage": 3776,
      "ĠAPI": 3777,
      "Ġparents": 3778,
      "Ġhappy": 3779,
      "ares": 3780,
      "Ġusually": 3781,
      "Ġult": 3782,
      "Ġdecl": 3783,
      "ëłĪ": 3784,
      "Ġweight": 3785,
      "Ġsafe": 3786,
      "Ġdistance": 3787,
      "fect": 3788,
      "ological": 3789,
      "ìłĲ": 3790,
      "Ġsequ": 3791,
      "Ġmemory": 3792,
      "Par": 3793,
      "14": 3794,
      "AR": 3795,
      "Ġopportun": 3796,
      "Ġmach": 3797,
      "Ñĩ": 3798,
      "ĠëĦ": 3799,
      "Ġrecommend": 3800,
      "yard": 3801,
      "Ġarr": 3802,
      "Ġoffice": 3803,
      "Ġwarm": 3804,
      "Ġë¨¹": 3805,
      "Ġaw": 3806,
      "Ġthrow": 3807,
      "Ġprevent": 3808,
      "Ġfinancial": 3809,
      "ÈĽ": 3810,
      "ĠNational": 3811,
      "Ġcollection": 3812,
      "Ġbuy": 3813,
      "Ġarri": 3814,
      "Ġentailed": 3815,
      "ĠHelp": 3816,
      "Ġinternational": 3817,
      "ë£Į": 3818,
      "ny": 3819,
      "Ġdocument": 3820,
      "64": 3821,
      "Pre": 3822,
      "direct": 3823,
      "mp": 3824,
      "ê²½": 3825,
      "friend": 3826,
      "ëĶ": 3827,
      "Ġagre": 3828,
      "Ġlives": 3829,
      "Ġpresident": 3830,
      "Ġconsum": 3831,
      "Ġtree": 3832,
      "Ġplants": 3833,
      "ĠJust": 3834,
      "itude": 3835,
      "ĠêµŃ": 3836,
      "ëĲĺëĬĶ": 3837,
      "Ġ|": 3838,
      "avig": 3839,
      "Ġparticip": 3840,
      "Ġnull": 3841,
      "Ġreference": 3842,
      "Ġsecurity": 3843,
      "Ġmor": 3844,
      "Ġheight": 3845,
      "Ġutil": 3846,
      "Ġë©": 3847,
      "Ġinj": 3848,
      "ttp": 3849,
      "ìĨį": 3850,
      "ĠBar": 3851,
      "Ġarch": 3852,
      "ĠDefine": 3853,
      "Ġbit": 3854,
      "Ġ24": 3855,
      "ĠëıĦ": 3856,
      "Ùħ": 3857,
      "Ġgames": 3858,
      "Ġremains": 3859,
      "Ġreach": 3860,
      "amb": 3861,
      "Ġargument": 3862,
      "Ġmind": 3863,
      "Ġrandom": 3864,
      "reci": 3865,
      "Ġspecies": 3866,
      "zech": 3867,
      "Ġquery": 3868,
      "Ġtransport": 3869,
      "Ġwindow": 3870,
      "ulates": 3871,
      "ĠSu": 3872,
      "Ġlevels": 3873,
      "Ġì°¨ìĿ´": 3874,
      "ÐµÐ½": 3875,
      "hern": 3876,
      "Ġcondition": 3877,
      "Ġscenari": 3878,
      "ync": 3879,
      "ëĦ": 3880,
      "];": 3881,
      "ips": 3882,
      "íģ¬": 3883,
      "error": 3884,
      "ormal": 3885,
      "Ġbi": 3886,
      "Ġfit": 3887,
      "TP": 3888,
      "ĠAnswer": 3889,
      "ĠìĤ¬ëŀĮ": 3890,
      "Ġpresence": 3891,
      "Ġcolle": 3892,
      "().": 3893,
      "ĠCal": 3894,
      "Ġactivity": 3895,
      "ĠTur": 3896,
      "ĠÃ®": 3897,
      "Ġstru": 3898,
      "Ġprogress": 3899,
      "Ġclasses": 3900,
      "Ġimm": 3901,
      "Ġthroughout": 3902,
      "Ġsample": 3903,
      "Ġcompleted": 3904,
      "ĠAfric": 3905,
      "ĠMy": 3906,
      "Ġsurface": 3907,
      "Ġgreen": 3908,
      "selves": 3909,
      "main": 3910,
      "Ġstri": 3911,
      "ĠìĿĮ": 3912,
      "Ġlen": 3913,
      "Ġcomes": 3914,
      "Ġmix": 3915,
      "iff": 3916,
      "Ġdifference": 3917,
      "Ġhighlights": 3918,
      "ĠNow": 3919,
      "AS": 3920,
      "idge": 3921,
      "Ġfront": 3922,
      "Ġpers": 3923,
      "ples": 3924,
      "umber": 3925,
      "Ġ?": 3926,
      "ades": 3927,
      "Ġproducts": 3928,
      "ĠHTML": 3929,
      "Ùĩ": 3930,
      "Ġcele": 3931,
      "Ġdouble": 3932,
      "Ġhor": 3933,
      "Ġwebs": 3934,
      "Ġboolean": 3935,
      "Ġwanted": 3936,
      "Ġbecomes": 3937,
      "Field": 3938,
      "à¯": 3939,
      "âĺ": 3940,
      "Ġrev": 3941,
      "ighb": 3942,
      "resh": 3943,
      "Ġmaximum": 3944,
      "ara": 3945,
      "ĠTest": 3946,
      "Ġrelease": 3947,
      "[\"": 3948,
      "Ġintrodu": 3949,
      "Ġdire": 3950,
      "include": 3951,
      "Ġindustry": 3952,
      "ĠNot": 3953,
      "ĠØ§": 3954,
      "uff": 3955,
      "Ġpark": 3956,
      "ering": 3957,
      "ĠEl": 3958,
      "Ġsettings": 3959,
      "Ġintegers": 3960,
      "Ġapproach": 3961,
      "ĠíĮĮ": 3962,
      "mon": 3963,
      "plain": 3964,
      "ha": 3965,
      "Ġgain": 3966,
      "Ġep": 3967,
      "elt": 3968,
      "icate": 3969,
      "Ġtoday": 3970,
      "Ġcomment": 3971,
      "Ģë¡ľ": 3972,
      "ti": 3973,
      "Ġfire": 3974,
      "ëĭ¨": 3975,
      "Ġconversation": 3976,
      "Ġgroups": 3977,
      "urch": 3978,
      "na": 3979,
      "Ġonline": 3980,
      "Ġsurr": 3981,
      "ialog": 3982,
      "Ġimportance": 3983,
      "bon": 3984,
      "using": 3985,
      "mosp": 3986,
      "==": 3987,
      "ãĥ": 3988,
      "Ġê³¼": 3989,
      "Ġfight": 3990,
      "ĠëĪ": 3991,
      "Ġincluded": 3992,
      "Ġdemonstrates": 3993,
      "Ġplayers": 3994,
      "ocal": 3995,
      "Ġviol": 3996,
      "rust": 3997,
      "sert": 3998,
      "Ġconstructor": 3999,
      "ME": 4000,
      "Ġeveryone": 4001,
      "ëŁī": 4002,
      "ĠíĨµ": 4003,
      "ĠSte": 4004,
      "Ġexperiences": 4005,
      "Ġsaying": 4006,
      "Ġheld": 4007,
      "ĠMo": 4008,
      "Ġsix": 4009,
      "ĠSet": 4010,
      "Ġstudy": 4011,
      "Ġproduction": 4012,
      "ì§ĢëĬĶ": 4013,
      "ĠÐ²": 4014,
      "Ġpurpose": 4015,
      "Ġobtain": 4016,
      "Ġê±´": 4017,
      "iter": 4018,
      "eb": 4019,
      "hr": 4020,
      "Ġì¢ħ": 4021,
      "more": 4022,
      "Øª": 4023,
      "Ġtone": 4024,
      "sider": 4025,
      "unch": 4026,
      "Ġforce": 4027,
      "Ġphone": 4028,
      "Ġpick": 4029,
      "Ġcomputer": 4030,
      "ename": 4031,
      "kn": 4032,
      "Ġplease": 4033,
      "Ġded": 4034,
      "ĠGu": 4035,
      "Ġattention": 4036,
      "ĠÐ¸": 4037,
      "Ġ40": 4038,
      "ĠìĦ¤": 4039,
      "gorithm": 4040,
      "ĠíĽĦ": 4041,
      "Ġmanage": 4042,
      "iday": 4043,
      "ĠPe": 4044,
      "eff": 4045,
      "ĠìĪ": 4046,
      "iful": 4047,
      "Ġ['": 4048,
      "Ġitself": 4049,
      "Ġdiss": 4050,
      "Ġclient": 4051,
      "ĠIntern": 4052,
      "Ġmass": 4053,
      "Ġappreci": 4054,
      "ĠìĿĺë¯¸": 4055,
      "Ġstatements": 4056,
      "ĠíķĦ": 4057,
      "ĠAb": 4058,
      "ĠSince": 4059,
      "µľ": 4060,
      "NA": 4061,
      "sing": 4062,
      "json": 4063,
      "Ġatmosp": 4064,
      "Ġpressure": 4065,
      "ux": 4066,
      "íĺķ": 4067,
      "ites": 4068,
      "ĠCar": 4069,
      "Ġgoes": 4070,
      "etimes": 4071,
      "Ġsold": 4072,
      "Ġchem": 4073,
      "ÑĢÐ°": 4074,
      "etic": 4075,
      "Ġincreased": 4076,
      "ĠStep": 4077,
      "ply": 4078,
      "13": 4079,
      "Ġprob": 4080,
      "html": 4081,
      "Ġmonths": 4082,
      "Ġstyle": 4083,
      "Ġscient": 4084,
      "TI": 4085,
      "ĠDav": 4086,
      "Ġmut": 4087,
      "java": 4088,
      "Generate": 4089,
      "ÈĻ": 4090,
      "Ġstrings": 4091,
      "Ġavoid": 4092,
      "ĠFalse": 4093,
      "Ġê²ĥìĿĢ": 4094,
      "Path": 4095,
      "ository": 4096,
      "ĠHouse": 4097,
      "Ġautom": 4098,
      "item": 4099,
      "Ġvar": 4100,
      "icit": 4101,
      "âĺħ": 4102,
      "map": 4103,
      "Ġinvolve": 4104,
      "Ġê¶ģ": 4105,
      "title": 4106,
      "ĠBr": 4107,
      "just": 4108,
      "pec": 4109,
      "Ġbank": 4110,
      "ìĹŃ": 4111,
      "Ġskills": 4112,
      "Ġevidence": 4113,
      "ĠìĻľ": 4114,
      "Contro": 4115,
      "oph": 4116,
      "ĠëĤ´": 4117,
      "gy": 4118,
      "Ġexists": 4119,
      "create": 4120,
      "ogle": 4121,
      "Ġcou": 4122,
      "Ġcred": 4123,
      "igration": 4124,
      "Ġ...": 4125,
      "mark": 4126,
      "rew": 4127,
      "pace": 4128,
      "Ġice": 4129,
      "ĠDr": 4130,
      "ĠDes": 4131,
      "ops": 4132,
      "ì¤": 4133,
      "Ġextracted": 4134,
      "tr": 4135,
      "ril": 4136,
      "Ġiterates": 4137,
      "ĠOb": 4138,
      "Ġtuple": 4139,
      "Ġbelie": 4140,
      "Object": 4141,
      "sem": 4142,
      "ì½": 4143,
      "And": 4144,
      "ìĭ¤": 4145,
      "ĠìĦľ": 4146,
      "After": 4147,
      "ondon": 4148,
      "Ġì¦": 4149,
      "Model": 4150,
      "hest": 4151,
      "parse": 4152,
      "iam": 4153,
      "17": 4154,
      "Hypothesis": 4155,
      "ĠÑģ": 4156,
      "ĠState": 4157,
      "Ġ''": 4158,
      "ĠíĬ¹": 4159,
      "state": 4160,
      "ought": 4161,
      "Ġplatform": 4162,
      "Ġefficient": 4163,
      "Ġinform": 4164,
      "ĠCent": 4165,
      "dat": 4166,
      "pecially": 4167,
      "Sum": 4168,
      "Ġdesigned": 4169,
      "Ġwor": 4170,
      "Ġsimpl": 4171,
      "Ġê°Ģì§Ģ": 4172,
      "unc": 4173,
      "ĠAir": 4174,
      "ounds": 4175,
      "\";": 4176,
      "à¬": 4177,
      "Ġconv": 4178,
      "Ġhimself": 4179,
      "Ġcourse": 4180,
      "ĠCzech": 4181,
      "Ġdom": 4182,
      "Ġextra": 4183,
      "ĠGeor": 4184,
      "Ġrelig": 4185,
      "hens": 4186,
      "When": 4187,
      "Ġëĭ¬": 4188,
      "ino": 4189,
      "Ġsaf": 4190,
      "astic": 4191,
      "Ġpotentially": 4192,
      "ĠRepublic": 4193,
      "ê¸°ë¥¼": 4194,
      "Ġinstead": 4195,
      "ĠAustral": 4196,
      "Ġvo": 4197,
      "anced": 4198,
      "Ġbelieve": 4199,
      "ĠJapanese": 4200,
      "Ġê²°": 4201,
      "._": 4202,
      "But": 4203,
      "Ġmanager": 4204,
      "Ġlegal": 4205,
      "ĠUnderstand": 4206,
      "OP": 4207,
      "40": 4208,
      "Ġcontact": 4209,
      "array": 4210,
      "ê»": 4211,
      "Ġdie": 4212,
      "Ġbio": 4213,
      "Ġprefer": 4214,
      "annel": 4215,
      "Ġsymbol": 4216,
      "earch": 4217,
      "Ġgraph": 4218,
      "ayer": 4219,
      "Ġhandles": 4220,
      "Ġletter": 4221,
      "Ġpurch": 4222,
      "Service": 4223,
      "Ġcollect": 4224,
      "ļ¨": 4225,
      "Ġproblems": 4226,
      "Ġë§¤": 4227,
      "Ġchallenges": 4228,
      "Ġsave": 4229,
      "ibr": 4230,
      ".\"?": 4231,
      "Ġíķĺì§Ģë§Į": 4232,
      "Ġappears": 4233,
      "ĠHar": 4234,
      "ĠAmerica": 4235,
      "Ġgrad": 4236,
      "AL": 4237,
      "Ġinitializes": 4238,
      "ection": 4239,
      "Ġcy": 4240,
      "Cont": 4241,
      "Ð·": 4242,
      "Ġdone": 4243,
      "íķĻ": 4244,
      "ĠHer": 4245,
      "Config": 4246,
      "Ġpossib": 4247,
      "ĠTranslate": 4248,
      "Ġscene": 4249,
      "ĠIndian": 4250,
      "Ã³n": 4251,
      "Ġnote": 4252,
      "ë¦¬ëĬĶ": 4253,
      "Ġdrink": 4254,
      "iding": 4255,
      "ĠNe": 4256,
      "Ġinstall": 4257,
      "Ġì¶Ķ": 4258,
      "ula": 4259,
      "Ġfn": 4260,
      "ĠÃ®n": 4261,
      "ĠOther": 4262,
      "Ġsuccessfully": 4263,
      "Sh": 4264,
      "};": 4265,
      "Ġswe": 4266,
      "Ġexam": 4267,
      "Ġhit": 4268,
      "Test": 4269,
      "ruction": 4270,
      "ĠìĿ¼ë°ĺ": 4271,
      "Ġconvey": 4272,
      "Ġê³Ħ": 4273,
      "Ġgas": 4274,
      "ED": 4275,
      "Ġtrain": 4276,
      "ĠApp": 4277,
      "Map": 4278,
      "Ġinsp": 4279,
      "Ġtax": 4280,
      "Ġthemselves": 4281,
      "adata": 4282,
      "Ġorigin": 4283,
      "Ġëĵ¤ìĸ´": 4284,
      "iers": 4285,
      "Ġang": 4286,
      "Ġsurround": 4287,
      "Ġreading": 4288,
      "Ġentity": 4289,
      "number": 4290,
      "ëĿ¼ê³ł": 4291,
      "Ġcells": 4292,
      "ĠTV": 4293,
      "alian": 4294,
      "Ġpassword": 4295,
      "Ġengine": 4296,
      "nes": 4297,
      "Task": 4298,
      "task": 4299,
      "Ġsoci": 4300,
      "Ġtal": 4301,
      "ims": 4302,
      "Ġemotional": 4303,
      "Ġupon": 4304,
      "Ġforward": 4305,
      "inese": 4306,
      "Ġparticularly": 4307,
      "Ġprior": 4308,
      "ĠMe": 4309,
      "ening": 4310,
      "Ġsafety": 4311,
      "Ġcur": 4312,
      "Function": 4313,
      "status": 4314,
      "´ë©": 4315,
      "Context": 4316,
      "Ġdecre": 4317,
      "rab": 4318,
      "request": 4319,
      "ë¦¬ê³ł": 4320,
      "Ġgreater": 4321,
      "rief": 4322,
      "zer": 4323,
      "sec": 4324,
      "Ġintegr": 4325,
      "Ġê°ĢëĬ¥": 4326,
      "Ġfloat": 4327,
      "ĠChina": 4328,
      "osition": 4329,
      "ountain": 4330,
      "hing": 4331,
      "Ġweather": 4332,
      "Ġsleep": 4333,
      "Ġdeal": 4334,
      "Ġfish": 4335,
      "itution": 4336,
      "Ġespecially": 4337,
      "Ġesc": 4338,
      "Ġcard": 4339,
      "Ġheat": 4340,
      "Ġë°ľìĥĿ": 4341,
      "Ġharm": 4342,
      "used": 4343,
      "attle": 4344,
      "table": 4345,
      "Ġshared": 4346,
      "oke": 4347,
      "ìķĪ": 4348,
      "Ġsitu": 4349,
      "Ġscreen": 4350,
      "Ġdiscover": 4351,
      "Ġvariables": 4352,
      "Ġeconomic": 4353,
      "ael": 4354,
      "Ġcenter": 4355,
      "ĠLondon": 4356,
      "íķĺì§Ģ": 4357,
      "nish": 4358,
      "Ġste": 4359,
      "Ġunit": 4360,
      "Ġpoll": 4361,
      "Ġsubst": 4362,
      "Ġvalidation": 4363,
      "45": 4364,
      "ìĿĦê¹ĮìļĶ": 4365,
      "ĠEd": 4366,
      "Ġdecor": 4367,
      "Ġresulting": 4368,
      "uary": 4369,
      "Ġaddition": 4370,
      "Message": 4371,
      "Ġsoftware": 4372,
      "cean": 4373,
      "Ġtechnology": 4374,
      "ango": 4375,
      "Ġles": 4376,
      "Ġheav": 4377,
      "ê¸°ê°Ģ": 4378,
      "Ġexact": 4379,
      "Ġda": 4380,
      "Ġsimply": 4381,
      "Ġpropos": 4382,
      "Ġreasons": 4383,
      "Item": 4384,
      "Ġtells": 4385,
      "Ġtalking": 4386,
      "Ġlost": 4387,
      "Ġadmin": 4388,
      "Ġjourney": 4389,
      "hood": 4390,
      "ocr": 4391,
      "Ġappl": 4392,
      "jo": 4393,
      "Ġopin": 4394,
      "Ġwearing": 4395,
      "ÄŁ": 4396,
      "Ġconstant": 4397,
      "Ġprimarily": 4398,
      "ospital": 4399,
      "etch": 4400,
      "Ġtoken": 4401,
      "(&": 4402,
      "Ġsources": 4403,
      "Ġrain": 4404,
      "Ġhope": 4405,
      "ĠJack": 4406,
      "Ġë³Ģ": 4407,
      "ses": 4408,
      "Ġequal": 4409,
      "ëĵ¤ìĿĢ": 4410,
      "ĠPart": 4411,
      "Ġblue": 4412,
      "hic": 4413,
      "length": 4414,
      "Ġalgorithm": 4415,
      "State": 4416,
      "ĠUse": 4417,
      "Ġdesired": 4418,
      "Ġcentury": 4419,
      "Ġyet": 4420,
      "ĠUnion": 4421,
      "istics": 4422,
      "Ġseparate": 4423,
      "Ġ||": 4424,
      "inct": 4425,
      "Ġìĭ¤": 4426,
      "Request": 4427,
      "Ġcalculates": 4428,
      "},": 4429,
      "ocation": 4430,
      "Ġbutton": 4431,
      "ĠìĹŃ": 4432,
      "Ġstandard": 4433,
      "Ġmaintaining": 4434,
      "Ġvisual": 4435,
      "íİ": 4436,
      "Text": 4437,
      "Ġê¶ģê¸Ī": 4438,
      "22": 4439,
      "ë¦Ħ": 4440,
      "ĠëĬ": 4441,
      "find": 4442,
      "Ġaudience": 4443,
      "aul": 4444,
      "ashing": 4445,
      "Ġmoment": 4446,
      "Ġcompar": 4447,
      "Ġcompared": 4448,
      "Ġrisk": 4449,
      "cy": 4450,
      "calculate": 4451,
      "Ġatmosphere": 4452,
      "Ġauthentic": 4453,
      "ifying": 4454,
      "Ġë°Ľ": 4455,
      "Ñħ": 4456,
      "Ġconver": 4457,
      ".'": 4458,
      "ĠRec": 4459,
      "ishes": 4460,
      "known": 4461,
      "ibility": 4462,
      "Ġadds": 4463,
      "Ġdataset": 4464,
      "ynam": 4465,
      "Ġìµľ": 4466,
      "Ġreflect": 4467,
      "Ġwife": 4468,
      "update": 4469,
      "Ġsecret": 4470,
      "Le": 4471,
      "Ġways": 4472,
      "Ġpunct": 4473,
      "Ġassume": 4474,
      "Ġhair": 4475,
      "Sub": 4476,
      "Ġstrugg": 4477,
      "àµ": 4478,
      "Ġleader": 4479,
      "Ġcourt": 4480,
      "BC": 4481,
      "Ġcatch": 4482,
      "íĸ¥": 4483,
      "Ġrecent": 4484,
      "]:": 4485,
      "Ġstack": 4486,
      "Ð¾Ð²": 4487,
      "Ġsex": 4488,
      "Ġëľ": 4489,
      "Log": 4490,
      "Ġleave": 4491,
      "Ġperfect": 4492,
      "icro": 4493,
      "Ġlonger": 4494,
      "sure": 4495,
      "Ġneighb": 4496,
      "change": 4497,
      "Ġinfluence": 4498,
      "uk": 4499,
      "íĤ¤": 4500,
      "Ġill": 4501,
      "Ġìŀ¥": 4502,
      "txt": 4503,
      "aid": 4504,
      "Ġspeed": 4505,
      "Ġexisting": 4506,
      "chan": 4507,
      "Ġago": 4508,
      "names": 4509,
      "íĮĮ": 4510,
      "ĠQu": 4511,
      "ì¢": 4512,
      "ĠAlthough": 4513,
      "ìļ¸": 4514,
      "Ġê¹": 4515,
      "Ġprec": 4516,
      "Ġíķ¨": 4517,
      "Ġfollowed": 4518,
      "Hand": 4519,
      "ê±°ëĤĺ": 4520,
      "case": 4521,
      "igned": 4522,
      "Ġtelevision": 4523,
      "ĠTom": 4524,
      "Event": 4525,
      "bit": 4526,
      "ĠCalculate": 4527,
      "Ġê·¸ëŁ¬": 4528,
      "ë¯Ģë¡ľ": 4529,
      "ĠDon": 4530,
      "Ġinteract": 4531,
      "Ġsystems": 4532,
      "Ġsurv": 4533,
      "xygen": 4534,
      "ê·¸": 4535,
      "check": 4536,
      "Ġperforms": 4537,
      "Ġren": 4538,
      "example": 4539,
      "apping": 4540,
      "Ġcirc": 4541,
      "Result": 4542,
      "ĠEast": 4543,
      "Ġoil": 4544,
      "ĠEngland": 4545,
      "ĠRed": 4546,
      "medi": 4547,
      "div": 4548,
      "eed": 4549,
      "appoint": 4550,
      "Ġnarr": 4551,
      "Ġcoordin": 4552,
      "ìłĪ": 4553,
      "Ġupdated": 4554,
      "Acc": 4555,
      "pat": 4556,
      "Ġhab": 4557,
      "Ġrequests": 4558,
      "Ġshape": 4559,
      "Ġserves": 4560,
      "ĠëķĮë¬¸ìŀħëĭĪëĭ¤": 4561,
      "Ġsuitable": 4562,
      "Ġcritic": 4563,
      "ĠItalian": 4564,
      "Not": 4565,
      "ables": 4566,
      "Ġlarger": 4567,
      "SS": 4568,
      "Ġmatter": 4569,
      "idden": 4570,
      "Ġpredict": 4571,
      "Ġplays": 4572,
      "Node": 4573,
      "Ġdecided": 4574,
      "Choose": 4575,
      "Em": 4576,
      "Ġreve": 4577,
      "utions": 4578,
      "Ġvill": 4579,
      "Ġadapt": 4580,
      "otions": 4581,
      "íĹ": 4582,
      "Ġdu": 4583,
      "Ġthreat": 4584,
      "choice": 4585,
      "80": 4586,
      "Form": 4587,
      "ĠMich": 4588,
      "ĠDep": 4589,
      "Ġë°°": 4590,
      "umb": 4591,
      ",âĢĿ": 4592,
      "Ġnavig": 4593,
      "typ": 4594,
      "istration": 4595,
      "Ġcreates": 4596,
      "Ġeffectively": 4597,
      "¦Ħ": 4598,
      "Ġwood": 4599,
      "Det": 4600,
      "Ġultimately": 4601,
      "sk": 4602,
      "Ġfulf": 4603,
      "ê²©": 4604,
      "ĠëĳĲ": 4605,
      "jango": 4606,
      "Ġwall": 4607,
      "Ġroad": 4608,
      "[]": 4609,
      "ëĬĶëį°": 4610,
      "escription": 4611,
      "Ġtag": 4612,
      "Ġstudent": 4613,
      "illing": 4614,
      "íķĺë©°": 4615,
      "coming": 4616,
      "opt": 4617,
      "200": 4618,
      "Ġbrother": 4619,
      "iring": 4620,
      "pen": 4621,
      "Ġupdates": 4622,
      "ously": 4623,
      "Ġdead": 4624,
      "vation": 4625,
      "Ġstars": 4626,
      "Ġgenerated": 4627,
      "None": 4628,
      "Ġ%": 4629,
      "Ġquarter": 4630,
      "ĠâĢĶ": 4631,
      "ĠReview": 4632,
      "Ġtransform": 4633,
      "Ġoffers": 4634,
      "aign": 4635,
      "Ġmodified": 4636,
      "Ġallowed": 4637,
      "ĠBoth": 4638,
      "rypt": 4639,
      "Complete": 4640,
      "icon": 4641,
      "IT": 4642,
      "ĠSm": 4643,
      "ì§ĳ": 4644,
      "ëĤ´": 4645,
      "Ġcontribute": 4646,
      "aughter": 4647,
      "Ġboard": 4648,
      "part": 4649,
      "Ġfail": 4650,
      "ham": 4651,
      "ĠÂ£": 4652,
      "Ġslow": 4653,
      "la": 4654,
      "Ġsports": 4655,
      "Process": 4656,
      "Ġanything": 4657,
      "ĠìĨį": 4658,
      "ë£¨": 4659,
      "Ġmachine": 4660,
      "ris": 4661,
      "place": 4662,
      "Can": 4663,
      "lar": 4664,
      "Ġfeed": 4665,
      "Ġlines": 4666,
      "Ġcoff": 4667,
      "Ġsmaller": 4668,
      "ald": 4669,
      "Ġfunc": 4670,
      "íĭ": 4671,
      "ĠChinese": 4672,
      "Ġê°Ĳ": 4673,
      "Ġcool": 4674,
      "ership": 4675,
      "False": 4676,
      "Ġmodern": 4677,
      "Ġaccurately": 4678,
      "Ġstage": 4679,
      "ĠData": 4680,
      "idents": 4681,
      "urt": 4682,
      "ĠWhich": 4683,
      "Ġtalks": 4684,
      "Ġbab": 4685,
      "Ġassert": 4686,
      "Ġjud": 4687,
      "Ġmechan": 4688,
      "Ġanimal": 4689,
      "ribution": 4690,
      "Ġrob": 4691,
      "Ġ)": 4692,
      "ille": 4693,
      "ĠCompare": 4694,
      "Ġprot": 4695,
      "anch": 4696,
      "ĠDem": 4697,
      "60": 4698,
      "rack": 4699,
      "Ass": 4700,
      "Ġimages": 4701,
      "Ġconsidering": 4702,
      "ET": 4703,
      "Ġplaces": 4704,
      "Ġenum": 4705,
      "ĠìĭĿ": 4706,
      "íĸĪ": 4707,
      "Rep": 4708,
      "Ġmatches": 4709,
      "Ġexpression": 4710,
      "ius": 4711,
      "Ġdang": 4712,
      "Ġíģ¬": 4713,
      "Ġremaining": 4714,
      "Ġìŀħ": 4715,
      "Ġparse": 4716,
      "ĠíĶ¼": 4717,
      "Ġfeeling": 4718,
      "Ġëħ¸": 4719,
      "icense": 4720,
      "Ġíķł": 4721,
      "Ġcelebr": 4722,
      "Which": 4723,
      "ë°ľ": 4724,
      "ĠìĿ´ë¦Ħ": 4725,
      "Or": 4726,
      "Ġhighly": 4727,
      "Select": 4728,
      "ln": 4729,
      "where": 4730,
      "current": 4731,
      "Ġur": 4732,
      "Ġsaw": 4733,
      "Ġcalls": 4734,
      "ĠInitial": 4735,
      "Ð¿": 4736,
      "ê¸°ëĬĶ": 4737,
      "Ġeffects": 4738,
      "ĨĲ": 4739,
      "Ġ`__": 4740,
      "Ġconflic": 4741,
      "Ġexecute": 4742,
      "ĠIndia": 4743,
      "ĠAlex": 4744,
      "Ġwhole": 4745,
      "First": 4746,
      "Ġsequence": 4747,
      "EN": 4748,
      "Ġcommands": 4749,
      "raint": 4750,
      "Ġprocessed": 4751,
      "Ġfast": 4752,
      "ico": 4753,
      "Ġsn": 4754,
      "Ġforces": 4755,
      "aches": 4756,
      "ĠJava": 4757,
      "Ġremember": 4758,
      "ĠÐ½": 4759,
      "ĠFinnish": 4760,
      "Ġquickly": 4761,
      "Ġencour": 4762,
      "Ġmur": 4763,
      "Ġindicate": 4764,
      "ì¤ĳ": 4765,
      "Ġpaper": 4766,
      "Ġgenerally": 4767,
      "##": 4768,
      "ani": 4769,
      "isions": 4770,
      "Ġì¤": 4771,
      "Ġcomfort": 4772,
      "Ġìĸĳ": 4773,
      "Ġcross": 4774,
      "Ġhom": 4775,
      "ìĿ´ë©°": 4776,
      "Ġartist": 4777,
      "++": 4778,
      "cast": 4779,
      "ĠTrump": 4780,
      "Ġprin": 4781,
      "generate": 4782,
      "Ġdise": 4783,
      "ê±": 4784,
      "ê¶": 4785,
      "Ġmap": 4786,
      "ponent": 4787,
      "based": 4788,
      "ĠAcc": 4789,
      "Ġemotions": 4790,
      "Ġeasy": 4791,
      "ici": 4792,
      "ensions": 4793,
      "ëĳĲ": 4794,
      "Ġelif": 4795,
      "zz": 4796,
      "Ġbool": 4797,
      "Ġcommunication": 4798,
      "Ġsend": 4799,
      "Ġcast": 4800,
      "Ġcultural": 4801,
      ".âĢĿ": 4802,
      "Ġmoving": 4803,
      "pected": 4804,
      "atives": 4805,
      "Ġclos": 4806,
      "Ġcompan": 4807,
      "Ġallowing": 4808,
      "Ġcoffee": 4809,
      "Ġgoals": 4810,
      "rote": 4811,
      "Ġregister": 4812,
      "object": 4813,
      "split": 4814,
      "Ġcurrently": 4815,
      "Ġìĥī": 4816,
      "From": 4817,
      "ivil": 4818,
      "Ġfix": 4819,
      "Ġë§İìĿ´": 4820,
      "Ġmovement": 4821,
      "php": 4822,
      "kish": 4823,
      "po": 4824,
      "QL": 4825,
      "AN": 4826,
      "ĠPort": 4827,
      "content": 4828,
      "Ġinit": 4829,
      "Ġeducation": 4830,
      "Ġíı¬": 4831,
      "Ġing": 4832,
      "rec": 4833,
      "Ġenter": 4834,
      "Ġshop": 4835,
      "Ġlogical": 4836,
      "len": 4837,
      "iet": 4838,
      "agine": 4839,
      "label": 4840,
      "oding": 4841,
      "men": 4842,
      "Ġoxygen": 4843,
      "adem": 4844,
      "Ġroot": 4845,
      "Ġstored": 4846,
      "Ġpiece": 4847,
      "»ê²Į": 4848,
      "Ġ195": 4849,
      "With": 4850,
      "ì¢ħ": 4851,
      "ëª¨": 4852,
      "hel": 4853,
      "Ġaltern": 4854,
      "(),": 4855,
      "Ġensures": 4856,
      "Ġwebsite": 4857,
      "rict": 4858,
      "Ġrights": 4859,
      "ribute": 4860,
      "ĠBased": 4861,
      "Ġhighest": 4862,
      "Ġhappened": 4863,
      "ĠíĻĶ": 4864,
      "Get": 4865,
      "à±": 4866,
      "íļĮ": 4867,
      "Ġ22": 4868,
      "Ġapply": 4869,
      "Ġpassed": 4870,
      "Ġeventually": 4871,
      "peration": 4872,
      "ĠâĢĺ": 4873,
      "Ġfem": 4874,
      "Ġdialog": 4875,
      "alities": 4876,
      "Ġgrammar": 4877,
      "][": 4878,
      "Ġcompre": 4879,
      "Ġìļ©": 4880,
      "ĠCounty": 4881,
      "ì²ĺ": 4882,
      "ressed": 4883,
      "Ġvehic": 4884,
      "ĠíķĺëĬĶ": 4885,
      "ĠIr": 4886,
      "ae": 4887,
      "Ġearl": 4888,
      "atory": 4889,
      "Ġlargest": 4890,
      "Ġinn": 4891,
      "ĠÐ¾": 4892,
      "Ġdru": 4893,
      "Ġstat": 4894,
      "Ġkids": 4895,
      "Read": 4896,
      "Ġconsequ": 4897,
      "swift": 4898,
      "íĺĦ": 4899,
      "amera": 4900,
      "ugust": 4901,
      "Ġparent": 4902,
      "Ġbuilt": 4903,
      "¦¬": 4904,
      "Ġnumerous": 4905,
      "Ġbeautiful": 4906,
      "Ġìķ½": 4907,
      "Ġcouple": 4908,
      "ª½": 4909,
      "etime": 4910,
      "âĢĶ": 4911,
      "ĠReg": 4912,
      "byst": 4913,
      "Ġdied": 4914,
      "ĠCo": 4915,
      "ĠCor": 4916,
      "Ġbelong": 4917,
      "Ġactive": 4918,
      "Ġproduce": 4919,
      "bystep": 4920,
      "tem": 4921,
      "Ġì½": 4922,
      "ctober": 4923,
      "Ġrepresentation": 4924,
      "Ġcarry": 4925,
      "Custom": 4926,
      "Ind": 4927,
      "Ġstarts": 4928,
      "Ġlanguages": 4929,
      "Ġquant": 4930,
      "ww": 4931,
      "ĠJames": 4932,
      "Ġcontinued": 4933,
      "Ġcampaign": 4934,
      "NN": 4935,
      "stamp": 4936,
      "ĠFrance": 4937,
      "ĠSept": 4938,
      "Ġmodels": 4939,
      "Ġorganization": 4940,
      "Ġrender": 4941,
      "Ġrace": 4942,
      "ees": 4943,
      "Ġê·¸ë¦¬ê³ł": 4944,
      "Ġserial": 4945,
      "lands": 4946,
      "\">": 4947,
      "Ġexcept": 4948,
      "format": 4949,
      "Ġwants": 4950,
      "Ġexecution": 4951,
      "Ġ!=": 4952,
      "iration": 4953,
      "Ġimpossible": 4954,
      "ëĵł": 4955,
      "Ġefforts": 4956,
      "iling": 4957,
      "Ġìĸ´ëĸ»ê²Į": 4958,
      "ques": 4959,
      "Ġincreasing": 4960,
      "Ġmeeting": 4961,
      "cember": 4962,
      "ìĦ¸ìļĶ": 4963,
      "íĳľ": 4964,
      "Info": 4965,
      "Ġmaterials": 4966,
      "Ġgrid": 4967,
      "ĠUK": 4968,
      "íı¬": 4969,
      "Ġskin": 4970,
      "Ġmedical": 4971,
      "ëģ": 4972,
      "Ġannoun": 4973,
      "ĠìķĦëĭĪ": 4974,
      "Ġfigure": 4975,
      "draw": 4976,
      "Ġdirector": 4977,
      "Ġemerg": 4978,
      "Image": 4979,
      "Ġpolicy": 4980,
      "Ġindepend": 4981,
      "ened": 4982,
      "antic": 4983,
      "Ġ60": 4984,
      "directory": 4985,
      "Ġround": 4986,
      "Ġê°ķ": 4987,
      "body": 4988,
      "Ġfeelings": 4989,
      "Ġdin": 4990,
      "Ð¹": 4991,
      "Ġresource": 4992,
      "trans": 4993,
      "ocket": 4994,
      "omb": 4995,
      "Ġexerc": 4996,
      "íĶĦ": 4997,
      "ĠDavid": 4998,
      "Ġgather": 4999,
      "ications": 5000,
      "IS": 5001,
      "mut": 5002,
      "ĠCustom": 5003,
      "ìľ¼ë©´": 5004,
      "Ġhands": 5005,
      "Ġê¶ģê¸Īíķ©ëĭĪëĭ¤": 5006,
      "Ġíĺķ": 5007,
      "Ġ21": 5008,
      "can": 5009,
      "cpp": 5010,
      "Ġê°Ģìŀ¥": 5011,
      "Ġworked": 5012,
      "Ġlayer": 5013,
      "ography": 5014,
      "33": 5015,
      "Ġpan": 5016,
      "Ġserved": 5017,
      "Ġconfirm": 5018,
      "Ġwrote": 5019,
      "}\")": 5020,
      "ìĿ´ëĬĶ": 5021,
      "Ġkilled": 5022,
      "da": 5023,
      "Ġincorrect": 5024,
      "ĠSam": 5025,
      "Ġvot": 5026,
      "Ġdirection": 5027,
      "iforn": 5028,
      "Ġconvert": 5029,
      "Ġspeak": 5030,
      "Ġbed": 5031,
      "std": 5032,
      "ê¸ī": 5033,
      "ship": 5034,
      "nal": 5035,
      "ìķ½": 5036,
      "ĠFl": 5037,
      "Just": 5038,
      "Ġ<=": 5039,
      "pdate": 5040,
      "ëĭ¤ë©´": 5041,
      "Ġsens": 5042,
      "isms": 5043,
      "ìĹ°": 5044,
      "Ġdifferences": 5045,
      "Ġconcerns": 5046,
      "ĠJune": 5047,
      "Ġdisappoint": 5048,
      "Ġê°ģ": 5049,
      "ë¶ĢíĦ°": 5050,
      "App": 5051,
      "íķ´ìķ¼": 5052,
      "ka": 5053,
      "ÑĢÐµ": 5054,
      "Ġdim": 5055,
      "ÄĽ": 5056,
      "Ġmode": 5057,
      "angle": 5058,
      "fn": 5059,
      "ĠMus": 5060,
      "files": 5061,
      "ì¶ľ": 5062,
      "oms": 5063,
      "wo": 5064,
      "alled": 5065,
      "ado": 5066,
      "ifornia": 5067,
      "Ġcold": 5068,
      "wood": 5069,
      "Ġmiddle": 5070,
      "rought": 5071,
      "Ġrequires": 5072,
      "Ġrelationships": 5073,
      "ĠíķĦìļĶ": 5074,
      "ìĹĲëıĦ": 5075,
      "Ġlif": 5076,
      "ĠëĮĢíķľ": 5077,
      "ë³¸": 5078,
      "Ġsession": 5079,
      "ĠMed": 5080,
      "Ġreported": 5081,
      "Ġselected": 5082,
      "Ġchemical": 5083,
      "itect": 5084,
      "ĠDo": 5085,
      "à¤¾": 5086,
      "Ġfamous": 5087,
      "istry": 5088,
      "Ġenh": 5089,
      "ìĹħ": 5090,
      "Ġculture": 5091,
      "fix": 5092,
      "alle": 5093,
      "Ġteams": 5094,
      "node": 5095,
      "Ġproperly": 5096,
      "Ġcaused": 5097,
      "Ú©": 5098,
      "Premise": 5099,
      "Ġbrief": 5100,
      "Ġìŀĺ": 5101,
      "Ġcounter": 5102,
      "gment": 5103,
      "db": 5104,
      "ĠPark": 5105,
      "100": 5106,
      "ords": 5107,
      "Ġframework": 5108,
      "ĠGet": 5109,
      "level": 5110,
      "Ġëģ": 5111,
      "Ġvalidate": 5112,
      "Ġworth": 5113,
      "Code": 5114,
      "ĠJanuary": 5115,
      "Ġpoor": 5116,
      "Class": 5117,
      "band": 5118,
      "AC": 5119,
      "ĠFirst": 5120,
      "Ġsometimes": 5121,
      "Ġleaving": 5122,
      "Ġì¢ĭìĬµëĭĪëĭ¤": 5123,
      "ĠìĿ´ëĬĶ": 5124,
      "íĽĦ": 5125,
      "Ġcreation": 5126,
      "Ġnut": 5127,
      "Ġstaff": 5128,
      "Ġdark": 5129,
      "Ġ(\"": 5130,
      "ĠVer": 5131,
      "position": 5132,
      "Ġslight": 5133,
      "Ġíģ": 5134,
      "Create": 5135,
      "igr": 5136,
      "ĠSeptember": 5137,
      "chron": 5138,
      "ĠìļĶ": 5139,
      "ĠLeague": 5140,
      "Ġhowever": 5141,
      "ilies": 5142,
      "Ġinher": 5143,
      "Ġ{'": 5144,
      "Ġbeg": 5145,
      "zy": 5146,
      "ingu": 5147,
      "group": 5148,
      "íĶ¼": 5149,
      "ĠAct": 5150,
      "Controller": 5151,
      "Do": 5152,
      "rip": 5153,
      "alyz": 5154,
      "DE": 5155,
      "related": 5156,
      "Ġstreet": 5157,
      "Ġactor": 5158,
      "yr": 5159,
      "ÈĻi": 5160,
      "ponse": 5161,
      "Ġjump": 5162,
      "atur": 5163,
      "ffic": 5164,
      "Ġdownload": 5165,
      "ĠMark": 5166,
      "ĠPre": 5167,
      "Ġ2012": 5168,
      "Ġmid": 5169,
      "char": 5170,
      "istan": 5171,
      "box": 5172,
      "build": 5173,
      "Ġ2013": 5174,
      "!\"": 5175,
      "ampions": 5176,
      "Ġserve": 5177,
      "Ġê·¸ëŁ¬ëĤĺ": 5178,
      "ĠComb": 5179,
      "ìĺģ": 5180,
      "Ġlimit": 5181,
      "Ġcarbon": 5182,
      "ĠChar": 5183,
      "Ġgiving": 5184,
      "Ġimmedi": 5185,
      "Ġregarding": 5186,
      "opping": 5187,
      "´ĳ": 5188,
      "ĠBro": 5189,
      "Ġperformed": 5190,
      "ĠìĻ¸": 5191,
      "ĠÐº": 5192,
      "ucle": 5193,
      "Ġmis": 5194,
      "ĠëĤĺíĥĢ": 5195,
      "ĠBill": 5196,
      "Ġspir": 5197,
      "Ġpieces": 5198,
      "ovember": 5199,
      "Ġë§Įëĵ¤ìĸ´": 5200,
      "olute": 5201,
      "Ġê²ĥìĿĦ": 5202,
      "Ġleaves": 5203,
      "Let": 5204,
      "Ġstorage": 5205,
      "rian": 5206,
      "force": 5207,
      "perty": 5208,
      "Ġsoon": 5209,
      "Ġhistorical": 5210,
      "Ġdaughter": 5211,
      "ĢìĿ´": 5212,
      "Ġ2010": 5213,
      "Ġbound": 5214,
      "Ġlogging": 5215,
      "Option": 5216,
      "ederal": 5217,
      "chen": 5218,
      "Ġrule": 5219,
      "Ġpunctuation": 5220,
      "Ġ``": 5221,
      "mand": 5222,
      "bed": 5223,
      "Ġdamage": 5224,
      "Ġecho": 5225,
      "Ġgrand": 5226,
      "ĠMarch": 5227,
      "Ġspent": 5228,
      "ĠOver": 5229,
      "Ġnice": 5230,
      "Ġamb": 5231,
      "'d": 5232,
      "Ġnormal": 5233,
      "ĠGree": 5234,
      "ttps": 5235,
      "Ġexplicit": 5236,
      "loat": 5237,
      "';": 5238,
      "¨ìĸ´": 5239,
      "Ġmorning": 5240,
      "Ġideas": 5241,
      "aching": 5242,
      "idate": 5243,
      "ĠApril": 5244,
      "func": 5245,
      "acity": 5246,
      "lam": 5247,
      "ĠJuly": 5248,
      "Ġwat": 5249,
      "Ġtruth": 5250,
      "ĠìĿ´ìļ©": 5251,
      "Ġasks": 5252,
      "24": 5253,
      "Ġidentified": 5254,
      "extract": 5255,
      "ë¦¬ë¥¼": 5256,
      "ĠëĤ´ë": 5257,
      "Att": 5258,
      "ĠìĤ°": 5259,
      "Ġadjust": 5260,
      "ìĹĲê²Į": 5261,
      "ĠLa": 5262,
      "Ġdistinct": 5263,
      "Ġnation": 5264,
      "Ġbeginning": 5265,
      "Ġvector": 5266,
      "à§": 5267,
      "Ġformed": 5268,
      "writ": 5269,
      "Ġcit": 5270,
      "values": 5271,
      "Ġflag": 5272,
      "bin": 5273,
      "Ġcarefully": 5274,
      "Ent": 5275,
      "orch": 5276,
      "Ġdeg": 5277,
      "lin": 5278,
      "sharp": 5279,
      "ias": 5280,
      "Ġcriteria": 5281,
      "uming": 5282,
      "Ġcontainer": 5283,
      "ls": 5284,
      "Ġíļ¨": 5285,
      "Ġcritical": 5286,
      "Ġsite": 5287,
      "Ġcontra": 5288,
      "ì»": 5289,
      "itter": 5290,
      "Ġoptim": 5291,
      "ician": 5292,
      "Ġfelt": 5293,
      "Ġì´Ī": 5294,
      "ĠOctober": 5295,
      "ĠCalifornia": 5296,
      "Ġwidth": 5297,
      "Ġplans": 5298,
      "Ġscenario": 5299,
      "ĠForm": 5300,
      "total": 5301,
      "Number": 5302,
      "íķ´ìĦľ": 5303,
      "Ġintended": 5304,
      "ĠTurkish": 5305,
      "Ġalmost": 5306,
      "Ġweeks": 5307,
      "agn": 5308,
      "ceed": 5309,
      "Def": 5310,
      "sts": 5311,
      "Ġcomparison": 5312,
      "Ġproduced": 5313,
      "Ġ27": 5314,
      "ìĺ¨": 5315,
      "ê»ĺ": 5316,
      "Ġconduct": 5317,
      "tion": 5318,
      "ĠII": 5319,
      "Ġëĭ¤ìĸĳ": 5320,
      "ij": 5321,
      "email": 5322,
      "ĠAugust": 5323,
      "Ġnothing": 5324,
      "Ġì§Ħ": 5325,
      "account": 5326,
      "Ġcausing": 5327,
      "ashington": 5328,
      "íĨ": 5329,
      "ĠDecember": 5330,
      "ìª½": 5331,
      "Ġkeywords": 5332,
      "vis": 5333,
      "iÃ³n": 5334,
      "za": 5335,
      "Ġmeasure": 5336,
      "csharp": 5337,
      "ĠNovember": 5338,
      "Frame": 5339,
      "hib": 5340,
      "host": 5341,
      "Ġactually": 5342,
      "Ġvers": 5343,
      "ĠTra": 5344,
      "ì¸": 5345,
      "Ġmanaging": 5346,
      "ĠSan": 5347,
      "ĠWho": 5348,
      "Ġeasily": 5349,
      "ios": 5350,
      "Ġsurpr": 5351,
      "Ġple": 5352,
      "Ġ23": 5353,
      "ĠKore": 5354,
      "command": 5355,
      "ĠChoose": 5356,
      "ë©´ìĦľ": 5357,
      "íķ©": 5358,
      "Ġinfer": 5359,
      "´ëı": 5360,
      "Ġsoil": 5361,
      "Ġsand": 5362,
      "event": 5363,
      "Ġdict": 5364,
      "unk": 5365,
      "ĠìŀĪìľ¼ë©°": 5366,
      "Ġhospital": 5367,
      "Ġgives": 5368,
      "Ġspecifications": 5369,
      "Ġeverything": 5370,
      "ĠSub": 5371,
      "ìłĢ": 5372,
      "cil": 5373,
      "Ġdiverse": 5374,
      "Ġwalking": 5375,
      "lines": 5376,
      "Ġ2014": 5377,
      "Ġsignificantly": 5378,
      "ì§ģ": 5379,
      "Ġcomprehens": 5380,
      "Ġearlier": 5381,
      "Ġschedu": 5382,
      "Ġmurder": 5383,
      "Ġten": 5384,
      "Ġcopy": 5385,
      "Ġsnow": 5386,
      "Ġ},": 5387,
      "edy": 5388,
      "ĠGoogle": 5389,
      "Ġfear": 5390,
      "Ġbott": 5391,
      "Script": 5392,
      "Ġgave": 5393,
      "ĠSk": 5394,
      "Ġoccurs": 5395,
      "aled": 5396,
      "99": 5397,
      "aught": 5398,
      "Ġfarm": 5399,
      "ĠAg": 5400,
      "exec": 5401,
      "cos": 5402,
      "Ġentertain": 5403,
      "Ġengaging": 5404,
      "ìĪł": 5405,
      "roid": 5406,
      "icket": 5407,
      "Ġretrieves": 5408,
      "Ġhop": 5409,
      "Ġnoun": 5410,
      "know": 5411,
      "Ġprompt": 5412,
      "Ī¬": 5413,
      "Ġearth": 5414,
      "ĠRob": 5415,
      "api": 5416,
      "Ġcontinu": 5417,
      "kes": 5418,
      "Ġelectric": 5419,
      "ĠMore": 5420,
      "ero": 5421,
      "íħ": 5422,
      "Ġpairs": 5423,
      "([": 5424,
      "Ġ28": 5425,
      "lim": 5426,
      "filter": 5427,
      "ĠMichael": 5428,
      "rey": 5429,
      "Ġ`_": 5430,
      "One": 5431,
      "Ġcu": 5432,
      "ëĭ¤ê³ł": 5433,
      "Ġones": 5434,
      "ĠëĤ¨": 5435,
      "Ġpowerful": 5436,
      "Ġestablished": 5437,
      "inn": 5438,
      "rupt": 5439,
      "Ġinterpre": 5440,
      "ë¦¬ê°Ģ": 5441,
      "Ġëľ»": 5442,
      "Ġstock": 5443,
      "ĠPaul": 5444,
      "Ġìĸ´": 5445,
      "Ġmatrix": 5446,
      "Ġ194": 5447,
      "Since": 5448,
      "Ġdry": 5449,
      "Ġrich": 5450,
      "Sc": 5451,
      "agon": 5452,
      "ĠWhite": 5453,
      "atically": 5454,
      "Ġcompanies": 5455,
      "Ġrecords": 5456,
      "Ġsecure": 5457,
      "All": 5458,
      "true": 5459,
      "Ġâ": 5460,
      "Ġbur": 5461,
      "Ġgets": 5462,
      "Ġdissatisf": 5463,
      "ĠName": 5464,
      "Ġclim": 5465,
      "lement": 5466,
      "Ġpeace": 5467,
      "ulations": 5468,
      "Ġìĵ": 5469,
      "Ġtemplate": 5470,
      "och": 5471,
      "Ġinstructions": 5472,
      "Ġexecuted": 5473,
      "ëĭ¬": 5474,
      "Ġnovel": 5475,
      "Ġwriter": 5476,
      "Ġtalent": 5477,
      "ĠPeople": 5478,
      "Ġisn": 5479,
      "olic": 5480,
      "tract": 5481,
      "ĠSen": 5482,
      "ros": 5483,
      "Ġgun": 5484,
      "Ġfinding": 5485,
      "Ġvariety": 5486,
      "Ð±": 5487,
      "íķ¨": 5488,
      "ĠUI": 5489,
      "Ġreplace": 5490,
      "Ġbaby": 5491,
      "Ġrepe": 5492,
      "Ġconcepts": 5493,
      "Ġhar": 5494,
      "Ã¤n": 5495,
      "ternal": 5496,
      "bash": 5497,
      "holder": 5498,
      "Ġdream": 5499,
      "DI": 5500,
      "Ġcollabor": 5501,
      "ì¼": 5502,
      "ĠHTTP": 5503,
      "ìĶ": 5504,
      "Ġeth": 5505,
      "inem": 5506,
      "Ġdynam": 5507,
      "OS": 5508,
      "ĠTex": 5509,
      "ria": 5510,
      "Ġmanip": 5511,
      "Ġspread": 5512,
      "Ġforms": 5513,
      "ĠìłĢ": 5514,
      "items": 5515,
      "Ġfamilies": 5516,
      "Ġtechni": 5517,
      "Handler": 5518,
      "df": 5519,
      "Ġdetect": 5520,
      "Ġsection": 5521,
      "iance": 5522,
      "ĠÈĻi": 5523,
      "Ġgold": 5524,
      "Ġwind": 5525,
      "×ķ": 5526,
      "Over": 5527,
      "Ġdev": 5528,
      "Ġsitting": 5529,
      "Ġpen": 5530,
      "Ġreasonable": 5531,
      "ooth": 5532,
      "Ġcoher": 5533,
      "Ġrelative": 5534,
      "Ã¢": 5535,
      "Ġearn": 5536,
      "lock": 5537,
      "top": 5538,
      "ĠWashington": 5539,
      "ĠThom": 5540,
      "Ġtrees": 5541,
      "Ġsongs": 5542,
      "Ġtraditional": 5543,
      "ida": 5544,
      "ilk": 5545,
      "ĠPat": 5546,
      "Ġcontinues": 5547,
      "Ø³": 5548,
      "Conclusion": 5549,
      "Ġsport": 5550,
      "avas": 5551,
      "Ġcalculated": 5552,
      "Ġbrought": 5553,
      "unt": 5554,
      "Ġarrest": 5555,
      "Ġìŀ¬": 5556,
      "Ġpret": 5557,
      "ien": 5558,
      "Ġbond": 5559,
      "Ġstanding": 5560,
      "Date": 5561,
      "Ġbasic": 5562,
      "De": 5563,
      "Ġcentral": 5564,
      "orter": 5565,
      "uesday": 5566,
      "Ġsav": 5567,
      "acing": 5568,
      "ĠKe": 5569,
      "ĠTe": 5570,
      "ulti": 5571,
      "Ġtouchdown": 5572,
      "Ġstrength": 5573,
      "Ġ2011": 5574,
      "Ġmenu": 5575,
      "Ġarchitect": 5576,
      "Te": 5577,
      "dep": 5578,
      "ĠObama": 5579,
      "Ġshown": 5580,
      "Ġguess": 5581,
      "Ġpreser": 5582,
      "inder": 5583,
      "Ġeffective": 5584,
      "Ġfinally": 5585,
      "Ġpractice": 5586,
      "equ": 5587,
      "write": 5588,
      "omet": 5589,
      "Ġfeet": 5590,
      "Ġfresh": 5591,
      "icated": 5592,
      "Ġindeed": 5593,
      "Ð½Ð¸": 5594,
      "Ġdespite": 5595,
      "oon": 5596,
      "Ġpu": 5597,
      "Ġstation": 5598,
      "Ad": 5599,
      "Ġfans": 5600,
      "Ġcompetition": 5601,
      "Ġwhose": 5602,
      "mas": 5603,
      "target": 5604,
      "ĠSign": 5605,
      "Ġeyes": 5606,
      "Ġsociety": 5607,
      "Ġpaths": 5608,
      "ĠGeorge": 5609,
      "ðŁ": 5610,
      "Ġattract": 5611,
      "ĠëĪĪ": 5612,
      "arg": 5613,
      "ìŀĪ": 5614,
      "Ġadhere": 5615,
      "Ġserious": 5616,
      "Gr": 5617,
      "det": 5618,
      "At": 5619,
      "Ġrepository": 5620,
      "ë¯¼": 5621,
      "ĠSchool": 5622,
      "Ġdestination": 5623,
      "iber": 5624,
      "Ġath": 5625,
      "param": 5626,
      "×Ļ": 5627,
      "ë°Ķ": 5628,
      "ê°ķ": 5629,
      "ĠØ¨": 5630,
      "Ġcompare": 5631,
      "Ġsimulates": 5632,
      "Ġextracts": 5633,
      "Ġquite": 5634,
      "Ġlimited": 5635,
      "ìĿ´ëĿ¼ëĬĶ": 5636,
      "lib": 5637,
      "ĠType": 5638,
      "Ġexperienced": 5639,
      "avascript": 5640,
      "ĠOption": 5641,
      "Invalid": 5642,
      "Ġcauses": 5643,
      "âĺħâĺħ": 5644,
      "ais": 5645,
      "Ġmyst": 5646,
      "Ġachie": 5647,
      "ê¹Įì§Ģ": 5648,
      "((": 5649,
      "answer": 5650,
      "Ġì»": 5651,
      "êµĲ": 5652,
      "Ġì²ĺ": 5653,
      "ÙĬ": 5654,
      "Ġíİ": 5655,
      "Ġmiles": 5656,
      "base": 5657,
      "ĠMex": 5658,
      "Ġappearance": 5659,
      "sy": 5660,
      "Ġ[\"": 5661,
      "airs": 5662,
      "Ġalph": 5663,
      "Ġclearly": 5664,
      "house": 5665,
      "ouncil": 5666,
      "Ġconnected": 5667,
      "Ġtim": 5668,
      "Ġcoming": 5669,
      "efore": 5670,
      "Ġdivid": 5671,
      "ĠGener": 5672,
      "ìĿ¼ê¹ĮìļĶ": 5673,
      "Ġgrowing": 5674,
      "Ġthread": 5675,
      "ĠAc": 5676,
      "inated": 5677,
      "ĠHigh": 5678,
      "Ġadult": 5679,
      "Ġtransfer": 5680,
      "ì¦Ŀ": 5681,
      "itar": 5682,
      "ĠÙħ": 5683,
      "ĠHand": 5684,
      "íĹĺ": 5685,
      "ìĭ¬": 5686,
      "remove": 5687,
      "ston": 5688,
      "ulated": 5689,
      "Ġê²ĥìľ¼ë¡ľ": 5690,
      "However": 5691,
      "Ġclimate": 5692,
      "ini": 5693,
      "Implement": 5694,
      "Ġspeaker": 5695,
      "Ġmusical": 5696,
      "Ġacqu": 5697,
      "ĠArab": 5698,
      "ìĽĮ": 5699,
      "Qu": 5700,
      "Ġroute": 5701,
      "Ġsem": 5702,
      "Ġcontract": 5703,
      "Ġready": 5704,
      "Ġreligious": 5705,
      "ĠRober": 5706,
      "nections": 5707,
      "Ġë²Ī": 5708,
      "Ð½Ñĭ": 5709,
      "urthermore": 5710,
      "ĠEr": 5711,
      "Ġalign": 5712,
      "ìħ": 5713,
      "ë¦¼": 5714,
      "Ġincident": 5715,
      "Ġwest": 5716,
      "iable": 5717,
      "Ġburn": 5718,
      "Ġfactor": 5719,
      "Build": 5720,
      "join": 5721,
      "ruary": 5722,
      "ĠSch": 5723,
      "lymp": 5724,
      "going": 5725,
      "Ġmental": 5726,
      "Act": 5727,
      "Ġpicture": 5728,
      "abled": 5729,
      "javascript": 5730,
      "Ġja": 5731,
      "Ġdemonstrate": 5732,
      "ategory": 5733,
      "Ġcup": 5734,
      "ê°Ĳ": 5735,
      "planation": 5736,
      "Ġmov": 5737,
      "Ġinterview": 5738,
      "ĠRomanian": 5739,
      "asket": 5740,
      "ĠMary": 5741,
      "anks": 5742,
      "Ġapprox": 5743,
      "Ġpublished": 5744,
      "Ġfavorite": 5745,
      "ref": 5746,
      "cel": 5747,
      "oded": 5748,
      "ë§¤": 5749,
      "à«": 5750,
      "Ġfilms": 5751,
      "Ġcombination": 5752,
      "21": 5753,
      "igger": 5754,
      "Ġhelped": 5755,
      "ìĺĢ": 5756,
      "lrb": 5757,
      "Ġreceive": 5758,
      "uster": 5759,
      "Ġ26": 5760,
      "Ġfailed": 5761,
      "Ġtyping": 5762,
      "ĠBen": 5763,
      "Ġgenerates": 5764,
      "ĠMor": 5765,
      "Ġpred": 5766,
      "rrb": 5767,
      "Ġcolors": 5768,
      "Account": 5769,
      "product": 5770,
      "net": 5771,
      "Ġheard": 5772,
      "ocker": 5773,
      "Ġbenefits": 5774,
      "craft": 5775,
      "roll": 5776,
      "enge": 5777,
      "New": 5778,
      "());": 5779,
      "ìķĺ": 5780,
      "Ġforeign": 5781,
      "Ġpartial": 5782,
      "ĠëĤł": 5783,
      "Ġseconds": 5784,
      "Ġencounter": 5785,
      "ĠTheir": 5786,
      "fficient": 5787,
      "ÑĤÐµ": 5788,
      "Ġtried": 5789,
      "Ġroles": 5790,
      "Ġthoughts": 5791,
      "but": 5792,
      "iny": 5793,
      "ĠMonday": 5794,
      "íĻ©": 5795,
      "fold": 5796,
      "nd": 5797,
      "¸Į": 5798,
      "ql": 5799,
      "Ġadvent": 5800,
      "Ġhappens": 5801,
      "ĠArticle": 5802,
      "Ġnucle": 5803,
      "Ġwonder": 5804,
      "Ġê±¸": 5805,
      "oyal": 5806,
      "cular": 5807,
      "uid": 5808,
      "Ġmoved": 5809,
      "Ġdoor": 5810,
      "Count": 5811,
      "ique": 5812,
      "iced": 5813,
      "Ġcamera": 5814,
      "Ġalthough": 5815,
      "Ġfat": 5816,
      "Ġtrust": 5817,
      "Ġcollege": 5818,
      "ìŀĦ": 5819,
      "Ġkick": 5820,
      "ĠìķĮëł¤": 5821,
      "rate": 5822,
      "Ġtranslates": 5823,
      "module": 5824,
      "sey": 5825,
      "Ġvillage": 5826,
      "sv": 5827,
      "Ġpool": 5828,
      "ĠMake": 5829,
      "Ġacknow": 5830,
      "ĠìŀĪìĸ´": 5831,
      "Ġopinion": 5832,
      "ugh": 5833,
      "Ġbroad": 5834,
      "Ġwatching": 5835,
      "Ġoccurr": 5836,
      "Ġholding": 5837,
      "OT": 5838,
      "ĠRich": 5839,
      "Ġsynt": 5840,
      "hus": 5841,
      "Ġchain": 5842,
      "ui": 5843,
      "ĠìĤ¬ìļ©íķĺëĬĶ": 5844,
      "Ġmath": 5845,
      "ube": 5846,
      "ussia": 5847,
      "roy": 5848,
      "osen": 5849,
      "Ġofficials": 5850,
      "ĠExt": 5851,
      "Ġglass": 5852,
      "Ġinstances": 5853,
      "ê¶Į": 5854,
      "ĠPerform": 5855,
      "arian": 5856,
      "UI": 5857,
      "ì´Ī": 5858,
      "Of": 5859,
      "ctors": 5860,
      "While": 5861,
      "Ġmountain": 5862,
      "ancing": 5863,
      "Ġmanages": 5864,
      "ëıĦê°Ģ": 5865,
      "Ph": 5866,
      "Ġelectron": 5867,
      "ĠCour": 5868,
      "ĠMart": 5869,
      "Ġscale": 5870,
      "Ġaim": 5871,
      "Ġsquare": 5872,
      "ìĦ±ìĿ´": 5873,
      "ĠGermany": 5874,
      "balance": 5875,
      "Ġir": 5876,
      "--------": 5877,
      "ago": 5878,
      "erry": 5879,
      "Ġoccurred": 5880,
      "Ġnorth": 5881,
      "ĠíĻķ": 5882,
      "Ġ\"$": 5883,
      "anged": 5884,
      "Ġacid": 5885,
      "ê²°": 5886,
      "Ġinvent": 5887,
      "Ñİ": 5888,
      "Ġrivers": 5889,
      "ĠìķĬìĬµëĭĪëĭ¤": 5890,
      "Ġingred": 5891,
      "Ġë§İìĿĢ": 5892,
      "Ġfair": 5893,
      "ĠBel": 5894,
      "server": 5895,
      "23": 5896,
      "Ġsad": 5897,
      "ĠDemocr": 5898,
      "Ġbegins": 5899,
      "inate": 5900,
      "Ġcomments": 5901,
      "Ġfrequency": 5902,
      "Ġshot": 5903,
      "pan": 5904,
      "ìĦĿ": 5905,
      "ensity": 5906,
      "Ġfru": 5907,
      "uries": 5908,
      "usion": 5909,
      "Ġqueue": 5910,
      "Ġidentifier": 5911,
      "pri": 5912,
      "ĠìĨĲ": 5913,
      "Ġíķ¨ê»ĺ": 5914,
      "ĠDespite": 5915,
      "ĠInternational": 5916,
      "Ġvoice": 5917,
      "Ġresponsib": 5918,
      "Ġsinger": 5919,
      "instance": 5920,
      "den": 5921,
      "vector": 5922,
      "Ġusername": 5923,
      "Ġtreatment": 5924,
      "));": 5925,
      "Ġdeveloped": 5926,
      "Ġstress": 5927,
      "left": 5928,
      "Ã©s": 5929,
      "Article": 5930,
      "´ë©´": 5931,
      "agement": 5932,
      "Ġalle": 5933,
      "cient": 5934,
      "race": 5935,
      "ĠBre": 5936,
      "Ġconsequences": 5937,
      "oul": 5938,
      "rim": 5939,
      "Ġfuel": 5940,
      "Ġcitiz": 5941,
      "ufact": 5942,
      "ĠCombine": 5943,
      "okes": 5944,
      "ëŀĳ": 5945,
      "Ġopening": 5946,
      "Ġenvironmental": 5947,
      "ĠCanada": 5948,
      "Ġeating": 5949,
      "ford": 5950,
      "ĠOnce": 5951,
      "Client": 5952,
      "ì¤Ģ": 5953,
      "áŀ": 5954,
      "Ġchance": 5955,
      "à¯į": 5956,
      ".\")": 5957,
      "ĠíķĺëĤĺ": 5958,
      "Ġcustomers": 5959,
      "90": 5960,
      "Ġì¡": 5961,
      "acc": 5962,
      "ĠíĶĦ": 5963,
      "ĠDuring": 5964,
      "ĠFriday": 5965,
      "Ġdevices": 5966,
      "Ġkid": 5967,
      "Ġ`$": 5968,
      "root": 5969,
      "manager": 5970,
      "itness": 5971,
      "Ġseeking": 5972,
      "marize": 5973,
      "Ġsolid": 5974,
      "My": 5975,
      "stream": 5976,
      "lder": 5977,
      "ë¶Ģë¶Ħ": 5978,
      "frame": 5979,
      "Ġdro": 5980,
      "Ġstories": 5981,
      "ady": 5982,
      "ĠLog": 5983,
      "Ġlandsc": 5984,
      "Ġperspect": 5985,
      "Ġtransportation": 5986,
      "·¨": 5987,
      "Ġë§ŀ": 5988,
      "Ġpresented": 5989,
      "Ġsouth": 5990,
      "ĠMal": 5991,
      "Ġdetail": 5992,
      "escript": 5993,
      "package": 5994,
      "ĠìĥĪ": 5995,
      "CE": 5996,
      "Ð³": 5997,
      "Ġbelief": 5998,
      "ĠEnsure": 5999,
      "ĠInitialize": 6000,
      "Ġassum": 6001,
      "Ġarg": 6002,
      "Ġdrive": 6003,
      "Ġsil": 6004,
      "Ġbot": 6005,
      "ĠOpen": 6006,
      "ĠMod": 6007,
      "Ġyourself": 6008,
      "Ġentry": 6009,
      "ÑĤÐ¾": 6010,
      "Ġmovies": 6011,
      "Inst": 6012,
      "ĠìĤ´": 6013,
      "search": 6014,
      "iation": 6015,
      "Ġstra": 6016,
      "ission": 6017,
      "ners": 6018,
      "Ġopportunity": 6019,
      "Ġdoctor": 6020,
      "asc": 6021,
      "Ġstructures": 6022,
      "Ġliter": 6023,
      "udent": 6024,
      "Ġcoast": 6025,
      "ëįĺ": 6026,
      "Ġpush": 6027,
      "Ġsea": 6028,
      "izations": 6029,
      "ena": 6030,
      "ĠAng": 6031,
      "TION": 6032,
      "anging": 6033,
      "Ġanyone": 6034,
      "Ð¾Ð¼": 6035,
      "ĠCup": 6036,
      "ancy": 6037,
      "Ġeasier": 6038,
      "ĠGreat": 6039,
      "Inter": 6040,
      "Ġcoordinates": 6041,
      "ĠFeb": 6042,
      "ìĻ¸": 6043,
      "Ġlooks": 6044,
      "Ġcore": 6045,
      "Ġtrade": 6046,
      "ë³´ëĭ¤": 6047,
      "Line": 6048,
      "Ġshowc": 6049,
      "Ð¾Ð»": 6050,
      "Ġdaily": 6051,
      "Ġëĸ": 6052,
      "Ġtesting": 6053,
      "Ġbinary": 6054,
      "Ġìĺ¨": 6055,
      "Ġdepth": 6056,
      "post": 6057,
      "range": 6058,
      "Ġgar": 6059,
      "Ġthri": 6060,
      "ustain": 6061,
      "othing": 6062,
      "Ġthinking": 6063,
      "Ġincorpor": 6064,
      "uddy": 6065,
      "source": 6066,
      "ê±´": 6067,
      "Ġprison": 6068,
      "ĠìĿ´ìĥģ": 6069,
      "ìĽĶ": 6070,
      "olved": 6071,
      "ĠSunday": 6072,
      "alt": 6073,
      "Ġeast": 6074,
      "rael": 6075,
      "ĠFrom": 6076,
      "Ġassess": 6077,
      "Ġhealthy": 6078,
      "uge": 6079,
      "Ġhus": 6080,
      "Ġhous": 6081,
      "Ġdependencies": 6082,
      "response": 6083,
      "ĠTuesday": 6084,
      "ĠOk": 6085,
      "Response": 6086,
      "!!": 6087,
      "01": 6088,
      "eric": 6089,
      "Ġil": 6090,
      "password": 6091,
      "Ġëĵ±ìĿĺ": 6092,
      "SE": 6093,
      "Ġaccomplish": 6094,
      "Å¾": 6095,
      "Ġprices": 6096,
      "ĠëĬĲ": 6097,
      "aten": 6098,
      "Ġreads": 6099,
      "Ġtit": 6100,
      "Ġoutcome": 6101,
      "connect": 6102,
      "Ġdemand": 6103,
      "Ġëĭ¤ìĸĳíķľ": 6104,
      "Ġpra": 6105,
      "Ġsuffer": 6106,
      "Ġposs": 6107,
      "term": 6108,
      "Ġcategories": 6109,
      "Ġstores": 6110,
      "Ġalone": 6111,
      "Ġpet": 6112,
      "actory": 6113,
      "Ġmob": 6114,
      "ëł¨": 6115,
      "Av": 6116,
      "anned": 6117,
      "ĠAustralia": 6118,
      "Eng": 6119,
      "Ġca": 6120,
      "itation": 6121,
      "Ġremoved": 6122,
      "Ġfemale": 6123,
      "uable": 6124,
      "Ġfloor": 6125,
      "Ġfaced": 6126,
      "Ġconsists": 6127,
      "xide": 6128,
      "ĠWrite": 6129,
      "66": 6130,
      "Ġut": 6131,
      "ĠOlymp": 6132,
      "Ġsty": 6133,
      "Ġextension": 6134,
      "hol": 6135,
      "reed": 6136,
      "Ġoffering": 6137,
      "friendly": 6138,
      "Ġacting": 6139,
      "Ġíĺ¸": 6140,
      "plot": 6141,
      "Ġinitially": 6142,
      "Ã±": 6143,
      "Ġfund": 6144,
      "ednes": 6145,
      "Ġì±": 6146,
      "Ġperformances": 6147,
      "Ġisland": 6148,
      "Ġrecently": 6149,
      "Ġdirected": 6150,
      "RI": 6151,
      "Range": 6152,
      "Ġmigration": 6153,
      "Ġconstruction": 6154,
      "Ġchanged": 6155,
      "llig": 6156,
      "Does": 6157,
      "Ġexpressed": 6158,
      "´ëĵ": 6159,
      "Ġëª¸": 6160,
      "ĠÐ´": 6161,
      "erial": 6162,
      "Index": 6163,
      "Justification": 6164,
      "ructions": 6165,
      "ĠValue": 6166,
      "Dis": 6167,
      "Ġ&&": 6168,
      "Ġargs": 6169,
      "Ġturned": 6170,
      "27": 6171,
      "Ġ2008": 6172,
      "ĠTexas": 6173,
      "Ġsupported": 6174,
      "Ġattempts": 6175,
      "Ġdeliver": 6176,
      "aphr": 6177,
      "Ġdogs": 6178,
      "Ġgard": 6179,
      "Ġminor": 6180,
      "ursday": 6181,
      "CT": 6182,
      "https": 6183,
      "Valid": 6184,
      "Ġsituations": 6185,
      "Ġalternative": 6186,
      "ednesday": 6187,
      "ÅĻ": 6188,
      "Ġscience": 6189,
      "Ġdriving": 6190,
      "Ġiniti": 6191,
      "Ġpal": 6192,
      "ĠíĳľíĺĦ": 6193,
      "ixt": 6194,
      "client": 6195,
      "Trans": 6196,
      "Ġletters": 6197,
      "Ġeye": 6198,
      "Ġdepending": 6199,
      "Ġeconomy": 6200,
      "rc": 6201,
      "oub": 6202,
      "rig": 6203,
      "Ġsetup": 6204,
      "Ġì¤Ħ": 6205,
      "bur": 6206,
      "Ġassign": 6207,
      "Ġolder": 6208,
      "Ġraised": 6209,
      "Ġpour": 6210,
      "Ġcoherent": 6211,
      "Ġicon": 6212,
      "Ġcivil": 6213,
      "Ġfocused": 6214,
      "pred": 6215,
      "Ġdish": 6216,
      "Ġleads": 6217,
      "Ġì¶©": 6218,
      "Ġrom": 6219,
      "Ġreports": 6220,
      "Ġëĥ": 6221,
      "Ġtests": 6222,
      "RO": 6223,
      "pany": 6224,
      "lace": 6225,
      "username": 6226,
      "Ġfinds": 6227,
      "default": 6228,
      "Ġexpand": 6229,
      "Color": 6230,
      "Ġlatest": 6231,
      "ĠìłķëıĦ": 6232,
      "sed": 6233,
      "Ġdrop": 6234,
      "ĠìĤ": 6235,
      "Ġspot": 6236,
      "tÃ¤": 6237,
      "train": 6238,
      "Ã¨": 6239,
      "Ġtoy": 6240,
      "ĠQue": 6241,
      "Ġmole": 6242,
      "Ġedge": 6243,
      "ĠGold": 6244,
      "Ġlists": 6245,
      "Ġexchange": 6246,
      "Ġconnections": 6247,
      "Ġ2009": 6248,
      "ca": 6249,
      "Ġelection": 6250,
      "Ġruns": 6251,
      "Ġworkers": 6252,
      "Ġdetermined": 6253,
      "sm": 6254,
      "Ġ2015": 6255,
      "asion": 6256,
      "Ġmill": 6257,
      "Ġsurrounding": 6258,
      "token": 6259,
      "ĠAfrica": 6260,
      "ì¡Į": 6261,
      "Ġye": 6262,
      "Ġfilled": 6263,
      "Ġrespective": 6264,
      "raz": 6265,
      "Ġslightly": 6266,
      "Ġkit": 6267,
      "Ġëªħ": 6268,
      "FL": 6269,
      "ĠReturns": 6270,
      "Total": 6271,
      "Ġcompl": 6272,
      "ĠLee": 6273,
      "Ġepis": 6274,
      "Stream": 6275,
      "Ġreduce": 6276,
      "Ġdecide": 6277,
      "Ġinteresting": 6278,
      "porary": 6279,
      "ĠFebruary": 6280,
      "Ġreviews": 6281,
      "ram": 6282,
      "Ġcomprehensive": 6283,
      "pub": 6284,
      "Ġwaste": 6285,
      "Ġbul": 6286,
      "Ġìĵ°": 6287,
      "|||": 6288,
      "iant": 6289,
      "Ġloop": 6290,
      "Ġocean": 6291,
      "Ġcombined": 6292,
      "rial": 6293,
      "Ġformatted": 6294,
      "orthern": 6295,
      "Ġpractices": 6296,
      "Ġsummer": 6297,
      "iy": 6298,
      "reshold": 6299,
      "aturday": 6300,
      "Ġcrow": 6301,
      "Ġsen": 6302,
      "Ġship": 6303,
      "Ġaccident": 6304,
      "Ã¼r": 6305,
      "Ġclar": 6306,
      "Ġexit": 6307,
      "Ġjava": 6308,
      "39": 6309,
      "Ġfacts": 6310,
      "Ġexplicitly": 6311,
      "System": 6312,
      "description": 6313,
      "sl": 6314,
      "usiness": 6315,
      "query": 6316,
      "ĠGod": 6317,
      "isl": 6318,
      "icious": 6319,
      "Ġheader": 6320,
      "serv": 6321,
      "ride": 6322,
      "Ġstick": 6323,
      "Ġextends": 6324,
      "Ġprints": 6325,
      "ĠFrank": 6326,
      "ĠTime": 6327,
      "gument": 6328,
      "Ġinvestigation": 6329,
      "ollow": 6330,
      "Ġbud": 6331,
      "Ġknew": 6332,
      "valuate": 6333,
      "CO": 6334,
      "inc": 6335,
      "ĠìĿ´ë¥¼": 6336,
      "Ġìĸ¼": 6337,
      "Ġcrime": 6338,
      "ĠTwo": 6339,
      "Ġ|||||": 6340,
      "athe": 6341,
      "ĠSar": 6342,
      "Ġsales": 6343,
      "Ġcontributed": 6344,
      "ì½Ķ": 6345,
      "dec": 6346,
      "__`": 6347,
      "Ġpromot": 6348,
      "pop": 6349,
      "encing": 6350,
      "Ġfully": 6351,
      "erman": 6352,
      "Ġhusband": 6353,
      "ìĦ¤": 6354,
      "Ġì¤ĳìļĶ": 6355,
      "Ġìĭľê°Ħ": 6356,
      "Are": 6357,
      "ongest": 6358,
      "Ġpositions": 6359,
      "ampionship": 6360,
      "Ġjson": 6361,
      "Ġapproximately": 6362,
      "Ġabsolute": 6363,
      "Ġê°Ħ": 6364,
      "Ġsubsequ": 6365,
      "Ġopportunities": 6366,
      "Ġ29": 6367,
      "Ġreached": 6368,
      "Ġkill": 6369,
      "ĠConsider": 6370,
      "Ġspirit": 6371,
      "orrow": 6372,
      "ĠMinister": 6373,
      "ĠAccording": 6374,
      "Ġmanner": 6375,
      "loy": 6376,
      "ĠGreen": 6377,
      "method": 6378,
      "Ġbow": 6379,
      "Ġconsc": 6380,
      "Ġclaims": 6381,
      "author": 6382,
      "Ġsubjects": 6383,
      "Ġdivide": 6384,
      "Ġì¦Ŀ": 6385,
      "AM": 6386,
      "odies": 6387,
      "see": 6388,
      "ĠRiver": 6389,
      "Ġmanufact": 6390,
      "ĠBlack": 6391,
      "ìĹĲìĦľëıĦ": 6392,
      "Ġcities": 6393,
      "Ġê¸Ī": 6394,
      ")]": 6395,
      "Two": 6396,
      "Ġanalyz": 6397,
      "Ġlos": 6398,
      "sa": 6399,
      "Ġonto": 6400,
      "outhern": 6401,
      "Ġlocations": 6402,
      "ĠDjango": 6403,
      "She": 6404,
      "Ġje": 6405,
      "ils": 6406,
      "Ġlabels": 6407,
      "Ġpatterns": 6408,
      "Ġìĺ¬": 6409,
      "Ġìļ°ë¦¬": 6410,
      "lay": 6411,
      "uce": 6412,
      "ĠAut": 6413,
      "Ġpictures": 6414,
      "select": 6415,
      "Ġmist": 6416,
      "Ġmanaged": 6417,
      "pire": 6418,
      "AD": 6419,
      "pload": 6420,
      "Ġaccordingly": 6421,
      "color": 6422,
      "Ġdialogue": 6423,
      "FI": 6424,
      "Ġduration": 6425,
      "Ġhumans": 6426,
      "Ġconflict": 6427,
      "Ġinitialize": 6428,
      "iousness": 6429,
      "being": 6430,
      "Ġswim": 6431,
      "Ġwild": 6432,
      "ĠìĿ¸íķ´": 6433,
      "íĻķ": 6434,
      "Ġmeasures": 6435,
      "ĠÃł": 6436,
      "'],": 6437,
      "west": 6438,
      "Ġsmooth": 6439,
      "Ġappeared": 6440,
      "Ġàª": 6441,
      "Ġgirls": 6442,
      "Ġheavy": 6443,
      "');": 6444,
      "Ġshoot": 6445,
      "Ġradio": 6446,
      "Ġdistribution": 6447,
      "UT": 6448,
      "pid": 6449,
      "ë¨": 6450,
      "mitted": 6451,
      "AP": 6452,
      "Ġign": 6453,
      "Ġíģ°": 6454,
      "Ġdelete": 6455,
      "Ġprotocol": 6456,
      "var": 6457,
      "ĠMad": 6458,
      "Ġdisease": 6459,
      "Ġvir": 6460,
      "active": 6461,
      "Ġmetadata": 6462,
      "Ġsusp": 6463,
      "Ġsustain": 6464,
      "Ġminimum": 6465,
      "ì¶Ķ": 6466,
      "Ġord": 6467,
      "ĠíļĮ": 6468,
      ">`": 6469,
      "Pick": 6470,
      "err": 6471,
      "Ġë¶Ļ": 6472,
      "Ġfulfill": 6473,
      "35": 6474,
      "Aut": 6475,
      "Ġremark": 6476,
      "Ġà¦": 6477,
      "Ġ};": 6478,
      "lled": 6479,
      "They": 6480,
      "Ġëĵ±ìĿ´": 6481,
      "Ġconsole": 6482,
      "Ġcars": 6483,
      "Ġmer": 6484,
      "Ġpromin": 6485,
      "ÐµÑĤ": 6486,
      "Ġschools": 6487,
      "Ġcontrast": 6488,
      "Ġhon": 6489,
      "Ġauthorities": 6490,
      "phone": 6491,
      "28": 6492,
      "Ġconstraint": 6493,
      "ows": 6494,
      "Ġreaction": 6495,
      "ĠWhy": 6496,
      "Ġcart": 6497,
      "Ġprepar": 6498,
      "Ġformation": 6499,
      "width": 6500,
      "ĠGal": 6501,
      "Ġcompletely": 6502,
      "Ġfriendly": 6503,
      "Ġbreath": 6504,
      "ĠTrans": 6505,
      "Ġimplements": 6506,
      "ì²ľ": 6507,
      "ked": 6508,
      "wide": 6509,
      "Ġtrip": 6510,
      "ì§ķ": 6511,
      "Ġcream": 6512,
      "Ġwaiting": 6513,
      "Ġphotos": 6514,
      "Gener": 6515,
      "ĠFind": 6516,
      "Ġnewsp": 6517,
      "Ġì¹ĺ": 6518,
      "Ġà¨": 6519,
      "urrency": 6520,
      "ê·¼": 6521,
      "37": 6522,
      "fit": 6523,
      "ĠBrown": 6524,
      "Ġprep": 6525,
      "Ġbuffer": 6526,
      "nic": 6527,
      "à©": 6528,
      "ĠParty": 6529,
      "\"),": 6530,
      "ribe": 6531,
      "Ġíļ¨ê³¼": 6532,
      "Ġexercise": 6533,
      "Ġcrim": 6534,
      "ĠíĺĦìĥģ": 6535,
      "Ġfetch": 6536,
      "Ð»Ð¸": 6537,
      "bu": 6538,
      "ĠíĹ": 6539,
      "àµį": 6540,
      "Ġbottom": 6541,
      "Ġyards": 6542,
      "abilities": 6543,
      "Ġ2016": 6544,
      "next": 6545,
      "Size": 6546,
      "Ġmarried": 6547,
      "ĠÃ©": 6548,
      "params": 6549,
      "ĠCong": 6550,
      "area": 6551,
      "Ġhelping": 6552,
      "Ġcalling": 6553,
      "Ġhidden": 6554,
      "Ġguitar": 6555,
      "ë³Ģ": 6556,
      "ë²Ħ": 6557,
      "Ġì¶ľ": 6558,
      "ĠAssuming": 6559,
      "Ġhabit": 6560,
      "ean": 6561,
      "Ġhy": 6562,
      "Ġfunctionalities": 6563,
      "ê²ĥ": 6564,
      "water": 6565,
      "ĠPlace": 6566,
      "Ġcop": 6567,
      "Ġveget": 6568,
      "Ġsupposed": 6569,
      "Ġriver": 6570,
      "Ġsorted": 6571,
      "Ġinvalid": 6572,
      "pir": 6573,
      "ĠSmith": 6574,
      "Ġ('": 6575,
      "apes": 6576,
      "Ġíĥľ": 6577,
      "answerable": 6578,
      "Ġplaced": 6579,
      "Ġgeneration": 6580,
      "ĠAfrican": 6581,
      "Ġaward": 6582,
      "ëıĦë¡Ŀ": 6583,
      "??": 6584,
      "yes": 6585,
      "uit": 6586,
      "Ġvary": 6587,
      "Reg": 6588,
      "Ġrelax": 6589,
      "ë²Ī": 6590,
      "Ġtools": 6591,
      "HP": 6592,
      "ë¦°": 6593,
      "Ġmodules": 6594,
      "lers": 6595,
      "option": 6596,
      "Ð¾Ð´": 6597,
      "ĠRussia": 6598,
      "ĠDay": 6599,
      "ĠMiss": 6600,
      "Ġchosen": 6601,
      "Ġë³¼": 6602,
      "Ġà°": 6603,
      "ĠìķĬëĬĶ": 6604,
      "Ġ2007": 6605,
      "Ġpolicies": 6606,
      ",'": 6607,
      "custom": 6608,
      "Ġtheme": 6609,
      "oking": 6610,
      "67": 6611,
      "Ġdio": 6612,
      "Ġsupports": 6613,
      "Ġì§ĢìĹŃ": 6614,
      "Ġmicro": 6615,
      "expected": 6616,
      "Ġì¡´": 6617,
      "×ķ×": 6618,
      "Ġwasn": 6619,
      "liament": 6620,
      "Ġbrain": 6621,
      "ona": 6622,
      "John": 6623,
      "first": 6624,
      "Ġoptional": 6625,
      "tee": 6626,
      "teger": 6627,
      "Ġcosts": 6628,
      "Ġdecrease": 6629,
      "Ġrespectively": 6630,
      "care": 6631,
      "Ġlicense": 6632,
      "ëŁ¼": 6633,
      "while": 6634,
      "Ġagreement": 6635,
      "ĠÐ½Ð°": 6636,
      "lla": 6637,
      ".;": 6638,
      "íĥĿ": 6639,
      "Ġant": 6640,
      "Ġholds": 6641,
      "}\"": 6642,
      "stic": 6643,
      "Ġinnov": 6644,
      "ĠíĨµíķ´": 6645,
      "ES": 6646,
      "Ġdisco": 6647,
      "poses": 6648,
      "à¥į": 6649,
      "void": 6650,
      "Ġcommonly": 6651,
      "Ġportray": 6652,
      "chers": 6653,
      "Ġexpert": 6654,
      "rieve": 6655,
      "ĠSQL": 6656,
      "aint": 6657,
      "ĠLou": 6658,
      "Ġenthus": 6659,
      "va": 6660,
      "Ġbattle": 6661,
      "owers": 6662,
      "Ġwidely": 6663,
      "Ġbasket": 6664,
      "Ġselection": 6665,
      "CH": 6666,
      "ander": 6667,
      "Explanation": 6668,
      "idget": 6669,
      "ker": 6670,
      "Ġprograms": 6671,
      "Ġscientific": 6672,
      "Ġpreferences": 6673,
      "ita": 6674,
      "Sp": 6675,
      "orough": 6676,
      "ether": 6677,
      "Ġvoc": 6678,
      "ĠInter": 6679,
      "Ġìī": 6680,
      "validate": 6681,
      "Ġdomain": 6682,
      "Ġsell": 6683,
      "Ġrot": 6684,
      "gative": 6685,
      "Ġsatisfaction": 6686,
      "Rec": 6687,
      "ĠOptions": 6688,
      "ê¸°ëıĦ": 6689,
      "Ġkeeping": 6690,
      "Ġterrit": 6691,
      "Ġë¬¸ìłľ": 6692,
      ">>": 6693,
      "Ġë§Ľ": 6694,
      "Ġconveys": 6695,
      "ĠTim": 6696,
      "Ġcommitment": 6697,
      "Ġdissatisfaction": 6698,
      "Ġbeach": 6699,
      "ê²¨": 6700,
      "Ġcas": 6701,
      "Ġexplore": 6702,
      "ĠFile": 6703,
      "asure": 6704,
      "ĠThursday": 6705,
      "Ġdrug": 6706,
      "Ġbag": 6707,
      "Ġnodes": 6708,
      "Ġbecoming": 6709,
      "LL": 6710,
      "Ġprobably": 6711,
      "Ġapplied": 6712,
      "ë³Ħ": 6713,
      "Ġcentre": 6714,
      "mo": 6715,
      "link": 6716,
      "Ġancient": 6717,
      "ë¦½": 6718,
      "ì£¼ìĦ¸ìļĶ": 6719,
      "Ġnom": 6720,
      "Ġ80": 6721,
      "íĮĲ": 6722,
      "Ġaffected": 6723,
      "Ġ**": 6724,
      "Ġagent": 6725,
      "Ġ2000": 6726,
      "ĠUpdate": 6727,
      "ĠCont": 6728,
      "Ġsugar": 6729,
      "(_": 6730,
      "Ġlived": 6731,
      "Ġneighbor": 6732,
      "match": 6733,
      "urbation": 6734,
      "Ġbelieved": 6735,
      "Ġdioxide": 6736,
      "impl": 6737,
      "Ġking": 6738,
      "ĠìŀĪìĿĦê¹ĮìļĶ": 6739,
      "Ġjournal": 6740,
      "Ġshirt": 6741,
      "Ġrise": 6742,
      "Ġterror": 6743,
      "ĠWednesday": 6744,
      "yond": 6745,
      "ĠPal": 6746,
      "Ġdiet": 6747,
      "US": 6748,
      "Ġsister": 6749,
      "Ġanti": 6750,
      "ĠíĴ": 6751,
      "Ġisol": 6752,
      "ì¡±": 6753,
      "mun": 6754,
      "Ġurl": 6755,
      "ĠÚ©": 6756,
      "Ġadvant": 6757,
      "ĠInt": 6758,
      "Ġë¹Ľ": 6759,
      "ĠAny": 6760,
      "Ġexistence": 6761,
      "Ġjoin": 6762,
      "Ġê°Ģì§Ģê³ł": 6763,
      "ĠRobert": 6764,
      "ãĢ": 6765,
      "Ġchannel": 6766,
      "Ġsweet": 6767,
      "aud": 6768,
      "Ġreturning": 6769,
      "Ġcharge": 6770,
      "Ġregions": 6771,
      "Ġparticles": 6772,
      "Ġhotel": 6773,
      "Ġì¢ħë¥ĺ": 6774,
      "float": 6775,
      "Ġrank": 6776,
      "Ġrecip": 6777,
      "Ġcriminal": 6778,
      "atin": 6779,
      "Ġì§ģ": 6780,
      "SV": 6781,
      "Ġ`<": 6782,
      "ĠSwift": 6783,
      "Ġfederal": 6784,
      "Ġrespond": 6785,
      "semb": 6786,
      "Ġpriv": 6787,
      "Ġexceptions": 6788,
      "ĠìĹ¬ëŁ¬": 6789,
      "Ġgue": 6790,
      "Ġdoll": 6791,
      "ĠsÄĥ": 6792,
      "ifications": 6793,
      "export": 6794,
      "ello": 6795,
      "Su": 6796,
      "duction": 6797,
      "ĠRom": 6798,
      "!(\"": 6799,
      "Ġtro": 6800,
      "ĠTitle": 6801,
      "Ġê²Ģ": 6802,
      "Ġnumpy": 6803,
      "ì¦Ī": 6804,
      "ĠêµĲ": 6805,
      "indows": 6806,
      "secut": 6807,
      "Ġcinem": 6808,
      "ë³µ": 6809,
      "ĠIsrael": 6810,
      "Ġbeyond": 6811,
      "Ġ</": 6812,
      "ĠRust": 6813,
      "'),": 6814,
      "inger": 6815,
      "Ġpsy": 6816,
      "Ġcommer": 6817,
      "Ġbuying": 6818,
      "missions": 6819,
      "Ġtags": 6820,
      "cles": 6821,
      "Ġbra": 6822,
      "ĠÐ¼": 6823,
      "Ġ2006": 6824,
      "Ġëª¨ìĸĳ": 6825,
      "Ġshell": 6826,
      "Ġcompletion": 6827,
      "Ġbird": 6828,
      "Ġcouldn": 6829,
      "Ġvirt": 6830,
      "1010": 6831,
      "ĠSaturday": 6832,
      "Ġauthentication": 6833,
      "ĠSignature": 6834,
      "ĠResearch": 6835,
      "Ġbillion": 6836,
      "ĠPerson": 6837,
      "Ġbirds": 6838,
      "Ġcitizens": 6839,
      "Ġnest": 6840,
      "Ġpassion": 6841,
      "Ġdangerous": 6842,
      "âĢĵ": 6843,
      "ëĶĶ": 6844,
      "ĠMain": 6845,
      "ĠBo": 6846,
      "ĠScott": 6847,
      "Ġspoken": 6848,
      "ĠMany": 6849,
      "Ġviews": 6850,
      "Ġofficer": 6851,
      "Ġcapacity": 6852,
      "Ġíķ´ëĭ¹": 6853,
      "Ġinvolving": 6854,
      "Ġfailure": 6855,
      "Ġparser": 6856,
      "Ġtrait": 6857,
      "Ġëª©": 6858,
      "Ġmetal": 6859,
      "ocuments": 6860,
      "utral": 6861,
      "iveness": 6862,
      "Ġdecisions": 6863,
      "olf": 6864,
      "icted": 6865,
      "Char": 6866,
      "Ġuniversity": 6867,
      "ĠCr": 6868,
      "Array": 6869,
      "olly": 6870,
      "Ġborder": 6871,
      "Ġidentity": 6872,
      "123": 6873,
      "ĠSy": 6874,
      "Ġvaluable": 6875,
      "Ġbuddy": 6876,
      "Ġteen": 6877,
      "Ġfinish": 6878,
      "Ġmission": 6879,
      "push": 6880,
      "Ġcancer": 6881,
      "Ġ{\"": 6882,
      "Ġgenre": 6883,
      "ĠìĹĨìĬµëĭĪëĭ¤": 6884,
      "Ġdining": 6885,
      "ĠëĴ": 6886,
      "ìķ¡": 6887,
      "Ġloved": 6888,
      "ĠJew": 6889,
      "Ġparaphr": 6890,
      "Ġprinci": 6891,
      "ÑĨ": 6892,
      "Ġbath": 6893,
      "Ġefficiently": 6894,
      "game": 6895,
      "ĠWould": 6896,
      "Ġscores": 6897,
      "ĠìłĲ": 6898,
      "Ġì°¸": 6899,
      "gn": 6900,
      "Ġrates": 6901,
      "Ġacadem": 6902,
      "Ġdiscovered": 6903,
      "ĠDepartment": 6904,
      "£½": 6905,
      "Component": 6906,
      "ĠKingdom": 6907,
      "Content": 6908,
      "ĠInstead": 6909,
      "van": 6910,
      "vention": 6911,
      "Ġmale": 6912,
      "gl": 6913,
      "spec": 6914,
      "ĠBank": 6915,
      "cluded": 6916,
      "Rem": 6917,
      "Ġhash": 6918,
      "win": 6919,
      "Ġdress": 6920,
      "lication": 6921,
      "ictor": 6922,
      "Ġíĸī": 6923,
      "ĠWilliam": 6924,
      "itute": 6925,
      "ĠBritain": 6926,
      "Ġabsor": 6927,
      "Ġvehicle": 6928,
      "Ŀ½": 6929,
      "ĠPortug": 6930,
      "Therefore": 6931,
      "inations": 6932,
      "Ġimpress": 6933,
      "Ġmel": 6934,
      "Ġexpresses": 6935,
      "Ġacknowled": 6936,
      "Äį": 6937,
      "ĠDate": 6938,
      "Ġpursu": 6939,
      "ĠSum": 6940,
      "Ġowner": 6941,
      "ĠPhil": 6942,
      "ĠìĿĮìĭĿ": 6943,
      "ĠAtt": 6944,
      "ynchron": 6945,
      "Ġpurposes": 6946,
      "Ġweap": 6947,
      "uses": 6948,
      "ĠìĹ´": 6949,
      "Ġdisplayed": 6950,
      "Ġseven": 6951,
      "Ġimmediately": 6952,
      "ceived": 6953,
      "Ġinternal": 6954,
      "ĠTwitter": 6955,
      "Ġchurch": 6956,
      "Ġindirect": 6957,
      "ĠHall": 6958,
      "Ġprojects": 6959,
      "irth": 6960,
      "Ġ32": 6961,
      "ĠProcess": 6962,
      "ĠImplementation": 6963,
      "Ð¶": 6964,
      "Ġpron": 6965,
      "Ġleaders": 6966,
      "ĠíĻľ": 6967,
      "ĠCourt": 6968,
      "Ġrocks": 6969,
      "ìĸ´ëĤĺ": 6970,
      "Ġshowing": 6971,
      "ĠìķĦëĭ": 6972,
      "Ġfocuses": 6973,
      "Ġfeedback": 6974,
      "vo": 6975,
      "ĠHandle": 6976,
      "MA": 6977,
      "ĠFace": 6978,
      "Ġlaugh": 6979,
      "Ġexpectations": 6980,
      "mm": 6981,
      "Ġchallenge": 6982,
      "last": 6983,
      "ste": 6984,
      "Ġorg": 6985,
      "Available": 6986,
      "ìŀĲê°Ģ": 6987,
      "ĠAre": 6988,
      "ecause": 6989,
      "Ġfunds": 6990,
      ".)": 6991,
      "Ø¨": 6992,
      "iments": 6993,
      "enses": 6994,
      "Ġknows": 6995,
      "Teacher": 6996,
      "star": 6997,
      "Ġmeets": 6998,
      "anted": 6999,
      "Ġpretty": 7000,
      "Ġfine": 7001,
      "ĠJo": 7002,
      "anges": 7003,
      "ĠíĻĺ": 7004,
      "Ġreplaced": 7005,
      "Ġmotiv": 7006,
      "ĠAtl": 7007,
      "75": 7008,
      "ĠJim": 7009,
      "ìĥĪ": 7010,
      "à¤°": 7011,
      "Ġìĸ´ëł": 7012,
      "Ġetc": 7013,
      "ĠRemove": 7014,
      "ĠNews": 7015,
      "Pr": 7016,
      "ĠIra": 7017,
      "ector": 7018,
      "then": 7019,
      "ĠìĿ´ë£": 7020,
      "Ġdriver": 7021,
      "Ġeducational": 7022,
      "Ġingredients": 7023,
      "press": 7024,
      "65": 7025,
      "Ġgrass": 7026,
      "sample": 7027,
      "ĠSom": 7028,
      "oute": 7029,
      "Ġspeech": 7030,
      "ë§Ĳ": 7031,
      "price": 7032,
      "Ġìĭľìŀĳ": 7033,
      "Ġì½Ķ": 7034,
      "Ġcrowd": 7035,
      "aked": 7036,
      "Ġnecessarily": 7037,
      "ĠChristian": 7038,
      "cor": 7039,
      "Ġpull": 7040,
      "open": 7041,
      "ĠPeter": 7042,
      "Ġdefines": 7043,
      "notation": 7044,
      "http": 7045,
      "ali": 7046,
      "ĠThomas": 7047,
      "Ġbatter": 7048,
      "Ġclick": 7049,
      "Ġflat": 7050,
      "Ġstrategy": 7051,
      "Ġhandler": 7052,
      "emory": 7053,
      "ĠEU": 7054,
      "ĠSl": 7055,
      "Ġune": 7056,
      "Ġparties": 7057,
      "tainer": 7058,
      "Ġsmart": 7059,
      "ugin": 7060,
      "Ġoccup": 7061,
      "Ġaccuracy": 7062,
      "abet": 7063,
      "Ġexperiment": 7064,
      "Ġdebut": 7065,
      "Ġdra": 7066,
      "riage": 7067,
      "ĠRo": 7068,
      "70": 7069,
      "Ġliqu": 7070,
      "Ġends": 7071,
      "Ġshopping": 7072,
      "urban": 7073,
      "kay": 7074,
      "Ġnearly": 7075,
      "Ġìľłì§Ģ": 7076,
      "Ġquantity": 7077,
      "points": 7078,
      "eness": 7079,
      "Ġreser": 7080,
      "Ġdescribing": 7081,
      "false": 7082,
      "mes": 7083,
      "Ġfrust": 7084,
      "Ġpert": 7085,
      "Ġappoint": 7086,
      "Ġexactly": 7087,
      "iley": 7088,
      "´ëĵľ": 7089,
      "Ġlock": 7090,
      "assert": 7091,
      "ĠAssoci": 7092,
      "Ġongoing": 7093,
      "Ġ45": 7094,
      "Ġchallenging": 7095,
      "Ġfirm": 7096,
      "()`:": 7097,
      "Ġlooked": 7098,
      "Ġvictory": 7099,
      "Ġmeal": 7100,
      ".\",": 7101,
      "ĠExtract": 7102,
      "bing": 7103,
      "Ġcache": 7104,
      "Ġax": 7105,
      "aming": 7106,
      "duce": 7107,
      "Status": 7108,
      "erate": 7109,
      "Ġemployees": 7110,
      "Ġconsistent": 7111,
      "Element": 7112,
      "send": 7113,
      "Ġmask": 7114,
      "Ġmaster": 7115,
      "ÑĢÐ¸": 7116,
      "Ġaudio": 7117,
      "Ġbill": 7118,
      "ĠJes": 7119,
      "Ġserving": 7120,
      "Ġvolume": 7121,
      "Ġprop": 7122,
      "Ġmoves": 7123,
      "ìķħ": 7124,
      "Ġëħ¹": 7125,
      "Ġcaught": 7126,
      "Ġspend": 7127,
      "Ġpurchase": 7128,
      "Part": 7129,
      "ersion": 7130,
      "oration": 7131,
      "Base": 7132,
      "bar": 7133,
      "Ġsubtract": 7134,
      "Ġopened": 7135,
      "Ġjobs": 7136,
      "ibrary": 7137,
      "íĻĺ": 7138,
      "ĠìĤ¬ìļ©ëĲĺ": 7139,
      "Ġintellig": 7140,
      "ĠíķľêµŃ": 7141,
      "typescript": 7142,
      "Ġbact": 7143,
      "Ġsuggested": 7144,
      "Ġthus": 7145,
      "Ġhyd": 7146,
      "Ð¾Ð³": 7147,
      "Ġlayers": 7148,
      "Ġsalt": 7149,
      "gent": 7150,
      "Ġtrigger": 7151,
      "Ġdefe": 7152,
      "FA": 7153,
      "Ġvote": 7154,
      "Ġpreviously": 7155,
      "wargs": 7156,
      "ements": 7157,
      "Ġstands": 7158,
      "Ġfourth": 7159,
      "Ġdecorator": 7160,
      "ky": 7161,
      "ĠëĮĢë¶Ģë¶Ħ": 7162,
      "These": 7163,
      "ildren": 7164,
      "sect": 7165,
      "Ġëĵ±ìĿĦ": 7166,
      "ÐµÐ½Ð¸": 7167,
      "what": 7168,
      "ipment": 7169,
      "born": 7170,
      "ett": 7171,
      "Ġobtained": 7172,
      "spe": 7173,
      "Ġstated": 7174,
      "ĠìĹŃíķł": 7175,
      "Ġorganisms": 7176,
      "ĠíķŃ": 7177,
      "Ġìĥģíĥľ": 7178,
      "gypt": 7179,
      "]]": 7180,
      "Ġlots": 7181,
      "urance": 7182,
      "Ġsharing": 7183,
      "Ġdivision": 7184,
      "Ġcomfortable": 7185,
      "page": 7186,
      "adian": 7187,
      "Ġ===": 7188,
      "ÑĪ": 7189,
      "ota": 7190,
      "Ġannounced": 7191,
      "ĠJer": 7192,
      "pa": 7193,
      "ĠSolve": 7194,
      "Ġtrouble": 7195,
      "Ġì²´": 7196,
      "ĠReplace": 7197,
      "Ġtaste": 7198,
      "inant": 7199,
      "Ġprime": 7200,
      "Ġëª»": 7201,
      "OST": 7202,
      "cout": 7203,
      "Ġevaluate": 7204,
      "Ġalco": 7205,
      "Ġnearby": 7206,
      "Ġsubsc": 7207,
      "Fin": 7208,
      "Ġdiscusses": 7209,
      "Be": 7210,
      "Ġprotest": 7211,
      "Ġtimestamp": 7212,
      "Ġengage": 7213,
      "Ġrect": 7214,
      "otic": 7215,
      "Ġphil": 7216,
      "×Ļ×": 7217,
      "ĠMexico": 7218,
      "Ġclothes": 7219,
      "ëĵ±": 7220,
      "Ġsky": 7221,
      "Ġprotection": 7222,
      "ĠIraq": 7223,
      "Ġdistrict": 7224,
      "ĠMethod": 7225,
      "Ġadopt": 7226,
      "azing": 7227,
      "Ġremoving": 7228,
      "Ġchances": 7229,
      "iciency": 7230,
      "Ġeight": 7231,
      "ĠIS": 7232,
      "Ġunits": 7233,
      "Des": 7234,
      "Ġequival": 7235,
      "call": 7236,
      "Ġphoto": 7237,
      "Ġdance": 7238,
      "LI": 7239,
      "rees": 7240,
      "ilter": 7241,
      "ĠIslam": 7242,
      "Ġpercentage": 7243,
      "osure": 7244,
      "Ġkept": 7245,
      "life": 7246,
      "Ġmac": 7247,
      "Ð½Ð¾": 7248,
      "Ġmagn": 7249,
      "ho": 7250,
      "ĠAsh": 7251,
      "Ġincreases": 7252,
      "Ġë¶Ģë¶Ħ": 7253,
      "Ġswitch": 7254,
      "Ġescape": 7255,
      "cosystem": 7256,
      "ĠeatType": 7257,
      "ĠMet": 7258,
      "Ġoutdo": 7259,
      "Ġdispl": 7260,
      "ĠParis": 7261,
      "ipeline": 7262,
      "Ġcoach": 7263,
      "tains": 7264,
      "Ġprogramming": 7265,
      "iliar": 7266,
      "isher": 7267,
      "Ġbought": 7268,
      "íĭ°": 7269,
      "ĠStart": 7270,
      "Ġexhib": 7271,
      "eful": 7272,
      "íĨł": 7273,
      ">,": 7274,
      "Ġstraight": 7275,
      "nel": 7276,
      "oday": 7277,
      "ĠëĮĢíķ´": 7278,
      "ê·¹": 7279,
      "ationale": 7280,
      "icts": 7281,
      "Ġactress": 7282,
      "Ġëĭ¹": 7283,
      "ëĵ¤ìĿĺ": 7284,
      "Ð½Ð°": 7285,
      "UN": 7286,
      "Ġtow": 7287,
      "Ġ2004": 7288,
      "Ġcircum": 7289,
      "29": 7290,
      "return": 7291,
      "yan": 7292,
      "ĠLaw": 7293,
      "ĠDel": 7294,
      "berg": 7295,
      "ì§ĳëĭĪëĭ¤": 7296,
      "Ġinterests": 7297,
      "Ġresear": 7298,
      "Ġreferring": 7299,
      "ato": 7300,
      "Ġindependent": 7301,
      "zen": 7302,
      "ulating": 7303,
      "oices": 7304,
      "Ġsch": 7305,
      "Ġfiltered": 7306,
      "Ġparsed": 7307,
      "well": 7308,
      "Ġbudget": 7309,
      "ĠëĲľ": 7310,
      "Ġestim": 7311,
      "Ġtoys": 7312,
      "ĠìķĦëĭĪëĿ¼": 7313,
      "Ġtransaction": 7314,
      "Ġreader": 7315,
      "vari": 7316,
      "Point": 7317,
      "URL": 7318,
      "Where": 7319,
      "illa": 7320,
      "ashion": 7321,
      "Ġ90": 7322,
      "ennis": 7323,
      "Ġexternal": 7324,
      "Ġattend": 7325,
      "ĠìĿ´íĽĦ": 7326,
      "Ġìĭ¶": 7327,
      "ixture": 7328,
      "Ġna": 7329,
      "Ġwear": 7330,
      "Ġflight": 7331,
      "ION": 7332,
      "anguage": 7333,
      "display": 7334,
      "Ġcards": 7335,
      "ìĿ´ëĿ¼ê³ł": 7336,
      "akers": 7337,
      "ora": 7338,
      "Ġsexual": 7339,
      "Ġsignal": 7340,
      "Ġì¡´ìŀ¬": 7341,
      "ville": 7342,
      "ĠìŀĪëĤĺìļĶ": 7343,
      "Ġeg": 7344,
      "ancis": 7345,
      "Ġinfra": 7346,
      "Ġnuclear": 7347,
      "Action": 7348,
      "Ġë¹ł": 7349,
      "Ġë°©ìĭĿ": 7350,
      "Ġestablishment": 7351,
      "aylor": 7352,
      "Ġvital": 7353,
      "Ġattacks": 7354,
      "ĠíĺĦìŀ¬": 7355,
      "Ġfiction": 7356,
      "endl": 7357,
      "Ġtruly": 7358,
      "Ġtransformation": 7359,
      "Ġë¹¨": 7360,
      "ĠHot": 7361,
      "ĠSuper": 7362,
      "Ġcontents": 7363,
      "Ġwinning": 7364,
      "ĠFacebook": 7365,
      "Next": 7366,
      "ĠFlor": 7367,
      "ĠëĦ£": 7368,
      "34": 7369,
      "Ġecosystem": 7370,
      "oto": 7371,
      "ì§Ģë¥¼": 7372,
      "ì¹´": 7373,
      "Ġchecking": 7374,
      "Ġaccomplishes": 7375,
      "anche": 7376,
      "ĠAmericans": 7377,
      "icy": 7378,
      "exp": 7379,
      "Ĩ¡": 7380,
      "Ġmemor": 7381,
      "ĠíĥĢ": 7382,
      "Ġcontrad": 7383,
      "Ġconcent": 7384,
      "Ġtraffic": 7385,
      "ĠGroup": 7386,
      "Token": 7387,
      "env": 7388,
      "Ġ*/": 7389,
      "Ġcycle": 7390,
      "unning": 7391,
      "Ġclosed": 7392,
      "Ġinternet": 7393,
      "ĠSarah": 7394,
      "ĠIP": 7395,
      "delete": 7396,
      "ĠPlease": 7397,
      "Ġdishes": 7398,
      "Ġê·¼": 7399,
      "Ġà®": 7400,
      "Ġwra": 7401,
      "Ġhun": 7402,
      "ĠPet": 7403,
      "ĠPHP": 7404,
      "service": 7405,
      "Ġorganizations": 7406,
      "Some": 7407,
      "ĠGenerate": 7408,
      "bert": 7409,
      "look": 7410,
      "Å¡": 7411,
      "Ġëł": 7412,
      "Ġformula": 7413,
      "ĠìĤ¬ìĿ´": 7414,
      "Ġreferred": 7415,
      "Ġflowers": 7416,
      "Ġartists": 7417,
      "Ġbeauty": 7418,
      "Ġrelation": 7419,
      "Ġkeyword": 7420,
      "ĠìĹĲ": 7421,
      "Ġrecorded": 7422,
      "ì¶ķ": 7423,
      "Ġë§¤ìļ°": 7424,
      "ĠStreet": 7425,
      "Ġapart": 7426,
      "athered": 7427,
      "tag": 7428,
      "Ġlingu": 7429,
      "oder": 7430,
      "ĠMat": 7431,
      "Ġbutter": 7432,
      "Ġmajority": 7433,
      "queue": 7434,
      "Ġë¨¸": 7435,
      "ye": 7436,
      "Ġfill": 7437,
      "Ġvisited": 7438,
      "Ġëª¨ëĳĲ": 7439,
      "Ġscored": 7440,
      "Ġtechniques": 7441,
      "block": 7442,
      "icial": 7443,
      "Ġthous": 7444,
      "Ġsupporting": 7445,
      "Ġ35": 7446,
      "handle": 7447,
      "ĠBur": 7448,
      "Ġconstructs": 7449,
      "Module": 7450,
      "Ġvac": 7451,
      "gricult": 7452,
      "Ġremote": 7453,
      "Ġ2005": 7454,
      "iler": 7455,
      "ĠìĥģíĻ©": 7456,
      "Ġviolence": 7457,
      "Per": 7458,
      "strip": 7459,
      "Ġsed": 7460,
      "abul": 7461,
      "soft": 7462,
      "´ī": 7463,
      "ensus": 7464,
      "ĠìľĦì¹ĺ": 7465,
      "à¥ĩ": 7466,
      "Ġlandscape": 7467,
      "Ġcris": 7468,
      "ĠContext": 7469,
      "ĠëĤĺìĺ¤": 7470,
      "Ġsevere": 7471,
      "ëĤł": 7472,
      "ĠColle": 7473,
      "Ġcoo": 7474,
      "apter": 7475,
      "Ġcolumns": 7476,
      "aciÃ³n": 7477,
      "grad": 7478,
      "Ġfalls": 7479,
      "ĠBob": 7480,
      "ì²Ń": 7481,
      "Ġupdating": 7482,
      "Ġriverside": 7483,
      "TIONS": 7484,
      "Ġhol": 7485,
      "ĠLos": 7486,
      "owned": 7487,
      "Ġcommercial": 7488,
      "38": 7489,
      "Ġherself": 7490,
      "Ġvast": 7491,
      "Ġpreced": 7492,
      "structure": 7493,
      "istr": 7494,
      "Ġplane": 7495,
      "Ġguard": 7496,
      "ĠEvaluate": 7497,
      "address": 7498,
      "Ġê´Ģëł¨": 7499,
      "anta": 7500,
      "ĠThrough": 7501,
      "ĠPolice": 7502,
      "Hello": 7503,
      "stac": 7504,
      "otes": 7505,
      "Ġpossess": 7506,
      "js": 7507,
      "ĠGreek": 7508,
      "long": 7509,
      "models": 7510,
      "½ĥ": 7511,
      "Ġchair": 7512,
      "Ġtransition": 7513,
      "Ġmostly": 7514,
      "ĠBusiness": 7515,
      "Ġarm": 7516,
      "lt": 7517,
      "ĠGeneral": 7518,
      "Ġban": 7519,
      "Ġì§Ī": 7520,
      "pet": 7521,
      "Ġlun": 7522,
      "Ġentities": 7523,
      "Ġnutri": 7524,
      "Ġlisten": 7525,
      "====": 7526,
      "ĠHen": 7527,
      "Ġoffered": 7528,
      "Ġnarrator": 7529,
      "Ġreput": 7530,
      "36": 7531,
      "Ġasynchron": 7532,
      "sembly": 7533,
      "ĠCommission": 7534,
      "stract": 7535,
      "Ġwithdraw": 7536,
      "Ġnotable": 7537,
      "ĠíĮĲ": 7538,
      "ĠìľĦíķ´ìĦľ": 7539,
      "Ġprominent": 7540,
      "Ġexcess": 7541,
      "ĠScience": 7542,
      "Ġadvance": 7543,
      "Ġpossibly": 7544,
      "Ġchart": 7545,
      "Ġsole": 7546,
      "ì²ĺëŁ¼": 7547,
      "Ġ500": 7548,
      "Ġhorse": 7549,
      "ĠError": 7550,
      "ailability": 7551,
      "cores": 7552,
      "Ġbright": 7553,
      "Ġjoined": 7554,
      "standing": 7555,
      "cell": 7556,
      "Ġforced": 7557,
      "Ġcleaning": 7558,
      "found": 7559,
      "Ġë³µ": 7560,
      "Ġdinner": 7561,
      "Ġmouth": 7562,
      "script": 7563,
      "48": 7564,
      "ĠBu": 7565,
      "cons": 7566,
      "Ġsounds": 7567,
      "Ġsan": 7568,
      "Ġwitness": 7569,
      "Ġ1000": 7570,
      "Ġdeveloping": 7571,
      "Ġreply": 7572,
      "enny": 7573,
      "Ġcapture": 7574,
      "crete": 7575,
      "Ġlaws": 7576,
      "ING": 7577,
      "heast": 7578,
      "Ġpatient": 7579,
      "hab": 7580,
      "Ġmit": 7581,
      "Ġlas": 7582,
      "Ġseparated": 7583,
      "Ġpollution": 7584,
      "Ġoccurrences": 7585,
      "Ġresidents": 7586,
      "Ġjustice": 7587,
      "creen": 7588,
      "Ġdigital": 7589,
      "itely": 7590,
      "ÑĤÑĮ": 7591,
      "Ġpsych": 7592,
      "has": 7593,
      "Ġë¡": 7594,
      "raction": 7595,
      "ë°±": 7596,
      "Ġmarked": 7597,
      "kin": 7598,
      "rating": 7599,
      "Ã½": 7600,
      "Ġhurt": 7601,
      "Ġpara": 7602,
      "Ġcolon": 7603,
      "Ġcharacteristics": 7604,
      "ĠJose": 7605,
      "lick": 7606,
      "ĠìĿ¼ë°ĺìłģìľ¼ë¡ľ": 7607,
      "\").": 7608,
      "vas": 7609,
      "Ġplanning": 7610,
      "IP": 7611,
      "low": 7612,
      "Ġlearned": 7613,
      "ĠRichard": 7614,
      "Ġmixed": 7615,
      "Ġinstitution": 7616,
      "ua": 7617,
      "ëĥ": 7618,
      "under": 7619,
      "Ġ(`": 7620,
      "Ġ31": 7621,
      "Ġlegisl": 7622,
      "ĠMac": 7623,
      "Ġinterpret": 7624,
      "ipped": 7625,
      "Ġprem": 7626,
      "Ġìĸ¸": 7627,
      "fortun": 7628,
      "vity": 7629,
      "Once": 7630,
      "save": 7631,
      "ĠItaly": 7632,
      "filename": 7633,
      "FF": 7634,
      "eg": 7635,
      "ĠResult": 7636,
      "Ġcandidate": 7637,
      "sage": 7638,
      "Int": 7639,
      "Ġrestr": 7640,
      "Ġshares": 7641,
      "geles": 7642,
      "Ġemphasizes": 7643,
      "oper": 7644,
      "Ġce": 7645,
      "ëĪ": 7646,
      "Ġadm": 7647,
      "Ġspending": 7648,
      "Ġmechanism": 7649,
      "Ġlongest": 7650,
      "atest": 7651,
      "Ġassistance": 7652,
      "ĠConstruct": 7653,
      "Ġmotor": 7654,
      "reedom": 7655,
      "Ġconsciousness": 7656,
      "Ġreb": 7657,
      "Ġadvice": 7658,
      "AG": 7659,
      "Ġwel": 7660,
      "olves": 7661,
      "ranslation": 7662,
      "Ġdiscussing": 7663,
      "Ġintroduced": 7664,
      "ë¡ł": 7665,
      "ÑģÐº": 7666,
      "ĠFrancis": 7667,
      "Ġwa": 7668,
      "Consider": 7669,
      "amin": 7670,
      "Ġapplications": 7671,
      "ĠìķĮê³ł": 7672,
      "Ġscenarios": 7673,
      "Ġprofile": 7674,
      "ë§ī": 7675,
      "ĠImage": 7676,
      "vin": 7677,
      "section": 7678,
      "Ġended": 7679,
      "Ġexpressing": 7680,
      "Command": 7681,
      "Builder": 7682,
      "ëģ¼": 7683,
      "faces": 7684,
      "Ġpaid": 7685,
      "ĠCouncil": 7686,
      "Ġsigned": 7687,
      "Ġlayout": 7688,
      "onom": 7689,
      "Ġconversion": 7690,
      "Ġê¸¸": 7691,
      "vider": 7692,
      "Ġmotion": 7693,
      "Ġmilk": 7694,
      "icing": 7695,
      "Ġmeanings": 7696,
      "ĠApple": 7697,
      "ĠEgypt": 7698,
      "Ġìĺģíĸ¥": 7699,
      "Ġhel": 7700,
      "Ġplanet": 7701,
      "ÑĤÐ°": 7702,
      "Table": 7703,
      "Ġrat": 7704,
      "ĠArmy": 7705,
      "ĠìĦ¤ëªħ": 7706,
      "HT": 7707,
      "Ġru": 7708,
      "Ġunw": 7709,
      "Ġleague": 7710,
      "annels": 7711,
      "Ġchanging": 7712,
      "haps": 7713,
      "Ġë¿": 7714,
      "Dat": 7715,
      "random": 7716,
      "ĠCap": 7717,
      "Ġexcell": 7718,
      "ĠCNN": 7719,
      "ocate": 7720,
      "olit": 7721,
      "ĠVictor": 7722,
      "Ġbroken": 7723,
      "Ġproposed": 7724,
      "ĠìłķíĻķ": 7725,
      "Ġperturbation": 7726,
      "Ġgathered": 7727,
      "ĠRepublican": 7728,
      "ĠìŀĪê¸°": 7729,
      "Ġcontributing": 7730,
      "Ġfacing": 7731,
      "Ġreform": 7732,
      "Ġ($": 7733,
      "Ġverify": 7734,
      "Ġinstallation": 7735,
      "rics": 7736,
      "sim": 7737,
      "ĠVec": 7738,
      "Ġì§ĳ": 7739,
      "oly": 7740,
      "Ġ70": 7741,
      "ì±": 7742,
      "ĠìĿ¼ë³¸": 7743,
      "ĠWestern": 7744,
      "ĠØ§ÙĦ": 7745,
      "TE": 7746,
      "asts": 7747,
      "ĠëĿ¼": 7748,
      "orms": 7749,
      "ya": 7750,
      "Ġvia": 7751,
      "ains": 7752,
      "ĠFar": 7753,
      "obj": 7754,
      "Ġpatients": 7755,
      "Book": 7756,
      "ĠKey": 7757,
      "Ġrecognized": 7758,
      "ja": 7759,
      "Ġevening": 7760,
      "Ġpaint": 7761,
      "Ġtensor": 7762,
      "Ġcounts": 7763,
      "Ġmainly": 7764,
      "ributes": 7765,
      "println": 7766,
      "Ġsaved": 7767,
      "Ġau": 7768,
      "Ġspecify": 7769,
      "Ġëį°": 7770,
      "Ġdefinitive": 7771,
      "Ġskill": 7772,
      "rill": 7773,
      "Ġexport": 7774,
      "ĠPost": 7775,
      "Ġequipment": 7776,
      "ional": 7777,
      "Ġnative": 7778,
      "acts": 7779,
      "versal": 7780,
      "Ġì°¨ìĿ´ê°Ģ": 7781,
      "rated": 7782,
      "Ġalter": 7783,
      "weight": 7784,
      "Ġëĵľ": 7785,
      "ĠPlay": 7786,
      "icago": 7787,
      "Ġnotes": 7788,
      "ĠGood": 7789,
      "score": 7790,
      "sort": 7791,
      "Ġstructured": 7792,
      "atitude": 7793,
      "Ġhear": 7794,
      "Ġcovered": 7795,
      "Ġê³¼ìłķ": 7796,
      "Ġsyntax": 7797,
      "Ġintent": 7798,
      "ĠëĤ®": 7799,
      "Entity": 7800,
      "Ġbasketball": 7801,
      "Ġëıħ": 7802,
      "bo": 7803,
      "ummy": 7804,
      "Ġroll": 7805,
      "shire": 7806,
      "Ġemployee": 7807,
      "Ġdegree": 7808,
      "500": 7809,
      "ĠMill": 7810,
      "aped": 7811,
      "Ð»ÑĮ": 7812,
      "ĠThus": 7813,
      "Button": 7814,
      "ĠIran": 7815,
      "Ġdesire": 7816,
      "irmed": 7817,
      "Ġuseful": 7818,
      "Ġbyte": 7819,
      "Ġbuildings": 7820,
      "Ġsuggesting": 7821,
      "register": 7822,
      "Note": 7823,
      "han": 7824,
      "md": 7825,
      "Ġstating": 7826,
      "Ġclosely": 7827,
      "Ġagree": 7828,
      "clusive": 7829,
      "Ġparaphrases": 7830,
      "gi": 7831,
      "Ġelim": 7832,
      "ums": 7833,
      "Ġcorner": 7834,
      "Ġmoments": 7835,
      "Ġentertainment": 7836,
      "ĠPers": 7837,
      "Ġending": 7838,
      "appe": 7839,
      "Ġbatch": 7840,
      "Ġpasseng": 7841,
      "ĠFurthermore": 7842,
      "undred": 7843,
      "isters": 7844,
      "ĠGl": 7845,
      "Ġcommunities": 7846,
      "Ġreduced": 7847,
      "ĠëķĮëĬĶ": 7848,
      "Ġalcohol": 7849,
      "Ġcircumst": 7850,
      "Processor": 7851,
      "English": 7852,
      "Ġprepared": 7853,
      "ĠDoes": 7854,
      "Ġfails": 7855,
      "ĠPri": 7856,
      "defined": 7857,
      "Ġeggs": 7858,
      "Ġwaves": 7859,
      "uler": 7860,
      "ĠBay": 7861,
      "ê¸°ìĿĺ": 7862,
      "Ġofficers": 7863,
      "Ġinterested": 7864,
      "Ġsto": 7865,
      "ĠWhere": 7866,
      "ĠJoe": 7867,
      "Ġcompos": 7868,
      "Ġdepartment": 7869,
      "Ġlabor": 7870,
      "Ġfoster": 7871,
      "95": 7872,
      "oma": 7873,
      "íĥķ": 7874,
      "Ġinstrument": 7875,
      "Ġrows": 7876,
      "ĠMcC": 7877,
      "Ġfocusing": 7878,
      "Ġê²½ìļ°ê°Ģ": 7879,
      "ĠClass": 7880,
      "Ġpages": 7881,
      "ras": 7882,
      "vol": 7883,
      "Ġê´ĳ": 7884,
      "Ġê³³": 7885,
      "Ġìĭ¬": 7886,
      "Ġperspective": 7887,
      "vey": 7888,
      "Ġexpressions": 7889,
      "Ġgarden": 7890,
      "ĠEven": 7891,
      "edding": 7892,
      "Ġsegment": 7893,
      "Ġwhom": 7894,
      "ëıĦë¥¼": 7895,
      "Ġdeploy": 7896,
      "Ġincred": 7897,
      "Ġbusinesses": 7898,
      "ĠOff": 7899,
      "icks": 7900,
      "Ġsignificance": 7901,
      "Ġdisplays": 7902,
      "Ġactors": 7903,
      "ëįĶ": 7904,
      "Ġcontroller": 7905,
      "atal": 7906,
      "Ġsolutions": 7907,
      "Ġkm": 7908,
      "Ġ1990": 7909,
      "Ġbodies": 7910,
      "inue": 7911,
      "itt": 7912,
      "Ġë²Ħ": 7913,
      "ĠAustralian": 7914,
      "Friend": 7915,
      "local": 7916,
      "Ġclothing": 7917,
      "Ġaddressing": 7918,
      "ĠBig": 7919,
      "Ġëĳ": 7920,
      "actor": 7921,
      "Ġexamples": 7922,
      "pi": 7923,
      "tre": 7924,
      "ĠEst": 7925,
      "ëĤĺëĿ¼": 7926,
      "Ġì²ľ": 7927,
      "Ġenjoyed": 7928,
      "ë¥´ê²Į": 7929,
      "Ġexceptional": 7930,
      "ĠMag": 7931,
      "Ġaccounts": 7932,
      "ë°°": 7933,
      "Ġforest": 7934,
      "Ġtorch": 7935,
      "ĠCam": 7936,
      "Ġappreciate": 7937,
      "ĠìĿ´ìĹĲ": 7938,
      "Ġìľłëŀĺ": 7939,
      "Ġsoccer": 7940,
      "ĠWat": 7941,
      "anger": 7942,
      "ĠAngeles": 7943,
      "ĠWeb": 7944,
      "Ġcooking": 7945,
      "fall": 7946,
      "Ġsplit": 7947,
      "ĠCall": 7948,
      "flow": 7949,
      "fast": 7950,
      "Ġpartner": 7951,
      "Ġpassing": 7952,
      "ĠCenter": 7953,
      "ĠBuild": 7954,
      "Ġqual": 7955,
      "Ġbrand": 7956,
      "ì§¸": 7957,
      "Ġshel": 7958,
      "shape": 7959,
      "êµ°": 7960,
      "Ġpromote": 7961,
      "ĠPolish": 7962,
      "razil": 7963,
      "Ġenforce": 7964,
      "Ġtemperatures": 7965,
      "Ġfif": 7966,
      "ĠSpe": 7967,
      "Ġadvert": 7968,
      "Ġreceiving": 7969,
      "Ġenhance": 7970,
      "ĠCollege": 7971,
      "pool": 7972,
      "Ġnotice": 7973,
      "ameter": 7974,
      "Ġnarrative": 7975,
      "ìľ¨": 7976,
      "show": 7977,
      "Ġahead": 7978,
      "ëª©": 7979,
      "Ġfewer": 7980,
      "enty": 7981,
      "Ġweak": 7982,
      "Ġthemes": 7983,
      "brew": 7984,
      "store": 7985,
      "ĠObject": 7986,
      "Ġconstraints": 7987,
      "ìľ¡": 7988,
      "ĠCharl": 7989,
      "ëĲł": 7990,
      "rome": 7991,
      "ĠSpain": 7992,
      "Ġinfluenced": 7993,
      "Ġgeograph": 7994,
      "Ġawait": 7995,
      "org": 7996,
      "ëĬĺ": 7997,
      "Ġinstit": 7998,
      "Ġnavigate": 7999,
      "Ġliquid": 8000,
      "amily": 8001,
      "ingly": 8002,
      "bles": 8003,
      "ê¸°ìĹĲ": 8004,
      "Ġsunlight": 8005,
      "Summary": 8006,
      "Ġmolec": 8007,
      "26": 8008,
      "second": 8009,
      "ocial": 8010,
      "Ġtrial": 8011,
      "Ġëĭ´": 8012,
      "Ġshowed": 8013,
      "ĠArt": 8014,
      "Ġstudied": 8015,
      "Ġrapid": 8016,
      "Ġmobile": 8017,
      "inton": 8018,
      "Ġoperating": 8019,
      "uated": 8020,
      "Ġhat": 8021,
      "iest": 8022,
      "ĠChurch": 8023,
      "ìĸ´ìĦľ": 8024,
      "Ġë¯¸êµŃ": 8025,
      "Ġlinked": 8026,
      "ĠìĹĨëĬĶ": 8027,
      "uman": 8028,
      "Ġtwice": 8029,
      "Ġpoly": 8030,
      "Ġcharges": 8031,
      "ĠConst": 8032,
      "Ġbirthday": 8033,
      "Alright": 8034,
      "making": 8035,
      "Ġiron": 8036,
      "img": 8037,
      "ĠìŀĪì§Ģë§Į": 8038,
      "ki": 8039,
      "Ġinner": 8040,
      "ette": 8041,
      "Ġgenetic": 8042,
      "icates": 8043,
      "rogen": 8044,
      "Ġtopics": 8045,
      "Ġpul": 8046,
      "Ġgender": 8047,
      "ìĿ¸ì§Ģ": 8048,
      "ĠìĿ¼ë¶Ģ": 8049,
      "Ġairport": 8050,
      "Ġchief": 8051,
      "Ġìļ´": 8052,
      "Ġinvestment": 8053,
      "ĠBa": 8054,
      "ĠOh": 8055,
      "fs": 8056,
      "Ġdescript": 8057,
      "ĠìłľíĴĪ": 8058,
      "comes": 8059,
      "Ġseemed": 8060,
      "89": 8061,
      "aping": 8062,
      "Ġinteraction": 8063,
      "Ġaddresses": 8064,
      "Ġmeant": 8065,
      "Product": 8066,
      "Explain": 8067,
      "hist": 8068,
      "Ġrein": 8069,
      "verb": 8070,
      "Ġera": 8071,
      "IV": 8072,
      "Ġimpressive": 8073,
      "ĠTaylor": 8074,
      "Ġë°ı": 8075,
      "gener": 8076,
      "hi": 8077,
      "uan": 8078,
      "Ø¹": 8079,
      "à¹": 8080,
      "Ġpossibility": 8081,
      "Ġlab": 8082,
      "onym": 8083,
      "ela": 8084,
      "construct": 8085,
      "Ġfounded": 8086,
      "ĠLouis": 8087,
      "Ġreality": 8088,
      "Ġ2001": 8089,
      "venue": 8090,
      "ħëĭĪëĭ¤": 8091,
      "empty": 8092,
      "Ġreliable": 8093,
      "ê·ł": 8094,
      "ighter": 8095,
      "Ġunlike": 8096,
      "ĠSecret": 8097,
      "Ġproceed": 8098,
      "ĠØ¯": 8099,
      "private": 8100,
      "ĠÐ±": 8101,
      "íħĮ": 8102,
      "kwargs": 8103,
      "Ġinqu": 8104,
      "ista": 8105,
      "ĠMost": 8106,
      "Ġmeters": 8107,
      "ĠAirport": 8108,
      "ĠKorea": 8109,
      "Could": 8110,
      "Ġspokes": 8111,
      "ĠVir": 8112,
      "ìĭľíĤ¤": 8113,
      "ĠEmpire": 8114,
      "Ġcloser": 8115,
      "Ġsending": 8116,
      "Ġhero": 8117,
      "Ġspect": 8118,
      "Ġconfident": 8119,
      "Ġbroader": 8120,
      "Ġstrategies": 8121,
      "Ġnewspaper": 8122,
      "Method": 8123,
      "Ġbrow": 8124,
      "Ġinstalled": 8125,
      "44": 8126,
      "DO": 8127,
      "Ġ190": 8128,
      "Ġmultip": 8129,
      "Ġfigures": 8130,
      "Solve": 8131,
      "Ġbike": 8132,
      "ĠBer": 8133,
      "ĠLast": 8134,
      "Ġstudies": 8135,
      "Ġsimplified": 8136,
      "Ġadvantage": 8137,
      "person": 8138,
      "roc": 8139,
      "uty": 8140,
      "Ġbytes": 8141,
      "execute": 8142,
      "emy": 8143,
      "Page": 8144,
      "edia": 8145,
      "Ġchat": 8146,
      "ì²ł": 8147,
      "Ġpayment": 8148,
      "Ġshock": 8149,
      "Ġ1980": 8150,
      "ëł¥ìĿ´": 8151,
      "height": 8152,
      "stone": 8153,
      "ario": 8154,
      "ĠëĺĲëĬĶ": 8155,
      "Ġmyster": 8156,
      "lower": 8157,
      "ental": 8158,
      "OPTIONS": 8159,
      "Ġyellow": 8160,
      "Person": 8161,
      "amount": 8162,
      "Ġconven": 8163,
      "ĠCD": 8164,
      "Ġfriendship": 8165,
      "Ġpronoun": 8166,
      "Ġdefense": 8167,
      "ĠìĿ´ê²ĥ": 8168,
      "Ġ2017": 8169,
      "ĵ¤": 8170,
      "Ġdedication": 8171,
      "ĠValueError": 8172,
      "ĠCongress": 8173,
      "gar": 8174,
      "Ġfle": 8175,
      "Ġinitialized": 8176,
      "ĠìŀĲìĦ¸": 8177,
      "Ġfashion": 8178,
      "ĠMike": 8179,
      "Ġfilename": 8180,
      "ĠYear": 8181,
      "Ġcontrovers": 8182,
      "Ġsoldiers": 8183,
      "rich": 8184,
      "Ġshift": 8185,
      "ĠNode": 8186,
      "Ġfeels": 8187,
      "Ġdisappointment": 8188,
      "Ġresponsibility": 8189,
      "ĠCentral": 8190,
      "Ġuna": 8191,
      "ordan": 8192,
      "ëĮĢë¡ľ": 8193,
      "pay": 8194,
      "Ġfaces": 8195,
      "ĠLi": 8196,
      "Ġinputs": 8197,
      "Ġbaseball": 8198,
      "Ġalleged": 8199,
      "Ġwealth": 8200,
      "Ġviewers": 8201,
      "ĠìĪľ": 8202,
      "olk": 8203,
      "erts": 8204,
      "itement": 8205,
      "allow": 8206,
      "ĠìŀĲìĭł": 8207,
      "Ġstronger": 8208,
      "TO": 8209,
      "Ġfaster": 8210,
      "avy": 8211,
      "apped": 8212,
      "ĠÑ": 8213,
      "Ġum": 8214,
      "king": 8215,
      "session": 8216,
      "Ġlaunch": 8217,
      "ĠìĿ´ë£¨ìĸ´": 8218,
      "yer": 8219,
      "ĠëıĮ": 8220,
      "Ġbelieves": 8221,
      "ĠTask": 8222,
      "Ġcomplain": 8223,
      "ĠBlue": 8224,
      "Ġcircumstances": 8225,
      "olving": 8226,
      "ameters": 8227,
      "ĠLook": 8228,
      "Ġmagaz": 8229,
      "Ġvirtual": 8230,
      "oles": 8231,
      "Ġstability": 8232,
      "contro": 8233,
      "ê¸¸": 8234,
      "Ġremained": 8235,
      "ĠëıĻë¬¼": 8236,
      "Ġ'.": 8237,
      "Ġpasses": 8238,
      "Ġendpoint": 8239,
      "Ġvul": 8240,
      "Ġapplying": 8241,
      "Ġì¢ĭìĿĢ": 8242,
      "ĠSec": 8243,
      "íķŃ": 8244,
      "ĠìĤ¬ìļ©ëĲ©ëĭĪëĭ¤": 8245,
      "legal": 8246,
      "Ġaid": 8247,
      "Ġmarriage": 8248,
      "ĠWindows": 8249,
      "Stack": 8250,
      "sche": 8251,
      "Ġdeli": 8252,
      "Ġdestroy": 8253,
      "Ġjudge": 8254,
      "Ext": 8255,
      "[-": 8256,
      "track": 8257,
      "Ġpros": 8258,
      "ĠSing": 8259,
      "ëĿ¼ìĦľ": 8260,
      "Ġstudio": 8261,
      "Ġobstac": 8262,
      "Ġfavorable": 8263,
      "Ġarrested": 8264,
      "ushed": 8265,
      "Ġíıī": 8266,
      "Ġëĭ¨ìĸ´": 8267,
      "####": 8268,
      "Ġadventure": 8269,
      "ĠProduct": 8270,
      "ĠCanadian": 8271,
      "ĠSports": 8272,
      "Student": 8273,
      "Ġfell": 8274,
      "Ġfinished": 8275,
      "ĠArabic": 8276,
      "ban": 8277,
      "à²": 8278,
      "ë¸Į": 8279,
      "ĠGovern": 8280,
      "ĠInternet": 8281,
      "Ġexamine": 8282,
      "pattern": 8283,
      "Ġequivalent": 8284,
      "àŃ": 8285,
      "entials": 8286,
      "Ġhyp": 8287,
      "That": 8288,
      "appy": 8289,
      "({": 8290,
      "Pass": 8291,
      "Ġq": 8292,
      "iner": 8293,
      "Ġunexpected": 8294,
      "keys": 8295,
      "Ġputting": 8296,
      "average": 8297,
      "ĠChicago": 8298,
      "íĻľ": 8299,
      "ĠDataFrame": 8300,
      "Ġtoward": 8301,
      "Ġorganized": 8302,
      "Ġagreed": 8303,
      "Assume": 8304,
      "ĠProm": 8305,
      "ĠDist": 8306,
      "Ġordered": 8307,
      "Ġcaptiv": 8308,
      "itz": 8309,
      "Ġwarn": 8310,
      "ĠService": 8311,
      "Ġê±´ê°ĢìļĶ": 8312,
      "Ġkitchen": 8313,
      "tical": 8314,
      "ĠDen": 8315,
      "Ġmonit": 8316,
      "Ġimproved": 8317,
      "power": 8318,
      "allel": 8319,
      "MS": 8320,
      "Ġagricult": 8321,
      "Ġdocuments": 8322,
      "ÐµÑĢ": 8323,
      "Ġdictionaries": 8324,
      "www": 8325,
      "Ġwave": 8326,
      "Ġbrown": 8327,
      "Ġleadership": 8328,
      "NAME": 8329,
      "Last": 8330,
      "Ġ]": 8331,
      "dim": 8332,
      "Ġschema": 8333,
      "SC": 8334,
      "Ġsick": 8335,
      "arant": 8336,
      "íķĺì§Ģë§Į": 8337,
      "Ġextensive": 8338,
      "pg": 8339,
      "Ġmapping": 8340,
      "ours": 8341,
      "Ġdatetime": 8342,
      "Ġneutral": 8343,
      "Ġë³Ħ": 8344,
      "Label": 8345,
      "ican": 8346,
      "Ġimagine": 8347,
      "ëħ¸": 8348,
      "ĠëĪĦ": 8349,
      "Ġcallback": 8350,
      "Bu": 8351,
      "DB": 8352,
      "echo": 8353,
      "Ġpix": 8354,
      "Ġplastic": 8355,
      "Ġhappiness": 8356,
      "Ġboys": 8357,
      "rical": 8358,
      "isine": 8359,
      "½ê²Į": 8360,
      "Ġ'/": 8361,
      "ãģ®": 8362,
      "only": 8363,
      "Ġbread": 8364,
      "Ġurban": 8365,
      "Ġvibr": 8366,
      "Ġol": 8367,
      "Ġcoal": 8368,
      "Ġthreshold": 8369,
      "Ġcomedy": 8370,
      "ĠMer": 8371,
      "Ġguide": 8372,
      "Ġsupply": 8373,
      "icken": 8374,
      "Ġworldwide": 8375,
      "acter": 8376,
      "Ġdistribut": 8377,
      "Ġexcited": 8378,
      "LO": 8379,
      "ĠWal": 8380,
      "essor": 8381,
      "anda": 8382,
      "íİĺ": 8383,
      "Ġ});": 8384,
      "ë³ĳ": 8385,
      "Ġlose": 8386,
      "íķ´ë": 8387,
      "nament": 8388,
      "Ġabilities": 8389,
      "which": 8390,
      "Ġ>=": 8391,
      "Ġphilos": 8392,
      "ĠIsland": 8393,
      "}'": 8394,
      "ìĹ´": 8395,
      "ĠEvent": 8396,
      "Ġprefix": 8397,
      "Ġë¬´ìĹĩìĿ¼ê¹ĮìļĶ": 8398,
      "Ġíĺķíĥľ": 8399,
      "ĠFlorida": 8400,
      "close": 8401,
      "ĠìĺģíĻĶ": 8402,
      "nn": 8403,
      "llo": 8404,
      "console": 8405,
      "project": 8406,
      "Ġenjoyable": 8407,
      "ĠCharles": 8408,
      "uling": 8409,
      "Ġcontributions": 8410,
      "ĠMovie": 8411,
      "Ġuns": 8412,
      "ĠOut": 8413,
      "Ġê·ľ": 8414,
      "ì£¼ëĬĶ": 8415,
      "´ëıĻ": 8416,
      "grid": 8417,
      "ëłĩ": 8418,
      "Ġcreative": 8419,
      "ĠëĶĶ": 8420,
      "ĠìľĦíķľ": 8421,
      "ĠpriceRange": 8422,
      "Ġarrived": 8423,
      "Ġinvolvement": 8424,
      "ĠìĹŃíķłìĿĦ": 8425,
      "Ġfan": 8426,
      "ernel": 8427,
      "ìĶ¨": 8428,
      "Don": 8429,
      "uine": 8430,
      "inition": 8431,
      "ĠPrime": 8432,
      "Ġearthqu": 8433,
      "PE": 8434,
      "td": 8435,
      "íİ¸": 8436,
      "Ġinventory": 8437,
      "illed": 8438,
      "Ġunable": 8439,
      "ĠJul": 8440,
      "ĠJones": 8441,
      "ĠIts": 8442,
      "Ġgained": 8443,
      "ĠëĴ¤": 8444,
      "íĪ¬": 8445,
      "Ø§ÙĨ": 8446,
      "clear": 8447,
      "job": 8448,
      "Ġthorough": 8449,
      "Ġprintln": 8450,
      "Ġretrieved": 8451,
      "writer": 8452,
      "Ġasync": 8453,
      "Ġartic": 8454,
      "Ġexcitement": 8455,
      "Ġcer": 8456,
      "Ġì´": 8457,
      "certain": 8458,
      "options": 8459,
      "Ġfly": 8460,
      "ĠDirect": 8461,
      "aks": 8462,
      "ura": 8463,
      "ĠChristmas": 8464,
      "55": 8465,
      "ĠPy": 8466,
      "Ġzu": 8467,
      "Ġdetermination": 8468,
      "ëĦ¤": 8469,
      "Ġincome": 8470,
      "Ġextended": 8471,
      "ë¡ľëĬĶ": 8472,
      "Ġsympt": 8473,
      "Ġë¡ľ": 8474,
      "iences": 8475,
      "kins": 8476,
      "ĠAnn": 8477,
      "Ġdeeper": 8478,
      "íķĺë©´ìĦľ": 8479,
      "Am": 8480,
      "Ġhint": 8481,
      "ĠPress": 8482,
      "Ġconfidence": 8483,
      "Ġnegot": 8484,
      "Ġpil": 8485,
      "ĠOcean": 8486,
      "ëĲĺìĹĪìĬµëĭĪëĭ¤": 8487,
      "ĠRock": 8488,
      "Ġmodify": 8489,
      "Repository": 8490,
      "Ġasynchronous": 8491,
      "ëĶ°": 8492,
      "Ġaircraft": 8493,
      "Ġfighting": 8494,
      "Ġvon": 8495,
      "ĠBrazil": 8496,
      "Ġappar": 8497,
      "Ä±r": 8498,
      "Property": 8499,
      "¸Ķ": 8500,
      "Ġdebate": 8501,
      "Ġdedicated": 8502,
      "ipping": 8503,
      "hetic": 8504,
      "ĠBet": 8505,
      "ĠHill": 8506,
      "Ġë²ķ": 8507,
      "Ġcredit": 8508,
      "Ġstyles": 8509,
      "Ġreactions": 8510,
      "rier": 8511,
      "abs": 8512,
      "Ġrid": 8513,
      "ĠFoot": 8514,
      "ĠëĨĴìĿĢ": 8515,
      "Ġhomes": 8516,
      "Ed": 8517,
      "Source": 8518,
      "ëĿ½": 8519,
      "ĠìĦłíĥĿ": 8520,
      "Ġtur": 8521,
      "apers": 8522,
      "Ġnumer": 8523,
      "Ġreaders": 8524,
      "ĠÙĪ": 8525,
      "Ġfruit": 8526,
      "ĠðŁ": 8527,
      "initial": 8528,
      "asy": 8529,
      "ĠSpec": 8530,
      "Ġflu": 8531,
      "Ġì²Ń": 8532,
      "Ġbacteria": 8533,
      "aver": 8534,
      "make": 8535,
      "Ġweekend": 8536,
      "dataset": 8537,
      "Ġgone": 8538,
      "ìĿ´ê¸°": 8539,
      "ĠFound": 8540,
      "ansion": 8541,
      "ĠÃ¼": 8542,
      "Ġbranch": 8543,
      "Ġturns": 8544,
      "ìĬ¹": 8545,
      "Ġvictims": 8546,
      "PU": 8547,
      "Ġbomb": 8548,
      "ĠMiddle": 8549,
      "Ġju": 8550,
      "ĠScot": 8551,
      "Ġevaluation": 8552,
      "Ġìĭ¤ìłľ": 8553,
      "Ġantic": 8554,
      "ĠLin": 8555,
      "conf": 8556,
      "Ġstopped": 8557,
      "ĠFe": 8558,
      "Ġwinter": 8559,
      "Serial": 8560,
      "ĠGrand": 8561,
      "tar": 8562,
      "Ġcul": 8563,
      "Ġrare": 8564,
      "Friendly": 8565,
      "reland": 8566,
      "ĠLuc": 8567,
      "Ð¾Ð¹": 8568,
      "dig": 8569,
      "oli": 8570,
      "perties": 8571,
      "ĠStar": 8572,
      "Case": 8573,
      "GB": 8574,
      "Ġinteractions": 8575,
      "ictionary": 8576,
      "Ġcombine": 8577,
      "ĠìĿ´ìľłê°Ģ": 8578,
      "ĠSenate": 8579,
      "Final": 8580,
      "Ø²": 8581,
      "Ġ;": 8582,
      "Ġretrieving": 8583,
      "Detailed": 8584,
      "IL": 8585,
      "Ġpermission": 8586,
      "river": 8587,
      "Ġ\"/": 8588,
      "Ġamazing": 8589,
      "Ġavailability": 8590,
      "ĠMartin": 8591,
      "Ġvulner": 8592,
      "Ø´": 8593,
      "Ġlowercase": 8594,
      "ĠìĺĪë¥¼": 8595,
      "rid": 8596,
      "ictions": 8597,
      "Ġreducing": 8598,
      "Ġdimensions": 8599,
      "Back": 8600,
      "iginal": 8601,
      "Ġselling": 8602,
      "ĠDiv": 8603,
      "ĠJeff": 8604,
      "ĠAsia": 8605,
      "viation": 8606,
      "Ġtitles": 8607,
      "\"{": 8608,
      "ittle": 8609,
      "ëĲĺìĹĪ": 8610,
      "Ġfacilit": 8611,
      "column": 8612,
      "Ġboat": 8613,
      "Ġmeat": 8614,
      "Ġhundred": 8615,
      "ìĦ±ìĿĦ": 8616,
      "ĠIDs": 8617,
      "Ġadministration": 8618,
      "weet": 8619,
      "ester": 8620,
      "ë°ķ": 8621,
      "Ġappeal": 8622,
      "Ġachieved": 8623,
      "Ġinterval": 8624,
      "lessly": 8625,
      "¶Ģ": 8626,
      "íĿ": 8627,
      "Ġproducer": 8628,
      "Ġcharged": 8629,
      "Ġblocks": 8630,
      "adow": 8631,
      "Ġsolar": 8632,
      "ventory": 8633,
      "Parser": 8634,
      "MP": 8635,
      "Ġseg": 8636,
      "Multi": 8637,
      "ĠTech": 8638,
      "ì¶©": 8639,
      "ĠëĲĺëĬĶ": 8640,
      "Ġclubs": 8641,
      "onic": 8642,
      "Ġhumor": 8643,
      "ĠíĻķìĿ¸": 8644,
      "88": 8645,
      "ĠPak": 8646,
      "ĠMel": 8647,
      "ĠInstructions": 8648,
      "ĠCarol": 8649,
      "ĠWood": 8650,
      "})": 8651,
      "Ġner": 8652,
      "Che": 8653,
      "Ġideal": 8654,
      "enu": 8655,
      "ĠBook": 8656,
      "veloc": 8657,
      "eder": 8658,
      "Ġride": 8659,
      "Ġschedule": 8660,
      "Ġcrisis": 8661,
      "was": 8662,
      "ĠBBC": 8663,
      "ocated": 8664,
      "ĠFre": 8665,
      "Ġelabor": 8666,
      "Ġoccasion": 8667,
      "ëĦĪ": 8668,
      "depend": 8669,
      "Ġtall": 8670,
      "Ġenable": 8671,
      "Ġnegatively": 8672,
      "Ġutilize": 8673,
      "Ġë©Ķ": 8674,
      "Ġscientists": 8675,
      "Ġì»¤": 8676,
      "ga": 8677,
      "Ġpositively": 8678,
      "Ġupload": 8679,
      "Ġrival": 8680,
      "Group": 8681,
      "Ġintelligence": 8682,
      "Ġcrew": 8683,
      "dden": 8684,
      "ynt": 8685,
      "Ġmigr": 8686,
      "cest": 8687,
      "Ġstreng": 8688,
      "Ġdome": 8689,
      "ĠJackson": 8690,
      "dist": 8691,
      "Ġinsert": 8692,
      "ĠException": 8693,
      "ĠìĻķ": 8694,
      "iams": 8695,
      "ê´ĳ": 8696,
      "Ġarchitecture": 8697,
      "Ġepisode": 8698,
      "Tech": 8699,
      "ĠGame": 8700,
      "ìŀĲë¥¼": 8701,
      "abulary": 8702,
      "mal": 8703,
      "ano": 8704,
      "Ġjoint": 8705,
      "Ġconfirmed": 8706,
      "Ġrisks": 8707,
      "graph": 8708,
      "»į": 8709,
      "ĠìŀĪìľ¼": 8710,
      "uese": 8711,
      "ëĵ¤ìĿĦ": 8712,
      "Ġ36": 8713,
      "Ġengaged": 8714,
      "Ġcert": 8715,
      "ĠSand": 8716,
      "Ġpromoting": 8717,
      "Ġfert": 8718,
      "Ġbridge": 8719,
      "Ġconsumption": 8720,
      "Ġacademic": 8721,
      "ĠKeep": 8722,
      "adium": 8723,
      "Ġëª¨ëĵł": 8724,
      "Ġgenuine": 8725,
      "DF": 8726,
      "she": 8727,
      "orney": 8728,
      "Ġma": 8729,
      "Ġlies": 8730,
      "Ġstre": 8731,
      "Ġeste": 8732,
      "Ġzone": 8733,
      "template": 8734,
      "AB": 8735,
      "....": 8736,
      "azz": 8737,
      "ĠRetrieve": 8738,
      "Ġdrawing": 8739,
      "Ġexcellent": 8740,
      "Pe": 8741,
      "ĠIreland": 8742,
      "unanswerable": 8743,
      "Ġresolution": 8744,
      "Ġconsult": 8745,
      "Ġbreaking": 8746,
      "Ġpackages": 8747,
      "Ġnamespace": 8748,
      "ĠRoyal": 8749,
      "context": 8750,
      "Ã¤Ã¤": 8751,
      "Ġfamiliar": 8752,
      "Ġinfrastructure": 8753,
      "urations": 8754,
      "organ": 8755,
      "ĠTimes": 8756,
      "igen": 8757,
      "Ġ\"\"": 8758,
      "ĠWell": 8759,
      "´ë¦¬": 8760,
      "Ġresearchers": 8761,
      "Length": 8762,
      "uke": 8763,
      "utch": 8764,
      "attering": 8765,
      "31": 8766,
      "Ġwish": 8767,
      "essions": 8768,
      "ìĿ´ê³ł": 8769,
      "Ġtruck": 8770,
      "Ġì¤ĳêµŃ": 8771,
      "Ġ1970": 8772,
      "Ġindices": 8773,
      "ĠRel": 8774,
      "Ġspeaking": 8775,
      "player": 8776,
      "Ġaccessible": 8777,
      "Ġapplies": 8778,
      "Ġnor": 8779,
      "Ġë°ĺë©´": 8780,
      "Ġentirely": 8781,
      "Ġregistered": 8782,
      "à±į": 8783,
      "Equ": 8784,
      "Ġcab": 8785,
      "ĠCSV": 8786,
      "Ġraw": 8787,
      "****": 8788,
      "Level": 8789,
      "Ġthousands": 8790,
      "Filter": 8791,
      "ĠDict": 8792,
      "ĠFil": 8793,
      "inding": 8794,
      "ìķĦìĦľ": 8795,
      "ì·¨": 8796,
      "Ġaware": 8797,
      "ĠBow": 8798,
      "Ġodd": 8799,
      "Ġsudden": 8800,
      "Ġfort": 8801,
      "Ġcloud": 8802,
      "ghan": 8803,
      "Ġhousehold": 8804,
      "Ġfeatured": 8805,
      "inating": 8806,
      "core": 8807,
      "opher": 8808,
      "ĠExec": 8809,
      "logger": 8810,
      "aniel": 8811,
      "dy": 8812,
      "ĠìŀĪìĿĦ": 8813,
      "Ġmathe": 8814,
      "Ġconcise": 8815,
      "ë¥´ëĬĶ": 8816,
      "Ġderived": 8817,
      "Ġtast": 8818,
      "ati": 8819,
      "ĠHealth": 8820,
      "Ġdelay": 8821,
      "ĠDec": 8822,
      "Ġlowest": 8823,
      "stack": 8824,
      "entru": 8825,
      "ìłĳ": 8826,
      "ÑĤÐ¸": 8827,
      "Sim": 8828,
      "Use": 8829,
      "Ġevident": 8830,
      "Ġoppos": 8831,
      "semble": 8832,
      "Ġinspiration": 8833,
      "Ġpriority": 8834,
      "Up": 8835,
      "Ġwarning": 8836,
      "ĠStud": 8837,
      "Ġìŀ¡": 8838,
      "Ġmaintains": 8839,
      "ĠMrs": 8840,
      "Ġring": 8841,
      "ĠDNA": 8842,
      "Enter": 8843,
      "Ġtend": 8844,
      "Ġ'{": 8845,
      "ëĵľëĬĶ": 8846,
      "eding": 8847,
      "ĠFore": 8848,
      "Ġ300": 8849,
      "Ġsubsequent": 8850,
      "CA": 8851,
      "ĠìŀĪëĬĶëį°": 8852,
      "ìĿ´ëŀĢ": 8853,
      "ìķķ": 8854,
      "Ġexecutive": 8855,
      "${": 8856,
      "comp": 8857,
      "El": 8858,
      "Ġsac": 8859,
      "Ġresc": 8860,
      "Ġexpensive": 8861,
      "Ġì°¨ìĿ´ìłĲ": 8862,
      ">(": 8863,
      "Ġlake": 8864,
      "Ġagency": 8865,
      "ĠQueen": 8866,
      "Ġrationale": 8867,
      "Ġliked": 8868,
      "ursor": 8869,
      "ĠZe": 8870,
      "Ġrevealed": 8871,
      "imize": 8872,
      "ĠMax": 8873,
      "Ġíŀ": 8874,
      "Ġdipl": 8875,
      "Ġhearing": 8876,
      "Ġoutl": 8877,
      "Ġflavor": 8878,
      "Ġ2002": 8879,
      "Ġ2003": 8880,
      "Ġpopularity": 8881,
      "Ġextend": 8882,
      "Ġcarried": 8883,
      "Ġgrown": 8884,
      "settings": 8885,
      "à¦¾": 8886,
      "Ġrecognition": 8887,
      "ĠSol": 8888,
      "Subject": 8889,
      "Ġfant": 8890,
      "Ġà´": 8891,
      "Ġacceptable": 8892,
      "eline": 8893,
      "Ġexciting": 8894,
      "Ġfoss": 8895,
      "Ġarmy": 8896,
      "Ð»Ð°": 8897,
      "fi": 8898,
      "np": 8899,
      "Ġafford": 8900,
      "Ġhappening": 8901,
      "Ġproced": 8902,
      "Ġgrammatically": 8903,
      ">();": 8904,
      "oj": 8905,
      "ĠNor": 8906,
      "ĠíĪ¬": 8907,
      "Ġoffset": 8908,
      "ĠHebrew": 8909,
      "ĠCommun": 8910,
      "success": 8911,
      "85": 8912,
      "aron": 8913,
      "Ġíı¬íķ¨": 8914,
      "More": 8915,
      "Ret": 8916,
      "ola": 8917,
      "Start": 8918,
      "hesis": 8919,
      "install": 8920,
      "Both": 8921,
      "Ġsouthern": 8922,
      "unit": 8923,
      "ĠCamer": 8924,
      "ìĺ¬": 8925,
      "Ġmatching": 8926,
      ")\"": 8927,
      "HE": 8928,
      "Ġvision": 8929,
      "Ġsuc": 8930,
      "Ġfont": 8931,
      "Ġnet": 8932,
      "ups": 8933,
      "Ġcarrying": 8934,
      "csv": 8935,
      "Ġhealthcare": 8936,
      "Ġinjuries": 8937,
      "Ġdrama": 8938,
      "ĠBio": 8939,
      "Ġarrive": 8940,
      "Ġstruggle": 8941,
      "Ġvehicles": 8942,
      "ĠHenry": 8943,
      "Ġdir": 8944,
      "Ġì°¾": 8945,
      "Ġfrequently": 8946,
      "ading": 8947,
      "ĠFunction": 8948,
      "claim": 8949,
      "ĠJordan": 8950,
      "complete": 8951,
      "Ġreprodu": 8952,
      "Ġinstant": 8953,
      "Ġcutting": 8954,
      "Ġreflects": 8955,
      "ĠDonald": 8956,
      "Ġaccused": 8957,
      "ĠíĺĪ": 8958,
      "Ġannual": 8959,
      "Ġoriginally": 8960,
      "walk": 8961,
      "ĠTD": 8962,
      "Ġyounger": 8963,
      "Ġinstitutions": 8964,
      "ashMap": 8965,
      "Ġrelatively": 8966,
      "Ġsymptoms": 8967,
      "47": 8968,
      "ĠBash": 8969,
      "Ġsatisfied": 8970,
      "Ġplatforms": 8971,
      "Ġwalls": 8972,
      "zone": 8973,
      "Ġtheory": 8974,
      "ativity": 8975,
      "rs": 8976,
      "Ġ\\(": 8977,
      "Ġrobot": 8978,
      "Ġdates": 8979,
      "rat": 8980,
      "Ġaf": 8981,
      "static": 8982,
      "Ġseat": 8983,
      "Ġresistance": 8984,
      "Me": 8985,
      "Ġran": 8986,
      "Ġfeat": 8987,
      "Ġanalyzing": 8988,
      "category": 8989,
      "Ġstuff": 8990,
      "Ġconference": 8991,
      "loss": 8992,
      "Ġshut": 8993,
      "Ġteach": 8994,
      "Ġparsing": 8995,
      "Ġcategor": 8996,
      "ba": 8997,
      "arrow": 8998,
      "Ġapartment": 8999,
      "Ġbenefit": 9000,
      "bor": 9001,
      "isted": 9002,
      "Ġconcluded": 9003,
      "Ġë©´": 9004,
      "Met": 9005,
      "Ġfellow": 9006,
      "Connection": 9007,
      "Ġentered": 9008,
      "Ġdynamic": 9009,
      "ĠCath": 9010,
      "Ġstandards": 9011,
      "ëł¥ìĿĦ": 9012,
      "Ġìĭ¶ìĬµëĭĪëĭ¤": 9013,
      "DA": 9014,
      "Ġpainting": 9015,
      "zi": 9016,
      "Ġrh": 9017,
      "Ġsuppl": 9018,
      "ĠìĦ¸ê³Ħ": 9019,
      "comfort": 9020,
      "Ġpolitics": 9021,
      "Ne": 9022,
      "cal": 9023,
      "ĠdÃ©": 9024,
      "Ġunion": 9025,
      "ĠGit": 9026,
      "ìĪľ": 9027,
      "Ġcraft": 9028,
      "ĠWil": 9029,
      "ĠLeg": 9030,
      "Ġvisitors": 9031,
      "areness": 9032,
      "osis": 9033,
      "ëĬĲ": 9034,
      "ĠìĤ¬ìļ©ëĲĺëĬĶ": 9035,
      "ĠëĤĺëĿ¼": 9036,
      "Ġadvanced": 9037,
      "pick": 9038,
      "isa": 9039,
      "ĠClinton": 9040,
      "ĠìĦ±ë¶Ħ": 9041,
      "Summarize": 9042,
      ")?": 9043,
      "des": 9044,
      "Ġtherefore": 9045,
      "Ġì§Ģêµ¬": 9046,
      "Found": 9047,
      "fr": 9048,
      "tex": 9049,
      "Ġoperator": 9050,
      "ĠìķĬê³ł": 9051,
      "íĸĪìĬµëĭĪëĭ¤": 9052,
      "alph": 9053,
      "Ġlungs": 9054,
      "andon": 9055,
      "Ġdisplaying": 9056,
      "ĠPac": 9057,
      "ĠHam": 9058,
      "Ġìķŀ": 9059,
      "ĠSwed": 9060,
      "Ġencountered": 9061,
      "rying": 9062,
      "Ġblog": 9063,
      "bridge": 9064,
      "ĠJohnson": 9065,
      "Ġweights": 9066,
      "button": 9067,
      "ĠëłĪ": 9068,
      "Ġefficiency": 9069,
      "Ġtelling": 9070,
      "Ġcuisine": 9071,
      "anchester": 9072,
      "tocol": 9073,
      "Ġsaving": 9074,
      "Ġ${": 9075,
      "Ġrecording": 9076,
      "´ëıĦ": 9077,
      "ìĿ´ë¥¼": 9078,
      "ĠDevelop": 9079,
      "Ġì¦ī": 9080,
      "Ġsituated": 9081,
      "Ġconverted": 9082,
      "Ġtun": 9083,
      "Ġanswered": 9084,
      "Ġimplications": 9085,
      "Ġanticip": 9086,
      "uous": 9087,
      "world": 9088,
      "heart": 9089,
      "ositive": 9090,
      "Ġprepare": 9091,
      "Ġêµ¬ë¶Ħ": 9092,
      "Ġhuge": 9093,
      "0000": 9094,
      "Ġencaps": 9095,
      "ĠêµŃê°Ģ": 9096,
      "Query": 9097,
      "During": 9098,
      "ifiers": 9099,
      "ĠRad": 9100,
      "Who": 9101,
      "free": 9102,
      "night": 9103,
      "Ġì£½": 9104,
      "Ġhall": 9105,
      "ĠHol": 9106,
      "elly": 9107,
      "ÑĢÐ¾": 9108,
      "books": 9109,
      "Ġcater": 9110,
      "iate": 9111,
      "Ġtok": 9112,
      "Ġmuse": 9113,
      "Ġzero": 9114,
      "ologies": 9115,
      "àª¾": 9116,
      "Ġinjury": 9117,
      "road": 9118,
      "that": 9119,
      "ĠRyan": 9120,
      "ĠProf": 9121,
      "ĠClub": 9122,
      "Ġdecline": 9123,
      "Ġarrays": 9124,
      "antity": 9125,
      "Ġnutrients": 9126,
      "Ġdele": 9127,
      "ĠMil": 9128,
      "Ġacts": 9129,
      "Ġimported": 9130,
      "Ġíĸ¥": 9131,
      "Ġjack": 9132,
      "orders": 9133,
      "ëıħ": 9134,
      "Ġeditor": 9135,
      "ATE": 9136,
      "ĠÑĥ": 9137,
      "Ġcake": 9138,
      "Ġvocabulary": 9139,
      "Mon": 9140,
      "Ġanx": 9141,
      "Ġinsect": 9142,
      "Ġvan": 9143,
      "teen": 9144,
      "Ġplt": 9145,
      "Ġenviron": 9146,
      "avors": 9147,
      "commod": 9148,
      "results": 9149,
      "Ġopinions": 9150,
      "ĠCarl": 9151,
      "Ġsimulate": 9152,
      "Ġrail": 9153,
      "ë¶Ī": 9154,
      "Ð²Ð°": 9155,
      "rot": 9156,
      "Ġì¶ķ": 9157,
      "Ġproposal": 9158,
      "ĠPersian": 9159,
      "ìĨ¡": 9160,
      "Server": 9161,
      "Ġswimming": 9162,
      "Ġfreedom": 9163,
      "Ġmentioning": 9164,
      "Ġê²½ìļ°ìĹĲëĬĶ": 9165,
      "ĠìĥĿê°ģ": 9166,
      "ydney": 9167,
      "ĠWilliams": 9168,
      "Ġappreciation": 9169,
      "Ġangle": 9170,
      "ĠAssociation": 9171,
      "sign": 9172,
      "ĶĶ": 9173,
      "Ġtight": 9174,
      "Ġnu": 9175,
      "ĠSelect": 9176,
      "Ġcontem": 9177,
      "ĠSea": 9178,
      "ëĤľ": 9179,
      "ĠOrgan": 9180,
      "97": 9181,
      "Ñī": 9182,
      "ì³": 9183,
      "riptions": 9184,
      "Ġriding": 9185,
      "lobal": 9186,
      "ĠDemocratic": 9187,
      "ĠConf": 9188,
      "Ġê±´ê°ķ": 9189,
      "atell": 9190,
      "íĥĦ": 9191,
      "ĠPortuguese": 9192,
      "Â°": 9193,
      "Ġsat": 9194,
      "ĠUN": 9195,
      "Ġë§ī": 9196,
      "ëł¹": 9197,
      "Ġdelight": 9198,
      "stood": 9199,
      "icine": 9200,
      "ĠFollow": 9201,
      "Ġconstructed": 9202,
      "fortunately": 9203,
      "home": 9204,
      "overy": 9205,
      "Ġtick": 9206,
      "async": 9207,
      "ìĿ´ê°Ģ": 9208,
      "issions": 9209,
      "auth": 9210,
      "ĠColor": 9211,
      "ĠDisplay": 9212,
      "bot": 9213,
      "Ġintention": 9214,
      "ĠJavaScript": 9215,
      "Ġenthusi": 9216,
      "Ġprinciples": 9217,
      "Ġmock": 9218,
      "osion": 9219,
      "ĠWork": 9220,
      "ĠJon": 9221,
      "Ġê·¸ëłĩ": 9222,
      "Ġelectricity": 9223,
      "Factory": 9224,
      "ptr": 9225,
      "ĠBirth": 9226,
      "ê°Ģì§Ģ": 9227,
      "Ġë¨¼": 9228,
      "Ġcaptured": 9229,
      "Ġmes": 9230,
      "ĠCommit": 9231,
      "Ġimprovement": 9232,
      "ĠëĤ´ë¶Ģ": 9233,
      "insert": 9234,
      "Ġlogs": 9235,
      "Ġdepends": 9236,
      "Attribute": 9237,
      "Considering": 9238,
      "whel": 9239,
      "andas": 9240,
      "Ġclaimed": 9241,
      "Ġslowly": 9242,
      "Ġboundaries": 9243,
      "Ġmysterious": 9244,
      "Ġrenowned": 9245,
      "Ġíİ¸": 9246,
      "ê°Ī": 9247,
      "Ġcollaboration": 9248,
      "ĠBecause": 9249,
      "connection": 9250,
      "={": 9251,
      "Ġspl": 9252,
      "Ġdoub": 9253,
      "Ġsufficient": 9254,
      "ĠÃ§": 9255,
      "ĠFootball": 9256,
      "double": 9257,
      "oted": 9258,
      "Ġwilling": 9259,
      "\"))": 9260,
      "ĠìĻĦ": 9261,
      "Ġneighborhood": 9262,
      "Ġrecover": 9263,
      "ë¬¼ìĿ´": 9264,
      "rd": 9265,
      "ĢìĿĦ": 9266,
      "Ġdisappe": 9267,
      "Ġquiet": 9268,
      "Ġexposure": 9269,
      "Ġ1960": 9270,
      "Ġearned": 9271,
      "volution": 9272,
      "Ġmir": 9273,
      "Ġrub": 9274,
      "Ġcomposed": 9275,
      "Ġinitialization": 9276,
      "Ġdelicious": 9277,
      "Ġencoding": 9278,
      "ë¬¼ìĿĦ": 9279,
      "Ġbeliefs": 9280,
      "×Ķ": 9281,
      "iger": 9282,
      "ogether": 9283,
      "Ġdecades": 9284,
      "ìŀĲëĬĶ": 9285,
      "ped": 9286,
      "ĠLong": 9287,
      "ê²¬": 9288,
      "urally": 9289,
      "ĠUsing": 9290,
      "Ġconverts": 9291,
      "ĠMusic": 9292,
      "Ġìĺģíĸ¥ìĿĦ": 9293,
      "Pack": 9294,
      "Ġpowers": 9295,
      "ponents": 9296,
      "ĠSovi": 9297,
      "Ġstatistics": 9298,
      "Ġhouses": 9299,
      "Ġorders": 9300,
      "ëĶ°ëĿ¼ìĦľ": 9301,
      "UR": 9302,
      "Ġì¸": 9303,
      "ĠApply": 9304,
      "ĠToday": 9305,
      "Ġê¼": 9306,
      "ĠLatin": 9307,
      "Ġìļ©ìĸ´": 9308,
      "Ġopposite": 9309,
      "BA": 9310,
      "ĠSal": 9311,
      "ĠCO": 9312,
      "ĠBudd": 9313,
      "Ġjoy": 9314,
      "gia": 9315,
      "ĠÅŁ": 9316,
      "ĠBest": 9317,
      "Ġplanned": 9318,
      "ÑĢÑĥ": 9319,
      "Ġauthority": 9320,
      "Ġarticles": 9321,
      "íģ": 9322,
      "Ġboss": 9323,
      "oses": 9324,
      "duc": 9325,
      "ĠXML": 9326,
      "Ġtuples": 9327,
      "Ġìłľê±°": 9328,
      "ycl": 9329,
      "Ġì£¼ë¡ľ": 9330,
      "car": 9331,
      "Ġunf": 9332,
      "cluding": 9333,
      "ĠJoseph": 9334,
      "Ġwouldn": 9335,
      "ĠChris": 9336,
      "Ġìłķë³´": 9337,
      "Ġlosing": 9338,
      "Ġchose": 9339,
      "ĠëĲĺìĸ´": 9340,
      "ĠTown": 9341,
      "Ġguy": 9342,
      "parent": 9343,
      "Ġinsurance": 9344,
      "Ġì±Ħ": 9345,
      "Ġlady": 9346,
      "iece": 9347,
      "ĠBase": 9348,
      "Ġethnic": 9349,
      "Ġreject": 9350,
      "Ġlunch": 9351,
      "ĠWater": 9352,
      "Ġlegs": 9353,
      "ĠCompany": 9354,
      "Ġincreasingly": 9355,
      "Bl": 9356,
      "ĠJud": 9357,
      "Ġexplains": 9358,
      "ĠHarry": 9359,
      "Mat": 9360,
      "Ġwedding": 9361,
      "Ġgift": 9362,
      "Ġstorm": 9363,
      "Ġsettle": 9364,
      "ĠíĥĦ": 9365,
      "Ġsuspect": 9366,
      "Ġpentru": 9367,
      "ĠLaur": 9368,
      "grade": 9369,
      "element": 9370,
      "velocity": 9371,
      "cut": 9372,
      "location": 9373,
      "pu": 9374,
      "Ġë¯": 9375,
      "ìĬ·": 9376,
      "ĠConvert": 9377,
      "Provider": 9378,
      "#!": 9379,
      "87": 9380,
      "null": 9381,
      "tml": 9382,
      "Ġworker": 9383,
      "ì¹Ń": 9384,
      "Ġlogger": 9385,
      "rops": 9386,
      "Ġauth": 9387,
      "Ġbiggest": 9388,
      "Ġholder": 9389,
      "Ġutility": 9390,
      "Ġreputation": 9391,
      "asant": 9392,
      "ĠNum": 9393,
      "Ġturning": 9394,
      "sen": 9395,
      "mean": 9396,
      "ih": 9397,
      "Ġthick": 9398,
      "osh": 9399,
      "Ġresolve": 9400,
      "ruption": 9401,
      "Ġë³ĢíĻĶ": 9402,
      "Ġemergency": 9403,
      "Ġshoes": 9404,
      "ĠWall": 9405,
      "Ġoutcomes": 9406,
      "Ġcurrency": 9407,
      "ifer": 9408,
      "96": 9409,
      "ĠìĿ´ìķ¼": 9410,
      "Ġretrieval": 9411,
      "Ġsigns": 9412,
[...]
