{
  "version": "1.0",
  "truncation": null,
  "padding": null,
  "added_tokens": [
    {
      "id": 0,
      "content": "<pad>",
      "single_word": false,
      "lstrip": false,
      "rstrip": false,
      "normalized": false,
      "special": true
    },
    {
      "id": 1,
      "content": "<bos>",
      "single_word": false,
      "lstrip": false,
      "rstrip": false,
      "normalized": false,
      "special": true
    },
    {
      "id": 2,
      "content": "<eos>",
      "single_word": false,
      "lstrip": false,
      "rstrip": false,
      "normalized": false,
      "special": true
    },
    {
      "id": 3,
      "content": "<unk>",
      "single_word": false,
      "lstrip": false,
      "rstrip": false,
      "normalized": false,
      "special": true
    }
  ],
  "normalizer": null,
  "pre_tokenizer": {
    "type": "ByteLevel",
    "add_prefix_space": false,
    "trim_offsets": true,
    "use_regex": true
  },
  "post_processor": null,
  "decoder": {
    "type": "ByteLevel",
    "add_prefix_space": true,
    "trim_offsets": true,
    "use_regex": true
  },
  "model": {
    "type": "BPE",
    "dropout": null,
    "unk_token": "<unk>",
    "continuing_subword_prefix": null,
    "end_of_word_suffix": null,
    "fuse_unk": false,
    "byte_fallback": true,
    "ignore_merges": false,
    "vocab": {
      "<pad>": 0,
      "<bos>": 1,
      "<eos>": 2,
      "<unk>": 3,
      "!": 4,
      "\"": 5,
      "#": 6,
      "$": 7,
      "%": 8,
      "&": 9,
      "'": 10,
      "(": 11,
      ")": 12,
      "*": 13,
      "+": 14,
      ",": 15,
      "-": 16,
      ".": 17,
      "/": 18,
      "0": 19,
      "1": 20,
      "2": 21,
      "3": 22,
      "4": 23,
      "5": 24,
      "6": 25,
      "7": 26,
      "8": 27,
      "9": 28,
      ":": 29,
      ";": 30,
      "<": 31,
      "=": 32,
      ">": 33,
      "?": 34,
      "@": 35,
      "A": 36,
      "B": 37,
      "C": 38,
      "D": 39,
      "E": 40,
      "F": 41,
      "G": 42,
      "H": 43,
      "I": 44,
      "J": 45,
      "K": 46,
      "L": 47,
      "M": 48,
      "N": 49,
      "O": 50,
      "P": 51,
      "Q": 52,
      "R": 53,
      "S": 54,
      "T": 55,
      "U": 56,
      "V": 57,
      "W": 58,
      "X": 59,
      "Y": 60,
      "Z": 61,
      "[": 62,
      "\\": 63,
      "]": 64,
      "^": 65,
      "_": 66,
      "`": 67,
      "a": 68,
      "b": 69,
      "c": 70,
      "d": 71,
      "e": 72,
      "f": 73,
      "g": 74,
      "h": 75,
      "i": 76,
      "j": 77,
      "k": 78,
      "l": 79,
      "m": 80,
      "n": 81,
      "o": 82,
      "p": 83,
      "q": 84,
      "r": 85,
      "s": 86,
      "t": 87,
      "u": 88,
      "v": 89,
      "w": 90,
      "x": 91,
      "y": 92,
      "z": 93,
      "{": 94,
      "|": 95,
      "}": 96,
      "~": 97,
      "¡": 98,
      "¢": 99,
      "£": 100,
      "¤": 101,
      "¥": 102,
      "¦": 103,
      "§": 104,
      "¨": 105,
      "©": 106,
      "ª": 107,
      "«": 108,
      "¬": 109,
      "®": 110,
      "¯": 111,
      "°": 112,
      "±": 113,
      "²": 114,
      "³": 115,
      "´": 116,
      "µ": 117,
      "¶": 118,
      "·": 119,
      "¸": 120,
      "¹": 121,
      "º": 122,
      "»": 123,
      "¼": 124,
      "½": 125,
      "¾": 126,
      "¿": 127,
      "Â": 128,
      "Ã": 129,
      "Ä": 130,
      "Å": 131,
      "Æ": 132,
      "Ç": 133,
      "È": 134,
      "É": 135,
      "Ê": 136,
      "Ë": 137,
      "Ì": 138,
      "Í": 139,
      "Î": 140,
      "Ï": 141,
      "Ð": 142,
      "Ñ": 143,
      "Ò": 144,
      "Ó": 145,
      "Ô": 146,
      "Õ": 147,
      "Ö": 148,
      "×": 149,
      "Ø": 150,
      "Ù": 151,
      "Ú": 152,
      "Û": 153,
      "Ü": 154,
      "ß": 155,
      "à": 156,
      "á": 157,
      "â": 158,
      "ã": 159,
      "ä": 160,
      "å": 161,
      "æ": 162,
      "ç": 163,
      "è": 164,
      "é": 165,
      "ê": 166,
      "ë": 167,
      "ì": 168,
      "í": 169,
      "î": 170,
      "ï": 171,
      "ð": 172,
      "ñ": 173,
      "ò": 174,
      "ó": 175,
      "ô": 176,
      "Ā": 177,
      "ā": 178,
      "Ă": 179,
      "ă": 180,
      "Ą": 181,
      "ą": 182,
      "Ć": 183,
      "ć": 184,
      "Ĉ": 185,
      "ĉ": 186,
      "Ċ": 187,
      "ċ": 188,
      "Ď": 189,
      "Đ": 190,
      "đ": 191,
      "Ē": 192,
      "ē": 193,
      "Ĕ": 194,
      "ĕ": 195,
      "Ė": 196,
      "ė": 197,
      "Ę": 198,
      "ę": 199,
      "Ě": 200,
      "ě": 201,
      "Ĝ": 202,
      "ĝ": 203,
      "Ğ": 204,
      "ğ": 205,
      "Ġ": 206,
      "ġ": 207,
      "Ģ": 208,
      "ģ": 209,
      "Ĥ": 210,
      "ĥ": 211,
      "Ħ": 212,
      "ħ": 213,
      "Ĩ": 214,
      "ĩ": 215,
      "Ī": 216,
      "ī": 217,
      "Ĭ": 218,
      "ĭ": 219,
      "Į": 220,
      "į": 221,
      "İ": 222,
      "ı": 223,
      "Ĳ": 224,
      "ĳ": 225,
      "Ĵ": 226,
      "ĵ": 227,
      "Ķ": 228,
      "ķ": 229,
      "ĸ": 230,
      "Ĺ": 231,
      "ĺ": 232,
      "Ļ": 233,
      "ļ": 234,
      "Ľ": 235,
      "ľ": 236,
      "Ŀ": 237,
      "ŀ": 238,
      "Ł": 239,
      "ł": 240,
      "Ń": 241,
      "Ġì": 242,
      "Ġë": 243,
      "ìĿ": 244,
      "íķ": 245,
      "Ġê": 246,
      "ëĭ": 247,
      "ìĹ": 248,
      "ëĭ¤": 249,
      "ëĬ": 250,
      "ìĿ´": 251,
      "ëĬĶ": 252,
      "ê³": 253,
      "Ġí": 254,
      "ìĹĲ": 255,
      "ìĿĦ": 256,
      "íķĺ": 257,
      "ê°": 258,
      "Ġìŀ": 259,
      "ì§": 260,
      "ìĦ": 261,
      "ìł": 262,
      "ĠìĿ": 263,
      "ìĿĺ": 264,
      "ë¡": 265,
      "ìŀ": 266,
      "ê³ł": 267,
      "ë¥": 268,
      "ë¡ľ": 269,
      "íķľ": 270,
      "ìĭ": 271,
      "Īëĭ¤": 272,
      "ê°Ģ": 273,
      "ì§Ģ": 274,
      "¸°": 275,
      "ëı": 276,
      "ìĿĢ": 277,
      "ê²": 278,
      "ìľ": 279,
      "Ġìł": 280,
      "ìķ": 281,
      "ë¦": 282,
      "Ġìķ": 283,
      "ìļ": 284,
      "ë¥¼": 285,
      "Ĥ¬": 286,
      "ëĵ": 287,
      "Ġê°": 288,
      "ìĦľ": 289,
      "Ġê²": 290,
      "ĸ´": 291,
      "ĠìĿ´": 292,
      "ëıĦ": 293,
      "Ġê·": 294,
      "ìĬ": 295,
      "Ġë§": 296,
      "ëĤ": 297,
      "ê¸°": 298,
      "Ġë°": 299,
      "Īĺ": 300,
      "ë¦¬": 301,
      "ĮĢ": 302,
      "ë§": 303,
      "íķ´": 304,
      "ĠìĹ": 305,
      "Ġê·¸": 306,
      "ìľ¼": 307,
      "Ġìĭ": 308,
      "ë©": 309,
      "ëł": 310,
      "ìĸ´": 311,
      "ëĭĪëĭ¤": 312,
      "ìĿ¸": 313,
      "ëĿ": 314,
      "ĠìŀĪ": 315,
      "ëĿ¼": 316,
      "Ġëĭ": 317,
      "Ġì§": 318,
      "ĠëĤ": 319,
      "ê²Į": 320,
      "Ġê³": 321,
      "³´": 322,
      "ìĭľ": 323,
      "ë¶": 324,
      "ëĵ¤": 325,
      "ìŀĲ": 326,
      "êµ": 327,
      "ĠìĦ": 328,
      "ĠìĤ¬": 329,
      "ë¬": 330,
      "ìľ¼ë¡ľ": 331,
      "ëį": 332,
      "ĠìĪĺ": 333,
      "ëŀ": 334,
      "ìĽ": 335,
      "ĥģ": 336,
      "ëŁ": 337,
      "ëĤĺ": 338,
      "Ġìĺ": 339,
      "£¼": 340,
      "Ġëª": 341,
      "âĢ": 342,
      "ë©´": 343,
      "Ġê²ĥ": 344,
      "ê³¼": 345,
      "ë°": 346,
      "íĸ": 347,
      "Ġíķĺ": 348,
      "ìĹĲìĦľ": 349,
      "ìĺ": 350,
      "Ġë¶": 351,
      "ìĤ¬": 352,
      "¤í": 353,
      "Ġìľ": 354,
      "Ġê°Ģ": 355,
      "ĠìķĦ": 356,
      "ëĲ": 357,
      "ë§Į": 358,
      "íĻ": 359,
      "ĠëĮĢ": 360,
      "Ġíķ": 361,
      "ìĻ": 362,
      "ìłģ": 363,
      "ìŀ¥": 364,
      "ìķĦ": 365,
      "ìłķ": 366,
      "Ġëĵ": 367,
      "ì²": 368,
      "ĨĮ": 369,
      "Ġìĭľ": 370,
      "ëĮĢ": 371,
      "ë¶Ģ": 372,
      "ë²": 373,
      "ìĬµ": 374,
      "ĥĿ": 375,
      "Ġë¬": 376,
      "¹Ħ": 377,
      "Ġëı": 378,
      "Ġê¸°": 379,
      "Ġì§Ģ": 380,
      "ìłľ": 381,
      "Ġêµ": 382,
      "ì¹": 383,
      "ìļĶ": 384,
      "Ġíķľ": 385,
      "íĺ": 386,
      "ĠìŀĲ": 387,
      "íķĺëĬĶ": 388,
      "Ġìļ": 389,
      "Ġë³´": 390,
      "ìĥģ": 391,
      "ê¸": 392,
      "Ġëĭ¤": 393,
      "ëª": 394,
      "ìĬ¤": 395,
      "±°": 396,
      "ëħ": 397,
      "ìĭł": 398,
      "ìĬµëĭĪëĭ¤": 399,
      "ìĽĲ": 400,
      "ëĭĪ": 401,
      "ë³´": 402,
      "Ġ1": 403,
      "¡°": 404,
      "ìļ©": 405,
      "ĠìłĦ": 406,
      "Ġìłľ": 407,
      "Ġëį": 408,
      "ìĻĢ": 409,
      "¤ĳ": 410,
      "Ĭ¸": 411,
      "ìĹ¬": 412,
      "ìĦ±": 413,
      "´Ģ": 414,
      "ë¬¸": 415,
      "ĠëĲ": 416,
      "ĶĦ": 417,
      "íķĺê³ł": 418,
      "ëŁ¬": 419,
      "ĠíĻ": 420,
      "Ġìłķ": 421,
      "ë£": 422,
      "ìĪĺ": 423,
      "ì£¼": 424,
      "ļĮ": 425,
      "íķł": 426,
      "ë¯": 427,
      "ĠëĤĺ": 428,
      "ìķ¼": 429,
      "Ġíĺ": 430,
      "ë³": 431,
      "ĠìĿ¸": 432,
      "ìłĦ": 433,
      "ê¹": 434,
      "Ġì£¼": 435,
      "ìĿ¼": 436,
      "ĠìĿ¼": 437,
      "Ġì°": 438,
      "ĠìľĦ": 439,
      "íĹ": 440,
      "ĠâĢ": 441,
      "ë©°": 442,
      "ëį°": 443,
      "íĻĶ": 444,
      "Ġëª¨": 445,
      "ëł¤": 446,
      "Ġìĸ´": 447,
      "ìĹĪëĭ¤": 448,
      "ĠìķĬ": 449,
      "Ġë³": 450,
      "Ġ2": 451,
      "ê°Ħ": 452,
      "ĠìĹĨ": 453,
      "êµ¬": 454,
      "ķĮ": 455,
      "ì°": 456,
      "ê·": 457,
      "ëĵľ": 458,
      "íĬ¸": 459,
      "ëıĻ": 460,
      "ìĿ´ëĭ¤": 461,
      "ê¹Į": 462,
      "Ħ°": 463,
      "ìļ°": 464,
      "íĹĺ": 465,
      "ë¹Ħ": 466,
      "Ġë²": 467,
      "ëĲĺ": 468,
      "Ġì²": 469,
      "ĠìŀĪëĬĶ": 470,
      "ĠìŀĪëĭ¤": 471,
      "Ĩµ": 472,
      "ìĨĮ": 473,
      "Ġê³µ": 474,
      "ì¹ĺ": 475,
      "Ġë¶Ģ": 476,
      "Ġê²½": 477,
      "ìĹħ": 478,
      "ŀĪ": 479,
      "êµŃ": 480,
      "ìŀħ": 481,
      "ĠìĽ": 482,
      "ì¦": 483,
      "ĠëĤ´": 484,
      "Ġìĥģ": 485,
      "±´": 486,
      "Ġë§Ĳ": 487,
      "ĠëķĮ": 488,
      "Ġë§Ī": 489,
      "íĦ°": 490,
      "ì§Ħ": 491,
      "Ġì¤ĳ": 492,
      "µľ": 493,
      "Ĥ°": 494,
      "ìĸ": 495,
      "ì¶": 496,
      "ê³Ħ": 497,
      "ëħĦ": 498,
      "ĠìĨĮ": 499,
      "ê³µ": 500,
      "Ġê³ł": 501,
      "ìĿĮ": 502,
      "íļĮ": 503,
      "Ġëĵ±": 504,
      "ĠìĥĿ": 505,
      "íŀĪ": 506,
      "ë¬´": 507,
      "Ĩį": 508,
      "Ġë¯": 509,
      "Ġíĸ": 510,
      "Ġìĸ": 511,
      "ĠìĹ¬": 512,
      "00": 513,
      "Ġì¶": 514,
      "Ġíķ´": 515,
      "íĸĪëĭ¤": 516,
      "íĥ": 517,
      "ìĹĪ": 518,
      "ë¶Ħ": 519,
      "ì§Ģë§Į": 520,
      "Ġì¢": 521,
      "ìļ´": 522,
      "ë£Į": 523,
      "ê±°": 524,
      "ê¸Ī": 525,
      "ëįĺ": 526,
      "Ġë§Į": 527,
      "ĠíĮ": 528,
      "©ëĭĪëĭ¤": 529,
      "âĢĻ": 530,
      "ĠìĻ": 531,
      "¤íĶĦ": 532,
      "ë¥´": 533,
      "Ġë°Ķ": 534,
      "Ġìľł": 535,
      "Ġìļ°": 536,
      "ĠìĬ": 537,
      "Ġë¹Ħ": 538,
      "ëŀĺ": 539,
      "ĳĲ": 540,
      "ĠâĢĺ": 541,
      "ĠëĶ": 542,
      "íĮ": 543,
      "Ġê´Ģ": 544,
      "ëŀĮ": 545,
      "ìĭĿ": 546,
      "íĸī": 547,
      "ìĹĲê²Į": 548,
      "ëªħ": 549,
      "Ġê±°": 550,
      "ì¡°": 551,
      "Ġì¡°": 552,
      "ì²´": 553,
      "ìĦ¸": 554,
      "íķĺìĹ¬": 555,
      "Ġíı": 556,
      "ĠìĿĺ": 557,
      "ĠëĲĺ": 558,
      "Ġë¬´": 559,
      "ìĭ¤": 560,
      "ëĲľ": 561,
      "ë§Ī": 562,
      "ëł¥": 563,
      "Ġì¹": 564,
      "ìĤ°": 565,
      "Ķ¼": 566,
      "ëĵ¤ìĿ´": 567,
      "ìľł": 568,
      "ê°ģ": 569,
      "ìķĺ": 570,
      "ĽĦ": 571,
      "Ġêµ¬": 572,
      "ì¦Ŀ": 573,
      "ì¡": 574,
      "íķĺê²Į": 575,
      "Ġê°Ļ": 576,
      "Ġê¸": 577,
      "ìĺĢ": 578,
      "ĠëĦ": 579,
      "ìĪ": 580,
      "ë¯¸": 581,
      "ìŀħëĭĪëĭ¤": 582,
      "ìľĦ": 583,
      "ĠìķĪ": 584,
      "ëĤ´": 585,
      "ìĥĿ": 586,
      "Ġìµľ": 587,
      "ĠìĦł": 588,
      "ìĦł": 589,
      "Ġìĭł": 590,
      "ìĿ´ëĿ¼": 591,
      "Ġìĺ¤": 592,
      "Ġê°ľ": 593,
      "ìŀ¬": 594,
      "ê²½": 595,
      "ĠëıĦ": 596,
      "ĠíĨµ": 597,
      "ĠìĤ": 598,
      "ĠìĽĲ": 599,
      "ìķĪ": 600,
      "ĠìĤ¬ëŀĮ": 601,
      "ĠìĹ°": 602,
      "ĠìĦľ": 603,
      "ê´Ģ": 604,
      "ĠëįĶ": 605,
      "ëĭ¨": 606,
      "Ġë°©": 607,
      "ë¬¼": 608,
      "ĠìĦ¸": 609,
      "Ġë§İ": 610,
      "íĴ": 611,
      "Ġëĺ": 612,
      "íķĻ": 613,
      "Ġë¯¸": 614,
      "ĠëıĻ": 615,
      "ĠìĦ±": 616,
      "íı": 617,
      "ë¥¸": 618,
      "ëĦ": 619,
      "ê°ľ": 620,
      "Ġëĵ¤": 621,
      "¤Ģ": 622,
      "ĳľ": 623,
      "ë²ķ": 624,
      "Ġëħ": 625,
      "ìĬ¤í": 626,
      "ĠìŀĪìĬµëĭĪëĭ¤": 627,
      "Ġë¬¸": 628,
      "ìĹ°": 629,
      "Ġë°ľ": 630,
      "Ġìĺģ": 631,
      "ë¡Ŀ": 632,
      "ĠëĺĲ": 633,
      "Ġíĥ": 634,
      "ëĭ¹": 635,
      "ìłģìĿ¸": 636,
      "ìĭ¬": 637,
      "ĠëĪ": 638,
      "ĠìķĮ": 639,
      "Ġë¶Ħ": 640,
      "ìĺ¤": 641,
      "ģ¬": 642,
      "íķľëĭ¤": 643,
      "íĸĪ": 644,
      "ëĬ¥": 645,
      "ĠìĺĪ": 646,
      "ìŀĳ": 647,
      "Ġ3": 648,
      "ëŁ°": 649,
      "êµĲ": 650,
      "ìłģìľ¼ë¡ľ": 651,
      "Ġíķł": 652,
      "ê±´": 653,
      "ìĹĲëĬĶ": 654,
      "íĴĪ": 655,
      "ëĭĺ": 656,
      "ëĵł": 657,
      "ĠìłĢ": 658,
      "ê²©": 659,
      "íĺ¸": 660,
      "ĠëĨ": 661,
      "ê¹Įì§Ģ": 662,
      "ĠëĶ°": 663,
      "Ġë¶Ī": 664,
      "ì°¨": 665,
      "Ġì§Ħ": 666,
      "ì¤ĳ": 667,
      "ê»": 668,
      "ëĭ¤ëĬĶ": 669,
      "ĠëĬ": 670,
      "íİ": 671,
      "Ġê²°": 672,
      "ë²Ħ": 673,
      "ìħ": 674,
      "¶Į": 675,
      "ìĸĳ": 676,
      "Ġìĸ´ë": 677,
      "Ġìļ°ë¦¬": 678,
      "Ġëĭ¹": 679,
      "ĠíĶ¼": 680,
      "ìĺģ": 681,
      "Ġê²ĥìĿ´": 682,
      "Ġê¹": 683,
      "Ġìŀ¥": 684,
      "ĠìķĦëĭĪ": 685,
      "Ġì±": 686,
      "ë¯¼": 687,
      "ë©´ìĦľ": 688,
      "Ġë©": 689,
      "ìĨį": 690,
      "ìĭľíĹĺ": 691,
      "ë°©": 692,
      "Ġê±´": 693,
      "ëª¨": 694,
      "Ġë¹": 695,
      "Ġë°Ľ": 696,
      "ĠíĺĦ": 697,
      "ìŀĦ": 698,
      "ĠêµŃ": 699,
      "ĠìĥĿê°ģ": 700,
      "Ġìłģ": 701,
      "ĠëĮĢíķľ": 702,
      "ì²ĺ": 703,
      "ëĤľ": 704,
      "íķĺê¸°": 705,
      "ì§Ī": 706,
      "Ġì¢ĭ": 707,
      "Ġê³Ħ": 708,
      "ĠìĨ": 709,
      "ìĹŃ": 710,
      "Ġìĭ¤": 711,
      "ê·¸": 712,
      "ìĽĶ": 713,
      "Ĭ¹": 714,
      "Ġì¦": 715,
      "Ġë¬¼": 716,
      "ê²ł": 717,
      "ĠìĪ": 718,
      "Ġê°Ĳ": 719,
      "ë¶ĢíĦ°": 720,
      "ëłĪ": 721,
      "ìłĲ": 722,
      "Ġì´": 723,
      "ĠêµĲ": 724,
      "Ġìŀħ": 725,
      "Ġê°ķ": 726,
      "Ġë¨": 727,
      "ĠíĿ": 728,
      "Ġëĭ¨": 729,
      "ì§ģ": 730,
      "ĠíķĺëĬĶ": 731,
      "Ġìĥ": 732,
      "ĠëķĮë¬¸": 733,
      "Ġìŀ¬": 734,
      "Ġìŀĳ": 735,
      "ëĵ¤ìĿĢ": 736,
      "Ġë°ĺ": 737,
      "Ġë°ı": 738,
      "ì¶ľ": 739,
      "Ġì°¨": 740,
      "íĨµ": 741,
      "Ġë§¤": 742,
      "Ġê²½ìļ°": 743,
      "âĢĿ": 744,
      "ê»ĺ": 745,
      "ë¦¬ê³ł": 746,
      "ëĶ": 747,
      "íķ©ëĭĪëĭ¤": 748,
      "ë°ĺ": 749,
      "ĠëĤ¨": 750,
      "ĠíļĮ": 751,
      "ë¦°": 752,
      "ĠíķĺëĤĺ": 753,
      "ĠâĢľ": 754,
      "ìĪł": 755,
      "ĠìĤ¬ìļ©": 756,
      "Ġëª»": 757,
      "Ġëħ¸": 758,
      "ĠëĳĲ": 759,
      "Ġëį¤íĶĦ": 760,
      "ëĭ¤ê³ł": 761,
      "ë°ľ": 762,
      "ĠìľĦíķ´": 763,
      "ì¤Ģ": 764,
      "ĠíĻķ": 765,
      "½Ķ": 766,
      "íķĺì§Ģ": 767,
      "ĠíĬ¹": 768,
      "ìķĺëĭ¤": 769,
      "Ġë°°": 770,
      "Ġíİ": 771,
      "ëį¤íĶĦ": 772,
      "ëłĩ": 773,
      "ìłĢ": 774,
      "ëĳĲ": 775,
      "ê²°": 776,
      "ëĵ¤ìĿĺ": 777,
      "Ĩł": 778,
      "Ġê³¼": 779,
      "ĠíĽĦ": 780,
      "ê¸ī": 781,
      "ĠíķĦ": 782,
      "ìŀĲë£Į": 783,
      "ìķ½": 784,
      "íĳľ": 785,
      "ëĬĶëį°": 786,
      "Ġ20": 787,
      "ìĺĢëĭ¤": 788,
      "íĤ": 789,
      "ë£¨": 790,
      "ĠìĤ´": 791,
      "ĠìĦ¤": 792,
      "íķ¨": 793,
      "ì¢": 794,
      "Ī¬": 795,
      "ĠìŀĲìĭł": 796,
      "ê²ĥ": 797,
      "ëŁ¼": 798,
      "ìĥ": 799,
      "ê¶Į": 800,
      "Ġê±": 801,
      "ë³¸": 802,
      "ĠC": 803,
      "ë§¤": 804,
      "íķ©": 805,
      "Ġíķľëĭ¤": 806,
      "Ġëģ": 807,
      "Ġ4": 808,
      "Ġê·¸ëŁ¬": 809,
      "ĶĮ": 810,
      "ìļ¸": 811,
      "Ġì¶Ķ": 812,
      "ëŀĢ": 813,
      "ìĶ": 814,
      "íĥĢ": 815,
      "ê°Ĳ": 816,
      "Ġ5": 817,
      "·¨": 818,
      "ĠìĨĲ": 819,
      "ëł¨": 820,
      "Ġìĸ´ëĸ": 821,
      "Ġëĭ¬": 822,
      "ĠìļĶ": 823,
      "ĠìĭľíĹĺ": 824,
      "íĥľ": 825,
      "Ġëª©": 826,
      "ëĵ¤ìĿĦ": 827,
      "Ġê°ĻìĿĢ": 828,
      "Ġíķ¨": 829,
      "ĠìĹŃ": 830,
      "ë²Ī": 831,
      "ħĮ": 832,
      "ì¼": 833,
      "Ġê²ĥìĿ´ëĭ¤": 834,
      "Ġìŀĺ": 835,
      "Ġê²Į": 836,
      "Ġíı¬": 837,
      "ĠëĪĪ": 838,
      "íĺķ": 839,
      "ë¦Ħ": 840,
      "ì²Ń": 841,
      "ìĦĿ": 842,
      "ìĽĮ": 843,
      "ëįĶ": 844,
      "ëĿ¼ê³ł": 845,
      "Ġë³Ģ": 846,
      "ê¸°ë¥¼": 847,
      "ìľ¼ë©°": 848,
      "ìł¸": 849,
      "ì±": 850,
      "ë¡ł": 851,
      "¤Ħ": 852,
      "íĽĦ": 853,
      "Ġì§ĳ": 854,
      "ëĥ": 855,
      "ì²ľ": 856,
      "ëŀĳ": 857,
      "Ġì§ģ": 858,
      "ì¢ħ": 859,
      "ĠìłĲ": 860,
      "Ġëĵ¤ìĸ´": 861,
      "ĠìĬ¤í": 862,
      "ĠëĶ°ëĿ¼": 863,
      "ĠíĮĮ": 864,
      "ìĻ¸": 865,
      "ĠíĹ": 866,
      "Ġëĭ¤ë¥¸": 867,
      "Ġíģ": 868,
      "íĶĦ": 869,
      "ëħĢ": 870,
      "ìĨ": 871,
      "ì¸": 872,
      "ĠëĲľ": 873,
      "ìĦ¤": 874,
      "íĿ": 875,
      "ìµľ": 876,
      "íģ¬": 877,
      "ĠëĨĴ": 878,
      "íķ´ìĦľ": 879,
      "ĠìĥĪ": 880,
      "20": 881,
      "Ġíĸī": 882,
      "Ġëį°": 883,
      "ìĿ´ëĤĺ": 884,
      "ì´": 885,
      "Ķëĭ¤": 886,
      "Ġë¬¸ìłľ": 887,
      "ë¦½": 888,
      "ê·¼": 889,
      "Ġìĺ¬": 890,
      "Ġëĸ": 891,
      "Ġì»": 892,
      "Â·": 893,
      "ëıĦë¡Ŀ": 894,
      "ĠíĶĦ": 895,
      "Ġë³¸": 896,
      "ĠíķĻ": 897,
      "Ġ'": 898,
      "on": 899,
      "21": 900,
      "íĭ": 901,
      "íĻĺ": 902,
      "ì§ĢëĬĶ": 903,
      "ì¡±": 904,
      "ë¬¸ìłľ": 905,
      "ìĿ´íĬ¸": 906,
      "íĥĿ": 907,
      "ĠíķĦìļĶ": 908,
      "ìłĪ": 909,
      "ĠìĹ´": 910,
      "¸Į": 911,
      "ëģ": 912,
      "ìľ¨": 913,
      "Ġê·¸ëŁ°": 914,
      "Ġì¶ľ": 915,
      "ë³µ": 916,
      "Ġê°ĢëĬ¥": 917,
      "ëĶĶ": 918,
      "Ġê°Ģìŀ¥": 919,
      "Ġëªħ": 920,
      "Ġê²ĥìĿĢ": 921,
      "Ġì²ĺ": 922,
      "Ġë§İìĿĢ": 923,
      "ëĿ¼ëĬĶ": 924,
      "ĢìĿ´": 925,
      "íĻ©": 926,
      "ë°Ķ": 927,
      "ì£": 928,
      "Ġê±¸": 929,
      "ë¦¬ëĬĶ": 930,
      "ĠíĻĶ": 931,
      "Ġê°ģ": 932,
      "ë¦¬ë¥¼": 933,
      "Ġìļ´": 934,
      "ìĹĲëıĦ": 935,
      "ĠìĨį": 936,
      "ĠìĹħ": 937,
      "ļ¨": 938,
      "íĮĮ": 939,
      "Ġì°¸": 940,
      "ĠëıĮ": 941,
      "Ġê·¸ë¦¬ê³ł": 942,
      "ĠìŀĪìĸ´": 943,
      "´ĳ": 944,
      "êµ°": 945,
      "íĸ¥": 946,
      "Ġê²ĥìĿĦ": 947,
      "ãĢ": 948,
      "Ġìķŀ": 949,
      "íķĺë©´": 950,
      "Ġíıī": 951,
      "Ġìĭ¬": 952,
      "Ġìĭľê°Ħ": 953,
      "Ġìĸ¼": 954,
      "Ġê°Ħ": 955,
      "ì¡Į": 956,
      "ì²ĺëŁ¼": 957,
      "ĠS": 958,
      "Ġíķ¨ê»ĺ": 959,
      "ĠíĻľ": 960,
      "Ġìĭľìŀĳ": 961,
      "ëł¸": 962,
      "íĤ¤": 963,
      "ì§ĳ": 964,
      "ë³´ëĭ¤": 965,
      "Ġì¹ĺ": 966,
      "ĠíĨµíķ´": 967,
      "ĠìĻ¸": 968,
      "Ġë§Įëĵ¤": 969,
      "ëĮĢë¡ľ": 970,
      "ëĭ¬": 971,
      "íķĺëĭ¤": 972,
      "Ġì¦Ŀ": 973,
      "ëĲĺëĬĶ": 974,
      "ë³Ħ": 975,
      "ĠëķĮë¬¸ìĹĲ": 976,
      "ëŁī": 977,
      "Ġì¢ħ": 978,
      "Ġë²Ī": 979,
      "Ġëĵľ": 980,
      "Ġìķ½": 981,
      "Ġìĭ¶": 982,
      "Ġì±Ħ": 983,
      "Ġíķĺê³ł": 984,
      "į¼": 985,
      "ìĹĲìĦľëĬĶ": 986,
      "ëłĩê²Į": 987,
      "ê±°ëĤĺ": 988,
      "ĠëĬĲ": 989,
      "Ġëª¨ëĵł": 990,
      "íģ": 991,
      "ĠíĴ": 992,
      "Ġì·¨": 993,
      "íķŃ": 994,
      "ëł¹": 995,
      "ĠìķĦìĿ´": 996,
      "ëª©": 997,
      "ĠëĪĦ": 998,
      "ĠìĬ¤": 999,
      "Ġì´Ī": 1000,
      "íĺĦ": 1001,
      "ë¹": 1002,
      "Ġíĳľ": 1003,
      "ë§Ŀ": 1004,
      "Ġë§ŀ": 1005,
      "ëĵĿ": 1006,
      "ëĭĪê¹Į": 1007,
      "ìľ¡": 1008,
      "ê°ķ": 1009,
      "Ġ6": 1010,
      "Ģë¡ľ": 1011,
      "ë¥ĺ": 1012,
      "íķ´ìķ¼": 1013,
      "Ġê¸Ī": 1014,
      "Ġì°¾": 1015,
      "ĠíĸĪ": 1016,
      "ĠëĦĪ": 1017,
      "ê¸°ìĹĲ": 1018,
      "ĠA": 1019,
      "íķĺë©°": 1020,
      "ĠíĻĺ": 1021,
      "ĠìŀĪìĹĪëĭ¤": 1022,
      "ìŀĲê°Ģ": 1023,
      "ĠíĮĲ": 1024,
      "íı¬": 1025,
      "ĠìĹĨëĬĶ": 1026,
      "ëĲĺìĸ´": 1027,
      "ĠëĴ": 1028,
      "ë§Ĳ": 1029,
      "ĠìĤ°": 1030,
      "ëĵ±": 1031,
      "Ġíķĺì§Ģë§Į": 1032,
      "Ġíŀ": 1033,
      "ĠìĤ¬ìĭ¤": 1034,
      "ìĿ´ëĿ¼ê³ł": 1035,
      "ìĸµ": 1036,
      "ìĿ´ìĹĪëĭ¤": 1037,
      "Ġìłľê³µ": 1038,
      "ĠìĿ´ìĥģ": 1039,
      "Ġìĸĳ": 1040,
      "ë¨": 1041,
      "Ġì§Ģê¸Ī": 1042,
      "Ġë§ĪìĿĮ": 1043,
      "Ġë²ķ": 1044,
      "ĠíķľêµŃ": 1045,
      "ë°°": 1046,
      "íİ¸": 1047,
      "ìŀĪ": 1048,
      "ë¦¼": 1049,
      "Ġê¹Ģ": 1050,
      "ĠíĪ¬": 1051,
      "ìĺ¨": 1052,
      "Ġë¦": 1053,
      "Ġ(": 1054,
      "ì§Ģê³ł": 1055,
      "Ġìĵ": 1056,
      "ì³": 1057,
      "ĠìłķëıĦ": 1058,
      "Ġì¤Ģ": 1059,
      "Ġìĺ¨": 1060,
      "ĠìĪľ": 1061,
      "Ġì½Ķ": 1062,
      "Ġëĭ¤ìĭľ": 1063,
      "ëĦ¤": 1064,
      "ìħĺ": 1065,
      "Ġíĺķ": 1066,
      "ĠìĹ¬ëŁ¬": 1067,
      "Ġíİ¸": 1068,
      "Ġíģ¬": 1069,
      "Ġì±ħ": 1070,
      "Ġíķ©ëĭĪëĭ¤": 1071,
      "Ġíŀĺ": 1072,
      "ì¹´": 1073,
      "ëĬĲ": 1074,
      "ĠëĤł": 1075,
      "Ġì²´": 1076,
      "Ġì²Ń": 1077,
      "Ġê·¼": 1078,
      "íĮĲ": 1079,
      "ĠëĺĲëĬĶ": 1080,
      "íĻľ": 1081,
      "ĠìĿ´ìļ©": 1082,
      "Ġ19": 1083,
      "Ġì£": 1084,
      "er": 1085,
      "ĠìķĬëĬĶ": 1086,
      "ì§Ģë¥¼": 1087,
      "Ġê²Ģ": 1088,
      "ĠìķĦëĭ": 1089,
      "ëĿ½": 1090,
      "Ġ10": 1091,
      "ìĿ¸ì¦Ŀ": 1092,
      "ëĤł": 1093,
      "ĠìŀĪìĹĪ": 1094,
      "ëĬĺ": 1095,
      "ĠíĸĪëĭ¤": 1096,
      "Ġë¦¬": 1097,
      "Ġìī": 1098,
      "Ġ7": 1099,
      "Ġì¤Ħ": 1100,
      "Ġê·¸ëŀĺ": 1101,
      "ìĿ´ê³ł": 1102,
      "Ġíĺ¸": 1103,
      "ë¹ĦìĬ¤": 1104,
      "ë´": 1105,
      "Ġ\"": 1106,
      "ì¦Ī": 1107,
      "ĠëĲł": 1108,
      "Ġìĸ¸": 1109,
      "ê¸°ëıĦ": 1110,
      "ìĥī": 1111,
      "¿Ĳ": 1112,
      "íĿ¬": 1113,
      "Ġ201": 1114,
      "íĶĮ": 1115,
      "Ġëª¨ëĳĲ": 1116,
      "Ġê²ĥìľ¼ë¡ľ": 1117,
      "ĠëĺĲíķľ": 1118,
      "ĠìŀĦ": 1119,
      "íĭ°": 1120,
      "ìĿ´ëĿ¼ëĬĶ": 1121,
      "ĠìĿĮ": 1122,
      "ëĦĪ": 1123,
      "ëĨ": 1124,
      "ĠìķĦëĭĪëĿ¼": 1125,
      "Ġíģ°": 1126,
      "ìĹĨ": 1127,
      "ĠìĭĿ": 1128,
      "Ġë´": 1129,
      "ĠìĻĦ": 1130,
      "ëĭ´": 1131,
      "ìĨ¡": 1132,
      "Ġë¨¹": 1133,
      "Ġë²Ħ": 1134,
      "ĠëĿ": 1135,
      "ìĤ": 1136,
      "ĠìĿ´ëŁ°": 1137,
      "Ġì¡": 1138,
      "Ġê³³": 1139,
      "Ġê³µë¶Ģ": 1140,
      "ì±ħ": 1141,
      "ìĺĪ": 1142,
      "ĠìĹĲ": 1143,
      "ĢìĿĦ": 1144,
      "ì¶Ķ": 1145,
      "ĠìŀĪìĿĦ": 1146,
      "ĠìĤ¬ê±´": 1147,
      "ê¸¸": 1148,
      "ìĤ¬ë¥¼": 1149,
      "ê²¨": 1150,
      "ª½": 1151,
      "Ġâ": 1152,
      "Ġì¶©": 1153,
      "ìµľìĭł": 1154,
      "ĠíĶĦë¡ľ": 1155,
      "Ġê·¸ëħĢ": 1156,
      "ì½Ķ": 1157,
      "ë°Ľ": 1158,
      "ê³µë¶Ģ": 1159,
      "ê°Ŀ": 1160,
      "ĠëĴ¤": 1161,
      "Ġë³µ": 1162,
      "ĠI": 1163,
      "ìľ¼ë©´": 1164,
      "ëħ¸": 1165,
      "Ġë§İìĿ´": 1166,
      "ĠíĥĢ": 1167,
      "ì»": 1168,
      "íĨł": 1169,
      "ê¸°ê°Ģ": 1170,
      "Ġìķł": 1171,
      "ĠR": 1172,
      "ëĵ¤ìĹĲê²Į": 1173,
      "íĶ¼": 1174,
      "ë¡ľìļ´": 1175,
      "ĠëĶĶ": 1176,
      "ì¶ķ": 1177,
      "ĠìľĦíķľ": 1178,
      "ë¦¬ê°Ģ": 1179,
      "Ġê·ľ": 1180,
      "Ġëĭ´": 1181,
      "ĠìĿĢ": 1182,
      "000": 1183,
      "ìłķìĿĦ": 1184,
      "Ġì¤ĳìļĶ": 1185,
      "ëĤ¨": 1186,
      "Łģ": 1187,
      "ìĦ±ìĿĦ": 1188,
      "ĠìĥģíĻ©": 1189,
      "Ġ8": 1190,
      "ìŀĲìĿĺ": 1191,
      "ĠìłĪ": 1192,
      "ĠíĶ¼ê³ł": 1193,
      "Ġë¡": 1194,
      "ì£ł": 1195,
      "Ġê²ĥìŀħëĭĪëĭ¤": 1196,
      "ļį": 1197,
      "¸Ķ": 1198,
      "ìłĳ": 1199,
      "Ġëĭ¤ìĸĳ": 1200,
      "Ġìµľìĭł": 1201,
      "Ġíĸ¥": 1202,
      "¨ìĬ¤": 1203,
      "Ġë°©ë²ķ": 1204,
      "Ĳëĭ¤": 1205,
      "ìĬ¹": 1206,
      "Ġë©Ķ": 1207,
      "Ġì§Ī": 1208,
      "Ġì§ĢëĤľ": 1209,
      "ĠìĿ´ìķ¼": 1210,
      "Ġì²ľ": 1211,
      "ë¸Į": 1212,
      "ìĿ´ëĬĶ": 1213,
      "ìŀĲëĬĶ": 1214,
      "ëł¸ëĭ¤": 1215,
      "Ġë³¼": 1216,
      "ë¦´": 1217,
      "ìķħ": 1218,
      "Ġëıħ": 1219,
      "¨ìĸ´": 1220,
      "Ġë¯¼": 1221,
      "ĠìĿ´ìľł": 1222,
      "ĠìĹĨëĭ¤": 1223,
      "íħ": 1224,
      "Ġìĸ´ëĸ¤": 1225,
      "ìķł": 1226,
      "ë¶Ī": 1227,
      "ìĦľëĬĶ": 1228,
      "Ġëª¨ìĬµ": 1229,
      "Ġê´Ģëł¨": 1230,
      "Ġíĥľ": 1231,
      "Ġë°ķ": 1232,
      "ĠìĿ¸ì¦Ŀ": 1233,
      "ë²ĦìłĦ": 1234,
      "ìĸ¸": 1235,
      "ê°ĢëĬĶ": 1236,
      "ìŁģ": 1237,
      "êµ´": 1238,
      "ìķ¡": 1239,
      "ëıħ": 1240,
      "ì´Ī": 1241,
      "ëł¥ìĿĦ": 1242,
      "Ġëª¸": 1243,
      "Ġê·¸ëŁ¬ëĤĺ": 1244,
      "ì¡´": 1245,
      "Ġë¹ł": 1246,
      "Ġì¹´": 1247,
      "íħĮ": 1248,
      "ë³ĳ": 1249,
      "Ġë°Ķë¡ľ": 1250,
      "Ġê¸¸": 1251,
      "ĠìĦ¸ê³Ħ": 1252,
      "ĠíķĺëĤĺëĭĺ": 1253,
      "ĠìĤ¬íļĮ": 1254,
      "ê¸°ëĬĶ": 1255,
      "ĠH": 1256,
      "Ġ9": 1257,
      "Ġë°±": 1258,
      "ëŁ½": 1259,
      "ì³Ĳ": 1260,
      "Ġê°ľìĿ¸": 1261,
      "ĠìĦľë¹ĦìĬ¤": 1262,
      "Ġíļ¨": 1263,
      "Ġì¢ĭìĿĢ": 1264,
      "ĠëĮĢíķ´": 1265,
      "ëĮĢë¹Ħ": 1266,
      "ĠP": 1267,
      "ë°ķ": 1268,
      "íļį": 1269,
      "ë¯Ģë¡ľ": 1270,
      "íį¼": 1271,
      "ĠëĦĺ": 1272,
      "ìĬ¤íĬ¸": 1273,
      "ĠëĿ¼": 1274,
      "ì¡Įëĭ¤": 1275,
      "10": 1276,
      "ëĿ¼ëıĦ": 1277,
      "Ġì°½": 1278,
      "Ġì¹ľ": 1279,
      "ìĿµ": 1280,
      "Ġê·¸ê²ĥ": 1281,
      "ay": 1282,
      "ĠíĹĪ": 1283,
      "ìĹĪìĬµëĭĪëĭ¤": 1284,
      "íģ¼": 1285,
      "ê²¬": 1286,
      "ëŀľ": 1287,
      "Ġì§Ħíĸī": 1288,
      "ìĪľ": 1289,
      "Ġì£½": 1290,
      "ë³Ģ": 1291,
      "Ġìĵ°": 1292,
      "ĠìĤ¬ìĹħ": 1293,
      "Ġê¶Į": 1294,
      "Ġìŀ¡": 1295,
      "ìŀ¥ìĿĦ": 1296,
      "ti": 1297,
      "ĠíķŃ": 1298,
      "Ġë¶Ģë¶Ħ": 1299,
      "ĠëŃ": 1300,
      "ĠìĦłíĥĿ": 1301,
      "íĻĶë¥¼": 1302,
      "Ġëĭ¤ìĿĮ": 1303,
      "ëĭ¤ë©´": 1304,
      "Ġëĭ¤ìĸĳíķľ": 1305,
      "ĠëģĿ": 1306,
      "Ġê·¸ìĿĺ": 1307,
      "ìĦ±ìĿ´": 1308,
      "ĠìĤ¬ìĿ´": 1309,
      "ìļ±": 1310,
      "ĠìŀĲìĭłìĿĺ": 1311,
      "ĠìķĦë¬´": 1312,
      "»ê²Į": 1313,
      "Ġìłķë³´": 1314,
      "ëĥĲ": 1315,
      "ĠìĿ´ë¯¸": 1316,
      "į¨": 1317,
      "ìĥģìĿĦ": 1318,
      "ì§¸": 1319,
      "ìĿ¸ìĿ´": 1320,
      "ĠëĤ´ê°Ģ": 1321,
      "íķĺë©´ìĦľ": 1322,
      "Ġëľ": 1323,
      "),": 1324,
      "Ġìłĳ": 1325,
      "ĠíĨł": 1326,
      "Ġì§ĢìĹŃ": 1327,
      "Ġë¨¸": 1328,
      "19": 1329,
      "Ġë¯¸êµŃ": 1330,
      "Ġëł": 1331,
      "ëĪ": 1332,
      "ì¹¨": 1333,
      "ëķĮ": 1334,
      "ìĸ´ìļĶ": 1335,
      "Ġìļ©": 1336,
      "ìª½": 1337,
      "Ġì¡´": 1338,
      "Ġìŀł": 1339,
      "íķĺìĺĢ": 1340,
      "ë°±": 1341,
      "ĠíĺĦìŀ¬": 1342,
      "ëĭµ": 1343,
      "íĪ¬": 1344,
      "ĠíļĮìĤ¬": 1345,
      "Ġíķ©": 1346,
      "ëĲĺê³ł": 1347,
      "Ġëĸł": 1348,
      "ëĲł": 1349,
      "ĠìķĬê³ł": 1350,
      "ĠìŀĪê³ł": 1351,
      "ë§ī": 1352,
      "ë¡Ģ": 1353,
      "Ġê´ĳ": 1354,
      "Ġê°ĸ": 1355,
      "ìĭŃ": 1356,
      "ê¸´": 1357,
      "ê·¹": 1358,
      "Ġê¸°ìĹħ": 1359,
      "ong": 1360,
      "ĠìłľíĴĪ": 1361,
      "Ġê¸°ìĪł": 1362,
      "ĠëĦĪë¬´": 1363,
      "ĠìĬ¹": 1364,
      "ĠM": 1365,
      "Ġê·¸ëĬĶ": 1366,
      "ĠìĿ´ë¥¼": 1367,
      "ĠíĻķìĿ¸": 1368,
      "ĠìĤ¼": 1369,
      "ìĺ¬": 1370,
      "ìŀĲë¥¼": 1371,
      "ĠëıĮìķĦ": 1372,
      "Ġë³´ê³ł": 1373,
      "Ġë¡ľ": 1374,
      "Ġë°ľìĥĿ": 1375,
      "Ġëĳ": 1376,
      "ĠìĿ´íĽĦ": 1377,
      "Ġë§Įëĵ¤ìĸ´": 1378,
      "ayong": 1379,
      "ĠëĤ´ìļ©": 1380,
      "Ġìĸ´ëĸ»ê²Į": 1381,
      "ê´ĳ": 1382,
      "ĠìĿ´ëŁ¬": 1383,
      "ëłĪìĿ´": 1384,
      "íıī": 1385,
      "Ġëĵ¯": 1386,
      "Ġëĵ±ìĿĦ": 1387,
      "ì¸ł": 1388,
      "ĠìĤ¬ëŀĳ": 1389,
      "Ġì´Ŀ": 1390,
      "Ġì§ĢìĽĲ": 1391,
      "¾¸": 1392,
      "ĠëĲĺëĬĶ": 1393,
      "ë¨¸": 1394,
      "Ġê²°ê³¼": 1395,
      "Ġìĺ¤í": 1396,
      "ĠìķĬìĿĢ": 1397,
      "Ġê¼": 1398,
      "ĠìĿ´ìĸ´": 1399,
      "ìĿĳ": 1400,
      "ĠìĹ°êµ¬": 1401,
      "ì°°": 1402,
      "ìĶ¨": 1403,
      "ĠëĮĢíĳľ": 1404,
      "Ġ200": 1405,
      "ĠìĽĲê³ł": 1406,
      "Ġíľ": 1407,
      "ĠëĨĴìĿĢ": 1408,
      "ĠíĶĮ": 1409,
      "ĠìĹĨìĿ´": 1410,
      "ĠìķĦëĭĮ": 1411,
      "ëĵ¤ê³¼": 1412,
      "íĺĢ": 1413,
      "ëĲľëĭ¤": 1414,
      "ìĸ´ëĤĺ": 1415,
      "ĠíĽ": 1416,
      "ĠìĥĪë¡ľìļ´": 1417,
      "Ġì½": 1418,
      "Ġìĭľìŀ¥": 1419,
      "Ġ-": 1420,
      "ĠíħĮ": 1421,
      "íķĺìĭľ": 1422,
      "Ġìĸ¼êµ´": 1423,
      "ì£¼ìĿĺ": 1424,
      "Ġì²ĺìĿĮ": 1425,
      "ĠëĲľëĭ¤": 1426,
      "ê·ľ": 1427,
      "Ġê·Ģ": 1428,
      "Ġìī½": 1429,
      "ì¼ľ": 1430,
      "ĠìĻľ": 1431,
      "Ġë§ī": 1432,
      "ìĿ´ì§Ģ": 1433,
      "12": 1434,
      "ĠìĶ": 1435,
      "ìĦ¸ìļĶ": 1436,
      "ë¶ģ": 1437,
      "ĠìĪĺëıĦ": 1438,
      "Ġìº": 1439,
      "ìħ¨": 1440,
      "ĠíĬ¹íŀĪ": 1441,
      "Ġê°ľë°ľ": 1442,
      "ìĿĮìĿĦ": 1443,
      "ìĹĲìĦľëıĦ": 1444,
      "ìĭĿìĿĦ": 1445,
      "Ġê·¸ëŀĺìĦľ": 1446,
      "ê³³": 1447,
      "ĠìĿ´ë²Ī": 1448,
      "Ġë¯¿": 1449,
      "ĠëĬĺ": 1450,
      "Ġê°ĻìĿ´": 1451,
      "ĠìłĦë¬¸": 1452,
      "ĠìĿĺë¯¸": 1453,
      "ĠìŀĪëĭ¤ëĬĶ": 1454,
      "Ġê·¸ëłĩ": 1455,
      "ĠëĤĺíĥĢ": 1456,
      "íĺ¼": 1457,
      "ì±Ħ": 1458,
      "ì£¼ëĬĶ": 1459,
      "Ġë³Ħ": 1460,
      "ĠìĿ´ëłĩê²Į": 1461,
      "ĠìĿ´ìłľ": 1462,
      "íĻķ": 1463,
      "ì¹ľ": 1464,
      "Ġë¿Ĳ": 1465,
      "ĠëĲĺìĸ´": 1466,
      "Ġê³łê°Ŀ": 1467,
      "Ġê°Ī": 1468,
      "ë¥ł": 1469,
      "ĠìĿ´ëŁ¬íķľ": 1470,
      "ë©Ķ": 1471,
      "Ġì¢Ģ": 1472,
      "ê°Ģì§Ģ": 1473,
      "ĠëłĪ": 1474,
      "Ġê´Ģê³Ħ": 1475,
      "Ġëª¨ë¥´": 1476,
      "ìĹ´": 1477,
      "ĠìĤ¶": 1478,
      "ëĤ¬": 1479,
      "Ġë°Ŀ": 1480,
      "in": 1481,
      "ê°Ī": 1482,
      "ìĿ¸ìĿĺ": 1483,
      "ìĹĩ": 1484,
      "ë²½": 1485,
      "Ġì°¾ìķĦ": 1486,
      "íĸĪëįĺ": 1487,
      "ĠëıĻìķĪ": 1488,
      "Ġê°Ģì§Ģ": 1489,
      "Ġë¸Į": 1490,
      "ì°©": 1491,
      "Ġë²Į": 1492,
      "Ġìĸ´ëł¤": 1493,
      "ë¦¬ìĹĲ": 1494,
      "Ġë¶ģ": 1495,
      "ĠìĹĦ": 1496,
      "ìĿ´íĦ°": 1497,
      "Ġê·¸ëłĩê²Į": 1498,
      "íĸĪìĬµëĭĪëĭ¤": 1499,
      "Ġíı¬íķ¨": 1500,
      "ìĤ´": 1501,
      "210": 1502,
      "ìĤ¬ê°Ģ": 1503,
      "ĠêµĲìľ¡": 1504,
      "Ġë¨¼": 1505,
      "Ġìĺ¤ëĬĺ": 1506,
      "Ġëªĩ": 1507,
      "ĠëĦ¤": 1508,
      "ĠìĤ¬ëŀĮìĿ´": 1509,
      "Ġíķ´ëĭ¹": 1510,
      "Ġì¤ĳêµŃ": 1511,
      "ìį¨": 1512,
      "íļ¨": 1513,
      "Ġì¡°ê¸Ī": 1514,
      "¶ģ": 1515,
      "ìĽĲìĿ´": 1516,
      "Ġë³ĳ": 1517,
      "Ġë¬´ìĹĩ": 1518,
      "ĠìķĬìķĺ": 1519,
      "ĠãĢ": 1520,
      "ìŀĪëĬĶ": 1521,
      "ìĬ¤íħ": 1522,
      "ĠëĤĺëĬĶ": 1523,
      "ĠíĬ¸": 1524,
      "ìĹĶ": 1525,
      "ĠìĦľìļ¸": 1526,
      "Ġê²ĥëıĦ": 1527,
      "ì½": 1528,
      "ëıĦë¥¼": 1529,
      "Ġì»¤": 1530,
      "íĮ¨ìĬ¤": 1531,
      "Ġë¬¼ë¡ł": 1532,
      "ìŀ¥ìĿĢ": 1533,
      "Ĥ¤": 1534,
      "ë²Ķ": 1535,
      "ë¶Ģë¶Ħ": 1536,
      "ëĵ¯": 1537,
      "Ġì¤Ģë¹Ħ": 1538,
      "Ġê²½íĹĺ": 1539,
      "ìĹĨìĿ´": 1540,
      "or": 1541,
      "Ġë°ĽìķĦ": 1542,
      "ĠëĤľ": 1543,
      "Ġìļ´ìĺģ": 1544,
      "Ġì§ģìłĳ": 1545,
      "ĠëĨĵ": 1546,
      "11": 1547,
      "ëģ¼": 1548,
      "ĠìŀĪìľ¼ë©°": 1549,
      "Ġìĭ¤ìłľ": 1550,
      "ìĭľê°Ħ": 1551,
      "Ġíĺĳ": 1552,
      "Ġë³´ìĹ¬": 1553,
      "ìĽĲìĿĦ": 1554,
      "Ġìĸ´ëĬĲ": 1555,
      "ìłķìĿ´": 1556,
      "ĠìķĬìķĺëĭ¤": 1557,
      "ì¹ĺë¥¼": 1558,
      "ĠìŀĪëıĦë¡Ŀ": 1559,
      "ĠìĿ´íķ´": 1560,
      "..": 1561,
      "ìłķë³´": 1562,
      "ĠìĹĨìĹĪëĭ¤": 1563,
      "ĠìĽĥ": 1564,
      "Ġêµ°": 1565,
      "ìŀ¥ìĿ´": 1566,
      "ĠëįĶìļ±": 1567,
      "Ġê³ĦìĨį": 1568,
      "ĠìĿ¼ë³¸": 1569,
      "Ġëĭ¹ìĭł": 1570,
      "íİĺ": 1571,
      "ĻíĬ¸": 1572,
      "Ġë©´": 1573,
      "ĠìĿ¸ê°Ħ": 1574,
      "ĥĢ": 1575,
      "Ġë²ł": 1576,
      "ìĿ¸ì§Ģ": 1577,
      "ëĳ": 1578,
      "Ġìĸ»": 1579,
      "Ġë§ĲìĿĦ": 1580,
      "Ġíģ´": 1581,
      "Ġë³´ë©´": 1582,
      "ë²Į": 1583,
      "ĠìĿ¼ë°ĺ": 1584,
      "ĠìĿ´ë¦Ħ": 1585,
      "ìĿ´ë©°": 1586,
      "Ġì²«": 1587,
      "ĠëĨį": 1588,
      "Ġíĺ¼": 1589,
      "íı°": 1590,
      "Ġìµľê·¼": 1591,
      "ĠìĹŃìĭľ": 1592,
      "Ġìĥģíĥľ": 1593,
      "Ġëª°": 1594,
      "ìĿ¸ëį°": 1595,
      "Ġì¡´ìŀ¬": 1596,
      "íİĻíĬ¸": 1597,
      "ĠëĲ©ëĭĪëĭ¤": 1598,
      "ìĻĶëĭ¤": 1599,
      "ì°½": 1600,
      "Ġë§ĲíĸĪëĭ¤": 1601,
      "Ġ12": 1602,
      "ìĹĪëįĺ": 1603,
      "ĠíĮ¨": 1604,
      "ëŀ¨": 1605,
      "ìĭľíĹĺëĮĢë¹Ħ": 1606,
      "Ġì¦Ĳ": 1607,
      "ĠëĬĲëĤ": 1608,
      "ĠìĦ¤ëªħ": 1609,
      "ĠìĿ´ë£¨": 1610,
      "ĠD": 1611,
      "ì¸µ": 1612,
      "íĤ¬": 1613,
      "ëŀµ": 1614,
      "ī´": 1615,
      "ëł¥ìĿ´": 1616,
      "ì§ĢëıĦ": 1617,
      "ĠëıĦìĽ": 1618,
      "ìĬ¤íħľ": 1619,
      "ëľ": 1620,
      "Ġê·¸ëŁ°ëį°": 1621,
      "ìĤ¬ìĿĺ": 1622,
      "ëħĲ": 1623,
      "ëĵľëĬĶ": 1624,
      "Ġë§ĲìĶ": 1625,
      "ĠêµŃëĤ´": 1626,
      "ìĤ¬ëĬĶ": 1627,
      "íĦ": 1628,
      "Ġê¿": 1629,
      "Ġìłķë¶Ģ": 1630,
      "Ġê½": 1631,
      "ì·¨": 1632,
      "íĺĳ": 1633,
      "ëł¤ê³ł": 1634,
      "Ġê°Ģì§Ģê³ł": 1635,
      "an": 1636,
      "íķĺìĺĢëĭ¤": 1637,
      "ìłĦíŀĪ": 1638,
      "ĠìķĮìķĦ": 1639,
      "Ġì¢ĭìķĦ": 1640,
      "Ġìĸ¼ë§Ī": 1641,
      "al": 1642,
      "ĠRayong": 1643,
      "Ġê¸°ëĬ¥": 1644,
      "Ġëĵ±ìĿĺ": 1645,
      "Ġìµľê³ł": 1646,
      "Ġì²ł": 1647,
      "ëĲ©ëĭĪëĭ¤": 1648,
      "ë°Ģ": 1649,
      "ìŀ¡": 1650,
      "íķĻêµĲ": 1651,
      "ìĭľíĤ¤": 1652,
      "Ġíķĺì§Ģ": 1653,
      "Ġë²Ķ": 1654,
      "ĠìŀĪìľ¼": 1655,
      "ìĽĲìĿĺ": 1656,
      "ëį°ìĿ´íĬ¸": 1657,
      "ĠëıĪ": 1658,
      "50": 1659,
      "ĸìĹĲ": 1660,
      "es": 1661,
      "ĠíĪ¬ìŀĲ": 1662,
      "Ġíĭ": 1663,
      "AP": 1664,
      "ĠìĿ¼ìĿ´": 1665,
      "ëĤĺëĬĶ": 1666,
      "ĠìĿ¸ìłķ": 1667,
      "ëĭ¤ê°Ģ": 1668,
      "ĠêµŃê°Ģ": 1669,
      "ìĹ¼": 1670,
      "Ġì¦ī": 1671,
      "ë¡ľìĦľ": 1672,
      "ìģ": 1673,
      "Ġëĳĺ": 1674,
      "ëıĻìĿĦ": 1675,
      "ìĸ´ìĦľ": 1676,
      "ìĺ¤ëĬĶ": 1677,
      "ì°¬": 1678,
      "Ġê°Ģê²©": 1679,
      "Ġê·¸ë¦¬": 1680,
      "ĠT": 1681,
      "ĠëķĮë¬¸ìĿ´ëĭ¤": 1682,
      "ĠìĺģíĻĶ": 1683,
      "Ġì¹¨": 1684,
      "ìĬ¨": 1685,
      "ĠìĹħëį°ìĿ´íĬ¸": 1686,
      "Ġë°ĶëĿ¼": 1687,
      "íĮħ": 1688,
      "Ġë¨¼ìłĢ": 1689,
      "ê·¸ëŀ¨": 1690,
      "Ġëĭµ": 1691,
      "Ġìłķë§Ĳ": 1692,
      "ì§Ģê°Ģ": 1693,
      "ì¼Ģ": 1694,
      "Ġëħ¼": 1695,
      "Ġêµ¬ìĦ±": 1696,
      "ë³¼": 1697,
      "ê²©ì¦Ŀ": 1698,
      "ĠìķĮê³ł": 1699,
      "ì§ķ": 1700,
      "ĠìĿ´ê²ĥ": 1701,
      "ĠëĨĢ": 1702,
      "ĠíĻľìļ©": 1703,
      "ë¸Ķ": 1704,
      "ĠìĹ¬ê¸°": 1705,
      "ëĨĵ": 1706,
      "Ġíļ¨ê³¼": 1707,
      "ëĿ¼ìĿ¸": 1708,
      "ë¡Ń": 1709,
      "ĠíĿ¬": 1710,
      "ê²łìĬµëĭĪëĭ¤": 1711,
      "Ġê²½ìłľ": 1712,
      "Ġê±°ëŀĺ": 1713,
      "ĠìĤ´ìķĦ": 1714,
      "ĠíĴį": 1715,
      "ìĭľìĹĲ": 1716,
      "ìŀĦìĿĦ": 1717,
      "Ġê´Ģìĭ¬": 1718,
      "Ġì¸": 1719,
      "ì©": 1720,
      "ìĬ¤ë¥¼": 1721,
      "ĠíĤ¤": 1722,
      "Ġëĸ¨ìĸ´": 1723,
      "ê±": 1724,
      "ĠíĻį": 1725,
      "ĠìķĦì§ģ": 1726,
      "Ġì¤ĳìļĶíķľ": 1727,
      "ar": 1728,
      "ĠìķĬìĿĦ": 1729,
      "ĠìķĮëł¤": 1730,
      "Ġê´": 1731,
      "ĠìĹ¬ëŁ¬ë¶Ħ": 1732,
      "ĠìĶ¨": 1733,
      "Ġì¶ķ": 1734,
      "ĠN": 1735,
      "ĠìŀĪëĬĶëį°": 1736,
      "ĠL": 1737,
      "ĶĶ": 1738,
      "Ġ100": 1739,
      "ĠB": 1740,
      "ê°ľë¥¼": 1741,
      "Ġìķħ": 1742,
      "ĠìĿĳ": 1743,
      "Ġìłģìļ©": 1744,
      "ĠìĿ½": 1745,
      "Ġìķ¼": 1746,
      "Ġíĺ¹": 1747,
      "ĠíıŃ": 1748,
      "ìħĶ": 1749,
      "íŀ": 1750,
      "ëłµ": 1751,
      "ĠíĻĺê²½": 1752,
      "ĠìŀĲìĹ°": 1753,
      "ìŀĲìĿ¸": 1754,
      "Ġêµ¬ë§¤": 1755,
      "Ġê´Ģë¦¬": 1756,
      "ĠìĽĢ": 1757,
      "Ġê¸°ë¡Ŀ": 1758,
      "ìĽł": 1759,
      "ĠìĿ¼ë¶Ģ": 1760,
      "ìķĻ": 1761,
      "Ġìļ°ë¦¬ëĬĶ": 1762,
      "ë§Īëĭ¤": 1763,
      "Ġëĭ¹ìĭľ": 1764,
      "13": 1765,
      "ĠíķĦìļĶíķľ": 1766,
      "ĠìŀĪëĭ¤ê³ł": 1767,
      "ĠE": 1768,
      "Ġë§¤ìļ°": 1769,
      "ë¡ľëĤĺ": 1770,
      "ì¹ĺëĬĶ": 1771,
      "ĠìĪľê°Ħ": 1772,
      "ë¦Ń": 1773,
      "ìĬ¤ë¡ľ": 1774,
      "íĥģ": 1775,
      "Ġ30": 1776,
      "ìĥĪ": 1777,
      "Ġê¸°ì¤Ģ": 1778,
      "ìĥģìĿ´": 1779,
      "ĠIT": 1780,
      "Ġìĭ¤í": 1781,
      "Ġê¸ī": 1782,
      "ĠíĻ©": 1783,
      "ë¬¼ìĿĦ": 1784,
      "ìĽĲìĿĢ": 1785,
      "íķĺê±°ëĤĺ": 1786,
      "ĠëĤ®": 1787,
      "ê°Ģë¥¼": 1788,
      "ì¤Ħ": 1789,
      "ĠìłĦì²´": 1790,
      "ĠíĨµê³¼": 1791,
      "Ġê³Ħíļį": 1792,
      "it": 1793,
      "Ġê³µê°Ħ": 1794,
      "ëĲĺì§Ģ": 1795,
      "ĠìŀĲê¸°": 1796,
      "ìĦ¼": 1797,
      "ìĽĢ": 1798,
      "Ġê¹¨": 1799,
      "ë¥´ëĬĶ": 1800,
      "ĠëĬ¥": 1801,
      "Ġìĺģíĸ¥": 1802,
      "ê¸°ë¡ľ": 1803,
      "ĠíķĻìĥĿ": 1804,
      "ì²ł": 1805,
      "Ġë¸Ķ": 1806,
      "Ġê³¨": 1807,
      "ìĪĺë¥¼": 1808,
      "ĠìĿ´ëĬĶ": 1809,
      "Ġê´Ģíķľ": 1810,
      "en": 1811,
      "Ġ11": 1812,
      "ë¦½ëĭĪëĭ¤": 1813,
      "ĠìĻĢ": 1814,
      "ĠëŃĲ": 1815,
      "Ġê¸°ëĮĢ": 1816,
      "ìĦłìĿĦ": 1817,
      "Ġê·¸ê°Ģ": 1818,
      "ĠëĮĢë¶Ģë¶Ħ": 1819,
      "ìĹħìĿĦ": 1820,
      "ìĭľëĬĶ": 1821,
      "Ġê·¹": 1822,
      "Ġëį°ìĿ´íĦ°": 1823,
      "ĠìĤ¬ëŀĮëĵ¤ìĿ´": 1824,
      "ĠìķĪìłĦ": 1825,
      "ĠG": 1826,
      "ê±¸": 1827,
      "ĠìŀĳíĴĪ": 1828,
      "ëĮĢíķľ": 1829,
      "Ġíİĺ": 1830,
      "ìĿ´ê°Ģ": 1831,
      "ëıĦê°Ģ": 1832,
      "ìĹĪê³ł": 1833,
      "ĠìŀĪëįĺ": 1834,
      "ìķĮ": 1835,
      "Ġë§Ľ": 1836,
      "ìľĦë¥¼": 1837,
      "Ġëĭ¤ìļ´": 1838,
      "Ġìľłì§Ģ": 1839,
      "ë¿Ĳ": 1840,
      "ëĥ¥": 1841,
      "ĠíĦ°": 1842,
      "ĠìķĦì£¼": 1843,
      "ĠìĭľìĬ¤íħľ": 1844,
      "Ġì§ĢëĤĺ": 1845,
      "at": 1846,
      "ëĤ¸": 1847,
      "Ġê²°êµŃ": 1848,
      "ĠìĿ´ìķ¼ê¸°": 1849,
      "ê¸Ģ": 1850,
      "Ġê°ĳ": 1851,
      "Ġëķ": 1852,
      "ìĻĶ": 1853,
      "ì¹Ļ": 1854,
      "Ġëľ»": 1855,
      "ë¡ľë¶ĢíĦ°": 1856,
      "ĠëĪĦêµ¬": 1857,
      "Ġê¸°ë³¸": 1858,
      "Ġë°Ģ": 1859,
      "ë´ī": 1860,
      "ìĨĲ": 1861,
      "ĠìĦ±ê³µ": 1862,
      "ìĪĻ": 1863,
      "ëŀľëĵľ": 1864,
      "ë§ģ": 1865,
      "ëĵ¤ëıĦ": 1866,
      "íį¼íİĻíĬ¸": 1867,
      "ĠëĶ°ëĿ¼ìĦľ": 1868,
      "Ġëĥ": 1869,
      "Ġíķ´ìķ¼": 1870,
      "Ġê¹Ĭ": 1871,
      "ĠìĥĿíĻľ": 1872,
      "ìī": 1873,
      "ĠíĮĶ": 1874,
      "ë¥´ê²Į": 1875,
      "Ġì¶Ķê°Ģ": 1876,
      "ê²łëĭ¤": 1877,
      "ĠëĤ´ëł¤": 1878,
      "ĠìŀĲëıĻ": 1879,
      "Ġê²°ìłķ": 1880,
      "Ġê¸°ìĸµ": 1881,
      "Ġê±´ê°ķ": 1882,
      "ìľ¼ëĤĺ": 1883,
      "ĠìĦľë¡ľ": 1884,
      "ĠíĶ¼íķ´": 1885,
      "Ġíķ´ê²°": 1886,
      "ĠìĤ¬ì§Ħ": 1887,
      "ĠìĿ¸íĦ°": 1888,
      "ìĬ¤ëŁ¬": 1889,
      "ĠìĿ´ìĹĲ": 1890,
      "íľ": 1891,
      "Ġì¸¡": 1892,
      "ëıĮ": 1893,
      "ì§ľ": 1894,
      "ìłĲìĿĦ": 1895,
      "Ġê³¼ìłķ": 1896,
      "Ġìļ°ë¦¬ê°Ģ": 1897,
      "Ġë³ĢíĻĶ": 1898,
      "ìĥģìĿĺ": 1899,
      "ĩ´": 1900,
      "ĠìŀĲì²´": 1901,
      "ìĿ¸ìĿĦ": 1902,
      "Ľ°": 1903,
      "Ġíľ´": 1904,
      "ê»ĺìĦľ": 1905,
      "ëıĻìķĪ": 1906,
      "ë³´ê³ł": 1907,
      "ì¤": 1908,
      "ĺíĶĮ": 1909,
      "Ġì¹ĺë£Į": 1910,
      "ìĻĦ": 1911,
      "Ġìī½ê²Į": 1912,
      "30": 1913,
      "Ġê°Ģì¡±": 1914,
      "Ġë°©ìĭĿ": 1915,
      "Ġê²ĮìŀĦ": 1916,
      "ĠíĶĦë¡ľê·¸ëŀ¨": 1917,
      "ëĬĶì§Ģ": 1918,
      "ì»¤": 1919,
      "ĠíĴĢ": 1920,
      "ĠìĿ¼ìĿĦ": 1921,
      "Ġìļ¸": 1922,
      "ĠíĮĲë§¤": 1923,
      "Ġë§Įíģ¼": 1924,
      "ĠíĥĦ": 1925,
      "Ġì¹ľêµ¬": 1926,
      "íĬ": 1927,
      "íĥĦ": 1928,
      "Ġê¿Ī": 1929,
      "ëĲĺìĹĪëĭ¤": 1930,
      "ëįķ": 1931,
      "Ġë§ĲìĿ´": 1932,
      "ì¸¡": 1933,
      "Ġë¬¸íĻĶ": 1934,
      "Ġìħ": 1935,
      "ìĪĺê°Ģ": 1936,
      "ĠìķĦëŀĺ": 1937,
      "ëįĶëĿ¼ëıĦ": 1938,
      "íļĮìĿĺ": 1939,
      "Ġë¶ĦìĦĿ": 1940,
      "ĠìĽĢì§ģ": 1941,
      "ê¾¸": 1942,
      "ìĻķ": 1943,
      "Ġì°¸ìĹ¬": 1944,
      "Ġìľ¤": 1945,
      "ê³¡": 1946,
      "ê·ł": 1947,
      "ĠìķĬìķĦ": 1948,
      "ĠíĿĶ": 1949,
      "Ġì½ĺ": 1950,
      "ë²ł": 1951,
      "¤íĬ¸": 1952,
      "ëĪĦ": 1953,
      "Ġì¤ĳìĭ¬": 1954,
      "ìľĦìĽĲ": 1955,
      "ëį¸": 1956,
      "ĠíĴĪ": 1957,
      "Ġë¶Ļ": 1958,
      "ëĬĶëĭ¤": 1959,
      "ĠìĤ¬ìĿ´íĬ¸": 1960,
      "íķĺëł¤": 1961,
      "ĠìĥģëĮĢ": 1962,
      "ĠíķĺìĹ¬": 1963,
      "ĠìŀĲë£Į": 1964,
      "ic": 1965,
      "Ġíģ¬ê²Į": 1966,
      "ĠìŀĪì§Ģë§Į": 1967,
      "ìĭľíĹĺíĮ¨ìĬ¤": 1968,
      "ĠìĥĿìĤ°": 1969,
      "ìĤ¬ìĹħ": 1970,
      "Ġìłľê°Ģ": 1971,
      "ĠìĻķ": 1972,
      "íļĮë¥¼": 1973,
      "ìĨĮë¥¼": 1974,
      "ê°Ģê°Ģ": 1975,
      "ê°Ļ": 1976,
      "lo": 1977,
      "Ġëª©ìĨĮ": 1978,
      "ìĿ¸ìĿĢ": 1979,
      "ìľµ": 1980,
      "ro": 1981,
      "Ġ:": 1982,
      "Ġê°ĢëĬ¥íķľ": 1983,
      "ĠëĽ°": 1984,
      "ĠëĮĢíķ´ìĦľ": 1985,
      "ĠìĹ¬ìĦ±": 1986,
      "ìłķíķľ": 1987,
      "Ġâĳ": 1988,
      "Ġìĸ´ëĶĶ": 1989,
      "íģ´": 1990,
      "ìĶ©": 1991,
      "Ġíķĺë©´": 1992,
      "ì£Ħ": 1993,
      "íĺľ": 1994,
      "ĠêµŃë¯¼": 1995,
      "ĠìłĢíĿ¬": 1996,
      "ĠìļĶêµ¬": 1997,
      "ĠìŀĳìĿĢ": 1998,
      "ĠíĬ¹ë³Ħ": 1999,
      "ĠìĹŃíķł": 2000,
      "ë°ĸìĹĲ": 2001,
      "Ġíį¼": 2002,
      "Ġì½Ķë¡ľëĤĺ": 2003,
      "ë¬¸ìĿĦ": 2004,
      "íĹĮ": 2005,
      "ìĭľìķĦ": 2006,
      "ìĬ¤ëŁ½": 2007,
      "íķĺì§Ģë§Į": 2008,
      "Ġëĵ£": 2009,
      "ĠìĭľëĮĢ": 2010,
      "ëŀ«": 2011,
      "Ġëį¤íĶĦê³µë¶Ģ": 2012,
      "ìłľë¥¼": 2013,
      "¤ëĭ¤": 2014,
      "Ġê¸°ì¡´": 2015,
      "ĠíĻľëıĻ": 2016,
      "ĠìĹ°ê²°": 2017,
      "ĠìĨĮë¹Ħ": 2018,
      "ì¹ł": 2019,
      "ĠìĺĪìĪĺ": 2020,
      "Ġì¶©ë¶Ħ": 2021,
      "ĠìĪĺì¤Ģ": 2022,
      "ëĤĺëĿ¼": 2023,
      "Ġ15": 2024,
      "Ġì¦Ŀê°Ģ": 2025,
      "íħĲ": 2026,
      "Ġ[": 2027,
      "¿ł": 2028,
      "ëĦĲ": 2029,
      "ĠëĲĺìĹĪëĭ¤": 2030,
      "ĠF": 2031,
      "ĠìłĦìĹĲ": 2032,
      "ĠìĦ±ìŀ¥": 2033,
      "ĠìĪ¨": 2034,
      "ê°ĲìĿĦ": 2035,
      "íĺģ": 2036,
      "ê²Ģ": 2037,
      "íĸĪê³ł": 2038,
      "Ġìĸ´ëłµ": 2039,
      "ĠíĳľíĺĦ": 2040,
      "ìļ´ëį°": 2041,
      "ĠìķĶ": 2042,
      "le": 2043,
      "ë§ĪíĬ¸": 2044,
      "Ġê³µë¶ĢìŀĲë£Į": 2045,
      "Ġê³§": 2046,
      "ĠìĿ´ë£¨ìĸ´": 2047,
      "Ġê³łë¯¼": 2048,
      "Ġë§ĲìĶĢ": 2049,
      "ê¸ĪìĿĦ": 2050,
      "ĠìĹħë¬´": 2051,
      "ĠëĮĢíķĺìĹ¬": 2052,
      "ĠO": 2053,
      "ì§Ģë§ī": 2054,
      "ë§Įíģ¼": 2055,
      "Ġì¼": 2056,
      "Ġì§ĢìĨį": 2057,
      "ìłĦìĹĲ": 2058,
      "ĠìŀĲìĭłìĿ´": 2059,
      "ĠíķĻêµĲ": 2060,
      "Ġëħ¸ëł¥": 2061,
      "ĠëĮĢíķĻ": 2062,
      "Ġë§ĮëĤĺ": 2063,
      "Ġìķŀìľ¼ë¡ľ": 2064,
      "tion": 2065,
      "ĠíĿĲ": 2066,
      "ëĭ¥": 2067,
      "ëıĦë¡ľ": 2068,
      "íĽ": 2069,
      "ëıĦìĿĺ": 2070,
      "Ġìĸ¸ìłľ": 2071,
      "ĠK": 2072,
      "ë¦¬ìķĦ": 2073,
      "ìĪĺëĬĶ": 2074,
      "ĠìĦ¤ì¹ĺ": 2075,
      "ĠìŀĶ": 2076,
      "ê²¼": 2077,
      "įëĭĪëĭ¤": 2078,
      "ĠìŀĲë¦¬": 2079,
      "ĠìºĲ": 2080,
      "ëĲĲëĭ¤": 2081,
      "Ġìłľìŀĳ": 2082,
      "ì§ĢìĿĺ": 2083,
      "Ġì·¨ëĵĿ": 2084,
      "ì§Ħëĭ¤": 2085,
      "ĠìĹ¬íĸī": 2086,
      "Ġê¸´": 2087,
      "ĠíĮĢ": 2088,
      "ĠíĮĲëĭ¨": 2089,
      "Ġê²½ìŁģ": 2090,
      "ìŀ¥ìĿĺ": 2091,
      "ìĸ´ìķ¼": 2092,
      "ìľ¼ë¡ľìį¨": 2093,
      "ìĿ´ë¥¼": 2094,
      "ĠìķĦëĭĪëĭ¤": 2095,
      "ĠëĦ£": 2096,
      "Ġìĭľê°ĦìĿ´": 2097,
      "Ġìĥģëĭ¹": 2098,
      "Ġìĺ¬ëĿ¼": 2099,
      "íķ´ë³´": 2100,
      "Ġ<": 2101,
      "ĠìĽĶ": 2102,
      "ê°Ķëĭ¤": 2103,
      "Ġëª¨ìĬµìĿĦ": 2104,
      "Ġìĸ´ë¦°": 2105,
      "ëĦ·": 2106,
      "ĠìŀĪìĸ´ìĦľ": 2107,
      "ìĿ¸ê°Ģ": 2108,
      "ê³Ħë¥¼": 2109,
      "íķĦ": 2110,
      "íķĺëıĦë¡Ŀ": 2111,
      "ĠëĮĢìĥģ": 2112,
      "ëĤ´ëĬĶ": 2113,
      "ëĵľë¥¼": 2114,
      "ê¸°ìĹħ": 2115,
      "ìĿ¸ì¦ĿìĭľíĹĺ": 2116,
      "ĠëĲĺê³ł": 2117,
      "Ġìłķìĭł": 2118,
      "ëĿ¼ìĿ´": 2119,
      "íķ´ëĵľ": 2120,
      "ì§Ŀ": 2121,
      "Ġì£¼ìŀ¥": 2122,
      "Ġìľ¡": 2123,
      "ĠìłķëıĦë¡ľ": 2124,
      "Ġë¹¨": 2125,
      "Ġê³łê°ľë¥¼": 2126,
      "Ġê¸Ģ": 2127,
      "º¼": 2128,
      "22": 2129,
      ").": 2130,
      "Ġë¶Ħìķ¼": 2131,
      "ĠìĹĨìĬµëĭĪëĭ¤": 2132,
      "ë¦¬ì§Ģ": 2133,
      "ìĿĺë¥¼": 2134,
      "ìµľê³ł": 2135,
      "ĠìŀĪê²Į": 2136,
      "ĠìľĦíĹĺ": 2137,
      "Ġìķī": 2138,
      "ì¦ĺ": 2139,
      "ĠìĮ": 2140,
      "Ġíķĺë£¨": 2141,
      "ëĭĺìĿĺ": 2142,
      "ìĩ": 2143,
      "Ġê¶ģ": 2144,
      "Ġê±°ìĿĺ": 2145,
      "Ġëĵ±ìĿ´": 2146,
      "ĳ¸": 2147,
      "ê³¤": 2148,
      "Ġë³´íĺ¸": 2149,
      "2105": 2150,
      "Ġê¸°ê°Ħ": 2151,
      "Ġê³łëł¤": 2152,
      "ĠìĿ¸íķ´": 2153,
      "ëª»": 2154,
      "Ġë¶Ħëªħ": 2155,
      "Ġë´Ĳ": 2156,
      "Ġë¬´ìĬ¨": 2157,
      "ĠìĥģíĴĪ": 2158,
      "ìłģìĿ´": 2159,
      "ê³¨": 2160,
      "ì°¸": 2161,
      "°ëĭ¤": 2162,
      "ë¹ł": 2163,
      "ìĬ¬": 2164,
      "ĠìľĦì¹ĺ": 2165,
      "Ġë°ľìłĦ": 2166,
      "ìķĶ": 2167,
      "íĺĶëĭ¤": 2168,
      "ë¡¯": 2169,
      "Ġë§Īëł¨": 2170,
      "ë¥´ë©´": 2171,
      "ìľ¼ëĭĪ": 2172,
      "ê¼": 2173,
      "ĠìłķíĻķ": 2174,
      "CP": 2175,
      "Ġê·¸ëĮĢë¡ľ": 2176,
      "ĠëĬĲëĤĮ": 2177,
      "Ġê°Ģê¹Į": 2178,
      "ĠëıĦìĭľ": 2179,
      "ëı¼": 2180,
      "ĠìĿ¸ê¸°": 2181,
      "ĠíĺĦìĭ¤": 2182,
      "ìķĦìļĶ": 2183,
      "ìĦľë¥¼": 2184,
      "ìŀĲìĹĲê²Į": 2185,
      "ĠìĨĲìĿĦ": 2186,
      "ĠìĬ¤ìĬ¤ë¡ľ": 2187,
      "ì¶©": 2188,
      "Ġë¯¸ëŀĺ": 2189,
      "ĠëģĮ": 2190,
      "ĠìĬ¤íĥĢ": 2191,
      "ìĭľìĺ¤": 2192,
      "íķľëĭ¤ëĬĶ": 2193,
      "ë£¹": 2194,
      "íĨµëł¹": 2195,
      "Ġìī¬": 2196,
      "ëªħìĿĺ": 2197,
      "ed": 2198,
      "IA": 2199,
      "ĠìĬ¬": 2200,
      "íĥĪ": 2201,
      "01": 2202,
      "Ġíķµ": 2203,
      "ì§ĢìĹĲ": 2204,
      "Ġë§Īì§Ģë§ī": 2205,
      "ĠìŀĲìľł": 2206,
      "Ġíķ´ëıĦ": 2207,
      "ìĸ¼": 2208,
      "ĠìĤ°ìĹħ": 2209,
      "Ġìĸ¼ë§ĪëĤĺ": 2210,
      "ĠëĮĢë¹Ħ": 2211,
      "Ġìĺ¨ëĿ¼ìĿ¸": 2212,
      "ĠìŀĲê²©ì¦Ŀ": 2213,
      "ëĤ¬ëĭ¤": 2214,
      "Ġê·ľìłķ": 2215,
      "ĠëĤĺëĿ¼": 2216,
      "Ġê·¸ë¦¼": 2217,
      "ĠìĤ¬ëŀĮìĿĢ": 2218,
      "íĴĪì§Ī": 2219,
      "ì²Ļ": 2220,
      "ìĬ¤ëĬĶ": 2221,
      "Ġëį¤íĶĦìŀĲë£Į": 2222,
      "Ġë°°ìļ°": 2223,
      "ê·Ģ": 2224,
      "ëªħìĿĦ": 2225,
      "Ġê³Ħìķ½": 2226,
      "Ġìĺ¬íķ´": 2227,
      "Ġìµľìĭłë²ĦìłĦ": 2228,
      "Ġê¼Ń": 2229,
      "Ġìĥī": 2230,
      "ë¬¼ìĿ´": 2231,
      "Ġê°Ģìļ´ëį°": 2232,
      "ĠìĺĪìĥģ": 2233,
      "Ġë¬¸ìłľê°Ģ": 2234,
      "Ġìĸĺ": 2235,
      "Ġâĸ": 2236,
      "ìŀĸ": 2237,
      "ĠìķĦë²Ħ": 2238,
      "ìŀ¥ìĹĲìĦľ": 2239,
      "íĬ¹": 2240,
      "ĠìĨĮê°ľ": 2241,
      "íĽĪ": 2242,
      "ĠìķĬìĬµëĭĪëĭ¤": 2243,
      "ëĭĺìĿ´": 2244,
      "ĠíıĲ": 2245,
      "ĠíĮ¨ìĬ¤": 2246,
      "ĠìłľëĮĢë¡ľ": 2247,
      "Ġê¾¸": 2248,
      "Ġê·¸ëŁ¼": 2249,
      "ìµľìĭłë²ĦìłĦ": 2250,
      "ìĿ´ìĹĪ": 2251,
      "Ġë©Ģ": 2252,
      "ĠíĨµê³¼ìľ¨": 2253,
      "íĬ¸ë¥¼": 2254,
      "Ġë³Ģê²½": 2255,
      "Ġë¶Ģì¡±": 2256,
      "ĠìĦ¸ìĥģ": 2257,
      "ĠìŀĪê¸°": 2258,
      "Ġë¥": 2259,
      "ëį°ëª¨": 2260,
      "Ġëª©íĳľ": 2261,
      "Ġëĭ¬ë¦¬": 2262,
      "ê¸°ìĿĺ": 2263,
      "Ġê·¸ëħĢìĿĺ": 2264,
      "Ġë³´ëĬĶ": 2265,
      "ìļķ": 2266,
      "ĠíĿĺ": 2267,
      "Ġë§Įëĵł": 2268,
      "Ġíħ": 2269,
      "ìĿ¸ëĭ¤": 2270,
      "ìŀĲëĵ¤ìĿ´": 2271,
      "Ġë²Īì§¸": 2272,
      "Ġë¹ĦêµĲ": 2273,
      "Ġ18": 2274,
      "ë³´ëĬĶ": 2275,
      "íĹĪ": 2276,
      "ĠìķĬëĬĶëĭ¤": 2277,
      "ac": 2278,
      "ëĮĢë¥¼": 2279,
      "ëĨĴ": 2280,
      "ìĪĺìĿĺ": 2281,
      "Ġëª»íķľ": 2282,
      "Ġê°ľìĿ¸ìłķë³´": 2283,
      "Ġë°ľê²¬": 2284,
      "íķĺëįĺ": 2285,
      "ê»´": 2286,
      "Ġê¸°ëĭ¤": 2287,
      "ĠëĵľëŁ¬": 2288,
      "Ġê²½ìļ°ìĹĲëĬĶ": 2289,
      "ìľ¼ë¡ľìĦľ": 2290,
      "Ġëį¤íĶĦë¬¸ìłľ": 2291,
      "ëłĮ": 2292,
      "ĠìĿ¸ì¦ĿìĭľíĹĺ": 2293,
      "Ġë£": 2294,
      "Ġë§Ŀ": 2295,
      "Ġì§Ģê¸ī": 2296,
      "Ġê±±": 2297,
      "ĠëıĦìĽĢìĿ´": 2298,
      "ë¦¬ìĿĺ": 2299,
      "íħĶ": 2300,
      "ĠëĤĺìĺ¤": 2301,
      "Ġìĭ¸": 2302,
      "ĠíĹ¤": 2303,
      "ê´": 2304,
      "ĠìĿµ": 2305,
      "Ġë´ī": 2306,
      "ë¡ľëĬĶ": 2307,
      "ĠíķĺëĤĺëĭĺìĿĺ": 2308,
      "ìŀ¥ìĹĲ": 2309,
      "Ġê°Ģìł¸": 2310,
      "ĠëıĻìĭľìĹĲ": 2311,
      "Ġíĺķíĥľ": 2312,
      "ĠëĮĢíĨµëł¹": 2313,
      "ìĸ´ëıĦ": 2314,
      "ĠíĺĦëĮĢ": 2315,
      "Ġìĭľê°ĦìĿĦ": 2316,
      "Ġê°Ļëĭ¤": 2317,
      "Ġê°Ģì§Ħ": 2318,
      "ĠíĺĪ": 2319,
      "Ġê·¸ëĥ¥": 2320,
      "íĶ": 2321,
      "Ġíıīê°Ģ": 2322,
      "Ġì°©": 2323,
      "Ġëª¨ëį¸": 2324,
      "ĠëĮĢìĭł": 2325,
      "Ġì£¼ìĭĿ": 2326,
      "Ġëħ¸ëıĻ": 2327,
      "ĠëĪĪìĿĦ": 2328,
      "Ġìłķì¹ĺ": 2329,
      "Ġíķľë²Ī": 2330,
      "ë¹Ľ": 2331,
      "Ġë²Ĺ": 2332,
      "ĠìŀĳìĹħ": 2333,
      "íħĲì¸ł": 2334,
      "Ġì£Ħ": 2335,
      "ëĶĶìĸ´": 2336,
      "Ġë°ĽìĿĢ": 2337,
      "Ġìĭ¶ìĿĢ": 2338,
      "ìĭŃìĭľìĺ¤": 2339,
      "ê¶ĮìĿĦ": 2340,
      "14": 2341,
      "ĠëĬĲëģ¼": 2342,
      "HP": 2343,
      "Ġë§Īì¹ĺ": 2344,
      "ìĽĥ": 2345,
      "ĠìĨ¡": 2346,
      "íĥķ": 2347,
      "íķĺëĬĶëį°": 2348,
      "Ġê²°íĺ¼": 2349,
      "Ġë°ľíĳľ": 2350,
      "Ġìļ°ë¦¬ìĿĺ": 2351,
      "Ġì§ĳì¤ĳ": 2352,
      "ì´Ŀ": 2353,
      "Ġìı": 2354,
      "ìĬ¤ê°Ģ": 2355,
      "ìĵ": 2356,
      "ì§Ģì§Ģ": 2357,
      "ê¸°ê´Ģ": 2358,
      "ĠìĤ¬ìĭ¤ìĿĦ": 2359,
      "¢°": 2360,
      "ĠìĭľíĹĺëį¤íĶĦ": 2361,
      "ĠìĿ´ìķ¼ê¸°ë¥¼": 2362,
      "Ġíķ´ìĦľ": 2363,
      "ìŀĲìĻĢ": 2364,
      "ê±°ë¦¬": 2365,
      "ëĿ¼ë©´": 2366,
      "ëĵ¤ìĹĲ": 2367,
      "íķĳ": 2368,
      "ĠV": 2369,
      "Ġêµ¬ì¡°": 2370,
      "Ġëķħ": 2371,
      "ìŀĲë¡ľ": 2372,
      "Ġê³µëıĻ": 2373,
      "ìĿ¼ìĿĦ": 2374,
      "Ġë¹Ľ": 2375,
      "Ġ0": 2376,
      "ĠìĪĻ": 2377,
      "ĠìĬ¤ë§ĪíĬ¸": 2378,
      "íĦ¸": 2379,
      "êµĲìľ¡": 2380,
      "Ġìĺ¤ëŀĺ": 2381,
      "ìĬ¤ìĿĺ": 2382,
      "Ġë¶Ģëĭ´": 2383,
      "Ġê²ĥì²ĺëŁ¼": 2384,
      "ĠëĶ°ë¥¸": 2385,
      "ĠëħĦ": 2386,
      "Ġìłķì±ħ": 2387,
      "ë¢°": 2388,
      "Ġë°ĶëŀĮ": 2389,
      "ê°ĢëĬ¥": 2390,
      "ë¶Ģë¥¼": 2391,
      "íĤ¨": 2392,
      "Ġëĵ±ìĹĲ": 2393,
      "Ġì¹¼": 2394,
      "ĠìĺĨ": 2395,
      "íļĮê°Ģ": 2396,
      "Ġë§¡": 2397,
      "ĠìĤ¬ëĿ¼": 2398,
      "18": 2399,
      "Ġë¶ģíķľ": 2400,
      "ĠìĿĺíķ´": 2401,
      "Ġë¸Įëŀľëĵľ": 2402,
      "Ġì£¼ìļĶ": 2403,
      "ĠìĹŃìĤ¬": 2404,
      "Ġíķĺë©°": 2405,
      "ĠìĨĮìĻ¸": 2406,
      "ë§ĮìĿĺ": 2407,
      "Ġë³´ëĭĪ": 2408,
      "Ġìĺģíĸ¥ìĿĦ": 2409,
      "ìĿ´ê¸°": 2410,
      "Ġê²¨": 2411,
      "Ġìĸ´ì©": 2412,
      "Ġë°©ë¬¸": 2413,
      "Ġìķķ": 2414,
      "Ġíĺľ": 2415,
      "ĠìĪĺê°Ģ": 2416,
      "íķ¨ìĿĦ": 2417,
      "ĠìĪĺíĸī": 2418,
      "ìĬ´": 2419,
      "ĠìłĢëĬĶ": 2420,
      "ìĸ´ëĤľ": 2421,
      "ĠêµŃìłľ": 2422,
      "ĠìĿ´ê³³": 2423,
      "Ġì£¼ë³Ģ": 2424,
      "Ġë³´ëĭ¤": 2425,
      "ĠëĬĲê»´": 2426,
      "ĠíĥĪ": 2427,
      "íĴį": 2428,
      "Ġë³´ëĤ´": 2429,
      "ĠìľĦíķ´ìĦľ": 2430,
      "Ġë§ĪìĿĮìĿĦ": 2431,
      "ĠëĦĺìĸ´": 2432,
      "íŀĮ": 2433,
      "ìłĦìĿĦ": 2434,
      "ĩĮ": 2435,
      "Ġíĸīë³µ": 2436,
      "Ġê·¸ëķĮ": 2437,
      "ì£¼ê³ł": 2438,
      "ë¡Ńê²Į": 2439,
      "Ġê¸°ë°ĺ": 2440,
      "ec": 2441,
      "Ġëĭ¨ìĪľ": 2442,
      "Ġë¶Ģëª¨": 2443,
      "ĠìĤ¬ê³ł": 2444,
      "ĠìľĦíķĺìĹ¬": 2445,
      "Ġì¡°ì§ģ": 2446,
      "ë¥´ê³ł": 2447,
      "ëĨĴìĿĢ": 2448,
      "ĠëĶĶìŀĲìĿ¸": 2449,
      "Ġê³¼ê±°": 2450,
      "ĠìĥĿê°ģìĿ´": 2451,
      "ĠìķĦë¦Ħ": 2452,
      "ìĽĲìĹĲ": 2453,
      "ĠìĹĨìĸ´": 2454,
      "ĠìĿĮìķħ": 2455,
      "íĨ": 2456,
      "íİ´": 2457,
      "Ġ199": 2458,
      "Ġë°¤": 2459,
      "ëªħìĿ´": 2460,
      "ìķķ": 2461,
      "ìĭľê³ł": 2462,
      "ê°ĳ": 2463,
      "ëĶ©": 2464,
      "ëĦ¤ìļĶ": 2465,
      "Ġíŀĺëĵ¤": 2466,
      "ë¨¹": 2467,
      "íķĺëĭ¤ê³ł": 2468,
      "ëıĻìĤ°": 2469,
      "Ġê³µìĨĮ": 2470,
      "Ġë°Ľê³ł": 2471,
      "Ġë¬»": 2472,
      "ì¶°": 2473,
      "Ġìļķ": 2474,
      "Ġë¬¸ìłľë¥¼": 2475,
      "ëĮĢìĿĺ": 2476,
      "Ġìĭľíĸī": 2477,
      "Ġì§Ģë°©": 2478,
      "ãĢı": 2479,
      "íĮ¨": 2480,
      "ë²½íķľ": 2481,
      "íĮĢ": 2482,
      "ŀĪëł¤": 2483,
      "Ġê³µê²©": 2484,
      "ĠëŁ": 2485,
      "Ġëĭ¤ê°Ģ": 2486,
      "Ġê³µê¸ī": 2487,
      "Ġíĺ¹ìĿĢ": 2488,
      "íķľíħĮ": 2489,
      "Ġìłķë³´ë¥¼": 2490,
      "Ġì¶Ķì§Ħ": 2491,
      "Ġëª¸ìĿĦ": 2492,
      "Ġë¹Ħìļ©": 2493,
      "ĠëĤĺìĺ¨": 2494,
      "ë¦¿": 2495,
      "Ġìļ°ìĦł": 2496,
      "ëī´": 2497,
      ".âĢĿ": 2498,
      "Ġ14": 2499,
      "ĠìŀĲìĭłìĿĦ": 2500,
      "Ġë¹Ħë¡¯": 2501,
      "íķĺìŀĲ": 2502,
      "ĠëķĮëĬĶ": 2503,
      "ìĦ¼íĦ°": 2504,
      "ë¶ĦìĿ´": 2505,
      "ìĿ´ëĿ¼ëıĦ": 2506,
      "ĠìĿ¸ì¦Ŀëį¤íĶĦ": 2507,
      "Ġ16": 2508,
      "AD": 2509,
      "ĠìĭľíĹĺëĮĢë¹Ħ": 2510,
      "ìī¬": 2511,
      "ê²łëĭ¤ëĬĶ": 2512,
      "Ġë°ĶìĿ´": 2513,
      "ìĬ¤íģ¬": 2514,
      "ì¶ĺ": 2515,
      "Ġìĺ¤íŀĪëł¤": 2516,
      "ìĦ±ê³¼": 2517,
      "Ġê´ľ": 2518,
      "Ġì²ĺë¦¬": 2519,
      "ĠìĤ´íİ´": 2520,
      "Ġì»¨": 2521,
      "ĠìĿ´ëıĻ": 2522,
      "Ġì£¼ëĬĶ": 2523,
      "ì°®": 2524,
      "Ġëī´": 2525,
      "Ġìĩ": 2526,
      "ìľ¼ë¡ľëĬĶ": 2527,
      "íı¼": 2528,
      "ĠìĭľìŀĳíĸĪëĭ¤": 2529,
      "ĠìĻĶ": 2530,
      "ëįĶëĭĪ": 2531,
      "ìķĦê°Ģ": 2532,
      "Ġë°ĽìĿĦ": 2533,
      "ĠìĹ¬ìłĦíŀĪ": 2534,
      "Ġë°©íĸ¥": 2535,
      "ĠíķŃìĥģ": 2536,
      "Ġìĭłì²Ń": 2537,
      "ê¸°ê°Ħ": 2538,
      "ĠìłĦíĺĢ": 2539,
      "ĠìĪł": 2540,
      "ìĭĿìĿ´": 2541,
      "ĠìĨĮìľł": 2542,
      "Ġìĸ´ëł¤ìļ´": 2543,
      "Ġìŀĺëª»": 2544,
      "ê°ĢìĿĺ": 2545,
      "Ġëĵ¤ìĸ´ê°Ģ": 2546,
      "ëħĦìĹĲ": 2547,
      "ìķĦìĦľ": 2548,
      "Ġì¶ľìĭľ": 2549,
      "ĠìĹĶ": 2550,
      "ĠìĦľë¹ĦìĬ¤ë¥¼": 2551,
      "ê¶ģ": 2552,
      "ê³¼ìĿĺ": 2553,
      "ê°ľìĿĺ": 2554,
      "ĠìŀĲìĦ¸": 2555,
      "HR": 2556,
      "ìĤ¼": 2557,
      "íıĲ": 2558,
      "ê²½ìĿĦ": 2559,
      "ìłĲìĿ´": 2560,
      "ìļ°ëĬĶ": 2561,
      "ê¹ĮìļĶ": 2562,
      "ĠìĪĺë°ĸìĹĲ": 2563,
      "ĠìĨĶ": 2564,
      "íķľëĭ¤ê³ł": 2565,
      "ìĭľë©´": 2566,
      "15": 2567,
      "íıŃ": 2568,
      "Ġ50": 2569,
      "ìĬ¤ëŁ¬ìļ´": 2570,
      "Ġìļ´ëıĻ": 2571,
      "Ġëĭ¹ìĹ°": 2572,
      "ê¹Ģ": 2573,
      "Ġëįķ": 2574,
      "Ġê¸Īìľµ": 2575,
      "ì¹Ń": 2576,
      "ĠëĮĢëĭµ": 2577,
      "ìĺ¥": 2578,
      "êµŃìĿĺ": 2579,
      "ìĬ¤íĦ°": 2580,
      "ĠëģĬ": 2581,
      "ëŀĲëĭ¤": 2582,
      "ĠìĿ¸íĦ°ëĦ·": 2583,
      "ëĺ": 2584,
      "ìĽĢìĿĦ": 2585,
      "ë·": 2586,
      "ĠìĺĪìłķ": 2587,
      "ìŀĲê¸°": 2588,
      "Ġê²¬": 2589,
      "ìĿ´ìĬ¤": 2590,
      "Ġëħ¹": 2591,
      "ëĥĪëĭ¤": 2592,
      "ĠëĶ°ë¥´ë©´": 2593,
      "ìĿ´ìĹĲ": 2594,
      "Ġë¬´ë£Į": 2595,
      "íķĺëĭ¤ëĬĶ": 2596,
      "ëłĢ": 2597,
      "ìĿ´ëŀĢ": 2598,
      "ìĥĺíĶĮ": 2599,
      "ĠìĽ¹": 2600,
      "íĸĪìĿĦ": 2601,
      "ë³´ëĭ¤ëĬĶ": 2602,
      "Ġê½ĥ": 2603,
      "Ġíķ´ìĻ¸": 2604,
      "ĠìłĦëŀµ": 2605,
      "CS": 2606,
      "ĠëĲĺë©´": 2607,
      "ìĥĿíĻľ": 2608,
      "íĶĦíĬ¸": 2609,
      "Ġê·ľëª¨": 2610,
      "Ġê°ĢëĬĶ": 2611,
      "ìĪĺë¡Ŀ": 2612,
      "ìĤ¬ìĹĲ": 2613,
      "Ġì»´": 2614,
      "Ġê°ľìĦł": 2615,
      "ĠìĦ¬": 2616,
      "Ġìŀĥ": 2617,
      "Ġëĭ¤ë§Į": 2618,
      "êµ¬ë¥¼": 2619,
      "ĠíĿ¥": 2620,
      "ë¨¼": 2621,
      "ĠìĿ´ìłĦ": 2622,
      "ì§ĵ": 2623,
      "Ġì±ħìŀĦ": 2624,
      "ê²łì§Ģë§Į": 2625,
      "Ġê°ķì¡°": 2626,
      "Ġêµ³": 2627,
      "ĠìĹĨìĿĦ": 2628,
      "17": 2629,
      "ë¬¸íĻĶ": 2630,
      "ë¦¬ë¡ľ": 2631,
      "¨ìĿĦ": 2632,
      "ì§Ģë¡ľ": 2633,
      "ë§ĮìĽĲ": 2634,
      "ħëĭĪëĭ¤": 2635,
      "Ġì§ĢëĤľíķ´": 2636,
      "ëĲĺìĹĪ": 2637,
      "Ġìĺ·": 2638,
      "ìĹĨëĬĶ": 2639,
      "ìĬ¤ëŁ½ê²Į": 2640,
      "001": 2641,
      "ĠìĦĿ": 2642,
      "ì¹ĺê°Ģ": 2643,
      "ë¹Ħë¥¼": 2644,
      "ëŁ´": 2645,
      "ĵ¨": 2646,
      "Ġëª¨ìĸĳ": 2647,
      "ve": 2648,
      "Ġëı¼": 2649,
      "ìĿ´ì§Ģë§Į": 2650,
      "Ġê²½ìļ°ê°Ģ": 2651,
      "Ġëľ¨": 2652,
      "ìĤ¬ìĿ´íĬ¸": 2653,
      "Ġíķľëĭ¤ëĬĶ": 2654,
      "Ġê°ķíĻĶ": 2655,
      "ĠëĤĺê°Ģ": 2656,
      "ëıĦëĬĶ": 2657,
      "ìĿ´ëĿ¼ë©´": 2658,
      "Ġ13": 2659,
      "ë¶ĢìĿĺ": 2660,
      "Ġëĭ¤í": 2661,
      "Ġìª½": 2662,
      "ë§ĮìĿ´": 2663,
      "Ġê²ģ": 2664,
      "ê³Ħìķ½": 2665,
      "ĠìµľëĮĢ": 2666,
      "ĠíĸīëıĻ": 2667,
      "íķĺìĭł": 2668,
      "ìľ¼ë¡ľë¶ĢíĦ°": 2669,
      "ìº": 2670,
      "Ġê³µê°ľ": 2671,
      "ê°ľìĽĶ": 2672,
      "Ġìłģê·¹": 2673,
      "Ġëĵ±ìŀ¥": 2674,
      "ĠìĨįìĹĲìĦľ": 2675,
      "ĠëĳĲê³ł": 2676,
      "ì§ĦìĿ´": 2677,
      "ê´Ģë¦¬": 2678,
      "ìķĪìĿĦ": 2679,
      "Ġì¢Į": 2680,
      "Ġë¶ĦìľĦ": 2681,
      "ĠìĹŃíķłìĿĦ": 2682,
      "ĠìĹĦë§Ī": 2683,
      "Ġëª»íķĺê³ł": 2684,
      "ĠíķĺëĬĶëį°": 2685,
      "ĠìķĦë§Ī": 2686,
      "ìĭľì¼ľ": 2687,
      "ìĿ´ìŀĲ": 2688,
      "¤íĶ¼": 2689,
      "ĠíļĮìĽĲ": 2690,
      "ĠìĤ¬ëŀĮëĵ¤ìĿĢ": 2691,
      "Ġíķĺê¸°": 2692,
      "ìłĿ": 2693,
      "ê¹¨": 2694,
      "Ġíİ¼": 2695,
      "ëŀ«íı¼": 2696,
      "Ġëį¤íĶĦëį°ëª¨": 2697,
      "ìĹĲìĦľìĿĺ": 2698,
      "âĢ¦": 2699,
      "Ġë¹Ī": 2700,
      "Ġë°ĿíĺĶëĭ¤": 2701,
      "ĠìķĪìĹĲ": 2702,
      "ĠíĶ¼ê³łìĿ¸": 2703,
      "Ġì¡°ìĦł": 2704,
      "ĠSAP": 2705,
      "Ġê²ª": 2706,
      "ìĬ·": 2707,
      "Ġì½ĺíħĲì¸ł": 2708,
      "Ġê°ģê°ģ": 2709,
      "Ġë°ĺìĿĳ": 2710,
      "ĠìĤ¬ìļ©íķł": 2711,
      "Ġë³´ìĿ´ëĬĶ": 2712,
      "íķ©ê²©": 2713,
      "Ġê°ĢìĬ´": 2714,
      "ëĲĲ": 2715,
      "ĠìĪĺìĿµ": 2716,
      "Ġê±±ìłķ": 2717,
      "ĠìĥĿê°ģìĿĦ": 2718,
      "ìĭ¬ìĿĦ": 2719,
      "ìĤ¬íļĮ": 2720,
      "®¤": 2721,
      "Ġê·¸ë¥¼": 2722,
      "ìŀĲëĵ¤ìĿĢ": 2723,
      "ĠëĲĺì§Ģ": 2724,
      "ĠìĤ¬ëŀĮìĿĦ": 2725,
      "ĠãĢİ": 2726,
      "et": 2727,
      "Ġê°ĻìĬµëĭĪëĭ¤": 2728,
      "ì²´ë¥¼": 2729,
      "íĺĪ": 2730,
      "Ġìľłëªħ": 2731,
      "ĠìĤ¬ëŀĮìĿĺ": 2732,
      "ëĮĢìĹĲ": 2733,
      "ĠìķŀìĹĲ": 2734,
      "Ġë§ĮëĵľëĬĶ": 2735,
      "ìĸ´ë¥¼": 2736,
      "íķ´ì£¼": 2737,
      "ĠëĦĵ": 2738,
      "ìĶ¬": 2739,
      "ê¿": 2740,
      "ì¢Į": 2741,
      "ìłľê°Ģ": 2742,
      "60": 2743,
      ")âĢĻ": 2744,
      "ĠìĪĺëĬĶ": 2745,
      "ìĤ¬ìĻĢ": 2746,
      "Ġê²©": 2747,
      "ëĸ": 2748,
      "Ġê´ĳê³ł": 2749,
      "ìĿ´ëĵľ": 2750,
      "íĬ¼": 2751,
      "ìŀĲëĵ¤ìĿĺ": 2752,
      "so": 2753,
      "íķĺê¸°ëıĦ": 2754,
      "ĠìŀĪëĭ¤ë©´": 2755,
      "ı¬": 2756,
      "ĠìľĦíķ´ìĦľëĬĶ": 2757,
      "Ġê°Ĳëıħ": 2758,
      "Ġíĺģ": 2759,
      "ĠêµĲíļĮ": 2760,
      "Ġë¹ĦìĬ·": 2761,
      "¨¸": 2762,
      "Ġìĸ´ë¨¸": 2763,
      "80": 2764,
      "NS": 2765,
      "Ġê³µìľł": 2766,
      "íĸĪì§Ģë§Į": 2767,
      "ë³´ê¸°": 2768,
      "Ġë¹¼": 2769,
      "Ġì§Īë¬¸": 2770,
      "Ġì°¬": 2771,
      "ìĪłìĿĦ": 2772,
      "ĠìĮĵ": 2773,
      "íĵ¨": 2774,
      "íķĺìĭľë©´": 2775,
      "ë¶Ģê°Ģ": 2776,
      "Ġë¿": 2777,
      "Ġë¶ĢëıĻìĤ°": 2778,
      "Ġíķľíİ¸": 2779,
      "ëĵľìĭľ": 2780,
      "Ġìķ¡": 2781,
      "Ġìŀ¬ë¯¸": 2782,
      "Ġë§Īì°¬": 2783,
      "Ġíĺ¼ìŀĲ": 2784,
      "Ġìłķë¦¬": 2785,
      "Ġê²½ê¸°": 2786,
      "ìĿĮìĿ´": 2787,
      "ìľĦìĹĲ": 2788,
      "ëģĶ": 2789,
      "ĠëıĻìĿ¼": 2790,
      "ĠU": 2791,
      "ìĽłëĭ¤": 2792,
      "Ġì¶Ķì²ľ": 2793,
      "ĠìŀĪì§Ģ": 2794,
      "ëł¤ëĬĶ": 2795,
      "ĠìĬ¤íĬ¸": 2796,
      "Ġìłľíķľ": 2797,
      "Ġëĭ¬ëĿ¼": 2798,
      "ìĭľìĦ¤": 2799,
      "Ġë°©ìĨ¡": 2800,
      "Ġ17": 2801,
      "Ġë°ĽëĬĶ": 2802,
      "Ġê°Ħëĭ¨": 2803,
      "ĠëĮĢì²´": 2804,
      "İìĿĢ": 2805,
      "Ġë§ĪìĿĮìĿ´": 2806,
      "Ġìĭ¤ìłľë¡ľ": 2807,
      "Ġê·¸ê²ĥìĿĢ": 2808,
      "ê³µë¶ĢìŀĲë£Į": 2809,
      "ĠìŀĲì£¼": 2810,
      "ĠìĽĮ": 2811,
      "ĠìĿ¸ìĥĿ": 2812,
      "íĿ¥": 2813,
      "ëĬĲëĥĲ": 2814,
      "ìłģìĿĦ": 2815,
      "ĠíĶĮëŀ«íı¼": 2816,
      "200": 2817,
      "ĠìĹĨê³ł": 2818,
      "Ġìµľê³łìĿĺ": 2819,
      "ĠìĿ¼ìĸ´ëĤĺ": 2820,
      "Ġë§Īì°¬ê°Ģì§Ģ": 2821,
      "ìĽ¨ìĸ´": 2822,
      "ĠíŀĺìĿĦ": 2823,
      "ĠìķĪìłķ": 2824,
      "ĠìĹ¼": 2825,
      "Ġëĭ¤ë¥´": 2826,
      "ìłľë¡ľ": 2827,
      "Ġì§Ģì¼ľ": 2828,
      "ĠíķĺëĬĺ": 2829,
      "ìĸ´ê°Ģ": 2830,
      "ë¡ľëĵľ": 2831,
      "Ġìĸµ": 2832,
      "ì¤ĳìĹĲ": 2833,
      "Ġíĩ´": 2834,
      "ë¶ĢëĬĶ": 2835,
      "Ġê°ĲìĤ¬": 2836,
      "ĠW": 2837,
      "ë¬´ë¥¼": 2838,
      "ĠìĥģìĬ¹": 2839,
      "ìĬµëĭĪê¹Į": 2840,
      "Ġì²´íĹĺ": 2841,
      "Ġì£¼ë¯¼": 2842,
      "Ġê°ĢëĵĿ": 2843,
      "ë³´ìķĺëĭ¤": 2844,
      "ê´Ģê³Ħ": 2845,
      "Ġëĭ¨ê³Ħ": 2846,
      "ĠìĿĮìĭĿ": 2847,
      "2020": 2848,
      "ĠíĻķë³´": 2849,
      "ĠìŀħìĿĦ": 2850,
      "ĠìĨĮë¦¬": 2851,
      "êµ¬íķĺê³ł": 2852,
      "Ġíĸ¥íķ´": 2853,
      "ëĭĲ": 2854,
      "ĠìŀĪìĹĪëįĺ": 2855,
      "ìłķìĿĺ": 2856,
      "Ĺĭ": 2857,
      "ĠëĲĺìĹĪ": 2858,
      "ì²´ìĿĺ": 2859,
      "Ġêº¼": 2860,
      "íĺ¹": 2861,
      "ìĹĺ": 2862,
      "Ġê°Ģë¥´": 2863,
      "ìĹĦ": 2864,
      "ëĨį": 2865,
      "ĠìŀĲëıĻì°¨": 2866,
      "ëŁīìĿĦ": 2867,
      "ĠíĻĪ": 2868,
      "íĭĢ": 2869,
      "Ġì§ĵ": 2870,
      "ĠìĿĺê²¬": 2871,
      "ë¶ĢìĹĲ": 2872,
      "ìĸ´ì§Ħ": 2873,
      "Ġì¡°ìĤ¬": 2874,
      "ĠìľĦìĹĲ": 2875,
      "ë¦°ëĭ¤": 2876,
      "êµ¬ëĤĺ": 2877,
      "Ġê¹Į": 2878,
      "Ġë§Įìķ½": 2879,
      "Ġì³": 2880,
      "ĠìĿ´ëģ": 2881,
      "ĠìĿ´ìĥģìĿĺ": 2882,
      "Ġìłľìĭľ": 2883,
      "ation": 2884,
      "ĠëĶ±": 2885,
      "ìĭ¤í": 2886,
      "ìľ¤": 2887,
      "Ġìĵ¸": 2888,
      "ìķĺìĬµëĭĪëĭ¤": 2889,
      "Ġìļ°ë¦¬ëĤĺëĿ¼": 2890,
      "Ġë§ĲìĹĲ": 2891,
      "ìľłíļ¨": 2892,
      "ê³¼ëĬĶ": 2893,
      "ìłķìĹĲ": 2894,
      "ëĬĶëį°ìļĶ": 2895,
      "ë§ĮìĿĦ": 2896,
      "ĠìłĦëĭ¬": 2897,
      "Ġë§ĪìĿĦ": 2898,
      "Ġì°į": 2899,
      "ĬìĿĢ": 2900,
      "Ġê·¸ë¦¬ìĬ¤": 2901,
      "ì¤ĳìľ¨": 2902,
      "Ŀ¬": 2903,
      "ìĦ±ìĹĲ": 2904,
      "ê±°ëĵł": 2905,
      "ĠìķĬëĭ¤": 2906,
      "ãĢį": 2907,
      "ëĢ": 2908,
      "Ġê°ĸê³ł": 2909,
      "Ġìŀłìĭľ": 2910,
      "Ġê¸Ģë¡ľ": 2911,
      "ì¦Į": 2912,
      "Ġê³µìĨĮìĻ¸": 2913,
      "ìµľê³łíĴĪì§Ī": 2914,
      "ĠìķĦíĮĮ": 2915,
      "ĠìĤ¬íķŃ": 2916,
      "ìĨĮê°Ģ": 2917,
      "ìĿ¼ìĿ´": 2918,
      "ĠëĪĪìĹĲ": 2919,
      "Ġê·¸ëĵ¤ìĿĢ": 2920,
      "ìĤ°ìĿĦ": 2921,
      "Ġë°ĺëĵľìĭľ": 2922,
      "as": 2923,
      "ìŀĲìĹĲ": 2924,
      "ìķĦìķ¼": 2925,
      "ë²¨": 2926,
      "ì´Į": 2927,
      "Ġë©Ī": 2928,
      "ĠìķŀìĦľ": 2929,
      "Ġë£¨": 2930,
      "ĠìĿ´ìľłëĬĶ": 2931,
      "Ġë³´ìĿ¸ëĭ¤": 2932,
      "ĠíĶĦë¡ľìłĿ": 2933,
      "ĠìĹĲëĦĪ": 2934,
      "ĠìµľìĨĮ": 2935,
      "ìĤ°ìĹħ": 2936,
      "Ġì¡°ê±´": 2937,
      "ìħĺìĿĦ": 2938,
      "ĠëĪĦêµ°": 2939,
      "ëĶĶìĺ¤": 2940,
      "ëĭ¤ìļ´": 2941,
      "ìģľ": 2942,
      "ìĭ¸": 2943,
      "Ġë¹Į": 2944,
      "Ġíķµìĭ¬": 2945,
      "ĠìĽĲíķĺëĬĶ": 2946,
      "ë¬¼ìĿĺ": 2947,
      "ë´Ĳ": 2948,
      "ĠìŀĳìĦ±": 2949,
      "ĠìĤ¬ìĿ´ìĹĲ": 2950,
      "Ġê²½ìĺģ": 2951,
      "ĠìĦłìĥĿ": 2952,
      "ĠHP": 2953,
      "ì²´ê°Ģ": 2954,
      "ĠìłĦë¬¸ê°Ģ": 2955,
      "ĠìĤ¬ìļ©íķĺëĬĶ": 2956,
      "ĠíĮĲê²°": 2957,
      "ĠëĤĺìĻĢ": 2958,
      "ĠíķĺëĤĺìĿĺ": 2959,
      "ì§ĢíĦ¸": 2960,
      "ìĦ±ìĿĢ": 2961,
      "ìĬ¤íĥĢ": 2962,
      "íķĺìĹ¬ìķ¼": 2963,
      "íĦ´": 2964,
      "ĠíĽ¨": 2965,
      "Ġìłľê³µíķĺëĬĶ": 2966,
      "ê°ĲìĿ´": 2967,
      "Ġê±°ìķ¼": 2968,
      "Ġë§¥": 2969,
      "ë¶ĦìĿĦ": 2970,
      "40": 2971,
      "Ġëĵ±ë¡Ŀ": 2972,
      "Ġ40": 2973,
      "ëŀĲ": 2974,
      "Ġë°ĶëĢ": 2975,
      "íķľëĭ¤ë©´": 2976,
      "Ġíķĺëĭ¤": 2977,
      "Ġê¸°ìŀ¬": 2978,
      "Ġíĭ°": 2979,
      "ĠìļĶì¦ĺ": 2980,
      "íķ´ëıĦ": 2981,
      "ĠìĤ¬ëĬĶ": 2982,
      "ĠíĬ¹ì§ķ": 2983,
      "ì§ĢìĹŃ": 2984,
      "ĠíķĦìļĶê°Ģ": 2985,
      "ë§İìĿĢ": 2986,
      "ìłģìĿ´ê³ł": 2987,
      "ìĭ¤ìĿĦ": 2988,
      "23": 2989,
      "ĠìłľìĻ¸": 2990,
      "ì¡°ì°¨": 2991,
      "Ġê³¼íķĻ": 2992,
      "Ġë²ķë¥ł": 2993,
      "Ġë¹łë¥´ê²Į": 2994,
      "ê²łëĭ¤ê³ł": 2995,
      "om": 2996,
      "ĠëıĪìĿĦ": 2997,
      "ìłķìĿĢ": 2998,
      "ĠíĽ¨ìĶ¬": 2999,
      "ĠìĿĺë£Į": 3000,
      "ëĮĢê°Ģ": 3001,
      "ĠìĿ¼ìľ¼": 3002,
      "Ġìĺ®": 3003,
      "Ġìĭľë¯¼": 3004,
      "ëĿ¼ë§Ī": 3005,
      "Ġê·¸ëĵ¤ìĿĺ": 3006,
      "Ġìķ±": 3007,
      "ë³´ë©´": 3008,
      "ìĦ±ìĿĺ": 3009,
      "ìĹ°êµ¬": 3010,
      "ĠëĤĺëĪĦ": 3011,
      "Ġêµ¬ì¶ķ": 3012,
      "Ġìŀ¥ìķł": 3013,
      "re": 3014,
      "ĠëıĦìĻĢ": 3015,
      "ê°ĦìĿĺ": 3016,
      "ĠíĬ¹ìłķ": 3017,
      "ìĦ¸ë¥¼": 3018,
      "Ġì¶©ë¶ĦíŀĪ": 3019,
      "Ġì§§": 3020,
      "Ġë»": 3021,
      "ĠëĤĺë¥¼": 3022,
      "Ġ25": 3023,
      "íĻĶê°Ģ": 3024,
      "ëĿ¼ìļ°": 3025,
      "ë¨¸ëĭĪ": 3026,
      "Ġë°ĸ": 3027,
      "ëĤ¼": 3028,
      "Ġê·¸ëħĢëĬĶ": 3029,
      "ĠíķĺìĺĢ": 3030,
      "ĠìłĦíĨµ": 3031,
      "ĠíĮĮìķħ": 3032,
      "Ġê·¸ëŀĺëıĦ": 3033,
      "ĠìĻĦìłĦíŀĪ": 3034,
      "Ġì°¨ì§Ģ": 3035,
      "Ġìłķìĥģ": 3036,
      "ëľ»": 3037,
      "ë¥¸ëĭ¤": 3038,
      "Ġëģ¼": 3039,
      "ĻëĭĪëĭ¤": 3040,
      "ĠëĤĺìĦľ": 3041,
      "Ġê±´ì¶ķ": 3042,
      "ĠíĺķìĦ±": 3043,
      "ä¸": 3044,
      "ëł´": 3045,
      "Ġë°©ë²ķìĿĦ": 3046,
      "ëŀįëĭĪëĭ¤": 3047,
      "Ġë¹Ħíķ´": 3048,
      "Ġëĥī": 3049,
      "ì°Į": 3050,
      "Ġì»´íĵ¨": 3051,
      "Ġìķ½ìĨį": 3052,
      "ĠëĲĲ": 3053,
      "Ġëŀ": 3054,
      "ëĤĺê°Ģ": 3055,
      "ĠíĻķëĮĢ": 3056,
      "íļĮìĤ¬": 3057,
      "ìģĺ": 3058,
      "Ġìłĳê·¼": 3059,
      "ĠìĿ´ìĻĢ": 3060,
      "AR": 3061,
      "ì¼ĢìĿ´": 3062,
      "ĠíĸĪìĬµëĭĪëĭ¤": 3063,
      "ĠíĮ¬": 3064,
      "ë©´ìĦľëıĦ": 3065,
      "ĠìĿĺíķľ": 3066,
      "íľ´": 3067,
      "ëĲĺë©´": 3068,
      "ĠìĤ¶ìĿĦ": 3069,
      "Ġë³´ìŀ¥": 3070,
      "ĠëĤ¨ìŀĲ": 3071,
      "Ġë³´íĨµ": 3072,
      "ë¦¬ë©°": 3073,
      "Ġëĵ¤ìĹĪëĭ¤": 3074,
      "ìĺĪìļĶ": 3075,
      "Ġì£¼íĥĿ": 3076,
      "ĠíĥĲ": 3077,
      "ĠìĬµ": 3078,
      "Ġë¶ĪìķĪ": 3079,
      "ìľ¼ëĭĪê¹Į": 3080,
      "ê³łëĬĶ": 3081,
      "Ġë³´ìľł": 3082,
      "íĶ½": 3083,
      "ĠìĨįìĹĲ": 3084,
      "ë§Įìľ¼ë¡ľ": 3085,
      "Ġìĸ´ë¨¸ëĭĪ": 3086,
      "ĠìĹĨëĭ¤ëĬĶ": 3087,
      "Ġìĺ¤ëŀľ": 3088,
      "Ġê²ĥìĹĲ": 3089,
      "ìĭłìĿĦ": 3090,
      "ĠìķĦì¹¨": 3091,
      "ãİ": 3092,
      "TS": 3093,
      "Ġë¶Īêµ¬íķĺê³ł": 3094,
      "ì°¨ë¥¼": 3095,
      "ê±°ëŀĺ": 3096,
      "íľĺ": 3097,
      "ĠìĹ¬ìŀĲ": 3098,
      "ĠìĹĺ": 3099,
      "Rayong": 3100,
      "Ġì§Ħì§ľ": 3101,
      "Ġê°ĳìŀĲê¸°": 3102,
      "ìĦľë¹ĦìĬ¤": 3103,
      "Ġì¦Ŀê±°": 3104,
      "ê°ľë°ľ": 3105,
      "ĠìĻ¸êµŃ": 3106,
      "ĠëĤ©": 3107,
      "Ġëĭ´ëĭ¹": 3108,
      "Ġë§Įì¡±": 3109,
      "ĠëĨĢëĿ¼": 3110,
      "Ġëª»íķĺëĬĶ": 3111,
      "ĠëĤ´ìļ©ìĿĦ": 3112,
      "ë·°": 3113,
      "íķ¨ìľ¼ë¡ľìį¨": 3114,
      "Ġë¨¸ë¦¬": 3115,
      "ĠìĿ¸ìĭĿ": 3116,
      "ĠëķĮë¬¸ìŀħëĭĪëĭ¤": 3117,
      "ĠëĶ¸": 3118,
      "SA": 3119,
      "ìķĮíĤ¬": 3120,
      "ëıĦìĹĲ": 3121,
      "Ġê´ľì°®": 3122,
      "Ġì£¼ë¬¸": 3123,
      "ìĿ´ìĸ´": 3124,
      "ìĭľíĤ¤ëĬĶ": 3125,
      "Ġ24": 3126,
      "Ġìĭłê²½": 3127,
      "Ġê¶ģê¸Ī": 3128,
      "ìķĺëįĺ": 3129,
      "Ġì¤ĳìĹĲ": 3130,
      "ê¸°ìĻĢ": 3131,
      "ĠìĦłìĪĺ": 3132,
      "íĻĺê²½": 3133,
      "ê±°ìļ´": 3134,
      "ĠìłģìĿ´": 3135,
      "ĠìĿ¸íķľ": 3136,
      "Ġì£¼ìĿ¸": 3137,
      "Ġìĭ¤ìĭľ": 3138,
      "ê´ĢìĿ´": 3139,
      "¬ìĺģ": 3140,
      "ĠìłĦíĻĺ": 3141,
      "Ġìĸ¼êµ´ìĿĦ": 3142,
      "Ġê³łíĨµ": 3143,
      "ĠìĦ¤ìłķ": 3144,
      "ĠìłĦêµŃ": 3145,
      "ê²©ìĿĦ": 3146,
      "ĠìĿ´ëłĪ": 3147,
      "1000": 3148,
      "ìľĦìĽĲíļĮ": 3149,
      "Ġê²ĥìĿ´ëĿ¼ê³ł": 3150,
      "ĠëĿ¼ìĿ´": 3151,
      "Ġêµ¬ì²´": 3152,
      "Ġë³´ìĺĢëĭ¤": 3153,
      "ë¶ĦìĹĲ": 3154,
      "ĠëĴ·": 3155,
      "Ġì²Ńêµ¬": 3156,
      "¾Į": 3157,
      "ĠëĨĴìķĦ": 3158,
      "ìĿĢíĸī": 3159,
      "ëĤ´ê³ł": 3160,
      "ĠìłĲìłĲ": 3161,
      "ì¹ĺê³ł": 3162,
      "ĠìŀĪìĸ´ìļĶ": 3163,
      "Ġëıħë¦½": 3164,
      "Ġê´´": 3165,
      "ê¸°ìĪł": 3166,
      "ì´ī": 3167,
      "ë¹Ħìļ©": 3168,
      "ĠíĦ": 3169,
      "Ġê°ģì¢ħ": 3170,
      "THR": 3171,
      "Ġì£¼ê³ł": 3172,
      "ĠìłĦìŁģ": 3173,
      "Ġì§Ģìłģ": 3174,
      "ĠíķĻìĬµ": 3175,
      "ĠìłľìĿ¼": 3176,
      "Ġëĸ¨": 3177,
      "Ġê¸Ģë¡ľë²Į": 3178,
      "ëł¤ë©´": 3179,
      "ëŁŃ": 3180,
      "ë²ķìĿĦ": 3181,
      "âĢĻ,": 3182,
      "ë£Įë¥¼": 3183,
      "ĠìĹĦì²Ń": 3184,
      "ë©´ìĿĦ": 3185,
      "ĠëĶĶì§ĢíĦ¸": 3186,
      "Ġê·¸ëħĢê°Ģ": 3187,
      "Ġëª»íĸĪëĭ¤": 3188,
      "Ġìłľì¡°": 3189,
      "Ġì¿ł": 3190,
      "ì§ĢìļĶ": 3191,
      "ìŀĪëĭ¤": 3192,
      "ìĿ´ê¸°ëıĦ": 3193,
      "ĠìĿ¼ëĭ¨": 3194,
      "ĠìĨĮìŀ¬": 3195,
      "Ġë²½": 3196,
      "ĠìŀĬ": 3197,
      "ĠìłĦìĭľ": 3198,
      "Ġì¤ĳìķĻ": 3199,
      "Ġíĳľìĭľ": 3200,
      "Ġì£¼ëª©": 3201,
      "ê´ĢìĿĦ": 3202,
      "ĠìĤ¬ë¡Ģ": 3203,
      "ĠìŀĪìĹĪìĬµëĭĪëĭ¤": 3204,
      "ĠìļĶì²Ń": 3205,
      "Ġëļ": 3206,
      "ĠìĤ¬ë¬´": 3207,
      "ì§ĪìĿĦ": 3208,
      "ĠìķĦëĭĲ": 3209,
      "ĠìĿ´ê²ĥìĿĢ": 3210,
      "Ġê²ĥê³¼": 3211,
      "ĠìłĦë§Ŀ": 3212,
      "per": 3213,
      "ìĹĪì§Ģë§Į": 3214,
      "Ġëĵ±ìľ¼ë¡ľ": 3215,
      "ĠëªħìĿĺ": 3216,
      "Ġì§Ģê¸Īê¹Įì§Ģ": 3217,
      "ìĽĲìľ¼ë¡ľ": 3218,
      "ĠìłĪëĮĢ": 3219,
      "ëĺĲ": 3220,
      "Ġìĩ¼": 3221,
      "ìĽĮíģ¬": 3222,
      "ĠëıĦìŀħ": 3223,
      "Ġë©ĭ": 3224,
      "Ġìĭłë¢°": 3225,
      "¥Ĳ": 3226,
      "ĠëĩĮ": 3227,
      "ëĭĿ": 3228,
      "ĠìĿĺíķĺìĹ¬": 3229,
      "ìĹħê³Ħ": 3230,
      "ĠìĤ¬íļĮìłģ": 3231,
      "ìĿ¼ìĹĲ": 3232,
      "ĠìĦ¼": 3233,
      "ce": 3234,
      "ĠëĤĺëĪ": 3235,
      "am": 3236,
      "ĠëŃĶ": 3237,
      "31": 3238,
      "Ġê·¸ê²ĥìĿĦ": 3239,
      "Ġê°Ģìŀħ": 3240,
      "ìĽĲìĹĲìĦľ": 3241,
      "Ġëĸłìĺ¬": 3242,
      "Ġì±ħìĿĦ": 3243,
      "ê²¼ëĭ¤": 3244,
      "¯¤": 3245,
      "ing": 3246,
      "Ġê·¸ìłĢ": 3247,
      "ĠìĬĪ": 3248,
      "ë¦¬ê¸°": 3249,
      "Ġì¤": 3250,
      "ĠìĺģìĹŃ": 3251,
      "Į¨": 3252,
      "Ġê³¼ìłķìĹĲìĦľ": 3253,
      "ĠíĬ": 3254,
      "ëĭĺìĿĢ": 3255,
      "íĩ´": 3256,
      "ê´´": 3257,
      "ë¤Ħ": 3258,
      "Ġë¿Į": 3259,
      "70": 3260,
      "Ġê·¸ê²Į": 3261,
      "ìľ¨ìĿ´": 3262,
      "ìĥģìĹĲ": 3263,
      "ìľłíļ¨íķľ": 3264,
      "ë¹Ī": 3265,
      "ĠìĿĺìĤ¬": 3266,
      "ì§ĢìĻĢ": 3267,
      "ãħ": 3268,
      "Ġê°ĢëĬ¥ìĦ±ìĿ´": 3269,
      "íĴĪìĿĦ": 3270,
      "ìĹĲê²ĮëĬĶ": 3271,
      "ë¶Ļ": 3272,
      "Ġê°ľëħĲ": 3273,
      "fi": 3274,
      "ĠëıĦìłĦ": 3275,
      "ĠëĤ¨ìķĦ": 3276,
      "ĠìŀĪìľ¼ë©´": 3277,
      "16": 3278,
      "ëŁīìĿ´": 3279,
      "Ġìĭ«": 3280,
      "Ġíľĺ": 3281,
      "ĠìĺĪìĪł": 3282,
      "ĠìłĦê¸°": 3283,
      "íķĺëĤĺ": 3284,
      "Ġìµľì´Ī": 3285,
      "Ġíķľëĭ¤ê³ł": 3286,
      "ìĬ¤íĭ": 3287,
      "ĠëĲĲëĭ¤": 3288,
      "Ġë§¤ì¶ľ": 3289,
      "Ġì£¼ë¡ľ": 3290,
      "Ġëĺĳ": 3291,
      "ëĭ¨ìĿĦ": 3292,
      "ĠìķĦëĭĻëĭĪëĭ¤": 3293,
      "ĠíĸĪëįĺ": 3294,
      "Ġì¡°íķ©": 3295,
      "Ġì§ģìĽĲ": 3296,
      "ëĵłì§Ģ": 3297,
      "ĠìĿĦ": 3298,
      "ìľ¼ë¯Ģë¡ľ": 3299,
      "Ġë¶Īíİ¸": 3300,
      "íķĺê³łìŀĲ": 3301,
      "Ġê´Ģìĭ¬ìĿĦ": 3302,
      "ĠëĤĺìĿĺ": 3303,
      "Ġì»´íĵ¨íĦ°": 3304,
      "Ġê²Ģìĥī": 3305,
      "CA": 3306,
      "íĤ¹": 3307,
      "ìĬĪ": 3308,
      "ì³¤ëĭ¤": 3309,
      "ëĲĺë©°": 3310,
      "Ġë¹¨ë¦¬": 3311,
      "Ġì²ŃìĨĮ": 3312,
      "ë³´ìŀ¥": 3313,
      "ĠëĮĢìĿĳ": 3314,
      "ĠìĺĪë¥¼": 3315,
      "Ġìĸĺê¸°": 3316,
      "ìłł": 3317,
      "ĠíĹĮ": 3318,
      "ĠëĤ´ì§Ģ": 3319,
      "25": 3320,
      "ãĨį": 3321,
      "eve": 3322,
      "ì§ĳëĭĪëĭ¤": 3323,
      "ê²ģ": 3324,
      "ê³¼ë¥¼": 3325,
      "Ġëįĺ": 3326,
      "ì¤Ģëĭ¤": 3327,
      "Ġíĸīìłķ": 3328,
      "Ġíķĺë©´ìĦľ": 3329,
      "Ġíıīê·ł": 3330,
      "ê¸°ê³ł": 3331,
      "Ġì§ĢíĤ¤": 3332,
      "Ġë¹łë¥¸": 3333,
      "Ġë°Ķíĥķ": 3334,
      "Ġë§¤ìĿ¼": 3335,
      "Ġê¸°ëĬ¥ìĿĦ": 3336,
      "ìĭ¬íŀĪ": 3337,
      "ìĿ´íģ¬": 3338,
      "Ġê°ĲìĨĮ": 3339,
      "ë§¹": 3340,
      "ëĭĺìĿĦ": 3341,
      "ì£½": 3342,
      "ëª°": 3343,
      "Ġíķĺê²Į": 3344,
      "ë²Īíĺ¸": 3345,
      "ìĪĺíķľ": 3346,
      "ìĩĦ": 3347,
      "erti": 3348,
      "Ġìį¨": 3349,
      "ĠìĪĺë§İìĿĢ": 3350,
      "ĠíĭĢ": 3351,
      "Ġìĺ¤ëĬĶ": 3352,
      "ĠíĨµíķ´ìĦľ": 3353,
      "ĠìľłëŁ½": 3354,
      "ìľĦê°Ģ": 3355,
      "ëŀ¬": 3356,
      "ëľ¨": 3357,
      "ê°ĦìĹĲ": 3358,
      "ĠìĿ´ëĤ´": 3359,
      "íĸĪëĭ¤ê³ł": 3360,
      "íķ´ì§Ħ": 3361,
      "Ġê±´ìĦ¤": 3362,
      "ìŀĲê²©ì¦Ŀ": 3363,
      "ĠìĭľìłĪ": 3364,
      "ĠìĿ´ìĿµ": 3365,
      "ĠìĦ¤ê³Ħ": 3366,
      "Ġë§İëĭ¤": 3367,
      "Ġ2020": 3368,
      "ëª¬": 3369,
      "Ġë§Īì£¼": 3370,
      "ë©´ìĹĲ": 3371,
      "Ġëª©ìłģ": 3372,
      "ì¿ł": 3373,
      "Ġë³´íĹĺ": 3374,
      "ìĵ°": 3375,
      "ì¼ĵ": 3376,
      "ëļ": 3377,
      "Ġë§Ĳê³ł": 3378,
      "ĠìĤ¼ìĦ±": 3379,
      "ĠíĽĪ": 3380,
      "ĠìĹ¬ê¸°ìĦľ": 3381,
      "Ġìĥģê¸°": 3382,
      "ĠìĻĦìĦ±": 3383,
      "ìŀĶ": 3384,
      "Ġì¡¸": 3385,
      "Ġíĳ¸": 3386,
      "ìĿ´íķĺ": 3387,
      "ìĻĢìĿĺ": 3388,
      "ĠëĤĺë¬´": 3389,
      "Ġê·¸ëıĻìķĪ": 3390,
      "Ġì¢ħíķ©": 3391,
      "ĠìŀĲëŀĳ": 3392,
      "ê°Ķ": 3393,
      "ent": 3394,
      "Ġê¸°íĥĢ": 3395,
      "ĠëĤĻ": 3396,
      "ĠìŀĪëĬĶì§Ģ": 3397,
      "ìĦłìĿ´": 3398,
      "ê³Ħíļį": 3399,
      "Ġê·¸ë£¹": 3400,
      "Ġê³µìĹ°": 3401,
      "Ġë¹łìł¸": 3402,
      "Ġëĵł": 3403,
      "ĠëĮĢì¶ľ": 3404,
      "ìĤ¬ë¡ľ": 3405,
      "ud": 3406,
      "ìĸ´ëĵ¤": 3407,
      "Ġëħ¸ëŀĺ": 3408,
      "ĺĦ": 3409,
      "Ġì´¬ìĺģ": 3410,
      "ch": 3411,
      "ĠíļĮë³µ": 3412,
      "Ġê¸¸ìĿĦ": 3413,
      "ëħĦê°Ħ": 3414,
      "Ġë°ĺë³µ": 3415,
      "ĠëĲĺìĹĪìĬµëĭĪëĭ¤": 3416,
      "ĠìŀĪìĸ´ìķ¼": 3417,
      "ê°ĻìĿĢ": 3418,
      "ĠìłĦíĻĶ": 3419,
      "Ġì¼ĢìĿ´": 3420,
      "ĠíĬ¹ë³Ħíķľ": 3421,
      "ê½": 3422,
      "Ġë¶Ģìłķ": 3423,
      "ì¼ĢíĮħ": 3424,
      "íķ¨ìĿ´": 3425,
      "ĠëŁ¬": 3426,
      "ë¦¬ì¦Ī": 3427,
      "ëį¤íĶĦëĬĶ": 3428,
      "Ġê°Ģì¹ĺ": 3429,
      "ìĿ´ë©´": 3430,
      "ë¿Ĳë§Į": 3431,
      "ìķ¡ìĿĦ": 3432,
      "ìĭľíĹĺìĿĦ": 3433,
      "ĠëĬ¦": 3434,
      "ì¯¤": 3435,
      "ëĵ¯ìĿ´": 3436,
      "ëĵ¤ë¡ľ": 3437,
      "íĸĪëĬĶëį°": 3438,
      "Ġê´Ģëł¨ëĲľ": 3439,
      "Ġíľ´ëĮĢ": 3440,
      "ìĹĪëĬĶëį°": 3441,
      "ig": 3442,
      "Ġì§Ĳ": 3443,
      "ĠìĿ´ë¥´": 3444,
      "íĻĶëĲľ": 3445,
      "Ġìłľê±°": 3446,
      "ĠìłĬìĿĢ": 3447,
      "Ġì¢ĭëĭ¤": 3448,
      "Ġêµ¬ìŀħ": 3449,
      "Ġë°ĶëŀįëĭĪëĭ¤": 3450,
      "ì£¼ë¥¼": 3451,
      "ìĦŃ": 3452,
      "ì¦ĪëĭĪ": 3453,
      "ê³łë¥¼": 3454,
      "ĠìĿ´ìľłë¡ľ": 3455,
      "Ġëĭ¬ëł¤": 3456,
      "ĠìłĦìŀĲ": 3457,
      "ëĤĺë¬´": 3458,
      "ìĭ¬ìĿ´": 3459,
      "Ġê°ķëł¥": 3460,
      "Ġê±´ë¬¼": 3461,
      "ëĳĺ": 3462,
      "ĠíĥĢê³ł": 3463,
      "24": 3464,
      "ĠìķĦë¬´ë¦¬": 3465,
      "ĠëĪĦê°Ģ": 3466,
      "Ġëĭ¤ëĭĪ": 3467,
      "ĠíŀĪ": 3468,
      "ë§Įíķľ": 3469,
      "Ġë§Ĳíķľëĭ¤": 3470,
      "ìłķìľ¼ë¡ľ": 3471,
      "Ġë§ĪìĿĮìĹĲ": 3472,
      "ĠìķĦëĭĪìĹĪëĭ¤": 3473,
      "Ġì§Ģê¸ĪìĿĢ": 3474,
      "Ġìľ¤í": 3475,
      "ì½ĺ": 3476,
      "íĸīìĿĦ": 3477,
      "ĠìĭľíĹĺíĮ¨ìĬ¤": 3478,
      "ìĭľìŀ¥": 3479,
      "ĠíĸĪì§Ģë§Į": 3480,
      "ë§¥": 3481,
      "ì§ĦìĿĢ": 3482,
      "ĠíĶĮëłĪìĿ´": 3483,
      "ĠìĿ´ëģĮ": 3484,
      "ĠìĬ¤ë§ĪíĬ¸íı°": 3485,
      "ëĵľë¡ľ": 3486,
      "ĠãĢĮ": 3487,
      "Ġê·¸ê²ĥìĿ´": 3488,
      "ĠëıĦìĽĢìĿĦ": 3489,
      "ëŁ¬ìĬ¤": 3490,
      "Ġìĭ¤íĮ¨": 3491,
      "Ġì»¤íĶ¼": 3492,
      "ëĮĢëĬĶ": 3493,
      "Ġì§ĢëıĦ": 3494,
      "ĠëĤ¨íİ¸": 3495,
      "ĠìķĮê²Į": 3496,
      "Ġì´ī": 3497,
      "ĠëĤĺìĺ¤ëĬĶ": 3498,
      "ĠìĭľìĦ¤": 3499,
      "ĠìĿ¼ìĿĢ": 3500,
      "ĠìĦłìłķ": 3501,
      "Ġì¤ĳìĭ¬ìľ¼ë¡ľ": 3502,
      "Ġë°Ķëĭ¥": 3503,
      "ĠëĳĺëŁ¬": 3504,
      "ĠëĮĢì¤ĳ": 3505,
      "CM": 3506,
      "Ġë¿Ĳë§Į": 3507,
      "ĠìĨĮíĶĦíĬ¸": 3508,
      "ŁìķĦ": 3509,
      "Ġê±·": 3510,
      "ëģĦ": 3511,
      "ĠíĨµíķľ": 3512,
      "ì§Ģê²Į": 3513,
      "ìĻĦë²½íķľ": 3514,
      "ëĭĮ": 3515,
      "Ġì¢ħë¥ĺ": 3516,
      "ĠìľĦë¡ľ": 3517,
      "Ġë¶ĢìĤ°": 3518,
      "Ġëĵ¤ê³ł": 3519,
      "ì§Ĳ": 3520,
      "Ġê´ĢíķĺìĹ¬": 3521,
      "Ġìĸ´ê¹¨": 3522,
      "Ġê²ģëĭĪëĭ¤": 3523,
      "ol": 3524,
      "ëĿ½ìĿĦ": 3525,
      "ĠìķĬìľ¼ë©´": 3526,
      "íķłìĪĺ": 3527,
      "ĠìĺģìĹħ": 3528,
      "ĠìĿ´ë¦ĦìĿĦ": 3529,
      "ĠìĹħì²´": 3530,
      "Ġíķ´ìĦĿ": 3531,
      "Ġê²½ì°°": 3532,
      "ĠíĽĦìĹĲ": 3533,
      "íķĺìĦ¸ìļĶ": 3534,
      "ĠêµĲìĪĺ": 3535,
      "ëĵ¬": 3536,
      "Ġë§ŀëĬĶ": 3537,
      "ìĦ¸ê³Ħ": 3538,
      "İĺ": 3539,
      "êµ¬ê°Ģ": 3540,
      "ĠíĿ¬ë§Ŀ": 3541,
      "ĠìĽĲëŀĺ": 3542,
      "Ġë¬¸ìłľëĬĶ": 3543,
      "ĠìłľíĴĪìĿĦ": 3544,
      "ìłľìĿĺ": 3545,
      "ĠìĭŃ": 3546,
      "ì§ĢìĽĲ": 3547,
      "ĠìŀĲë¦¬ë¥¼": 3548,
      "ĠëıĦì°©": 3549,
      "ìłĪíķľ": 3550,
      "Ġì§ķ": 3551,
      "ĠíıīìĨĮ": 3552,
      "ĠìĪĺìļĶ": 3553,
      "ĠëĮĢíķľë¯¼": 3554,
      "ĠëĤ´ë¶Ģ": 3555,
      "ëĭ¹íķľ": 3556,
      "íķĺìĭ¤": 3557,
      "ëĲĺê¸°": 3558,
      "Ġë¶Ħëĵ¤ìĿ´": 3559,
      "Ġíļ¨ìľ¨": 3560,
      "ĠìĦłë³´": 3561,
      "ĠëĮĢìĥģìľ¼ë¡ľ": 3562,
      "Ġë¯¸ë¦¬": 3563,
      "ĠìłĲìĿĦ": 3564,
      "Ġíĺ¸íħĶ": 3565,
      "Ġì²Ļ": 3566,
      "íĳ¸": 3567,
      "SAP": 3568,
      "ĠíĿĶëĵ¤": 3569,
      "Ġì§Ģìłķ": 3570,
      "ĠìĨĲíķ´": 3571,
      "Ġê¸°ì´Ī": 3572,
      "ĠìķĦíĮĮíĬ¸": 3573,
      "ĠëĸłëĤĺ": 3574,
      "Ġë¬ĺ": 3575,
      "ĠìķĦëĬĶ": 3576,
      "ĠìĤ¬ëŀĮëĵ¤ìĿĺ": 3577,
      "ìĿ´ìķ¼": 3578,
      "Ġê´Ģê´ĳ": 3579,
      "ĠìķłíĶĮ": 3580,
      "Ġë°¥": 3581,
      "ëłī": 3582,
      "íķĺìĺĢìĬµëĭĪëĭ¤": 3583,
      "Ġì²ŃëħĦ": 3584,
      "Ġëª¨ë¥´ëĬĶ": 3585,
      "ĠìĺĪë°©": 3586,
      "ĠìķŀìĹĲìĦľ": 3587,
      "Ġë¯¼ì£¼": 3588,
      "st": 3589,
      "ë¦¬ìĻĢ": 3590,
      "ëĮĢíķĻ": 3591,
      "un": 3592,
      "Ġë³´ê¸°": 3593,
      "ĠìķĦëĭĪë©´": 3594,
      "ë¦ŃíĦ°": 3595,
      "ĠíĶĦë¡ľìłĿíĬ¸": 3596,
      "ĠëĵľëĿ¼ë§Ī": 3597,
      "ĠíĿ¡": 3598,
      "ĠëģĦ": 3599,
      "ê°ĢìĹĲ": 3600,
      "ìĦ¯": 3601,
      "ëĳ¥": 3602,
      "Ġìĸ¸ê¸ī": 3603,
      "ĠìĿ¼ìĥģ": 3604,
      "Ġê°Ļìķĺëĭ¤": 3605,
      "ĠëĳĲëł¤": 3606,
      "ì§Ģê¸°": 3607,
      "ê°ĻìĿ´": 3608,
      "ì°į": 3609,
      "ĠìĤ¬ë§Ŀ": 3610,
      "Ġê°Ģìłķ": 3611,
      "ë¶Īìĸ´": 3612,
      "Ġìłľì¶ľ": 3613,
      "ì¡°ê±´": 3614,
      "Ġë¶Īê³¼": 3615,
      "Ġìĺ¤ë¥¸": 3616,
      "ìĿĦê¹Į": 3617,
      "Ġìĵ´": 3618,
      "ìĿ¸ê³¼": 3619,
      "Ġë¨¹ê³ł": 3620,
      "ĠìĦ¤ë¦½": 3621,
      "ëłĢëĭ¤": 3622,
      "ãĢĭ": 3623,
      "ëł¬": 3624,
      "ìľ¼ë©´ìĦľ": 3625,
      "Ġë§ĲìĿ´ëĭ¤": 3626,
      "ìĭ±": 3627,
      "Ġë¶ĪëŁ¬": 3628,
      "Ġê¸°íļį": 3629,
      "Ġê¸°ëıĦ": 3630,
      "Ġ21": 3631,
      "ĠRayongìĿĺ": 3632,
      "Ġë§ĲíķĺëĬĶ": 3633,
      "Ġ60": 3634,
      "Ġê¹ĬìĿĢ": 3635,
      "Ġê·¼ë¡ľ": 3636,
      "ìĿ¼ê¹Į": 3637,
      "ìĸ´ë¡ľ": 3638,
      "ft": 3639,
      "ëį¤íĶĦë¥¼": 3640,
      "ìķŀ": 3641,
      "íķĺìĿĺ": 3642,
      "íķĺëł¤ëĬĶ": 3643,
      "ĠìĦŃ": 3644,
      "ĠëģĮìĸ´": 3645,
      "Ġì°¸ê°Ģ": 3646,
      "ĠìĹ¬ê¸°ìĹĲ": 3647,
      "Ġë°ĺìĺģ": 3648,
      "ëĵľë¦½ëĭĪëĭ¤": 3649,
      "íķ´ëĵľë¦½ëĭĪëĭ¤": 3650,
      "ĠìķĬê²Į": 3651,
      "ĠìĥĿê°ģíķ´": 3652,
      "ë¦¬ìĬ¤": 3653,
      "ìĿ¼ìĿĺ": 3654,
      "ëŀĻ": 3655,
      "ĠìĹĨëĭ¤ê³ł": 3656,
      "íķĺìĭľëĬĶ": 3657,
      "ëĭĺê»ĺìĦľ": 3658,
      "Ġëĵ£ê³ł": 3659,
      "fied": 3660,
      "Ġìĭľì¦Į": 3661,
      "ĠìĿ¸ìĤ¬": 3662,
      "íĸĪëĭ¤ëĬĶ": 3663,
      "WS": 3664,
      "Ġê³µê³µ": 3665,
      "ìłĦë¬¸": 3666,
      "ë»": 3667,
      "ë°ĽìĿĢ": 3668,
      "EN": 3669,
      "ĠíķĦìĪĺ": 3670,
      "Ġâĸ³": 3671,
      "ĠëĮĢë¶Ģë¶ĦìĿĺ": 3672,
      "ĠìºĲë¦ŃíĦ°": 3673,
      "Ġìĥģëĭ´": 3674,
      "Ġì°¸ê³ł": 3675,
      "Ġê°ľìĿĺ": 3676,
      "ĠJ": 3677,
      "ìĦ¸ëĮĢ": 3678,
      "ĠëĬ¥ëł¥": 3679,
      "ì£¼ê°Ģ": 3680,
      "ı¬ì¸ł": 3681,
      "Ġìļ°ëł¤": 3682,
      "âĢĺ": 3683,
      "Ġë°ĶëĢĮ": 3684,
      "Ġë½": 3685,
      "ê²Ĳ": 3686,
      "ìĿ¸íĬ¸": 3687,
      "ĠìĿ´ë¤Ħ": 3688,
      "ĠĠ": 3689,
      "ì»¬": 3690,
      "ĠìĹ´ìĭ¬íŀĪ": 3691,
      "Ġê·¸ëĵ¤ìĿ´": 3692,
      "ĠìĿ¼ìĸ´": 3693,
      "Ġë¬¸ìĿĦ": 3694,
      "ĠìĹ¬ë¦Ħ": 3695,
      "ì§ĦìĿĺ": 3696,
      "Ġìŀ¥ìĨĮ": 3697,
      "ĠìķĪìĹĲìĦľ": 3698,
      "ìŀ¥ìľ¼ë¡ľ": 3699,
      "ìļ°ê°Ģ": 3700,
      "ĠìĥĺíĶĮ": 3701,
      "ìĹħì²´": 3702,
      "ì¶Ķìĸ´": 3703,
      "ĠìŀĲëħĢ": 3704,
      "Ġê°Ŀ": 3705,
      "ìłľëĬĶ": 3706,
      "íķĺê¸°ë¡ľ": 3707,
      "Ġë§İìķĦ": 3708,
      "ë°ĶìĿ¼": 3709,
      "ì£¼íĥĿ": 3710,
      "Ġì§ĳìĹĲ": 3711,
      "ê·¸ëŁ¬": 3712,
      "Ġêµ´": 3713,
      "ĠìĿ¸ëıĦ": 3714,
      "Ġë¬¼ìĹĪëĭ¤": 3715,
      "100": 3716,
      "ìĥģìĿĢ": 3717,
      "ĠìĥģíĻ©ìĿĦ": 3718,
      "Ġê²ĢìĤ¬": 3719,
      "ertified": 3720,
      "ĠìĪĺìŀħ": 3721,
      "¤íĬ¸ìĽĮíģ¬": 3722,
      "ìĨĶ": 3723,
      "ì¿": 3724,
      "Ġê½¤": 3725,
      "ĠëķĮë§Īëĭ¤": 3726,
      "ĠìĤ¶ìĿĺ": 3727,
      "ĠíĨµíķ©": 3728,
      "ëª©ìĿĦ": 3729,
      "ĠìĥģíĻ©ìĹĲìĦľ": 3730,
      "ĠíĿĺëŁ¬": 3731,
      "Ġì°¨ëŁī": 3732,
      "íķĻìĥĿ": 3733,
      "ĠìļĶìĨĮ": 3734,
      "Ġìĺ¤íĽĦ": 3735,
      "ĠíĶ¼ë¶Ģ": 3736,
      "ëĵľê°Ģ": 3737,
      "ĠëįĶë¶Īìĸ´": 3738,
      "Ġëĵ¤ëł¤": 3739,
      "ê¶ĮìĿ´": 3740,
      "Ġë§Īì¼ĢíĮħ": 3741,
      "Ġìĭ¬ê°ģ": 3742,
      "ëħĦëĮĢ": 3743,
      "Ġë³´ë©°": 3744,
      "ê±°ëĵłìļĶ": 3745,
      "íķĺìħ¨": 3746,
      "Ġë¶Īê°ĢëĬ¥": 3747,
      "ëĶ°": 3748,
      "Ġìºł": 3749,
      "Ġê³¡": 3750,
      "ìĹ°ìĿ´": 3751,
      "ìļ´ëıĻ": 3752,
      "ĠìĦ±ëĬ¥": 3753,
      "Ġë¶Ģëĵľ": 3754,
      "ìĹ°ìĿĢ": 3755,
      "ìłģì¤ĳìľ¨": 3756,
      "ê¹Įì§ĢëĬĶ": 3757,
      "ìĽĢìĿ´": 3758,
      "ìļ°ê³ł": 3759,
      "ĠíĥĢìĿ´": 3760,
      "Ġë°ĺëĮĢ": 3761,
      "Ġì²´ê²°": 3762,
      "Ġìĺµ": 3763,
      "ìĭłì²Ń": 3764,
      "Ġëĭ¹ìĭłìĿ´": 3765,
      "ìĿ¸ëĵ¤ìĿ´": 3766,
      "Ġë¬¼ê±´": 3767,
      "Ġê°ĲìĹ¼": 3768,
      "íĻį": 3769,
      "ĠíĥĿ": 3770,
      "ĠëĤĺë¨¸": 3771,
      "¨ìĿ´": 3772,
      "Ġì»¬": 3773,
      "ĠìĿ´ìłľëĬĶ": 3774,
      "Ġì¡°ìĦ±": 3775,
      "īìĿĢ": 3776,
      "ĠìĹħê³Ħ": 3777,
      "ĠìĽĲì¹Ļ": 3778,
      "ì¡°ìĿĺ": 3779,
      "ìĺĢëįĺ": 3780,
      "ĠíķĺìĺĢëĭ¤": 3781,
      "Ġë´¤": 3782,
      "ĠìĤ¬ëŀĮëĵ¤": 3783,
      "ĠìĥģíĻ©ìĿ´": 3784,
      "Ġíĥĳ": 3785,
      "ĠíĻľìĦ±": 3786,
      "Ġê³¼ìłķìĿĦ": 3787,
      "Ġë°©ìĭĿìľ¼ë¡ľ": 3788,
      "85": 3789,
      "Ġë³´ìķĪ": 3790,
      "ìĭłìĿ´": 3791,
      "íĿ¡": 3792,
      "Ġê¸°ê´Ģ": 3793,
      "ë³´íĹĺ": 3794,
      "ĠìłĢìŀ¥": 3795,
      "Ġê±°ì³Ĳ": 3796,
      "íķĺëĭĪ": 3797,
      "ê»ı": 3798,
      "ìĺµ": 3799,
      "Ġë©Ķìĭľ": 3800,
      "ì³¤": 3801,
      "35": 3802,
      "ìĬ¤íĨł": 3803,
      "Ġìĭ¤íĸī": 3804,
      "ĠìķīìķĦ": 3805,
      "ĠìĭľëıĦ": 3806,
      "ĠíĸīìľĦ": 3807,
      "ate": 3808,
      "Ġë°ĺë©´": 3809,
      "ì©į": 3810,
      "ì¹ĺì§Ģ": 3811,
      "ĠìĥĿëªħ": 3812,
      "ĠíĸīìĤ¬": 3813,
      "Ġê¾¸ì¤Ģ": 3814,
      "ĠíĶĦë¦¬": 3815,
      "Ġê·¸ëħĢë¥¼": 3816,
      "Ġëª¨ìĬµìĿ´": 3817,
      "ë¹Ħê°Ģ": 3818,
      "ëħģ": 3819,
      "Ġìĺ¬ëł¤": 3820,
      "ëĤ´ê°Ģ": 3821,
      "ĠìķĦëĭĪê³ł": 3822,
      "ëħĦë¶ĢíĦ°": 3823,
      "Ġë°Ķëĭ¤": 3824,
      "Ġê²°ê³¼ë¥¼": 3825,
      "Įħ": 3826,
      "Ġê·¸ìĹĲ": 3827,
      "Ġì¢ĭìĬµëĭĪëĭ¤": 3828,
      "ì¦ĿìĿĦ": 3829,
      "ĠëĭĪ": 3830,
      "Ġê¸ĢìĿĦ": 3831,
      "Ġê´Ģìĭ¬ìĿ´": 3832,
      "ì¼°ëĭ¤": 3833,
      "ìŀ¥ê³¼": 3834,
      "ë°ĽëĬĶ": 3835,
      "ĠìĪĺì§ĳ": 3836,
      "ĠíĽĦë³´": 3837,
      "Ġë³´ìĿ´": 3838,
      "Ġìĸ´ì©Į": 3839,
      "ĠëĤ®ìĿĢ": 3840,
      "ĠìĭľíĹĺìĿĦ": 3841,
      "Ġë°Ķíĥķìľ¼ë¡ľ": 3842,
      "êµ¬ìĿĺ": 3843,
      "ĠëĤĺíĥĢëĤĺ": 3844,
      "ê·¸ë£¹": 3845,
      "ìĦ¸ê°Ģ": 3846,
      "Ġê·¸ëŀ¬": 3847,
      "Ġìłľê¸°": 3848,
      "Ġíĺ¹ìĭľ": 3849,
      "Ġë³µìŀ¡": 3850,
      "ë®¤": 3851,
      "Ī¼": 3852,
      "ë¶ĦìĿĺ": 3853,
      "Ġëĭ¬ëŁ¬": 3854,
      "ê²½ìłľ": 3855,
      "Ġë°ĸìĹĲ": 3856,
      "Ġìĸ´ëĸł": 3857,
      "Ġ2021": 3858,
      "ëĵŃ": 3859,
      "Ġìĭ¶ìĸ´": 3860,
      "íķĺìĺĢê³ł": 3861,
      "Ġì§Ģì§Ģ": 3862,
      "ĠìĬ¤íĨł": 3863,
      "ëĵ±íķĻêµĲ": 3864,
      "ì§ĦìĿĦ": 3865,
      "Ġë¹Ħì¦ĪëĭĪ": 3866,
      "loud": 3867,
      "ìĥģìľ¼ë¡ľ": 3868,
      "ë³´ëĭĪ": 3869,
      "ëħĦìĿ´": 3870,
      "Ġê·¼ê±°": 3871,
      "Ġìŀ¥ê¸°": 3872,
      "Ġìŀĳê°Ģ": 3873,
      "Ġìŀ¡ìķĦ": 3874,
      "íĺķìĿĦ": 3875,
      "Ġê²ĥìĿ´ê³ł": 3876,
      "Ġìĥģì²ĺ": 3877,
      "Ġë°Ľìķĺ": 3878,
      "ìĸ´ë²Ħ": 3879,
      "ĠìĻ¸ë¶Ģ": 3880,
      "Ġì§ĢìĭĿ": 3881,
      "ess": 3882,
      "ë°į": 3883,
      "ê²½ìĿĢ": 3884,
      "do": 3885,
      "Ġë§Įíķľ": 3886,
      "ê°Ģê³ł": 3887,
      "Ġå": 3888,
      "íĶĦë¡ľ": 3889,
      "Ġìļ´ìłĦ": 3890,
      "ĠëĪĪìĿ´": 3891,
      "ĠìĿ¸ê°ĦìĿĺ": 3892,
      "ĠìĨĮíĶĦíĬ¸ìĽ¨ìĸ´": 3893,
      "we": 3894,
      "ì§Ģë©´": 3895,
      "ìŀĸìķĦ": 3896,
      "Ġê²½íĹĺìĿĦ": 3897,
      "ĠìĿĢíĸī": 3898,
      "ĠëıĻìĿĺ": 3899,
      "Ĺĺ": 3900,
      "ĠìłķìĿĺ": 3901,
      "Ġê°ľìµľ": 3902,
      "Ġë²Ķì£Ħ": 3903,
      "Ġìĺ¥": 3904,
      "em": 3905,
      "Ġëĭ¤ìļ´ë¡ľëĵľ": 3906,
      "ìĦ°ëĭ¤": 3907,
      "ë°ĶìĿ´": 3908,
      "êµ°ìļĶ": 3909,
      "ë§ŀ": 3910,
      "Ġë§ĲìĿĢ": 3911,
      "ĠíĿĳ": 3912,
      "Ġìĥģëĭ¹íŀĪ": 3913,
      "ĠìĿ´ëķĮ": 3914,
      "Ġì½ľ": 3915,
      "ëıĦìĭľ": 3916,
      "ìĺĢìĬµëĭĪëĭ¤": 3917,
      "Ġë´Ħ": 3918,
      "ìĹĪìĿĦ": 3919,
      "Ġì¢ħêµĲ": 3920,
      "ĠìĨĮìĦ¤": 3921,
      "Ġê¸°ìļ¸": 3922,
      "ìłĲìĹĲìĦľ": 3923,
      "pp": 3924,
      "2108": 3925,
      "Ġìłľì£¼": 3926,
      "ìĭľíĤ¬": 3927,
      "ĠíħĮìĬ¤íĬ¸": 3928,
      "ĠìĭľìĦłìĿĦ": 3929,
      "ë¬¸ìĿ´": 3930,
      "ĠíķĦìļĶíķĺëĭ¤": 3931,
      "Ġë°Ľìķĺëĭ¤": 3932,
      "ĠãĢĬ": 3933,
      "Ġê·¸ëŁ´": 3934,
      "ìĤ¬íķŃ": 3935,
      "ëħķ": 3936,
      "300": 3937,
      "ĠìĿ´ìĤ¬": 3938,
      "ì§Ģìĸ´": 3939,
      "ĠëĶ°ëľ»": 3940,
      "ëĨĵê³ł": 3941,
      "Ġìĭľê°ģ": 3942,
      "ê½ĥ": 3943,
      "ĠìłĦë°ĺ": 3944,
      "ìĶ¨ëĬĶ": 3945,
      "ĠíĻĶìŀ¥": 3946,
      "Ġì°¾ëĬĶ": 3947,
      "Ġëį¤íĶĦê³µë¶ĢìŀĲë£Į": 3948,
      "ë¦¬íķľ": 3949,
      "Ġëª¨ë°ĶìĿ¼": 3950,
      "Ġíı¬ê¸°": 3951,
      "ë£©": 3952,
      "ĠìĨĲìĹĲ": 3953,
      "ì¤ĺ": 3954,
      "ĠëĤĺìķĦê°Ģ": 3955,
      "ìħĶìĦľ": 3956,
      "ĠPC": 3957,
      "Ġê³ĦìĤ°": 3958,
      "Ġê²¨ìļ¸": 3959,
      "ĠíŀĺìĿ´": 3960,
      "ĠìĬ¤íĬ¸ëłĪ": 3961,
      "Ġë¬´ìĹĩë³´ëĭ¤": 3962,
      "ĠìĿ¸ë¬¼": 3963,
      "ĠìķĦë¦Ħëĭ¤ìļ´": 3964,
      "Ġë³´ìĿ´ì§Ģ": 3965,
      "ĠëĮĢíķ´ìĦľëĬĶ": 3966,
      "ìĿ¸ìľ¼ë¡ľ": 3967,
      "Ġë¶Ģíĥģ": 3968,
      "ĠíĻľëıĻìĿĦ": 3969,
      "Ġëįľ": 3970,
      "Ġ2019": 3971,
      "ĠíĻķìŀ¥": 3972,
      "Ġê±¸ìĸ´": 3973,
      "ìĭľê¸°": 3974,
      "Ġê¸°íļĮë¥¼": 3975,
      "Ġë¬µ": 3976,
      "ĠìĿ¼ë°ĺìłģìľ¼ë¡ľ": 3977,
      "ë³´íĺ¸": 3978,
      "ëĲĺìĹĪìĬµëĭĪëĭ¤": 3979,
      "ìŀĸìķĦìļĶ": 3980,
      "ê²½ìĿ´": 3981,
      "ëĳĲê³ł": 3982,
      "īìŀ¥": 3983,
      "ëĤ©": 3984,
      "ĠíĽĮ": 3985,
      "Ġëį¤íĶĦìĥĺíĶĮ": 3986,
      "ê·ľëª¨": 3987,
      "Ġê°ľìłķ": 3988,
      "ci": 3989,
      "ĠìłľìķĪ": 3990,
      "ëĲĺë©´ìĦľ": 3991,
      "ĠìĻĶëĭ¤": 3992,
      "Ġë°ĳ": 3993,
      "ëŃ": 3994,
      "Ġê¸°ìĪłìĿĦ": 3995,
      "Ġê·¼ë¬´": 3996,
      "Ġê·¸ëŁ¬íķľ": 3997,
      "Ġë¶ĢìĹ¬": 3998,
      "ìĿ´ìĿĺ": 3999,
      "ìłĦìĿĺ": 4000,
      "Ġê·¸ëłĩëĭ¤ë©´": 4001,
      "Ġê¼¬": 4002,
      "ìłķì±ħ": 4003,
      "Ġ22": 4004,
      "Ġ2018": 4005,
      "Ġê°ĢìĦľ": 4006,
      "ìĿ´ìħĺ": 4007,
      "ua": 4008,
      "ĠìĥĿê°ģíķ©ëĭĪëĭ¤": 4009,
      "Ġìĭľì²Ń": 4010,
      "Ġê¸į": 4011,
      "ĠíħĲ": 4012,
      "Ġì¢ĭìķĦíķĺëĬĶ": 4013,
      "ĠìĺģêµŃ": 4014,
      "ëĭĺê»ĺ": 4015,
      "íĺ¸ì¦Ŀ": 4016,
      "ë©ĶëĿ¼": 4017,
      "íļĮëĬĶ": 4018,
      "ĠìľĦìĽĲ": 4019,
      "Ġíŀĺëĵł": 4020,
      "ìĭľíĤ¨": 4021,
      "Ġì°¨ë³Ħ": 4022,
      "Ġìĺģìķł": 4023,
      "ë¡ľê·¸": 4024,
      "Ġë§º": 4025,
      "ëĭ¨ìĿĺ": 4026,
      "Ġì¸¡ë©´": 4027,
      "Ġìĸ»ìĿĦ": 4028,
      "ìľ¨ìĿĦ": 4029,
      "íķĺìĭŃìĭľìĺ¤": 4030,
      "íŀĪëĬĶ": 4031,
      "Ġë¹ĦìĬ·íķľ": 4032,
      "ëıĪ": 4033,
      "ĠìĿĳìĭľ": 4034,
      "ìĭłìĿĺ": 4035,
      "ĠìĿĺë¬´": 4036,
      "ĠTV": 4037,
      "ë¦¬ê²Į": 4038,
      "Ġ23": 4039,
      "ĠëĮĢíķľë¯¼êµŃ": 4040,
      "ĠëĦ¤ê°Ģ": 4041,
      "Ġë°Ķê¾¸": 4042,
      "ë¡¤": 4043,
      "Ġìĥģìĥģ": 4044,
      "íĸĪìľ¼ë©°": 4045,
      "Ġëĭ¤ìĿĮê³¼": 4046,
      "Ġì£¼ìĿĺ": 4047,
      "ĠëĤĺìĻĶëĭ¤": 4048,
      "ĠìŀĲê²©ì¦ĿìĿĦ": 4049,
      "ë°©ë²ķ": 4050,
      "Ġë§ŀì¶°": 4051,
      "ĠëĦ¤íĬ¸ìĽĮíģ¬": 4052,
      "ë±": 4053,
      "ë¦ĩ": 4054,
      "Ġê±°ìĺĪìļĶ": 4055,
      "Ġìµľì¢ħ": 4056,
      "ĠìĺĽ": 4057,
      "ĠëķĮê¹Įì§Ģ": 4058,
      "ĠìķĦë¬´ëŁ°": 4059,
      "ĠíķĺëįĶëĿ¼ëıĦ": 4060,
      "ĠìĨĮíĨµ": 4061,
      "íķĺëł¤ê³ł": 4062,
      "Ġê²°íķ©": 4063,
      "íķľêµŃ": 4064,
      "ĠìŀĪìľ¼ëĭĪ": 4065,
      "Ġë§ĮìĹĲ": 4066,
      "ĠíĶĦëŀĳ": 4067,
      "ì¶ľë¬¸ìłľ": 4068,
      "Ġíİ¼ì³Ĳ": 4069,
      "Ġê°ķíķľ": 4070,
      "Ġë³Ģíĺ¸": 4071,
      "ĠìŀĲë³¸": 4072,
      "ìĹĲë§Į": 4073,
      "ĠíĨµíķĺìĹ¬": 4074,
      "Ġìĭľë¦¬ì¦Ī": 4075,
      "ëķ": 4076,
      "Ġìĭ¶ëĭ¤": 4077,
      "Ġê·ł": 4078,
      "ĠìĦłê³ł": 4079,
      "ĠíĿĲë¦Ħ": 4080,
      "ĠìĿ¼ìłķ": 4081,
      "ê¸°ê¹Įì§Ģ": 4082,
      "Ġë²Ĺìĸ´ëĤĺ": 4083,
      "ëĵľìĿĺ": 4084,
      "ĠìĤ¬ìĹħìĿĦ": 4085,
      "ë¡łìĿĦ": 4086,
      "íĻĶìĿĺ": 4087,
      "ĠìłĢëħģ": 4088,
      "ĠìķĬìľ¼": 4089,
      "ĠìłĦë¶Ģ": 4090,
      "ĠëĬĲëĤĦ": 4091,
      "ë²¤íĬ¸": 4092,
      "ìĭľë¥¼": 4093,
      "ë³Ħë¡ľ": 4094,
      "Ġê±°ì§ĵ": 4095,
      "ìĦľìĹĲ": 4096,
      "Ġê¹Ķ": 4097,
      "ĠìķĪëĤ´": 4098,
      "ĠìĿ´ìľłê°Ģ": 4099,
      "ĠëĤĺëıĦ": 4100,
      "ìĹ½": 4101,
      "KR": 4102,
      "ìľłìĿĺ": 4103,
      "ĠìŀħëĭĪëĭ¤": 4104,
      "ì¤Ģë¹Ħ": 4105,
      "ëłģ": 4106,
      "Ġê·¸ê³³": 4107,
      "ĠíĽĪëł¨": 4108,
      "ĠìĿµìĪĻ": 4109,
      "ìĬ¤ìĹĲ": 4110,
      "ìĤ¬íķľ": 4111,
      "ï¼": 4112,
      "ëĵ¤ìĸ´": 4113,
      "Ġì¥Ĳ": 4114,
      "ìłĲìĿĢ": 4115,
      "ĠìĤ´ê³ł": 4116,
      "Ġê°Ĳìłķ": 4117,
      "Ġêµīìŀ¥": 4118,
      "ĠëĮ": 4119,
      "ìĭ¤íŀĪ": 4120,
      "ĠëĮĢë¡ľ": 4121,
      "ĠìĿ´ëĵ¤ìĿĢ": 4122,
      "Ġëĭ¹ìĭłìĿĺ": 4123,
      "íķĻê³¼": 4124,
      "Ġì£¼ìĿ¸ê³µ": 4125,
      "Ġë§Įëĵ¤ê³ł": 4126,
      "Ġë¨¹ëĬĶ": 4127,
      "for": 4128,
      "Ġê³µë¶Ģë¬¸ìłľ": 4129,
      "ëĮ": 4130,
      "ĠìķĦíĶĦ": 4131,
      "Ġê³³ìĹĲ": 4132,
      "ê¸ĪìĿ´": 4133,
      "ì¢ħìĿĺ": 4134,
      "ëĭ¤ëĭĪ": 4135,
      "ĠìµľëĮĢíķľ": 4136,
      "Ġë³¸ê²©": 4137,
      "ìķ½ìĿĦ": 4138,
      "ĠìĺĪì¸¡": 4139,
      "Ġëĵ¤ìĹ¬": 4140,
      "ê¶ĮìĿĺ": 4141,
      "ìĽħ": 4142,
      "Ġë°©ë²ķìľ¼ë¡ľ": 4143,
      "ĠìĥĿê°ģíķĺëĬĶ": 4144,
      "Ġíĺĳëł¥": 4145,
      "ĠëıĦë¡ľ": 4146,
      "ĠìľłìĿ¼": 4147,
      "el": 4148,
      "Ġë°Ķê¿": 4149,
      "íķĺëł¤ë©´": 4150,
      "ìĸµìĽĲ": 4151,
      "ĠìĹ°ëĿ½": 4152,
      "ĠëĶ°ë¡ľ": 4153,
      "Ġíļ¨ê³¼ë¥¼": 4154,
      "ĠìĦ±ê²©": 4155,
      "ëĮĢíķĻêµĲ": 4156,
      "ë¬ĺ": 4157,
      "ĠëĬĶ": 4158,
      "ê´ĢìĿĢ": 4159,
      "ĠX": 4160,
      "ĠìĥĪë¡ľ": 4161,
      "íķ¨ìĹĲ": 4162,
      "ë§Ľ": 4163,
      "ì¦ĿìĿ´": 4164,
      "Ġìĭłê·ľ": 4165,
      "ĠìłĲìĹĲìĦľ": 4166,
      "ì¶Ķê³ł": 4167,
      "ĠëĨĵê³ł": 4168,
      "ëĭ¤ë¥¸": 4169,
      "íļĮìĹĲ": 4170,
      "Ġìĺģìĥģ": 4171,
      "wei": 4172,
      "ëŁ¬ìļ´": 4173,
      "Ġê³µìĭĿ": 4174,
      "ĠëģĿëĤĺ": 4175,
      "Ġëĭ¹ìĹ°íŀĪ": 4176,
      "Ġê²ĥìĿ´ìĹĪëĭ¤": 4177,
      "ĠëĦĪë¬´ëĤĺ": 4178,
      "uawei": 4179,
      "ìĤ°ìĿ´": 4180,
      "ëĤĻ": 4181,
      "ë°ĽìķĦ": 4182,
      "ĠìĿ´ê²ĥìĿ´": 4183,
      "ĠìķĬëıĦë¡Ŀ": 4184,
      "å¤": 4185,
      "ê·¸ëŀĺ": 4186,
      "ìĨĮëĵĿ": 4187,
      "Ġìŀĳìļ©": 4188,
      "26": 4189,
      "ìķĦë²Ħ": 4190,
      "Ġ.": 4191,
      "ì§ĪìĿ´": 4192,
      "ĠëĪĪë¹Ľ": 4193,
      "Ġëĭ¿": 4194,
      "ìĿ¼ìĿĢ": 4195,
      "ìĤ¬ëŀĮ": 4196,
      "ĠëĮĢíĺķ": 4197,
      "Ġê°Ĵ": 4198,
      "ĠëĦĲ": 4199,
      "Ġëĭ¨ìĪľíŀĪ": 4200,
      "Ġìĵ°ëĬĶ": 4201,
      "Ġê³łìļ©": 4202,
      "ìļ°ë¦¬": 4203,
      "ul": 4204,
      "Ġê²ĢíĨł": 4205,
      "Ġë¬¼ìĸ´": 4206,
      "%,": 4207,
      "Ġì´Īê¸°": 4208,
      "ìĺ¤í": 4209,
      "ĠìıŁìķĦ": 4210,
      "Ġê·¸ë§Į": 4211,
      "ĠíĸĪëĬĶëį°": 4212,
      "ĠíĻķìĭ¤": 4213,
      "ê°Ĵ": 4214,
      "ĠìĹħëį°ìĿ´íĬ¸ë²ĦìłĦ": 4215,
      "ĠëıĻë¬¼": 4216,
      "Ġë¶Ģë¶ĦìĿ´": 4217,
      "ëıĦìĻĢ": 4218,
      "ur": 4219,
      "ìĪ¨ìĿĦ": 4220,
      "ĠíĴįë¶Ģ": 4221,
      "Ġì±Ļ": 4222,
      "ì½ľ": 4223,
      "Ġë°ĶëĿ¼ë³´": 4224,
      "êº¼": 4225,
      "Ġë¹ĦíĮĲ": 4226,
      "Ġìľ¤íĿ¬": 4227,
      "ĠíĿ¥ë¯¸": 4228,
      "ìľĦë¡ľ": 4229,
      "ëĪĪ": 4230,
      "Ġì§ľ": 4231,
      "ìĦ¸ê¸°": 4232,
      "ìĸ´ìł¸": 4233,
      "ëĿ¼ë©°": 4234,
      "Ġìłģíķ©": 4235,
      "Ġë¯¼ì¡±": 4236,
      "ëĵľë¦¬": 4237,
      "ĠìłĢëıĦ": 4238,
      "ĠëıĮëł¤": 4239,
      "Ġ/": 4240,
      "ĠíļĮìĤ¬ëĬĶ": 4241,
      "ĠìłķëıĦìĿĺ": 4242,
      "ĠìĥĿê¸´": 4243,
      "ĠìĦłë¬¼": 4244,
      "ĠìĽĲìĭ¬": 4245,
      "Ġê³¼ìĹ°": 4246,
      "SE": 4247,
      "Ġ26": 4248,
      "ĠíĻĺë¶Ī": 4249,
      "ëĲĺìĸ´ìķ¼": 4250,
      "ĠìĦ±íĥľ": 4251,
      "ĠìĤ¬ëŀĮëĵ¤ìĹĲê²Į": 4252,
      "ë´¤": 4253,
      "ìĿ¸ìĹĲê²Į": 4254,
      "ê³Ħê°Ģ": 4255,
      "Ġ70": 4256,
      "ìĦľê°Ģ": 4257,
      "Ġë§ĲìĶĢìĿĦ": 4258,
      "Ġê³³ìĿ´": 4259,
      "Ġê°ĻìķĦìļĶ": 4260,
      "íķĻìĿĦ": 4261,
      "ĠíĨ": 4262,
      "íķ´ìļĶ": 4263,
      "ëŀĦ": 4264,
      "ĶĪ": 4265,
      "äº": 4266,
      "ë¦¬ëĿ¼": 4267,
      "ĠìĿ´ëĵ¤": 4268,
      "ë©¸": 4269,
      "Ġì°¸ìĦĿ": 4270,
      "ëĳĶ": 4271,
      "ĠëĤĺë¨¸ì§Ģ": 4272,
      "ìĤ¬ìĿ´": 4273,
      "ìĤ°ìĿĺ": 4274,
      "Ġëĭ¤ìĨĮ": 4275,
      "ìŀĲëĵ¤ìĹĲê²Į": 4276,
      "ĠìĨĮë¦¬ë¥¼": 4277,
      "ĠìŀĪìľ¼ë¯Ģë¡ľ": 4278,
      "Ġëª»íķł": 4279,
      "Ġë¶Ģë¥´": 4280,
      "Ġê°Ģê¹Įìļ´": 4281,
      "Ġìĸ´ìļ¸": 4282,
      "Ġìĭ¤ì²ľ": 4283,
      "ìĿ¼ë¶ĢíĦ°": 4284,
      "Ġì°¨ìĿ´ê°Ģ": 4285,
      "ëĤĺìļĶ": 4286,
      "ĠêµĲíĨµ": 4287,
      "Ġíİ¸ìķĪ": 4288,
      "Ġê±°ë¦¬": 4289,
      "ĠëĪĦêµ¬ëĤĺ": 4290,
      "Ġê³ģ": 4291,
      "ĠìłĢëł´": 4292,
      "Ġì·¨ìĹħ": 4293,
      "ê²łì§Ģ": 4294,
      "ĠìĿ´ëĵ¤ìĿ´": 4295,
      "Ġì²ľë¬´": 4296,
      "Ġì¹ĺíĻĺ": 4297,
      "Ġëª¨ëĳĲê°Ģ": 4298,
      "ĠìŀĲì²´ê°Ģ": 4299,
      "Ġ28": 4300,
      "ìª½ìľ¼ë¡ľ": 4301,
      "Ġì§Ģíķĺ": 4302,
      "04": 4303,
      "ë°Ķë¡ľ": 4304,
      "ĠìŀĪìĿĮìĿĦ": 4305,
      "Ġì«": 4306,
      "ê²ĥëıĦ": 4307,
      "ĠìĨĮëĵĿ": 4308,
      "ĠìµľìĦłìĿĦ": 4309,
      "Ġ27": 4310,
      "Ġì¹´íİĺ": 4311,
      "Ġë¨¸ë¦¬ë¥¼": 4312,
      "Ġìĭłê³ł": 4313,
      "Ġê¸°ì¤Ģìľ¼ë¡ľ": 4314,
      "ìĿ¸ê¸°": 4315,
      "ĠìĭłìķĻ": 4316,
      "ĠìĤ¬ëŀĳìĿĦ": 4317,
      "CE": 4318,
      "ĠìĤ¬ìļ©íķĺìĹ¬": 4319,
      "ĠìłĦíķ´": 4320,
      "Ġì¡°ìłĪ": 4321,
      "ìĹĲìļĶ": 4322,
      "ìĬ¤ìĻĢ": 4323,
      "ĠìľĦë°ĺ": 4324,
      "ĠìĿ´ë²¤íĬ¸": 4325,
      "ĠLG": 4326,
      "ë®¤ëĭĪ": 4327,
      "ê¾": 4328,
      "ëĥĪ": 4329,
      "Ġê¸Īìķ¡": 4330,
      "ĠíļĮìĤ¬ìĿĺ": 4331,
      "ĠìĨĮë¦¬ê°Ģ": 4332,
      "ĠìĥĿê¸°": 4333,
      "Ġê±°ê¸°": 4334,
      "ĠìĤŃ": 4335,
      "ìĿ´ëĦĪ": 4336,
      "ĠëĽ°ìĸ´": 4337,
      "ĠëĴ¤ë¡ľ": 4338,
      "Ġìĸ´ë¦°ìĿ´": 4339,
      "Ġê°Ģì¹ĺë¥¼": 4340,
      "Ġìľłíĺķ": 4341,
      "Ġìľµ": 4342,
      "ëł¥ìĿĢ": 4343,
      "íĪ¬ìŀĲ": 4344,
      "Ġ2017": 4345,
      "Ġê±°ë¶Ģ": 4346,
      "ìľĦìĿĺ": 4347,
      "Ġìĭ±": 4348,
      "Ġíĥĵ": 4349,
      "ĠìħĪ": 4350,
      "Ġëıķ": 4351,
      "Ġì§Ģêµ¬": 4352,
      "ë¹Ļ": 4353,
      "Ġ198": 4354,
      "Ġëį°ìĿ´íĦ°ë¥¼": 4355,
      "ëĤĺìĿĺ": 4356,
      "Ġíķ´ì£¼": 4357,
      "Ġë¶Ģë¶ĦìĿĦ": 4358,
      "ìĭ¤ìĹĲ": 4359,
      "ĠìĪĺìĪł": 4360,
      "Ġê°ĢëĬ¥íķ©ëĭĪëĭ¤": 4361,
      "ë°¥": 4362,
      "Ġìĭłìļ©": 4363,
      "ĠëĮĢíĻĶ": 4364,
      "Ġì§Īë³ĳ": 4365,
      "Ġì²¨": 4366,
      "ĠSK": 4367,
      "Ġì²łìłĢ": 4368,
      "Ġêµ¬ë¶Ħ": 4369,
      "ì²ľíŀĪ": 4370,
      "ë¥ĺë¥¼": 4371,
      "Ġìłľê³µíķ©ëĭĪëĭ¤": 4372,
      "ëį¤íĶĦìŀĲë£Į": 4373,
      "Ġëĭ¤íĸī": 4374,
      "ì»¨": 4375,
      "íĻľëıĻ": 4376,
      "ĠëıĮìķĦê°Ģ": 4377,
      "íĺ¸ë¥¼": 4378,
      "Ġíį¼íİĻíĬ¸": 4379,
      "ìĿĮìĹĲëıĦ": 4380,
      "ĠìŀĦëĮĢ": 4381,
      "Ġë²Įìĸ´": 4382,
      "íķĺìļ°": 4383,
      "ĠíĹĪìļ©": 4384,
      "Ġì¡°ìĭ¬": 4385,
      "ĠíļĮìĿĺ": 4386,
      "ëĭ¨ì²´": 4387,
      "ĠìŀĲê·¹": 4388,
      "Ġìĸ´ëĸłíķľ": 4389,
      "ĠìĪĺìĹħ": 4390,
      "Ġë©Ķëī´": 4391,
      "Ġë¹Ħë°Ģ": 4392,
      "IP": 4393,
      "Ġ2016": 4394,
      "Ġëįķë¶ĦìĹĲ": 4395,
      "ê°ĢëĿ½": 4396,
      "27": 4397,
      "Ġ80": 4398,
      "ĠìĪĺì¶ľ": 4399,
      "Ġ2015": 4400,
      "Ġìŀ¡ê³ł": 4401,
      "NA": 4402,
      "ĠìĤ¬ìłĦ": 4403,
      "Ġp": 4404,
      "Ġì¶ľë°ľ": 4405,
      "ĠìĤ¬ëŀĮëĵ¤ìĿĦ": 4406,
      "åħ": 4407,
      "ê¸¸ìĿĦ": 4408,
      "ĠíĻķìĿ¸íķł": 4409,
      "ëł¥ê³¼": 4410,
      "Ġêµīìŀ¥íŀĪ": 4411,
      "ë¦¬ìĸ´": 4412,
      "ĠìĿĺíķĺë©´": 4413,
      "ĠíĴĢìĸ´": 4414,
      "45": 4415,
      "ë§Ĳë¡ľ": 4416,
      "%)": 4417,
      "ìĿ¸ì¦Ŀëį¤íĶĦ": 4418,
      "Ġì²ľì²ľíŀĪ": 4419,
      "Ġìĭľìŀĳíķľ": 4420,
      "ìĹ°ìĿĺ": 4421,
      "ëħĦìĿĦ": 4422,
      "ĠìŀĪìĹĪê³ł": 4423,
      "ĠìŀĪìĿĦê¹Į": 4424,
      "Ġìī½ì§Ģ": 4425,
      "ĠëĴ¤ìĹĲ": 4426,
      "ĠìķĦë²Ħì§Ģ": 4427,
      "ìĿ´ëĿ¼ë©°": 4428,
      "ag": 4429,
      "Ġì¡¸ìĹħ": 4430,
      "Ġëª¸ìĿ´": 4431,
      "íķĺë¯Ģë¡ľ": 4432,
      "ĠìĨĮìĨį": 4433,
      "ì¡°íķ©": 4434,
      "ĠìłģìĿĢ": 4435,
      "ìłĦìĿ´": 4436,
      "ë¥Ń": 4437,
      "ĠìĹĲëĦĪì§Ģ": 4438,
      "Ġê°Ģê²Į": 4439,
      "ĠìķĦìī¬": 4440,
      "Ġì¿": 4441,
      "ì¾Į": 4442,
      "íħľ": 4443,
      "Ġì¹´ë©ĶëĿ¼": 4444,
      "Ġ,": 4445,
      "ìĦľìĿĺ": 4446,
      "Ġê²ĥìĿ´ëĿ¼ëĬĶ": 4447,
      "ĠìĿ¸ê³µ": 4448,
      "ì¤ĳíķľ": 4449,
      "Ġë¬¼ìĿĦ": 4450,
      "Ġë°©ë²ķìĿĢ": 4451,
      "Ġë°ĽìķĦëĵ¤": 4452,
      ".\"": 4453,
      "Ġê·¸ëłĩì§Ģ": 4454,
      "Ġì¡°ìłķ": 4455,
      "Ġê²°ì½Ķ": 4456,
      "ĠìĿ¸ì²ľ": 4457,
      "ê°Ħëĭ¤": 4458,
      "Ġìŀħìŀ¥": 4459,
      "oo": 4460,
      "ĠìĭľíĹĺìŀĲë£Į": 4461,
      "ĠìłĲìĿ´": 4462,
      "âĹĭ": 4463,
      "ëħĦìĿĺ": 4464,
      "ĠíķĺìĿ´": 4465,
      "Ġê·¸ê±´": 4466,
      "Ġìĭ¤íĹĺ": 4467,
      "Ġê¸įìłķ": 4468,
      "Ġìĸ¸ë¡ł": 4469,
      "ìĹ°ìĿĦ": 4470,
      "Ġì·¨ìĨĮ": 4471,
      "Ġíļ¨ê³¼ê°Ģ": 4472,
      "Ġì§Ģë°°": 4473,
      "ìĭľíĤ¤ê³ł": 4474,
      "Ġíı´": 4475,
      "ĠëĳĶ": 4476,
      "ĠìĦ¸ìĥģìĿĦ": 4477,
      "Ġëª¨ìĹ¬": 4478,
      "ĠìĿ´íķĺ": 4479,
      "ë°©ìĹĲ": 4480,
      "ĠìĹ´ë¦°": 4481,
      "Ġê¼½": 4482,
      "ì¤¬": 4483,
      "Ġt": 4484,
      "ë²Īì§¸": 4485,
      "ĠëĦĪíĿ¬": 4486,
      "Ġì§ģìĹħ": 4487,
      "Ġê³łìłķ": 4488,
      "ĠìĹĨìĹĪ": 4489,
      "Ġì§§ìĿĢ": 4490,
      "ì§Ģë©´ìĦľ": 4491,
      "Ġìĸ´ì°Į": 4492,
      "ëį°ìļĶ": 4493,
      "ìĽĲê³¼": 4494,
      "ë³µì§Ģ": 4495,
      "ĠìĬ¤íı¬ì¸ł": 4496,
      "ĠìĿĺìĭ¬": 4497,
      "ìĭĿìľ¼ë¡ľ": 4498,
      "ê´ĢìĿĺ": 4499,
      "ëĭ¨ìĿ´": 4500,
      "Ġë³ĢíĻĶë¥¼": 4501,
      "âĸ": 4502,
      "Ġëĭ¬ìĦ±": 4503,
      "Ġì¤ĢíĿ¬": 4504,
      "ìĨĮëĬĶ": 4505,
      "ë¦¬ìłģ": 4506,
      "Ġëĭ¨ì§Ģ": 4507,
      "ĠìĥĿê°ģíķľëĭ¤": 4508,
      "icro": 4509,
      "Ġ29": 4510,
      "Ġê°Ģê¹ĮìĿ´": 4511,
      "Ġìĸ¼êµ´ìĿ´": 4512,
      "ë¬´ë¦¬": 4513,
      "ĠìĻĦìłĦ": 4514,
      "ìłĲìĹĲ": 4515,
      "ìŀĲë¦¬": 4516,
      "ë´ĩ": 4517,
      "Ġê°ķëł¥íķľ": 4518,
      "ìĭŃëĭĪëĭ¤": 4519,
      "íĺ¸ê°Ģ": 4520,
      "íİĺìĿ´ì§Ģ": 4521,
      "ëĮĢíĳľ": 4522,
      "ĠìķĦë¹ł": 4523,
      "ĠëĤĺìĿ´": 4524,
      "Ġìľłìĺģ": 4525,
      "Ġì¦Ĳê¸¸": 4526,
      "ë¬µ": 4527,
      "íĬ¸ëĬĶ": 4528,
      "ìłĲìľ¼ë¡ľ": 4529,
      "ê²ĥìŀħëĭĪëĭ¤": 4530,
      "ĠëłĪìĿ´": 4531,
      "íĬľ": 4532,
      "Ġìĭ¬ì§Ģìĸ´": 4533,
      "Ġì¢ģ": 4534,
      "ìĿ¼ë¡ľ": 4535,
      "ìĹŃìĿĦ": 4536,
      "ĠìĿ´ê±´": 4537,
      "ìĭ¼": 4538,
      "ĠëĥĦ": 4539,
      "ìĿ¼ê¹Įì§Ģ": 4540,
      "Ġë¯¿ìĿĮ": 4541,
      "um": 4542,
      "Ġíĸ¥ìĥģ": 4543,
      "Ġê·¸ê±¸": 4544,
      "ìĿ¸ìĹĲ": 4545,
      "ĠìĹ´ìĹĪëĭ¤": 4546,
      "Ġë§¤ë§¤": 4547,
      "Ġê·¸ë§Įíģ¼": 4548,
      "Ġë¯¸êµŃìĿĺ": 4549,
      "ê¹Ŀ": 4550,
      "Ġâĳł": 4551,
      "ĠìĺĨìĹĲ": 4552,
      "ìĥĿìĿĦ": 4553,
      "ĠìĪĺìĥģ": 4554,
      "ĠëıĻìĿ¼íķľ": 4555,
      "ëĭĪìķĦ": 4556,
      "ĠëĬ¥ëł¥ìĿĦ": 4557,
      "Ġê²½ìļ°ìĹĲ": 4558,
      "Ġê²½ìļ°ëĬĶ": 4559,
      "Ġë©Ģë¦¬": 4560,
      "Ġëĵ¯íķľ": 4561,
      "íĨµìĭł": 4562,
      "Ġëĭ¤ë£¨": 4563,
      "ìłľíĴĪ": 4564,
      "ĠìķĦëĤ´": 4565,
      "ì¹¼": 4566,
      "ĠëªħíĻķ": 4567,
      "ĠëģĬìŀĦ": 4568,
      "ĠìĥĪë¡Ńê²Į": 4569,
      "Ġëĭ¨ì²´": 4570,
      "ĠìĹ¬ìľł": 4571,
      "Ġìĸ¸ìłľëĤĺ": 4572,
      "Ġì¢ĭìĿĦ": 4573,
      "ĠìĿ´ê²Į": 4574,
      "ë¬¸ìĹĲ": 4575,
      "å®": 4576,
      "ìĨįìĹĲ": 4577,
      "Ġë°°ì¹ĺ": 4578,
      "Ġëĭ¹ìĤ¬": 4579,
      "ìŀ¬ë¥¼": 4580,
      "Ġê·¸ìĹĲê²Į": 4581,
      "ĠìŀĳëıĻ": 4582,
      "ë²ķìĿ´": 4583,
      "ĠìķĦëĵ¤": 4584,
      "Ġíĥģ": 4585,
      "ĠìĥģíĻ©ìĹĲ": 4586,
      "íĴĢ": 4587,
      "ĠìĨĮìĨ¡": 4588,
      "500": 4589,
      "Ġìĺ¤ëĬĺìĿĢ": 4590,
      "íķĺëĿ¼": 4591,
      "ë¡ľë¥¼": 4592,
      "ì±ħìĿĦ": 4593,
      "ĠìķĦëĭĮê°Ģ": 4594,
      "Ġìľłëªħíķľ": 4595,
      "Ġìŀħëł¥": 4596,
      "evelo": 4597,
      "Ġìĥģíĺ¸": 4598,
      "il": 4599,
      "Ġì§Ħì¶ľ": 4600,
      "ê¸ĪìĿĢ": 4601,
      "ĠìĦŃì·¨": 4602,
      "Ġì°Į": 4603,
      "âĢľ": 4604,
      "ëĩ": 4605,
      "Ġê²½ìļ°ëıĦ": 4606,
      "Ġìŀĩ": 4607,
      "Ġê²¸": 4608,
      "Ġì°½ìĹħ": 4609,
      "Ġì°½ì¡°": 4610,
      "art": 4611,
      "ĠìłĦíĪ¬": 4612,
      "Ġëĭ¤ìĭľë³´ê¸°": 4613,
      "--": 4614,
      "ìī½": 4615,
      "soft": 4616,
      "Ġë³´ìĹ¬ì£¼": 4617,
      "ĠíķľêµŃìĿĺ": 4618,
      "ìķĪìĿ´": 4619,
      "ĠìĽĲê³łìĿĺ": 4620,
      "ë¥łìĿ´": 4621,
      "Ġëª©ìłģìľ¼ë¡ľ": 4622,
      "ë´¤ëĭ¤": 4623,
      "Ġë¹Ħë¡¯íķľ": 4624,
      "ë°©ìĿĦ": 4625,
      "ĠëĬĺìĸ´": 4626,
      "Ġíĸ¥íĽĦ": 4627,
      "Ġëį®": 4628,
      "ĠíĺľíĥĿ": 4629,
      "ê¹Ĳ": 4630,
      "íļĮìĹĲìĦľ": 4631,
      "Ġëį§": 4632,
      "ë²¼": 4633,
      "Ġë¬´ìĭľ": 4634,
      "Ġìĩ¼íķĳ": 4635,
      "ìķĦìĿ´": 4636,
      "êµ¬ëĬĶ": 4637,
      "Ġë©°": 4638,
      "ĠìĤ¬ìľł": 4639,
      "ĠíĻįë³´": 4640,
      "ì°¨ê°Ģ": 4641,
      "Ġëĭ«": 4642,
      "ĠìĺĪìłķìĿ´ëĭ¤": 4643,
      "Ġê¸°ë¶Ħ": 4644,
      "Ġìŀ¥ë©´": 4645,
      "Ġìĺģìĸĳ": 4646,
      "ëģĹ": 4647,
      "ĠìķĬìķĦëıĦ": 4648,
      "ĠìŀĳìĹħìĿĦ": 4649,
      "įê²Į": 4650,
      "ë§ĪìĿĦ": 4651,
      "ìį": 4652,
      "íķĻìłģ": 4653,
      "íĬ¸ë¡ľ": 4654,
      "Ġë°Ľì§Ģ": 4655,
      "Ġíķ´ëĭ¹íķĺëĬĶ": 4656,
      "Ġìĥģì§ķ": 4657,
      "Ġê²Įëĭ¤ê°Ģ": 4658,
      "ìĬ¤ëĿ¼": 4659,
      "ĠíĻĶë©´": 4660,
      "ĠìĿĺë¯¸ë¥¼": 4661,
      "Ġê·¸ëł¤": 4662,
      "ë¦¬ì¹´": 4663,
      "ìłģìĿ´ëĭ¤": 4664,
      "Ġëħ¸ì¶ľ": 4665,
      "ĠëķĮëıĦ": 4666,
      "Ġíģ´ë¦Ń": 4667,
      "íĤ¤ëĬĶ": 4668,
      "ê¸ĭ": 4669,
      "OR": 4670,
      "Ġíĺģìĭł": 4671,
      "ĠìŀĲë¦¬ìĹĲ": 4672,
      "Ġë²¤": 4673,
      "ĠìķĦì§ģëıĦ": 4674,
      "Ġê²ĥìĿ¸ì§Ģ": 4675,
      "Ġë§¤ëł¥": 4676,
      "ĠìľłíĨµ": 4677,
      "ĠìĹĦì²ŃëĤľ": 4678,
      "Ġê¾¸ì¤ĢíŀĪ": 4679,
      "Ġëª©ìĨĮë¦¬ê°Ģ": 4680,
      "ĠìĻĦë£Į": 4681,
      "Ġê·¸ëŁ¬ë©´": 4682,
      "ë§ĪìłĢ": 4683,
      "Ġìĺ¤ë¹ł": 4684,
      "ë°Ľê³ł": 4685,
      "TE": 4686,
      "ect": 4687,
      "Ġë¬´ìĹĩìĿĦ": 4688,
      "íĻĢ": 4689,
      "Ġì°¸ì¡°": 4690,
      "ĠíķŃê³µ": 4691,
      "ìļ´ëĵľ": 4692,
      "Ġê±¸ì³Ĳ": 4693,
      "Ġê²Įìĭľ": 4694,
      "Ġëį¤íĶĦë¥¼": 4695,
      "ë¦¬ìĺ¤": 4696,
      "ë§ĮìĹĲ": 4697,
      "Ġì»¤ë®¤ëĭĪ": 4698,
      "ìĩ¼": 4699,
      "ì²¨": 4700,
      "ĠìĻĦë²½íķľ": 4701,
      "ê¾¼": 4702,
      "ĠëķĮìĹĲëĬĶ": 4703,
      "ĠìĭľíĹĺëĮĢë¹ĦìŀĲë£Į": 4704,
      "ìľĦëĬĶ": 4705,
      "ĠìĿ´ëĤł": 4706,
      "ëĭ¬ëŁ¬": 4707,
      "Ġë°ľìĥĿíķĺëĬĶ": 4708,
      "icrosoft": 4709,
      "ĠìĹĺë¦¬": 4710,
      "Ġê°Ģë³": 4711,
      "09": 4712,
      "Ġê³łê¸ī": 4713,
      "Ġì²ĺìĿĮìľ¼ë¡ľ": 4714,
      "ĠAD": 4715,
      "ĠíĻķìłķ": 4716,
      "íķ©ê²©ë³´ìŀ¥": 4717,
      "ì½¤": 4718,
      "ëªħíķľ": 4719,
      "ë°ĽìĿĦ": 4720,
      "Ġì¹Ń": 4721,
      "Ġê²Ģì°°": 4722,
      "ê±°ëł¸ëĭ¤": 4723,
      "Ġìĺģìĸ´": 4724,
      "ĠìĪĺìłķ": 4725,
      "Ġìĥģê´Ģ": 4726,
      "ĠíĽĮë¥Ń": 4727,
      "ìĭľê°Ģ": 4728,
      "ĠëķĮê°Ģ": 4729,
      "ëĭ¨ìĹĲ": 4730,
      "ĠìĿ´ìĻ¸": 4731,
      "ìŀĳìļ©": 4732,
      "ìļ°ìĿĺ": 4733,
      "Ġì¤ĳìĿ¸": 4734,
      "ĠìĤ¬ì§ĦìĿĦ": 4735,
      "Ġì§ģìŀ¥": 4736,
      "ĠíħĮìĿ´": 4737,
      "Ġë§Ĳíķ´": 4738,
      "ĠëĤ¨ìĿĢ": 4739,
      "Ġê°ĢëĬ¥íķĺëĭ¤": 4740,
      "Ġì¡°ìļ©": 4741,
      "ìħľ": 4742,
      "Ġë¶ĦìĿ´": 4743,
      "Ġë°©ë²ķìĿ´": 4744,
      "ìķĹ": 4745,
      "Ġë¶Ģë¶ĦìĿĢ": 4746,
      "ëªħìĿĢ": 4747,
      "ĠìĦłê±°": 4748,
      "Ġê°Ķ": 4749,
      "Ġëį¤íĶĦëį°ëª¨ë¬¸ìłľ": 4750,
      "Ġìĺ¤íĶĪ": 4751,
      "ĠìĿĢì±Ħ": 4752,
      "ë©ĺ": 4753,
      "Ġëĭ¹ìĭłìĿĢ": 4754,
      "Ġìĭ¤íĺĦ": 4755,
      "ĠìķĬìĿĦê¹Į": 4756,
      "Ġì±Ħê¶Į": 4757,
      "ìĻĢëĬĶ": 4758,
      "km": 4759,
      "æľ": 4760,
      "ëĬĶê°Ģ": 4761,
      "ìĭľëĭ¤": 4762,
      "ĠìĥĿìĦ±": 4763,
      "íķ´ë¥¼": 4764,
      "Ġë¯¸ìĪł": 4765,
      "Ġê³¤": 4766,
      "Ġêµ¬íĺĦ": 4767,
      "ìłĦìŀĲ": 4768,
      "Ġíķ©ê²©": 4769,
      "ĠíĦ¸": 4770,
      "Ġë³´ê´Ģ": 4771,
      "Ġëħ¼ìĿĺ": 4772,
      "Ġë§ĮëĤľ": 4773,
      "ìłľìĹĲ": 4774,
      "Ġê¸°ëħĲ": 4775,
      "Ġê¹¨ëĭ¬": 4776,
      "ê¸°ì¤Ģ": 4777,
      "íĬ¸ê°Ģ": 4778,
      "71": 4779,
      "Ġíİ¸ìĿĺ": 4780,
      "Ġ2014": 4781,
      "ĠíĶĦë¡ľê·¸ëŀ¨ìĿĦ": 4782,
      "Ġê¿ĪìĿĦ": 4783,
      "ĠëŁ¬ìĭľìķĦ": 4784,
      "Ġì£½ìĿĮ": 4785,
      "ĠìĿ´íĮĮ": 4786,
      "ìĭľìĬ¤íħľ": 4787,
      "ë§¨": 4788,
      "ê³ĦìĿĺ": 4789,
      "Ġëĸ¼": 4790,
      "ëıħêµĲ": 4791,
      "Ġê¸¸ìĿ´": 4792,
      "ĠâĹĭ": 4793,
      "ë§ĪìŀĲ": 4794,
      "Ġë½ĳ": 4795,
      "soci": 4796,
      "ìĶ¨ê°Ģ": 4797,
      "ĠëĤĺìĻĶ": 4798,
      "ëĩ¨": 4799,
      "ĠíĺĦìŀ¥": 4800,
      "Ġëĭ¹ìŀ¥": 4801,
      "Ġì¤ĳìĹĲìĦľ": 4802,
      "íĻĶìĹĲ": 4803,
      "DE": 4804,
      "íĬ¸ìĿĺ": 4805,
      "Ġê·¸ëŁ¬ëĭĪê¹Į": 4806,
      "ìŀĲëĵ¤ìĿĦ": 4807,
      "Ġì§ĢìĨįìłģìľ¼ë¡ľ": 4808,
      "Ġìļ°ë¦¬ìĹĲê²Į": 4809,
      "Ġë°©ì§Ģ": 4810,
      "ĠìĤ´ì§Ŀ": 4811,
      "Ġë¨¹ìĿĦ": 4812,
      "Ġíģ´ëĿ¼ìļ°": 4813,
      "Ġíľ´ëĮĢíı°": 4814,
      "ìĦ¤í": 4815,
      "us": 4816,
      "ĠìĦ±ê²½": 4817,
      "Ġìĺ¤ëĬĺëĤł": 4818,
      "ĠìĿ´ë¥¸": 4819,
      "ê±°ë¦¬ëĬĶ": 4820,
      "Ġë°ľìĥĿíķľ": 4821,
      "ë¦ħëĭĪëĭ¤": 4822,
      "ĠìĹ°ì¶ľ": 4823,
      "Ġìĵ°ê³ł": 4824,
      "ĠìĪ²": 4825,
      "ĠìŀĲìĹ°ìĬ¤ëŁ½ê²Į": 4826,
      "ut": 4827,
      "Ġë§Ĳíķł": 4828,
      "íķĺê¸°ìĹĲ": 4829,
      "Ġë§Īì°¬ê°Ģì§Ģë¡ľ": 4830,
      "Ġê¹ľ": 4831,
      "ë³´ìŀĲ": 4832,
      "ĠëĶĶìŀĲ": 4833,
      "ëĭ«": 4834,
      "ĠìĿ´ì²ĺëŁ¼": 4835,
      "ĠìĹ¬ëŁ¬ë¶ĦìĿ´": 4836,
      "ëŀĺëıĦ": 4837,
      "Ġì³Ĳëĭ¤": 4838,
      "ìķī": 4839,
      "íĸ¥ìĿ´": 4840,
      "ĠìľĦìĻĢ": 4841,
      "ìĤŃ": 4842,
      "ìĪĺë¡ľ": 4843,
      "ë³ĢìĿĦ": 4844,
      "Ġì¶ľìĹ°": 4845,
      "Ġë¶Īë²ķ": 4846,
      "ĠìĿ¸íķĺìĹ¬": 4847,
      "Ġíĥľìĸĳ": 4848,
      "Ġê·¸ëŁ¬ë¯Ģë¡ľ": 4849,
      "Ġê²ĢìĿĢ": 4850,
      "ëĭ¤ëŀĢ": 4851,
      "ĠëĨĪ": 4852,
      "íķ´ìł¸": 4853,
      "ri": 4854,
      "ssoci": 4855,
      "ì¡ĮìĬµëĭĪëĭ¤": 4856,
      "Ġë¦¬ëįĶ": 4857,
      "Ġë¬´ìĸ¸": 4858,
      "Ġâĳ¡": 4859,
      "Ġë¬´ëĦĪ": 4860,
      "ĠìĺģìĽĲ": 4861,
      "HPE": 4862,
      "ĠìľĦíĺĳ": 4863,
      "Ġìµľìłģ": 4864,
      "ĠëĤĺìĺ¬": 4865,
      "ìŀĦìĿ´": 4866,
      "ħĮë¡ľ": 4867,
      "ĠëıħìĿ¼": 4868,
      "ĠëĤ¯": 4869,
      "ĠQ": 4870,
      "ĠìĪ«": 4871,
      "ìŀ¥ìķł": 4872,
      "ĠìŀħìĪł": 4873,
      "Ġì°¾ìĿĦ": 4874,
      "Ġë¶Ħëħ¸": 4875,
      "Ġì±ĦëĦĲ": 4876,
      "ë£¡": 4877,
      "ad": 4878,
      "Ġì¢ĭì§Ģ": 4879,
      "ìĨĮìĹĲ": 4880,
      "íĶĪ": 4881,
      "Ġê·¼ìľ¡": 4882,
      "Ġêµ³ìĿ´": 4883,
      "ê¸ĪìĿĺ": 4884,
      "Ġíķ©ìĿĺ": 4885,
      "Ġëĸłìĺ¤": 4886,
      "ë¡±": 4887,
      "Ġìĸ¼êµ´ë¡ľ": 4888,
      "ĠìĤ¬ìĭ¤ìĿ´": 4889,
      "ĠìĨĶë£¨": 4890,
      "Ġì§ĪíĻĺ": 4891,
      "Ġíļį": 4892,
      "Ġë¥´": 4893,
      "Ġë§¨": 4894,
      "ĠìĻĦë²½": 4895,
      "ìŀĲëĵ¤": 4896,
      "CD": 4897,
      "ìĿ¸ëĵ¤ìĿĺ": 4898,
      "ĮĮ": 4899,
      "ĠëģĦëįķ": 4900,
      "ĠìľĦì¹ĺíķľ": 4901,
      "Ġíı¬íķ¨íķľ": 4902,
      "ng": 4903,
      "ĠíļĮìŀ¥": 4904,
      "ìĭ¤ë¡ľ": 4905,
      "ìĦłìĿĺ": 4906,
      "Ġì±ħìŀĦìĿĦ": 4907,
      "ĠíķĺëĿ½": 4908,
      "êµ°ìĿĺ": 4909,
      "ĠìĻ¼": 4910,
      "Ġê·¸ë¦°": 4911,
      "Ġê´Ģê³Ħë¥¼": 4912,
      "43": 4913,
      "ĠìĤ¬ìĭ¤ìĿĢ": 4914,
      "ĠíķĺëĤĺëĭĺìĿ´": 4915,
      "Ġê¸°ì¡´ìĿĺ": 4916,
      "Ġê·¸ëŁ¼ìĹĲëıĦ": 4917,
      "Ġê·¹ë³µ": 4918,
      "ĠìķĮìķĺ": 4919,
      "ìĭľíĹĺëį¤íĶĦ": 4920,
      "ity": 4921,
      "ĠìĦ¤ëªħíĸĪëĭ¤": 4922,
      "íĦ°ë¥¼": 4923,
      "ĠëŃĶê°Ģ": 4924,
      "Ġê°¤": 4925,
      "Ġ2000": 4926,
      "Ġê°ĻìķĦ": 4927,
      "ìĿ´ìĿµ": 4928,
      "Ġì¤ĳëĭ¨": 4929,
      "Ġê°Īëĵ±": 4930,
      "Ġë³Ħë¡ľ": 4931,
      "ĠìĻĢìĦľ": 4932,
      "ìĽĶìĹĲ": 4933,
      "Ġê¸°ë°ĺìľ¼ë¡ľ": 4934,
      "ì·": 4935,
      "ĠíķĺëĤĺëĬĶ": 4936,
      "ë¬¸ìĿĺ": 4937,
      "ìĹĲìĦł": 4938,
      "ĠìĿ¸ë¥ĺ": 4939,
      "Ġìľ¼": 4940,
      "Ġê±°ì£¼": 4941,
      "Ġë²ĦíĬ¼": 4942,
      "ëĭī": 4943,
      "ĠìĤ¬ëŀĮìĹĲê²Į": 4944,
      "Ġë¹Ħì¦ĪëĭĪìĬ¤": 4945,
      "Ġìĭ¤ì§Ī": 4946,
      "ë¹Į": 4947,
      "ĠìĥĿê²¨": 4948,
      "ĠíĻĶëł¤": 4949,
      "ëł¥ìĿĺ": 4950,
      "ì§ģíķľ": 4951,
      "ĠìĦŀ": 4952,
      "ĠëĿĦ": 4953,
      "ìĺģíĻĶ": 4954,
      "Ġê¹ĬìĿ´": 4955,
      "ĠìĹī": 4956,
      "ìħ¨ìĬµëĭĪëĭ¤": 4957,
      "Ġê°ĢìĿĦ": 4958,
      "Ġë§¤ëħĦ": 4959,
      "Ġë°°ì¶ľ": 4960,
      "ĠìĿ¸ìĥģ": 4961,
      "ĠëĤ¨ìĦ±": 4962,
      "Ġì§ĳìĿĦ": 4963,
      "Ġë§İìĬµëĭĪëĭ¤": 4964,
      "ë²ķìĽĲ": 4965,
      "ì¼ĢìĿ´ìħĺ": 4966,
      "ìķĪìĹĲ": 4967,
      "Ġë°°ê²½": 4968,
      "ĠëĮĢëĭ¨": 4969,
      "ab": 4970,
      "Ġìĭľê¸°": 4971,
      "Ġê°ķìĿĺ": 4972,
      "¼Ī": 4973,
      "ìĿ¸ëį°ìļĶ": 4974,
      "íķĺë©´ìĦľëıĦ": 4975,
      "Ġë°°íĦ°": 4976,
      "íĳľë¥¼": 4977,
      "ĠìĨĲìľ¼ë¡ľ": 4978,
      "ĠíĶĦëłĪ": 4979,
      "Ġë±": 4980,
      "ìĽĮìĦľ": 4981,
      "ĠëĤ¬": 4982,
      "ĠìĦ¸ìĥģìĹĲ": 4983,
      "ê°Ģë¡ľ": 4984,
      "ìĭľìĿĺ": 4985,
      "ê´Ħ": 4986,
      "íĶĶ": 4987,
      "ĠíĨµìĭł": 4988,
      "TV": 4989,
      "Ġê³³ìĹĲìĦľ": 4990,
      "ĠìłķíĻķíķľ": 4991,
      "Ġë§Īì¹¨": 4992,
      "Ġë³¸ëĭ¤": 4993,
      "ion": 4994,
      "ĠëĮĢíĳľëĬĶ": 4995,
      "íĭ´": 4996,
      "CMA": 4997,
      "Ġìłķë¶Ģê°Ģ": 4998,
      "ĠëĤ³": 4999,
      "íĮĲê²°": 5000,
      "Ġëĭ¤ìĿ´": 5001,
      "Ġì§ĳìĹĲìĦľ": 5002,
      "ĠìĤ¬ìļ©ìŀĲ": 5003,
      "Ġì±Ħìļ©": 5004,
      "Ġì¦Ŀëªħ": 5005,
      "Ġê¸°ìļ´": 5006,
      "eveloper": 5007,
      "ëįĶëĿ¼ê³ł": 5008,
      "ĠìĹ°ìĬµ": 5009,
      "Ġë°ľëĭ¬": 5010,
      "íķ´ì¡Įëĭ¤": 5011,
      "ìĪĺëıĦ": 5012,
      "Ġì²ŃìĨĮëħĦ": 5013,
      "íĺ¸ëĬĶ": 5014,
      "íĮĶ": 5015,
      "ĠìķĦìĿ´ê°Ģ": 5016,
      "Ġìłĸ": 5017,
      "ĠìħĢ": 5018,
      "ëĭµëĭĪëĭ¤": 5019,
      "ë¦¬ë©´": 5020,
      "ëĨĵìĿĢ": 5021,
      "ĠìĦľìĦľ": 5022,
      "ĠìŀĲë¦¬ìĹĲìĦľ": 5023,
      "ĠíķĺìŀĲ": 5024,
      "02": 5025,
      "ĠëģĿìĹĲ": 5026,
      "ĠìĹ¬ëŁ¬ë¶ĦìĿĢ": 5027,
      "Ġëª¨ëĭĪ": 5028,
      "ĠìĤ¬íĥľ": 5029,
      "Ġìłģê·¹ìłģìľ¼ë¡ľ": 5030,
      "ĠíķĺëĤĺê°Ģ": 5031,
      "Ġìĭłì²´": 5032,
      "Ġê¸°ìĹ¬": 5033,
      "Ġì¼Ģ": 5034,
      "41": 5035,
      "ëģĪ": 5036,
      "Ġê´Ģê°Ŀ": 5037,
      "íĢ": 5038,
      "ssociate": 5039,
      "Ġë³´ì¡°": 5040,
      "ìĨĮìĿĺ": 5041,
      "Ġë°ĿíĺĢ": 5042,
      "ĠìĿ¼ìĹĲ": 5043,
      "Ġë¬¼ì§Ī": 5044,
      "Ġëª¨ë¥¸ëĭ¤": 5045,
      "ëĭ¨ê³Ħ": 5046,
      "ĠìłĲìĿĢ": 5047,
      "MS": 5048,
      "Ġì¢ħì¢ħ": 5049,
      "ì¹ĺê²Į": 5050,
      "ì¡°ìĤ¬": 5051,
      "ëħ¸ëıĻ": 5052,
      "ë£¬": 5053,
      "ì¶¤": 5054,
      "Ġìŀ¬ìĤ°": 5055,
      "Ġêº¼ëĤ´": 5056,
      "Ġíķ¸": 5057,
      "Ġìľłë¦¬": 5058,
      "Ġìĸ´ëłµëĭ¤": 5059,
      "Ġê¸°ìĹħìĿĺ": 5060,
      "íķŃìĹĲ": 5061,
      "Ġë¶Ħìĸĳ": 5062,
      "ĠìĿ´ìĬ¤ëĿ¼": 5063,
      "ê¸°ë§Į": 5064,
      "ìĦĿìĿ´": 5065,
      "Ġ2013": 5066,
      "ê¸°ì§Ģ": 5067,
      "ì£¼ë¡ľ": 5068,
      "Ġìĸ¸ìĸ´": 5069,
      "ĠìĿ´ìĬ¤ëĿ¼ìĹĺ": 5070,
      "ĠìķĦìĭľìķĦ": 5071,
      "ĠëĮĢíĳľìłģìĿ¸": 5072,
      "ĠìľłíĬľ": 5073,
      "ĠëĤ´ìļ©ìĿ´": 5074,
      "ĠíĺĦì§Ģ": 5075,
      "Ġë¯¿ê³ł": 5076,
      "ìłģìľ¼ë¡ľëĬĶ": 5077,
      "ìķĺê³ł": 5078,
      "ĠìķĮíĤ¬": 5079,
      "ĠëĽ°ìĸ´ëĤľ": 5080,
      "Ġm": 5081,
      "Ġê²°ìłľ": 5082,
      "íıīê°Ģ": 5083,
      "íģ¬ë¥¼": 5084,
      "Ġê²ĥë§Į": 5085,
      "ëįĶëĿ¼": 5086,
      "ĠëĦĺëĬĶ": 5087,
      "ĠìĽĲê³łê°Ģ": 5088,
      "Ġê°ľë³Ħ": 5089,
      "Ġë¬´ì²Ļ": 5090,
      "Ġíĺķíĥľë¡ľ": 5091,
      "ì¤įëĭĪëĭ¤": 5092,
      "Ġëĵ¤ìĸ´ìĦľ": 5093,
      "ĠìłģìłĪíķľ": 5094,
      "ĠìĪĺìļ©": 5095,
      "ĠìķĦìĿ´ëĶĶìĸ´": 5096,
      "Ġëªħëł¹": 5097,
      "ĠìĿĮìĭĿìĿĦ": 5098,
      "Ġë¶Ħë¦¬": 5099,
      "ëħĦëıĦ": 5100,
      "ĠëĥĦìĥĪ": 5101,
      "ĠëĤĺì¤ĳìĹĲ": 5102,
      "ĠìĪĺìĤ¬": 5103,
      "Ġì£¼ëıĦ": 5104,
      "ĠëŃĺ": 5105,
      "ĠìĿ¸íĦ°ë·°": 5106,
      "Ġì¦īìĭľ": 5107,
      "ĠëĬĲê¼": 5108,
      "ĠëĤ´ìĹĲ": 5109,
      "ë©į": 5110,
      "ĠìĭĿíĴĪ": 5111,
      "75": 5112,
      "ĠëĬĺìĸ´ëĤĺ": 5113,
      "íŀĲ": 5114,
      "ĠíĶĦë¡ľìĦ¸": 5115,
      "ĠìłľëıĦ": 5116,
      "Ġíķĺê²łìĬµëĭĪëĭ¤": 5117,
      "rac": 5118,
      "ĠíĻķìĤ°": 5119,
      "ìĿ´ìĹĲìļĶ": 5120,
      "íĨ¤": 5121,
      "ìħĢ": 5122,
      "ëģĿ": 5123,
      "be": 5124,
      "ìĬ¤ì½Ķ": 5125,
      "íı´": 5126,
      "íĮĲìĿĦ": 5127,
      "Ġë¬¸ìłľìĻĢ": 5128,
      "Ġìĸ´ëĳ": 5129,
      "ĠìĦ±ëł¹": 5130,
      "Ġë³´ì§Ģ": 5131,
      "ĠíıīíĻĶ": 5132,
      "ëĤ´ìĹĲ": 5133,
      "Ġë§ģ": 5134,
      "Ġê¸Īì§Ģ": 5135,
      "Ġê°Ģë§Į": 5136,
      "Ġì¸¡ìłķ": 5137,
      "Ġìī¬ìļ´": 5138,
      "ĠíĸĪê³ł": 5139,
      "ĠìķĮëł¤ìł¸": 5140,
      "ë¹ĦëĬĶ": 5141,
      "Ġë¯¼ê°Ħ": 5142,
      "ĠíķĦìļĶíķ©ëĭĪëĭ¤": 5143,
      "ĠìĿ´ìļ©íķ´": 5144,
      "ĠëĤ´ìĹĲìĦľ": 5145,
      "ë¬´ìĽĲ": 5146,
      "Ġìķ½ê°Ħ": 5147,
      "Ġê´Ģê³ĦìŀĲëĬĶ": 5148,
      "ĠíĤ¤ìĽĮ": 5149,
      "ê²łì£ł": 5150,
      "Ġì¤ĳê°Ħ": 5151,
      "Ġì»¬ëŁ¬": 5152,
      "ê±´ìĦ¤": 5153,
      "Ġëª¸ìĹĲ": 5154,
      "ĠìĿĺìĽĲ": 5155,
      "ë¯¹": 5156,
      "Ġìļ°ë¦¬ë¥¼": 5157,
      "ĠëĲľëĭ¤ëĬĶ": 5158,
      "Ġíĳľì¤Ģ": 5159,
      "ìª½ìĹĲ": 5160,
      "Ġëª¨ë¥´ê²Į": 5161,
      "ìĬ¤íħĮ": 5162,
      "ĠëĬĲëĤĮìĿ´": 5163,
      "ê¸Īìľµ": 5164,
      "ìĭľëĮĢ": 5165,
      "êµ¬ìļĶ": 5166,
      "ĠìŀĲê°Ģ": 5167,
      "ìĸ´ì£¼": 5168,
      "ë²ķìĹĲ": 5169,
      "ĠIn": 5170,
      "ëħĦìĹĲëĬĶ": 5171,
      "Ġíİ¸ì§ĳ": 5172,
      "ì½©": 5173,
      "Ġíķľì°¸": 5174,
      "Ġìĺµìħĺ": 5175,
      "ĠITìĹħê³Ħ": 5176,
      "28": 5177,
      "ĠìķĦê¹Į": 5178,
      "íĸ¥ìĿĦ": 5179,
      "Ġê¹¨ëģĹ": 5180,
      "ĠíĢ": 5181,
      "ĠìłĦíĻĶë¥¼": 5182,
      "Ġìłķë¶ĢìĿĺ": 5183,
      "Ġê³µìłķ": 5184,
      "ĠíķĺëĤĺëĭĺìĿĦ": 5185,
      "Ġì¶Ķêµ¬": 5186,
      "ĠìķĦëĭĲê¹Į": 5187,
      "ĠëħĢ": 5188,
      "ìºĲ": 5189,
      "Ġë¯¸ëĶĶìĸ´": 5190,
      "Ġíļ": 5191,
      "ĠìķĦìĿ´íħľ": 5192,
      "ê³¼íķĻ": 5193,
      "Ġêµ¬ê¸Ģ": 5194,
      "Ġ2012": 5195,
      "ê²ĮìļĶ": 5196,
      "ĠìĹ°ê¸°": 5197,
      "ëľ©": 5198,
      "íĺĶ": 5199,
      "ë¥Ļ": 5200,
      "ĠëĮĢêµ¬": 5201,
      "ĠìĭľìĬ¤íħľìĿĦ": 5202,
      "ĠìŀĲë£Įë¥¼": 5203,
      "Ġì°¨ë¡Ģ": 5204,
      "Ġê³µê°ĦìĿĦ": 5205,
      "BS": 5206,
      "Ġê°Ģê²©ìĿ´": 5207,
      "Ġê°Ĳê°ģ": 5208,
      "ĠìĿĺê²¬ìĿĦ": 5209,
      "Ġì¤ĳìļĶíķĺëĭ¤": 5210,
      "ĠìľĦìĹĲìĦľ": 5211,
      "ĠìĥĿê°ģíķĺê³ł": 5212,
      "ìĭĿìĿĺ": 5213,
      "Ġë²Įìį¨": 5214,
      "Ġë§Īë¬´ë¦¬": 5215,
      "ìĿ´ëĭĪ": 5216,
      "Ġë³´ìķĺëĭ¤": 5217,
      "Ġi": 5218,
      "ĠìĹ°ìĨį": 5219,
      "Ġìĸ´ì©Įë©´": 5220,
      "Ġìŀ¬ë£Į": 5221,
      "ëª¸": 5222,
      "ë¬¼ìĹĲ": 5223,
      "ìĭ¤ìĹĲìĦľ": 5224,
      "Ġ..": 5225,
      "Ġê²ĥìĿ´ë©°": 5226,
      "Ġê¸°ê³Ħ": 5227,
      "AS": 5228,
      "ĠìĤ¬ëŀĳíķĺëĬĶ": 5229,
      "Ġëº": 5230,
      "ĠëĤĺíĥĢëĤľ": 5231,
      "ĠíĨłì§Ģ": 5232,
      "Ġ90": 5233,
      "Ġì¶ľìĭł": 5234,
      "ĠìĿ¼ìĿ´ëĭ¤": 5235,
      "Ġìłģìĸ´ëıĦ": 5236,
      "íķ¨ê³¼": 5237,
      "ìĦ±ìľ¼ë¡ľ": 5238,
      "ĠíĻįíĻ©": 5239,
      "ìĤ¬ëĵ¤ìĿ´": 5240,
      "ĠëĤ¸": 5241,
      "Ġìĭľê°ĦìĹĲ": 5242,
      "Ġê°Ģë¡ľ": 5243,
      "ĠëıĻë£Į": 5244,
      "Ġëħ¸ëł¥ìĿĦ": 5245,
      "ê³łê°Ģ": 5246,
      "ë¬¼ìĿĢ": 5247,
      "ĠìĿĢíĺľ": 5248,
      "íŀĪê³ł": 5249,
      "ĠìķĦë¬´ê²ĥëıĦ": 5250,
      "Ġíķ´ìļĶ": 5251,
      "Ġê±°ëĵŃ": 5252,
      "Ġë¬´ë¦": 5253,
      "ìħ¨ëĭ¤": 5254,
      "íĬ¸ëĦĪ": 5255,
      "ĠìŀĲê¾¸": 5256,
      "Ġì¹¼ëĿ¼": 5257,
      "ìĬ¤íĮħ": 5258,
      "ĠìĶ¨ëĬĶ": 5259,
      "ìĬ¤ëłĪ": 5260,
      "Ġê¸´ìŀ¥": 5261,
      "Ġë¹Ħì¤ĳ": 5262,
      "ĠëĪĪëıĻ": 5263,
      "Ġì»¤ëĭ¤ëŀĢ": 5264,
      "ĠìĺĪìĤ°": 5265,
      "ENU": 5266,
      "ĠìłĦíĸĪëĭ¤": 5267,
      "ĠìŀĲê²©": 5268,
      "ëŀĢìĿ´": 5269,
      "âĢĻ(": 5270,
      "Ġìĺ¤ë¥´": 5271,
      "ìĿ¸ëĵ¤ìĿĢ": 5272,
      "Ġæ": 5273,
      "Ġë²ĦìłĦ": 5274,
      "ĠìĿ¼ë°ĺìłģìĿ¸": 5275,
      "86": 5276,
      "Ġê°Ķëĭ¤": 5277,
      "Ġë°±ìĭł": 5278,
      "Ġê¸°ëıħêµĲ": 5279,
      "Ġì¢ħìĤ¬": 5280,
      "Ġëĵ±ìĿĢ": 5281,
      "ê²ĮìŀĦ": 5282,
      "Ġë§¹": 5283,
      "ìŀĪê²Į": 5284,
      "ĠìķĦëıĻ": 5285,
      "Ġë§Įëĵ¤ìĸ´ì§Ħ": 5286,
      "ĠìłĦìļ©": 5287,
      "Ġëĭ¨ëĭ¨": 5288,
      "Ġì°¨ê°Ģ": 5289,
      "Ġëĭ¹íĻ©": 5290,
      "Ġê¸°ì¶ľë¬¸ìłľ": 5291,
      "ëĥĲê³ł": 5292,
      "Ġ31": 5293,
      "ĠëĨĴìĿ´": 5294,
      "ĠíĻľìĦ±íĻĶ": 5295,
      "íĶĦëĿ¼": 5296,
      "Ġì§ĳíĸī": 5297,
      "ĠìŀĪìĹĪì§Ģë§Į": 5298,
      "ĠëıĦë§Ŀ": 5299,
      "ê´ĢìĹĲ": 5300,
      "Ġë²ĪìĹŃ": 5301,
      "Ġì¹´ëĵľ": 5302,
      "ĠìĹ¬ëŁ¬ë¶ĦìĿĺ": 5303,
      "ì»´": 5304,
      "Ġëĭ´ìķĦ": 5305,
      "ìĭľíĹĺë¬¸ìłľ": 5306,
      "ĠìŀĪëĬĶëį°ìļĶ": 5307,
      "ĠìĹĨì§Ģë§Į": 5308,
      "ĠíĬĢ": 5309,
      "ĠìĪĺìĪĺ": 5310,
      "ìĿĺë¡ľ": 5311,
      "Ġë¶Ģê³¼": 5312,
      "he": 5313,
      "ĠëıĻìĺģ": 5314,
      "ĠìķĪíĥĢ": 5315,
      "ĠêµĲìĪĺëĬĶ": 5316,
      "ĠíĮĮê´´": 5317,
      "Ġëĭ¤ëħĢ": 5318,
      "ëĿ¼ìĦľ": 5319,
      "ìĸ´ëĬĶ": 5320,
      "Ġìłķê¸°": 5321,
      "ëª¨ìĿĮ": 5322,
      "ëŁīìĿĺ": 5323,
      "ĠíĴĪì§Ī": 5324,
      "Ġìį": 5325,
      "Ġì¤ĳìĨĮ": 5326,
      "Ġì§Ħëĭ¨": 5327,
      "Ġë®¤": 5328,
      "Ġê·¸ìĻĢ": 5329,
      "¤íħĮë¡ľ": 5330,
      "Ġê°Ģê³ł": 5331,
      "Ġê³¨íĶĦ": 5332,
      "ĠìĿ´ìļ©íķł": 5333,
      "ìĦ¬": 5334,
      "Ġì¦Ĳê±°": 5335,
      "Ġë¹Ħë¡Ŀ": 5336,
      "Ġê´Ģì°°": 5337,
      "ĠìŀĪìľ¼ëĤĺ": 5338,
      "ĠíĶĦëŀĳìĬ¤": 5339,
      "Ġì¡°ê¸ĪìĶ©": 5340,
      "33": 5341,
      "CIA": 5342,
      "íĥĢë¯¼": 5343,
      "ĠíĶĮëĿ¼": 5344,
      "Ġë¹Ħìľ¨": 5345,
      "Ġë¸Ķë¡ľê·¸": 5346,
      "Ġìľłìļ©": 5347,
      "ì¹¨ìĿĦ": 5348,
      "are": 5349,
      "êµĲíļĮ": 5350,
      "Ġë¹ħ": 5351,
      "ì§Ģë©°": 5352,
      "ork": 5353,
      "Ġê·¼ì²ĺ": 5354,
      "íķ´ì£¼ëĬĶ": 5355,
      "ĠìĿ´ëĵ¤ìĿĺ": 5356,
      "ëŀĢëĭ¤": 5357,
      "ĠìĿ´íĸī": 5358,
      "Ġìļ°ì£¼": 5359,
      "ĠíĮ¨íĦ´": 5360,
      "ĠìĤ¬ìĿ´ìĿĺ": 5361,
      "ĠíķĺëĤĺë¡ľ": 5362,
      "ĠìĿ´ë¡ł": 5363,
      "ì¼°": 5364,
      "êµŃìĿ´": 5365,
      "ĠìĺĪìķ½": 5366,
      "Ġíķłì§Ģ": 5367,
      "ìļĶìĿ¼": 5368,
      "ĠëĤłìķĦ": 5369,
      "ëŀ«ëıĻìķĪ": 5370,
      "Ġìĭ¬ë¦¬": 5371,
      "Ġê°Ģë¦¬": 5372,
      "íĺ¸ìĿĺ": 5373,
      "Ġìľłì¹ĺ": 5374,
      "ĠëĪĪìľ¼ë¡ľ": 5375,
      "ê´Ģëł¨": 5376,
      "IIA": 5377,
      "êµ¬ìĹĲ": 5378,
      "ëĮĢìĥģ": 5379,
      "Ġì«ĵ": 5380,
      "Ġëĭ¤ë¥´ê²Į": 5381,
      "ëį¤": 5382,
      "Ġë§ĲëıĦ": 5383,
      "Ġë³´ìĿ´ê³ł": 5384,
      "ĠìĦ¸ìĽĮ": 5385,
      "Ġê·¸ë¦¬ìĬ¤ëıĦ": 5386,
      "ma": 5387,
      "ĠíĮĮìĽĮ": 5388,
      "ĠëķĮìĹĲ": 5389,
      "ëĵ±ë¡Ŀ": 5390,
      "ë°°ë¥¼": 5391,
      "ëħĦê¹Įì§Ģ": 5392,
      "Ġ2008": 5393,
      "åŃ": 5394,
      "ì¡°ë¥¼": 5395,
      "Ġìĭľìŀ¥ìĹĲìĦľ": 5396,
      "FI": 5397,
      "Ġë°Ľìľ¼": 5398,
      "Ġë§Ĳìķĺëĭ¤": 5399,
      "Ġê·¸ëłĩëĭ¤ê³ł": 5400,
      "NR": 5401,
      "ĠíķĺëĬĲ": 5402,
      "Ġìį¼": 5403,
      "Ġ500": 5404,
      "ĠíħĲëį°": 5405,
      "ë§ĪëĶĶ": 5406,
      "Ġìŀħê³ł": 5407,
      "Ġê¹¨ëĭ«": 5408,
      "ĠíĭĪ": 5409,
      "Ġê¸°ë¶ĦìĿ´": 5410,
      "ë§Īë¥¼": 5411,
      "ĠëĤ´ê²Į": 5412,
      "ĠìŀĲìĤ°": 5413,
      "ëĭ¹ìĿ´": 5414,
      "ĠìłĦê³µ": 5415,
      "ĠìĹħë¬´ë¥¼": 5416,
      "ĠìĮį": 5417,
      "íĥĳ": 5418,
      "ìķĪìĿĺ": 5419,
      "ìķĪìłĦ": 5420,
      "ë§ĲìĿĦ": 5421,
      "ë¯¼ìĿĺ": 5422,
      "ì¡°ìĹĲ": 5423,
      "ë°Ķëĭ¥": 5424,
      "ĠìĤ¬ëĤ´": 5425,
      "ëĤ´ìļ©": 5426,
      "ĠëĦĵìĿĢ": 5427,
      "Ġìłķë¶ĢëĬĶ": 5428,
      "ĠìŀĪìĹĪëĬĶëį°": 5429,
      "ìĿ´ë²Ħ": 5430,
      "ìłķë¶Ģ": 5431,
      "ëį¤íĶĦë¡ľ": 5432,
      "ìĨĮìĨ¡": 5433,
      "ê±´ìĿĦ": 5434,
      "ë´Ĳìķ¼": 5435,
      "íĸĪìĸ´ìļĶ": 5436,
      "ĠApp": 5437,
      "55": 5438,
      "Ġìŀ¬ìĥĿ": 5439,
      "Ġê°ĲìłķìĿĦ": 5440,
      "ìĤ¬ìĹĲìĦľ": 5441,
      "ëĴ": 5442,
      "ìĭ¤ìĿ´": 5443,
      "ĠìĽĥìĹĪëĭ¤": 5444,
      "Ġì²´ê³Ħ": 5445,
      "Ġë¯¸ìķĪ": 5446,
      "Ġë§ŀìĿ´": 5447,
      "âĪ¼": 5448,
      "ĠìĪĺìŀĪëĬĶ": 5449,
      "ĠíĳľìłķìĿĦ": 5450,
      "ĠìĿ´ìķ¼ê¸°ê°Ģ": 5451,
      "Ġë¨¸ë¬¼": 5452,
      "ĠìĦ±ê³¼": 5453,
      "íķµ": 5454,
      "PC": 5455,
      "ĠëĤŃ": 5456,
      "ĠíļĮìĤ¬ê°Ģ": 5457,
      "ìĸĢ": 5458,
      "Ġìĺ¤ëŀ«ëıĻìķĪ": 5459,
      "Ġëĸ¨ìĸ´ìł¸": 5460,
      "ëķħ": 5461,
      "Ġìĺģíĺ¼": 5462,
      "Ġìĸ´ì©Ķ": 5463,
      "Ġë¡¯": 5464,
      "Developer": 5465,
      "ë¡ľìĦľìĿĺ": 5466,
      "ĠAI": 5467,
      "ãİ¡": 5468,
      "Ġë§Īì§Ģë§īìľ¼ë¡ľ": 5469,
      "ĠìĥĿíĥľ": 5470,
      "ĠPD": 5471,
      "Cloud": 5472,
      "ĠëĤĺìģľ": 5473,
      "íķľìĿĺ": 5474,
      "Ġê²ĥìĿ¸ê°Ģ": 5475,
      "ĠíĬ¹ìĪĺ": 5476,
      "ĠìķĦìĿ´ëĵ¤ìĿ´": 5477,
      "Ġë°ĽìķĦëĵ¤ìĿ´": 5478,
      "Ġë§Įëĵ¤ê¸°": 5479,
      "ĠëıħíĬ¹": 5480,
      "Ġì¡°ê°ģ": 5481,
      "2021": 5482,
      "Ġë¬´ê²Į": 5483,
      "ìľĪ": 5484,
      "Ġíĸĩ": 5485,
      "Ġë»Ķ": 5486,
      "ì²ĺë¦¬": 5487,
      "Ġìĭ¶ìĹĪëĭ¤": 5488,
      "ìŀĲëıĻ": 5489,
      "Ġê·¼ë³¸": 5490,
      "Ġì§Ħìłķíķľ": 5491,
      "ĠëĤĺìķĦ": 5492,
      "íĻĶëĬĶ": 5493,
      "Ġë°ľíĸī": 5494,
      "ìĦľìļ¸": 5495,
      "ĠìĿ¸ê¸°ë¥¼": 5496,
      "Ġë¶īìĿĢ": 5497,
      "Ġëį§ë¶Ļ": 5498,
      "ĠìĽĲê³łëĬĶ": 5499,
      "Ġë©ĭì§Ħ": 5500,
      "Ġíģ´ëĿ¼ìļ°ëĵľ": 5501,
      "Ġêµ°ìĤ¬": 5502,
      "ĠíķĺëĤĺëĭĺê»ĺ": 5503,
      "Ġ2011": 5504,
      "Ġë°ľíľĺ": 5505,
      "Ġê°Ģìĥģ": 5506,
      "ĠìĿ´ìĽĥ": 5507,
      "ĠíĬ¸ëłĮ": 5508,
      "ĠíķłìĿ¸": 5509,
      "ĠëĤ´ìļ©ìĿĢ": 5510,
      "ë¦¬ê·¸": 5511,
      "81": 5512,
      "Ġë§Įëĵ¤ìĹĪëĭ¤": 5513,
      "Ġì§ĢëĭĮ": 5514,
      "ĠëĬĲëĤĮìĿĦ": 5515,
      "ìĸ¸ìĿĦ": 5516,
      "ì¹ĺìĿĺ": 5517,
      "ìĺĪìĪł": 5518,
      "Ħ´": 5519,
      "ĠìĦ¸ìĽĶ": 5520,
      "ĠìĻ¸ìĹĲëıĦ": 5521,
      "Ġì§Ģë¶Ī": 5522,
      "li": 5523,
      "ìĭĿìĿĢ": 5524,
      "ê³µê°Ħ": 5525,
      "Ġìĭ¬ê°ģíķľ": 5526,
      "29": 5527,
      "ĠìķĦë¬´ëıĦ": 5528,
      "ĠìĿ´ë¡ľ": 5529,
      "ìĿĮìĹĲ": 5530,
      "Ġë°ĶìĻĢ": 5531,
      "ĠíĥĦìĥĿ": 5532,
      "ĠëĤĺë¦Ħ": 5533,
      "Ġíĺ¸íĿ¡": 5534,
      "Ġìĥ¤": 5535,
      "ëį¤íĶĦë¬¸ìłľ": 5536,
      "Ġê¸°íļĮ": 5537,
      "ĠìĦłíĺ¸": 5538,
      "ĠìĭľìĦł": 5539,
      "Ġê³³ê³³": 5540,
      "Ġë°ĶëĿ¼ë³´ìķĺëĭ¤": 5541,
      "ĠìĿĺë¯¸ê°Ģ": 5542,
      "ĠíĺĲ": 5543,
      "Ġê±°ëĮĢíķľ": 5544,
      "ëĩĮ": 5545,
      "Ġì±Ħë¬´": 5546,
      "ëł¥ìĹĲ": 5547,
      "ìĹ°íŀĪ": 5548,
      "Ġë³´ê±´": 5549,
      "íĸĪê¸°": 5550,
      "Ġì¹ł": 5551,
      "Ġìĺ·ìĿĦ": 5552,
      "ĠíĶ¼ê³łëĬĶ": 5553,
      "Ġë¸Ķë¡Ŀ": 5554,
      "ĠìķĮëł¤ì§Ħ": 5555,
      "ĠìĥĿì¡´": 5556,
      "65": 5557,
      "ĭ°": 5558,
      "ĠìłĪì°¨": 5559,
      "ĠëĤĺíĥĢëĤ¬ëĭ¤": 5560,
      "ĠíĻĢ": 5561,
      "Ġê³ĦíļįìĿ´ëĭ¤": 5562,
      "Ġë²łìĿ´": 5563,
      "ĠíĻķìĭ¤íŀĪ": 5564,
      "Ġëª¨ìķĦ": 5565,
      "Ġë¿ĲìĿ´ëĭ¤": 5566,
      "Ġê±´ì§Ģ": 5567,
      "ìħĶìķ¼": 5568,
      "ĠíĿĶíŀĪ": 5569,
      "íķ¨ìľ¼ë¡ľ": 5570,
      "ìħĶëıĦ": 5571,
      "hi": 5572,
      "Ġë³ĳìĽĲ": 5573,
      "Ġì¶©ë¶Ħíķľ": 5574,
      "ĠìľłíĬľë¸Į": 5575,
      "íĭ°ë¸Į": 5576,
      "Ġë¶Ģë¶ĦìĹĲ": 5577,
      "ĠíĪ": 5578,
      "ĠìĪ¨ìĿĦ": 5579,
      "Ġíķĺëįĺ": 5580,
      "Ġë²ĶìľĦ": 5581,
      "Ġìłľê³µíķ´ëĵľ": 5582,
      "Ġë¶Ħë¥ĺ": 5583,
      "ë§ĿìĿĦ": 5584,
      "Ġìŀłê¹Ĳ": 5585,
      "ë¬¸íķĻ": 5586,
      "ìĺ¤ê³ł": 5587,
      "Ġê¸°ìģ": 5588,
      "Ġëª¨ëĭĪíĦ°": 5589,
      "Ġë³´ìĹ¬ì£¼ëĬĶ": 5590,
      "ĠíıīìĥĿ": 5591,
      "ìĬ¤íĭ±": 5592,
      "Ġì±ħìĿĢ": 5593,
      "Ġì²´íģ¬": 5594,
      "ĠìĿ¸ì¦Ŀëį¤íĶĦìŀĲë£Į": 5595,
      "Ġê°Ģë§ĮíŀĪ": 5596,
      "Ġê³µê°Ĳ": 5597,
      "Ġê²½íĹĺìĿ´": 5598,
      "Ġë°ĸìľ¼ë¡ľ": 5599,
      "ìĦ¸ìĿĺ": 5600,
      "ë§Įìľ¼ë¡ľëıĦ": 5601,
      "ê¸°ëĬ¥": 5602,
      "Ġì¤ĳìĿ´ëĭ¤": 5603,
      "Ġì¶©ìłĦ": 5604,
      "ëį©": 5605,
      "Ġëľ¨ê±°ìļ´": 5606,
      "ĠìĿ¸ì§Ģ": 5607,
      "ê°ĢìļĶ": 5608,
      "åľ": 5609,
      "ëĤ¸ëĭ¤": 5610,
      "Ġëľ»ìĿĦ": 5611,
      "ĠìķĪìľ¼ë¡ľ": 5612,
      "ëįľ": 5613,
      "ĠìŀĲëĬĶ": 5614,
      "Ġë¶Ļìŀ¡": 5615,
      "ĠëĲĺê¸°": 5616,
      "Ġìĸ´ëĶĶìĦľ": 5617,
      "Ġì£¼ì°¨": 5618,
      "ëĦĺ": 5619,
      "íķ´ì§ĢëĬĶ": 5620,
      "Ġìłķì²´": 5621,
      "Ġì§ĦìĪł": 5622,
      "ëĤĺë§Ī": 5623,
      "ĠìĸĳëıĦ": 5624,
      "ine": 5625,
      "MJ": 5626,
      "Ġì§Ģê¸ĪëıĦ": 5627,
      "ë¯¼ì£¼": 5628,
      "ìĪĺìĹĲ": 5629,
      "SD": 5630,
      "Ġë°ľìĥĿíķł": 5631,
      "Ġë¸ĶëŀĻ": 5632,
      "ĠëĶ°ëľ»íķľ": 5633,
      "ĠìĬ¤íģ¬": 5634,
      "Ġê°ĦìĿĺ": 5635,
      "Ġê°ĸì¶ĺ": 5636,
      "ĠìłĲì°¨": 5637,
      "ìĦĿìĿĦ": 5638,
      "Ġê²ĥìĿ´ëĿ¼": 5639,
      "Ġê²¨ìļ°": 5640,
      "íķĺëĭ¤ê°Ģ": 5641,
      "Ġê·¸ëĵ¤ìĿĦ": 5642,
      "ì¹´ëĵľ": 5643,
      "Ġì§Ģê¸ĪìĿĺ": 5644,
      "Ġê³³ìĿĢ": 5645,
      "AWS": 5646,
      "ìĨĮíķľ": 5647,
      "ĠìĿ´ìļ©íķĺìĹ¬": 5648,
      "Ġê°Ģìķ¼": 5649,
      "ĠêµŃë¯¼ìĿĺ": 5650,
      "Ġê·¸ê²ĥëıĦ": 5651,
      "HA": 5652,
      "ĠìķĦë¬´ëŀĺëıĦ": 5653,
      "Ġê°Ħëĭ¨íķľ": 5654,
      "Ġë»Ĺ": 5655,
      "46": 5656,
      "Ġê¸°íļĮê°Ģ": 5657,
      "ST": 5658,
      "Ġë¬´ì¡°ê±´": 5659,
      "ĠìĿ´ë£¨ìĸ´ì§Ħ": 5660,
      "Ġê³ĦíļįìĿĦ": 5661,
      "ĠëĤ´ëĬĶ": 5662,
      "Ġê³ĦìĨįíķ´ìĦľ": 5663,
      "Ġë¥¼": 5664,
      "Ġìĺ®ê²¨": 5665,
      "Ġ300": 5666,
      "ĠëĤ¨ë¶ģ": 5667,
      "ê¼¬": 5668,
      "Ġë¬´ë£Įë¡ľ": 5669,
      "ĠìłķíĻķíŀĪ": 5670,
      "Ġì°¨ìĿ´": 5671,
      "ë¬¼ë¡ľ": 5672,
      "Ġì£¼ê±°": 5673,
      "ĠìķĬì§Ģë§Į": 5674,
      "ĠìĥģíĥľìĹĲìĦľ": 5675,
      "Ġë¹ĦíĬ¸": 5676,
      "Ġíķľëĭ¤ë©´": 5677,
      "Ġë°©íĸ¥ìľ¼ë¡ľ": 5678,
      "ê³¼ìłķ": 5679,
      "Ġë¡¯ëį°": 5680,
      "ĠíħĮìĿ´ë¸Ķ": 5681,
      "ĠíĮ¨ìħĺ": 5682,
      "ĠìĤ¬ìĭ¤ìĥģ": 5683,
      "Ġê²Ģì¦Ŀ": 5684,
      "Ġë¶Ħëĵ¤ìĿĢ": 5685,
      "ëł¥ìľ¼ë¡ľ": 5686,
      "ìĤ¬ëŀĳ": 5687,
      "Ġê²ĮìŀĦìĿĦ": 5688,
      "Ġê°Ģë³įê²Į": 5689,
      "mm": 5690,
      "ìĸĳìĿ´": 5691,
      "íģ´ë¡ľ": 5692,
      "Ġë¶Ģì¡±íķľ": 5693,
      "Ġìĸ´ë¥¸": 5694,
      "Ġì°¨ë¥¼": 5695,
      "ĠìĬ¤íĶ¼": 5696,
      "ĠëıĻìĥĿ": 5697,
      "Ġë¹Ħíĸī": 5698,
      "íķĺìĭľê³ł": 5699,
      "Ġê²½ê¸°ëıĦ": 5700,
      "ìĥģê³¼": 5701,
      "ia": 5702,
      "AC": 5703,
      "Ġ*": 5704,
      "ì§ĢìĹĲìĦľ": 5705,
      "Ġë©°ì¹ł": 5706,
      "Ġê³łë°±": 5707,
      "ëĭ¨ìĿĢ": 5708,
      "Ġë¬´ìĹĩìĿ´": 5709,
      "ĠCertified": 5710,
      "Ġê°Ģë²¼": 5711,
      "ìĭľë¡ľ": 5712,
      "ĠëĮĢíĻĶë¥¼": 5713,
      "Ġê°ĻìĿĢëį°": 5714,
      "ĠìĺĪìłĦ": 5715,
      "ĠíĻĪíİĺìĿ´ì§Ģ": 5716,
      "Ġìľłíļ¨": 5717,
      "¤ë²Ħ": 5718,
      "Ġëĳĺì§¸": 5719,
      "Ġê´ĳì£¼": 5720,
      "Ġíİ¸ë¦¬": 5721,
      "ë²¤": 5722,
      "ëĭĪê¹ĮìļĶ": 5723,
      "Ġë¹ĦíĥĢë¯¼": 5724,
      "ĠìķĦìĺĪ": 5725,
      "ë²ĪìĹĲ": 5726,
      "ĠìĹ´ìĸ´": 5727,
      "ê²ĥìĿ´": 5728,
      "ìĺĢê³ł": 5729,
      "Ġì§ĢìĹŃìĿĺ": 5730,
      "ì§ĳìĿĦ": 5731,
      "ĠìĿĳëĭµ": 5732,
      "ĠíĹ¬": 5733,
      "ĠìĽĲìĿĦ": 5734,
      "ê°ľê°Ģ": 5735,
      "Ġë¬¶": 5736,
      "íĪ": 5737,
      "Ġë°©íķ´": 5738,
      "ĠìĶ»": 5739,
      "ĠMB": 5740,
      "Ġëħ¸íĬ¸": 5741,
      "Ġíı¬ìĿ¸íĬ¸": 5742,
      "ĠíķĺëĭĪ": 5743,
      "Ġìĭ¤ëĤ´": 5744,
      "ĠìłĦë©´": 5745,
      "Ġìŀ¬íĮĲ": 5746,
      "ê¶": 5747,
      "Ġê·ľìłķìĹĲ": 5748,
      "ëŁ½ê²Į": 5749,
      "Ġê°ĢëģĶ": 5750,
      "Ġc": 5751,
      "Ġ2009": 5752,
      "ìħī": 5753,
      "ĠPro": 5754,
      "ĠëĪĮ": 5755,
      "Ġê°ľìĿ¸ìłķë³´ë¥¼": 5756,
      "Ġê¶Įë¦¬": 5757,
      "ĠëłĮ": 5758,
      "Ġì£¼ì§Ģ": 5759,
      "ĠìĥĿê°ģíĸĪëĭ¤": 5760,
      "Ġìħĭ": 5761,
      "ìĹĲê²ĮìĦľ": 5762,
      "ĠìķĬê¸°": 5763,
      "ìłķëıĦ": 5764,
      "Ġê±°ê¸°ìĹĲ": 5765,
      "ëĮĢìĹĲìĦľ": 5766,
      "ĠìĦłêµĲ": 5767,
      "ë³¸ëĭ¤": 5768,
      "ĠëģĬìŀĦìĹĨìĿ´": 5769,
      "ê²½ìĿĺ": 5770,
      "ĠìĹ°ìŀ¥": 5771,
      "ĠìĤ¬ìļ©íķĺê³ł": 5772,
      "ĠìķĮìķĦë³´": 5773,
      "ĠìķĦìĿ´ë¥¼": 5774,
      "Ġìĸ´ëĶ": 5775,
      "Ġë§ŀìķĦ": 5776,
      "Ġì¤Ģëĭ¤": 5777,
      "Ġëĭ¤íĿ¬": 5778,
      "ĠìĿ¸ìłķíķł": 5779,
      "Ġê±°ëĿ¼ê³ł": 5780,
      "ĠìĿ¼ì°į": 5781,
      "ĠìĿ´ìĿµìĿĦ": 5782,
      "Ġë¹Ħë¡¯íķ´": 5783,
      "ĠëĮĢë¦¬": 5784,
      "Ġìłķíķľ": 5785,
      "ëįĶëĿ¼ê³łìļĶ": 5786,
      "Ġë¯¸ìĨĮë¥¼": 5787,
      "ë¦¬íĭ°": 5788,
      "ĠëĤĺìĺ¨ëĭ¤": 5789,
      "ot": 5790,
      "ĠìĹĨìĹĪëįĺ": 5791,
      "90": 5792,
      "ĠìŀĳíĴĪìĿĦ": 5793,
      "ĠìĿ´ë²ĪìĹĲ": 5794,
      "Ġë¡ľë´ĩ": 5795,
      "Ġë§Ĳë¡ľ": 5796,
      "ĠìĭľìĽĲ": 5797,
      "Ġë§ĪìĿĮìľ¼ë¡ľ": 5798,
      "ìľĦíķľ": 5799,
      "ëŁŃìĭľ": 5800,
      "Ġê²ĥëĵ¤ìĿ´": 5801,
      "ĠìŀħìĿĢ": 5802,
      "Ġë§ĮëĤ¨": 5803,
      "ì§ĢëĤľ": 5804,
      "ë¶ĦìĿĢ": 5805,
      "ĠìķĮì§Ģ": 5806,
      "Ġë³´ìĪĺ": 5807,
      "íķ´ì§Ģê³ł": 5808,
      "ĠëĤ¼": 5809,
      "ĠìĤŃìłľ": 5810,
      "Ġìĸ´ìłľ": 5811,
      "Ġë¶ĦëªħíŀĪ": 5812,
      "Ġìĺ¤ìłĦ": 5813,
      "ëªħìľ¼ë¡ľ": 5814,
      "Ġìŀ¬ìłķ": 5815,
      "ëĨĪ": 5816,
      "Ġë¬´ë¦İ": 5817,
      "ĠëķĮë¶ĢíĦ°": 5818,
      "ë°©ìĿĺ": 5819,
      "Ġìĺ¤ì§ģ": 5820,
      "Ġê·¸ëĤł": 5821,
      "ĠìĿ´ìłĦìĹĲ": 5822,
      "ĠìŀħìĪłìĿĦ": 5823,
      "Ġìĭ¶ìĬµëĭĪëĭ¤": 5824,
      "Ġê°ķì¡°íĸĪëĭ¤": 5825,
      "ìķĬ": 5826,
      "Ġì§Īë¬¸ìĿĦ": 5827,
      "Ġëį¤íĶĦìĥĺíĶĮë¬¸ìłľ": 5828,
      "ĠìĨĮëħĢ": 5829,
      "CO": 5830,
      "ĠíĬ¹íĹĪ": 5831,
      "ëŀĢíŀĪ": 5832,
      "Ġê·¼ëį°": 5833,
      "ìĥģíĴĪ": 5834,
      "ìŀĲë§ĪìŀĲ": 5835,
      "id": 5836,
      "Ġì°½ì¶ľ": 5837,
      "',": 5838,
      "Ġë§ĮëĤł": 5839,
      "Ġêµ¬ì²´ìłģìĿ¸": 5840,
      "Ġë¶Īê°Ģ": 5841,
      "íŀĺ": 5842,
      "ìĺµëĭĪëĭ¤": 5843,
      "Ġìĭ¶ì§Ģ": 5844,
      "ĠíĹ¤íħĮë¡ľ": 5845,
      "Ġëĭ¦": 5846,
      "ìĭĿìĹĲ": 5847,
      "ëŁīìĿĢ": 5848,
      "ĠíĻĶíķĻ": 5849,
      "ë°ľìłĦ": 5850,
      "Ġê³³ìľ¼ë¡ľ": 5851,
      "ĠíĮĮìĿ¼": 5852,
      "ĠìĿ´ìĬĪ": 5853,
      "ë¦ī": 5854,
      "Ġìĭľìŀ¥ìĹĲ": 5855,
      "ìķĪìĿĢ": 5856,
      "ĠëĭµìĿĦ": 5857,
      "Ġë¸Ķë£¨": 5858,
      "ĠìķĶíĺ¸": 5859,
      "Ġê²ĥë³´ëĭ¤": 5860,
      "ìķĦìĿĺ": 5861,
      "Ġëĵ¯ìĿ´": 5862,
      "ëª¨ë¥¼": 5863,
      "Ġê¶Įíķľ": 5864,
      "ĠìŀĪê²ł": 5865,
      "Ġì§Ģíĺľ": 5866,
      "PE": 5867,
      "ì¹ĺë£Į": 5868,
      "ĠìĥģìĨį": 5869,
      "ë²ħ": 5870,
      "ëĶ±": 5871,
      "IT": 5872,
      "ĠìķĦìĿ´íı°": 5873,
      "Ġë¨¸ë¦¿": 5874,
      "Ġì¤ĳêµŃìĿĺ": 5875,
      "ë¶Ģë¡ľ": 5876,
      "Ġë¹Ħì¶Ķìĸ´": 5877,
      "ĠëĦ£ìĸ´": 5878,
      "Ġëĸ¨ìĸ´ì§Ħ": 5879,
      "ë¶Ģìŀ¥": 5880,
      "ĠíĨµìĿ¼": 5881,
      "Ġê»": 5882,
      "ĠìŀĲìĭłìĹĲê²Į": 5883,
      "íĺ¸ì¦ĿìĿĺ": 5884,
      "ĠíķĺëĤĺëĭĺê»ĺìĦľ": 5885,
      "ĠëĪĪìķŀ": 5886,
      "ìĤ¬ìĭ¤": 5887,
      "32": 5888,
      "ë¦¼ìĿĦ": 5889,
      "Ġê¸°ìĤ¬": 5890,
      "ìĹĪìĸ´ìļĶ": 5891,
      "ĠìĨĲìĿ´": 5892,
      "Ġìłľê³µíķĺê³ł": 5893,
      "ë¹ĦìĿĺ": 5894,
      "ĠìŀĲìľ¨": 5895,
      "Ġíı¬íķ¨ëĲĺìĸ´": 5896,
      "ëĲĺìĹĪê³ł": 5897,
      "Ġë³´ìĿ¼": 5898,
      "Ġíıīë²Ķ": 5899,
      "ĠêµĲìľ¡ìĿĦ": 5900,
      "ë°¤": 5901,
      "ë¹¨": 5902,
      "Ġì¶©ê²©": 5903,
      "Ġì£½ìĿĢ": 5904,
      "Ġë°Ľê²Į": 5905,
      "rch": 5906,
      "ĠëĵľëĿ¼ìĿ´": 5907,
      "íĨłë¡Ŀ": 5908,
      "Ġì°©ìļ©": 5909,
      "ĠíĶ¼íķ´ë¥¼": 5910,
      "ĠìĿ´íĥĪ": 5911,
      "ĠíİĢ": 5912,
      "Ġê·ľì¹Ļ": 5913,
      "ĠëģĿê¹Įì§Ģ": 5914,
      "Ġë´ĲëıĦ": 5915,
      "QT": 5916,
      "Ġìļ°ìĬ¹": 5917,
      "Ġì¹ĺìĹ´": 5918,
      "OS": 5919,
      "ĠëıĻëĦ¤": 5920,
      "Ġë§¤ìĪĺ": 5921,
      "ĠìĤ¬ëŀĮëıĦ": 5922,
      "Ġì¶Ķìłķ": 5923,
      "ĠíĻĺìŀĲ": 5924,
      "MP": 5925,
      "Ġëį°ëł¤": 5926,
      "ìĽ¨": 5927,
      "Ġìĭľìŀ¥ìĿĺ": 5928,
      "ìŀĲì¹ĺ": 5929,
      "600": 5930,
      "Ġì§Ħìłķ": 5931,
      "åı": 5932,
      "ì§ĢëĬ¥": 5933,
      "ĠìĿ¸ê·¼": 5934,
      "Ġë¯¸ì¹ľ": 5935,
      "ĠìĥĪë²½": 5936,
      "ĠìĪĺìĭŃ": 5937,
      "êµ°ìĿ´": 5938,
      "Ġìľłë°ľ": 5939,
      "Ġë³ĢíĻĶê°Ģ": 5940,
      "ĠìĦ¸íı¬": 5941,
      "Ġë¬´ìĹĩìĿ¸ì§Ģ": 5942,
      "Ġìĺ¬ë°Ķ": 5943,
      "ĠëĨĢìĿ´": 5944,
      "?âĢĿ": 5945,
      "ĠìĿ´ë¯¸ì§Ģ": 5946,
      "Ġê·¸ëŁ¬ëĭĪ": 5947,
      "Ġì¢ħë£Į": 5948,
      "ëģĦëŁ¬": 5949,
      "Ġë§Ĳíķ©ëĭĪëĭ¤": 5950,
      "ĠìĿ¸ìĪĺ": 5951,
      "Ġì°¨ëĭ¨": 5952,
      "ĠìĹŃìĤ¬ë¥¼": 5953,
      "Ġëĵľë¦¬": 5954,
      "Ġì°¾ê³ł": 5955,
      "Ġì§ĢìĽĲìĿĦ": 5956,
      "ĠìľłìĿ¼íķľ": 5957,
      "¤íĺ": 5958,
      "Ġ2007": 5959,
      "ëĤĺê²Į": 5960,
      "Ġëª¨ë¥´ê³ł": 5961,
      "ĠëĤ´ëĤ´": 5962,
      "ëĭ¤ìĭľ": 5963,
      "Ġê°Ģì¹ĺê°Ģ": 5964,
      "ëĭ¹ìĿĦ": 5965,
      "ĠâĹ": 5966,
      "ì¡Įê³ł": 5967,
      "Ġëĵ±ê³¼": 5968,
      "ign": 5969,
      "ĠìĨĲê°ĢëĿ½": 5970,
      "ĠíĽĮë¥Ńíķľ": 5971,
      "Ġì§ĳëĭ¨": 5972,
      "RI": 5973,
      "CW": 5974,
      "ë¡ľìĨĮ": 5975,
      "ĠíĮĮíĬ¸ëĦĪ": 5976,
      "ëł¤ìĦľ": 5977,
      "ë¦°ìĿ´": 5978,
      "ĠÂ·": 5979,
      "ĠëªħìĿ´": 5980,
      "Ġê·¸ì¤ĳ": 5981,
      "ëł¤ìķ¼": 5982,
      "ë¯¸ë¥¼": 5983,
      "Ġëª¨ë¥¼": 5984,
      "íļĮìŀ¥": 5985,
      "ê¹Ķ": 5986,
      "ĠìĪĺìĨĮ": 5987,
      "ĠíĻľë°ľ": 5988,
      "Ġê³µíĨµ": 5989,
      "Ġì´Īê³¼": 5990,
      "ì·Ħ": 5991,
      "ì§ĢëĭĪ": 5992,
      "ê¶ĮìĿĢ": 5993,
      "Ġìŀłìŀ¬": 5994,
      "Ġë©¸": 5995,
      "ĠìĦłë°°": 5996,
      "ĠìŀĲëıĻìľ¼ë¡ľ": 5997,
      "MB": 5998,
      "ĠíıŃë°ľ": 5999,
      "Ġëıĭ": 6000,
      "ĠëĮĢê·ľëª¨": 6001,
      "Ġê³µìĤ¬": 6002,
      "íķĺê²łìĬµëĭĪëĭ¤": 6003,
      "ìłľíķľ": 6004,
      "ĠìĪĺë¦½": 6005,
      "çĶ": 6006,
      "Ġíĸ¥íķľ": 6007,
      "ĠìĭľìĦłìĿ´": 6008,
      "Ġs": 6009,
      "Ġìŀ¥ëĤľ": 6010,
      "ê³µìĿĦ": 6011,
      "Ġë¶Īë¦¬ëĬĶ": 6012,
      "Ġìĺģê´ĳ": 6013,
      "ë¦¼íĶ½": 6014,
      "ĠìĬ¤íĥ": 6015,
      "ĠëĪĦêµ°ê°Ģ": 6016,
      "ìĮ": 6017,
      "Ġê°Ģë©´": 6018,
      "ëª½": 6019,
      "ĠëĲľëĭ¤ê³ł": 6020,
      "ter": 6021,
      "Ġë³´ë©´ìĦľ": 6022,
      "íķ´ì§Ī": 6023,
      "Ġë¹ļ": 6024,
      "ìĪ¨": 6025,
      "Ġìĸ¸ëĭĪ": 6026,
      "Ġìŀ¥ì¹ĺ": 6027,
      "ë§ĮìĿĢ": 6028,
      "ĠìĦ¼íĦ°": 6029,
      "ë¶ĢìĻĢ": 6030,
      "ë°©ìĨ¡": 6031,
      "ĠìĥĿíĻľìĿĦ": 6032,
      "ĠìķĦë§ĪëıĦ": 6033,
      "ê·¸ëłĪìĿ´": 6034,
      "ĠëĮĢê¸°": 6035,
      "ĠëĬĲëĤĢ": 6036,
      "Ġë§ĪìĿ´íģ¬": 6037,
      "Ġ197": 6038,
      "ĠìĭĿìľ¼ë¡ľ": 6039,
      "ant": 6040,
      "and": 6041,
      "Ġë³´ìķĦ": 6042,
      "ĠëĤ´ë¦¬": 6043,
      "Ġëĭ´ê¸´": 6044,
      "Ġê³µíı¬": 6045,
      "ë³ĳìĽĲ": 6046,
      "Ġëª½": 6047,
      "Ġì²ĺë²Į": 6048,
      "Ġíķłë¨¸ëĭĪ": 6049,
      "ìķĦëĭĪ": 6050,
      "ê¶ĮìĹĲ": 6051,
      "Ġì§Ħìŀħ": 6052,
      "ĠíĪ¬ìŀħ": 6053,
      "ĠìĦľë²Ħ": 6054,
      "ëª©ìĿ´": 6055,
      "ĠìĹĨìĸ´ìĦľ": 6056,
      "Ġíĥĳìŀ¬": 6057,
      "Ġë©Īì¶Ķ": 6058,
      "íķ´ìĦľëĬĶ": 6059,
      "ĠìĭłìĨį": 6060,
      "ĠìĿ´ìľłë¥¼": 6061,
      "Ġíķľë§ĪëĶĶ": 6062,
      "íķŃìĿĺ": 6063,
      "ĠìĥĿëŀµ": 6064,
      "ĠìĹĲìĦľ": 6065,
      "Ġê°ľìĿ¸ìĿĺ": 6066,
      "ì¢ħìĿĦ": 6067,
      "íĻĶìĻĢ": 6068,
      "ëļĿ": 6069,
      "Ġì¹´ì¹´": 6070,
      "ìĭ¬ìľ¼ë¡ľ": 6071,
      "ĠëĿ¼ëĬĶ": 6072,
      "Ġì¤ĳìļĶíķ©ëĭĪëĭ¤": 6073,
      "ĠìĿ¼ë³¸ìĿĺ": 6074,
      "Ġë¬¼ë¦¬": 6075,
      "Ġëª»íķ´": 6076,
      "ore": 6077,
      "itect": 6078,
      "Ġë¬¼ëŁ¬": 6079,
      "Ġíķĺìĭľ": 6080,
      "ĠíĨµìłľ": 6081,
      "ë°©ìĿ´": 6082,
      "Ġê·ľìłķíķĺê³ł": 6083,
      "ure": 6084,
      "Ġíģ´ëŀĺ": 6085,
      "rchitect": 6086,
      "ĠìłĦê°ľ": 6087,
      "ĠìĬ¤íĥĢìĿ¼": 6088,
      "Ġíĺ¼ëŀĢ": 6089,
      "ĠìłģìĿĳ": 6090,
      "Ġê°ķëĤ¨": 6091,
      "Ġëĵ¤ìĿĢ": 6092,
      "ĠìłķíĹĮ": 6093,
      "ìĹ¬ìķ¼": 6094,
      "Ġì¶©ì¡±": 6095,
      "ĠíĤ": 6096,
      "ĠíĸīëıĻìĿĦ": 6097,
      "ê³ĦìĹĲ": 6098,
      "Ġíķľìłķ": 6099,
      "ĠëĲĺëĬĶëį°": 6100,
      "ĠìŀĲìĦ¸íŀĪ": 6101,
      "Ġê°ĸëĬĶ": 6102,
      "Ġê¼¼": 6103,
      "ĠíİĺìĿ´ì§Ģ": 6104,
      "Ġìłķëĭ¹": 6105,
      "Ġê±´ì¡°": 6106,
      "ĠìĿ´ëŀĺ": 6107,
      "ìĭľíĹĺìĹĲ": 6108,
      "ĠìłĢëł´íķľ": 6109,
      "ĠìłķíĻķíķĺê²Į": 6110,
      "ĠìĦłë°ľ": 6111,
      "Ġìª½ìľ¼ë¡ľ": 6112,
      "ìĤ°ìĿĢ": 6113,
      "Ġê¸°íĽĦ": 6114,
      "ĠìĭľíĹĺë¬¸ìłľ": 6115,
      "Ġê³Ħìĭł": 6116,
      "Ġìĭ¤ìĭľê°Ħ": 6117,
      "ĠíĻĺê²½ìĿĦ": 6118,
      "ĠìĭĿìĤ¬": 6119,
      "ë°ĺê¸°": 6120,
      "Ġìµľì´Īë¡ľ": 6121,
      "ĠìĤ´íĶ¼": 6122,
      "íķĺìĺĢìľ¼ë©°": 6123,
      "ìļ°ë¥¼": 6124,
      "ê¸Īìľ¼ë¡ľ": 6125,
      "Ġìŀĺëª»ëĲľ": 6126,
      "Ġë©¤ë²Ħ": 6127,
      "ëĲ¨": 6128,
      "Ġëļľ": 6129,
      "Ġëª©íĳľë¥¼": 6130,
      "êµŃìĿĦ": 6131,
      "ìĹ°íķľ": 6132,
      "Ġë¬¸íķĻ": 6133,
      "ĠëĤ¨ìŀĲê°Ģ": 6134,
      "ĠìĥģëĮĢìłģìľ¼ë¡ľ": 6135,
      "ëıĻìĿ´": 6136,
      "ĠHuawei": 6137,
      "ìŀī": 6138,
      "Ġê±°ìłĪ": 6139,
      "Ġê·ľìłľ": 6140,
      "Ġë¼Ī": 6141,
      "Ġì·¨ê¸ī": 6142,
      "ìĸ´ëĤ´": 6143,
      ")'": 6144,
      "ë³´ë¥¼": 6145,
      "ìĹ°íķ©": 6146,
      "ĠìĬ¤íİĺ": 6147,
      "ê¹Įì§ĢëıĦ": 6148,
      "Ġë¬´ìĦľ": 6149,
      "ìĬ¤íĭ°": 6150,
      "ĠíĺĦìŀ¬ìĿĺ": 6151,
      "Ġìĥģëĭ¹íķľ": 6152,
      "ĠâĢĭ": 6153,
      "íķĻëħĦ": 6154,
      "Ġì²«ì§¸": 6155,
      "ìĸ´ì§ĢëĬĶ": 6156,
      "ĠìķĦë¦Ħëĭ¤": 6157,
      "ìĿ´ì£ł": 6158,
      "Ġìļ´ìĺģíķĺëĬĶ": 6159,
      "Ġë¹ĦêµĲìłģ": 6160,
      "ĠìļĶë¦¬": 6161,
      "íĻĶë¡ľ": 6162,
      "Ġì²ĺìĿĮë¶ĢíĦ°": 6163,
      "Ġë¯¸ëŀĺë¥¼": 6164,
      "ëĭ·": 6165,
      "Ġë°±ìķĦ": 6166,
      "ĠíķłìķĦë²Ħ": 6167,
      "ĠëĮĢìłĦ": 6168,
      "ĠìłĢë¥¼": 6169,
      "ĠY": 6170,
      "ê²½ê¸°": 6171,
      "ìĬ¤íĶĮ": 6172,
      "ëł¸ìĬµëĭĪëĭ¤": 6173,
      "ëĭĺê³¼": 6174,
      "ëĵľë¦´": 6175,
      "Ġìĥģíĥľë¥¼": 6176,
      "Ġëĭ¤ìĦ¯": 6177,
      "Ġë§Ĳíķĺê³ł": 6178,
      "ĠíŀĲ": 6179,
      "ë²ķìĿĢ": 6180,
      "Ġë³´ëıĦ": 6181,
      "ĠìłĪë°ĺ": 6182,
      "ĠìĺģíĻĶë¥¼": 6183,
      "ëĵ¤ìĹĪëĭ¤": 6184,
      "ĠìĥģëĮĢë¡ľ": 6185,
      "Ġìĺ¬ëĿ¼ê°Ģ": 6186,
      "ì¢ĭ": 6187,
      "ìĽĶë¶ĢíĦ°": 6188,
      "ĠìĽĥìľ¼ë©°": 6189,
      "Ġëĭ¨ìĪľíķľ": 6190,
      "íĬ¸ëĤ¨": 6191,
      "Ġê±´ê°ķíķľ": 6192,
      "ĠìĹĲìĸ´": 6193,
      "ĠìĦ¹": 6194,
      "ĠìľłìłĢ": 6195,
      "ê¸°ê¸°": 6196,
      "Ġìłľìĸ´": 6197,
      "Ġìĸ´ê¹¨ë¥¼": 6198,
      "ĠíĻķì§Ħ": 6199,
      "ë¥łìĿĦ": 6200,
      "ĠìĤ¬ê³¼": 6201,
      "ĠIIA": 6202,
      "ĠìĽĥìĿĮìĿĦ": 6203,
      "ĠíĬ¹ìĦ±": 6204,
      "ìĤ¬ìļ©": 6205,
      "ìĹ¬ìĦľ": 6206,
      "ĠìĨĶì§ģ": 6207,
      "ê³±": 6208,
      "Ġëį¤íĶĦë¹Ħìļ©": 6209,
      "Ġë°Ķê¿Ķ": 6210,
      "ĠìĬ¤íĥĢíĬ¸": 6211,
      "íĺķìĿ´": 6212,
      "ë³µìĿĦ": 6213,
      "ê°Ģê²©": 6214,
      "ĠíĮĮìĿ´": 6215,
      "ë»Ĳ": 6216,
      "ĠìĪĺì¤ĢìĿĺ": 6217,
      "TA": 6218,
      "ë²Ħë¦°": 6219,
      "ì»µ": 6220,
      "Ġê·¸ëŁ¬ìŀĲ": 6221,
      "íĨ¡": 6222,
      "ĠëĤĺê°Ī": 6223,
      "ìķĺìĿĦ": 6224,
      "ĠìľĪ": 6225,
      "Ġë¹ĦëĶĶìĺ¤": 6226,
      "Ġì£¼ë§Ĳ": 6227,
      "ìĹĲê²ĮëıĦ": 6228,
      "íķĢ": 6229,
      "Ġìĥģíĥľë¡ľ": 6230,
      "ĠìĿ´ë¯¸ì§Ģë¥¼": 6231,
      "ĠëĿ¼ê³ł": 6232,
      "Ġì¤Ģë¹Ħë¥¼": 6233,
      "Ġìĺ¤íĶĦ": 6234,
      "ê³µìĤ¬": 6235,
      "Ġë³´ìŀĲ": 6236,
      "Ġê¸°ìĹħìĿ´": 6237,
      "æĸ": 6238,
      "Ġìĸ¼êµ´ìĹĲ": 6239,
      "ĠìĤ¬ìĿ´ìĹĲìĦľ": 6240,
      "Ġìľłê¸°": 6241,
      "ì§ĢìŀĲ": 6242,
      "ìĵ¸": 6243,
      "ĠìķĬìķĺìĬµëĭĪëĭ¤": 6244,
      "íķĺê²łëĭ¤": 6245,
      "ìĥģíĥľ": 6246,
      "ì²´ëĬĶ": 6247,
      "ĠëıĪìĿ´": 6248,
      "êµŃìĿĢ": 6249,
      "Ġëĵ¤ìĿ´": 6250,
      "ìĭ¤íķľ": 6251,
      "ìĥīìĿ´": 6252,
      "Ġë§ŀê²Į": 6253,
      "ĠëıĦëĭ¬": 6254,
      "Ġìŀ¥ì°©": 6255,
      "Ġê³³ìĿĦ": 6256,
      "ĠíĿī": 6257,
      "ì¶ľìŀ¥": 6258,
      "Ġì£¼ìĹĪëĭ¤": 6259,
      "ĠìĿ½ê³ł": 6260,
      "ĠìĹ°ìķł": 6261,
      "íĢ´": 6262,
      "ĠìĿ´íķ´íķł": 6263,
      "ĠíĦ±": 6264,
      "ĠëĦĲë¦¬": 6265,
      "ë§¤í": 6266,
      "ĠìĻ¸ìĹĲ": 6267,
      "êµĲíĨµ": 6268,
      "ë¬´ë£Į": 6269,
      "ìĺ·": 6270,
      "Ġë§İê³ł": 6271,
      "ĠíĥĦìĨĮ": 6272,
      "êµ¬ì¡°": 6273,
      "Ġëĵ¤ìĸ´ìĺ¤": 6274,
      "cm": 6275,
      "ĠíĿ°": 6276,
      "TF": 6277,
      "ìķ¤": 6278,
      "ĠëĬĲëģ¼ëĬĶ": 6279,
      "ĠìłķìĭłìĿĦ": 6280,
      "ë¬¸ìĿĢ": 6281,
      "ëħ¼": 6282,
      "ëĵľìĹĲ": 6283,
      "ĠìĿ´ë¦ĦìĿ´": 6284,
      "ĠëıĻìŀĳ": 6285,
      "Ġìĸ´ëĳĲ": 6286,
      "ĠëĦ·": 6287,
      "Ġë°©ìĭĿìĿĦ": 6288,
      "Ġê±´ëĦĪ": 6289,
      "ëıĻìĿĺ": 6290,
      "ĠìĦ¸ëĮĢ": 6291,
      "Ġë¶ĦìľĦê¸°ë¥¼": 6292,
      "ĠíĴįë¶Ģíķľ": 6293,
      "ĻĶ": 6294,
      "Ġê³Ħì¢Į": 6295,
      "ë°ľìĿĦ": 6296,
      "ĠìĭłìĦł": 6297,
      "Ġê·¸ë¦¼ìĿĦ": 6298,
      "ëŃĩ": 6299,
      "ì½Ķë¡ľëĤĺ": 6300,
      "Ġë©´ìłĳ": 6301,
      "44": 6302,
      "Ġìĭ«ìĸ´": 6303,
      "ĠìĿĺìĭĿ": 6304,
      "Part": 6305,
      "ĠìķĦëĭĪì§Ģë§Į": 6306,
      "ëį°ìĿ´íĦ°": 6307,
      "ĠëĨĢëĿ¼ìļ´": 6308,
      "ĠëĤĺìĿĢ": 6309,
      "ëł·": 6310,
      "ĠìĿ¼ì£¼": 6311,
      "ëªĩ": 6312,
      "Ġìķħë§Ī": 6313,
      "ì¹¸": 6314,
      "ê¸¸ìĿ´": 6315,
      "ìŀĺ": 6316,
      "ë§¤ë¥¼": 6317,
      "ë²ķìĿĺ": 6318,
      "Ġì´Īë°ĺ": 6319,
      "ìĦ±ëıĦ": 6320,
      "ĠìĭľëĮĢìĹĲ": 6321,
      "ìĪĺìĻĢ": 6322,
      "ĠìĤ¬ìļ©íķľ": 6323,
      "ĠíİĺìĿ´ìĬ¤": 6324,
      "Ġëª©ìĨĮë¦¬ë¥¼": 6325,
      "ĠìħĪìĿ´ëĭ¤": 6326,
      "zon": 6327,
      "ëĬĲëĿ¼": 6328,
      "Ġê°¤ëŁŃìĭľ": 6329,
      "ĠìĶ¨ê°Ģ": 6330,
      "ĠìĨĮíĻĶ": 6331,
      "ìķĦëĬĶ": 6332,
      "220": 6333,
      "Ġëª©ìĨĮë¦¬ë¡ľ": 6334,
      "Ġì»¤ë®¤ëĭĪíĭ°": 6335,
      "ìĿ´ìĹĪìĬµëĭĪëĭ¤": 6336,
      "ëªħìĹĲ": 6337,
      "ëĵ±ìĿĦ": 6338,
      "Ġëª©ë¡Ŀ": 6339,
      "Ġê·¸ëĵ¤": 6340,
      "Ġì¹ĺë£Įë¥¼": 6341,
      "ĠíĺķìĤ¬": 6342,
      "æ°": 6343,
      "ë¶Ģëª¨": 6344,
      "Ġëī´ìļķ": 6345,
      "ï¼ħ": 6346,
      "CC": 6347,
      "Ġê´Ģëł¨íķĺìĹ¬": 6348,
      "Certified": 6349,
      "Ġë´ħëĭĪëĭ¤": 6350,
      "ĠíĨłë¡ł": 6351,
      "ìľłë¥¼": 6352,
      "Ġëĭ®": 6353,
      "ë¡ľìĿĺ": 6354,
      "Ġê²ĥìĿ´ë¯Ģë¡ľ": 6355,
      "Ġì´ĪëĮĢ": 6356,
      "Ġê¸°ëĬ¥ìĿ´": 6357,
      "ìŀł": 6358,
      "2011": 6359,
      "íķ´ìķ¼íķ©ëĭĪëĭ¤": 6360,
      "ëįĶêµ°ìļĶ": 6361,
      "ëĲĺê±°ëĤĺ": 6362,
      "Ġëļ«": 6363,
      "ĠìĺĪë¹Ħ": 6364,
      "51": 6365,
      "ĠíĶ¼ê³łê°Ģ": 6366,
      "ĠìĦłìĸ¸": 6367,
      "Ġìĭ¬ìĤ¬": 6368,
      "ĠíļĮìĤ¬ìĹĲ": 6369,
      "ìķ¼ë§Ĳë¡ľ": 6370,
      "ĠìĮĢ": 6371,
      "Ġíķ´ëŀĢ": 6372,
      "Ġì½ĺíħĲì¸łë¥¼": 6373,
      "ê²ģê²Į": 6374,
      "ĠìĿ¸ìĤ¬ë¥¼": 6375,
      "Ġë¬¸ìłľìĹĲ": 6376,
      "ĠìĹ°ê³Ħ": 6377,
      "Ġì¤Ħìĸ´ëĵ¤": 6378,
      "ĠìłĢìŀĳ": 6379,
      "ìķĺì§Ģë§Į": 6380,
      "Ġìĸ´ëł¤ìĽĢìĿĦ": 6381,
      "Ġë³´ì¦Ŀ": 6382,
      "Ġìķ¨": 6383,
      "ĠëĨįìĹħ": 6384,
      "êµ°ìĿĢ": 6385,
      "Ġë°ĺëĮĢë¡ľ": 6386,
      "ìłĦê±°": 6387,
      "Ġëª¨ìĬµìĿĢ": 6388,
      "êµ¬ìĹŃ": 6389,
      "ĠëĨĴëĭ¤": 6390,
      "ķìĭľ": 6391,
      "ì²Ńêµ¬": 6392,
      "ëĭ¹ìĿĺ": 6393,
      "CI": 6394,
      "Ġìĸ´ëĳł": 6395,
      "ĠìĿ´ìļ©íķľ": 6396,
      "ĠìĿĺì¡´": 6397,
      "ĠëıħíĬ¹íķľ": 6398,
      "íķĺì§ĢëĬĶ": 6399,
      "Ġê°Ģì§Ī": 6400,
      "Ġê³§ë°Ķë¡ľ": 6401,
      "ĠìĹ¬íĸīìĿĦ": 6402,
      "Ġì§ģë¬´": 6403,
      "CH": 6404,
      "ĠíĺķíĥľìĿĺ": 6405,
      "ëĮĢì¶ľ": 6406,
      "Ġâĳ¢": 6407,
      "Ġì²łíķĻ": 6408,
      "íĻĶíıĲ": 6409,
      "ĠìĬ¤íħĮ": 6410,
      "Ġê·¸ëŁ¬ëĭ¤": 6411,
      "Ġ+": 6412,
      "Ġë³´ì¡´": 6413,
      "íİĺìĿ´": 6414,
      "ĠëıĦêµ¬": 6415,
      "Ġë¯¸ìĦ¸": 6416,
      "ĠìĿ¼ëıĦ": 6417,
      "ĠìķĪìłĦíķĺê²Į": 6418,
      "Ġê²½ìłľìłģ": 6419,
      "ìĬ¤ìĹĲìĦľ": 6420,
      "Ġíķ¨ìľł": 6421,
      "Ġëĵ£ëĬĶ": 6422,
      "íħĮíģ¬": 6423,
      "ARS": 6424,
      "ĠìľłëıĦ": 6425,
      "ment": 6426,
      "ĠìĥĿê°ģíķł": 6427,
      "Ġíķ©ë¦¬": 6428,
      "ĠëıĦìĽĢ": 6429,
      "ication": 6430,
      "ĠìĤ¬ìĿ´íĬ¸ìĹĲìĦľ": 6431,
      "Ġìļ´ëıĻìĿĦ": 6432,
      "ĠìĦ±ê³¼ë¥¼": 6433,
      "ata": 6434,
      "ĠíķľìĪ¨ìĿĦ": 6435,
      "Ġìļ°ìĪĺ": 6436,
      "Ġê°ĢëĬ¥ìĦ±ìĿĦ": 6437,
      "Ġê²°ê³¼ê°Ģ": 6438,
      "ĠìĿ¸ì¦Ŀê³µë¶ĢìŀĲë£Į": 6439,
      "Ġë²¨": 6440,
      "ĠëĵľëĬĶ": 6441,
      "Ġ2006": 6442,
      "ĠíĿ¬ìĥĿ": 6443,
      "ĠìĥĿê°ģìĿĢ": 6444,
      "Ġëį°ìĿ´íĬ¸": 6445,
      "ìĿĮìĿĢ": 6446,
      "ĠìķĬìķĺëįĺ": 6447,
      "ĠíĨµíĻĶ": 6448,
      "ĠëĤĺìĹĲê²Į": 6449,
      "ë³´ë©°": 6450,
      "Ġíķ¸ëĵľ": 6451,
      "Ġì¡°ìŀĳ": 6452,
      "ìĺ¨ëĭ¤": 6453,
      "ë¿": 6454,
      "Ġëª©ìĤ¬": 6455,
      "ĠëĴ¤ë¥¼": 6456,
      "Ġë²ķëł¹": 6457,
      "Ġëªħìĭľ": 6458,
      "ë¦ĦìĿĦ": 6459,
      "ĠìĽ¨": 6460,
      "Ġë¶ĢíĻľ": 6461,
      "ĠìĹĨê²Į": 6462,
      "ìĬ¤íĥ": 6463,
      "ĠìłĲìĿ´ëĭ¤": 6464,
      "Ġì£¼ìĭł": 6465,
      "Ġìĭľìŀ¥ìĿĦ": 6466,
      "Ġì²ĺìĿĮìĹĲëĬĶ": 6467,
      "Ġì¹¨íķ´": 6468,
      "Ġìĸ»ìĿĢ": 6469,
      "ĠìĥĿê²¼": 6470,
      "Ġë¹Ħìļ©ìĿĦ": 6471,
      "Ġë³´ìŀħëĭĪëĭ¤": 6472,
      "ĠëĤłìĿ´": 6473,
      "Ġíĥľìĸ´ëĤĺ": 6474,
      "ìļ¸ëŁ¬": 6475,
      "ì²©": 6476,
      "ĠìĿ´ìĥģíķľ": 6477,
      "ë°ĸ": 6478,
      "ĠíĺĪìķ¡": 6479,
      "Ġo": 6480,
      "ĠìĿ¸ê°ĦìĿ´": 6481,
      "Ġë§¤ëĭ¬": 6482,
      "ê¸Īìķ¡": 6483,
      "96": 6484,
      "ĠêµŃë¦½": 6485,
      "ĠìłĦìĨ¡": 6486,
      "ĠìķĦëĭĪëĿ¼ëĬĶ": 6487,
      "ĠíĶĦë¦¬ë¯¸": 6488,
      "88": 6489,
      "ĠìĹĨê¸°": 6490,
      "Ġì¢ĭê³ł": 6491,
      "Ġì§Īë¬¸ìĹĲ": 6492,
      "ìłķê³¼": 6493,
      "ìĤ¬ê³ł": 6494,
      "ĠëĲĺìĹĪê³ł": 6495,
      "ĠìĿ´ê±°": 6496,
      "ĠìĨĶë£¨ìħĺ": 6497,
      "íķĺê²łëĭ¤ëĬĶ": 6498,
      "ĠìĬ¹ìĿ¸": 6499,
      "Ġì³Ĳ": 6500,
      "ution": 6501,
      "Ġíķ´ìĨĮ": 6502,
      "Ġëª°ëŀĲ": 6503,
      "ĠëŁ°": 6504,
      "ĠëĤ´ë°Ģ": 6505,
      "Ġì½©": 6506,
      "ë³´ìĦ¸ìļĶ": 6507,
      "íĸīìľĦ": 6508,
      "Ġ=": 6509,
      "ĠíĪ¬ìŀĲë¥¼": 6510,
      "ĠìĻľëĥĲ": 6511,
      "Ġë³´ê²Į": 6512,
      "Ġëª©íĳľë¡ľ": 6513,
      "ĠëĬ¥ëł¥ìĿ´": 6514,
      "ìĹĲìĦľë¶ĢíĦ°": 6515,
      "ĠìĤ´ìķĦê°ĢëĬĶ": 6516,
      "ìĿį": 6517,
      "Ġê±°ëĭ¤": 6518,
      "Ġì¡°ì¹ĺ": 6519,
      "Ġìŀ¥ë¹Ħ": 6520,
      "ĠìĿ´ê²ĥìĿĦ": 6521,
      "Ġë°ĶëĿ¼ë³´ëĬĶ": 6522,
      "ĠHPE": 6523,
      "ëį¤íĶĦê³µë¶Ģ": 6524,
      "ĠëĮĢìĥģìĿ´": 6525,
      "ìľ¨ìĿĢ": 6526,
      "Ġë³µì§Ģ": 6527,
      "Ġë¯¿ëĬĶ": 6528,
      "ĠìĦ±ìłģ": 6529,
      "ĠëıĻë°ĺ": 6530,
      "ĠëĤĺëĪł": 6531,
      "Ġë°°ìĨ¡": 6532,
      "Ġê³łê°ĿìĿĺ": 6533,
      "ìľ¼ë¡ľëıĦ": 6534,
      "Ġë¶Ħëĵ¤": 6535,
      "Ġíĳ": 6536,
      "Ġã": 6537,
      "Ġê±¸ê¹Į": 6538,
      "ĠëĳĲëĵľ": 6539,
      "ĠìĥĿê°ģìĹĲ": 6540,
      "ĠAWS": 6541,
      "ìĨĮë¦¬": 6542,
      "Ġì¹ľíĻĺê²½": 6543,
      "ë¥´ê¸°": 6544,
      "ìĦĿìĿĢ": 6545,
      "Ġëª¨ë¥¸": 6546,
      "ĠìĨĮë¹ĦìŀĲ": 6547,
      "Ġì¶ľíĮĲ": 6548,
      "ìĨĮë¡ľ": 6549,
      "dobe": 6550,
      "Ġë´Ĳìķ¼": 6551,
      "Ġë§Īìĭľ": 6552,
      "Ġë§Ĳíķľ": 6553,
      "ĠíĺĳìĿĺ": 6554,
      "37": 6555,
      "ĠêµĲì²´": 6556,
      "Ġë°ĺëıĦ": 6557,
      "Ġëģĵ": 6558,
      "ìĸ´ìĿĺ": 6559,
      "ì°¨ëĬĶ": 6560,
      "Ġíķľë°ĺ": 6561,
      "ĠìĹ°ë´ī": 6562,
      "ĠíĬ¸ëłĪìĿ´": 6563,
      "ìħĭ": 6564,
      "ĠìĤ¬ëŀĮê³¼": 6565,
      "ìĿ´íķľ": 6566,
      "Ġë³´ìĥģ": 6567,
      "ê±´ì¶ķ": 6568,
      "ĠìĿ´ë¦¬": 6569,
      "Ġë¥´ëĦ¤": 6570,
      "ëĦ£": 6571,
      "Ġë§ŀì¶Ķ": 6572,
      "Ġêµ¬ìĽĲ": 6573,
      "éģ": 6574,
      "ë¦ĦìĿ´": 6575,
      "ĠíĻĶê°Ģ": 6576,
      "ĠìĦ±ìĿ¸": 6577,
      "Ġìĭ¬ìŀ¥": 6578,
      "Ġì£¼íĸī": 6579,
      "Ġë¥ľ": 6580,
      "800": 6581,
      "Ġê³µê¸°": 6582,
      "ĠëĮĢê¸°ìĹħ": 6583,
      "ë£¸": 6584,
      "ìł¤": 6585,
      "Ġê²½ê³Ħ": 6586,
      "ĠíĮĶìĿĦ": 6587,
      "ĠìĻĢìĿ´": 6588,
      "ĠìĹĲìĿ´": 6589,
      "Ġê³Ħìķ½ìĿĦ": 6590,
      "Ġê³µë¶Ģë¥¼": 6591,
      "ok": 6592,
      "Ġì£¼ê¸°": 6593,
      "ĠìĪľìĭĿ": 6594,
      "Ġê²ĥëĵ¤ìĿĦ": 6595,
      "OO": 6596,
      "ìĥīìĿĦ": 6597,
      "Ġì¢ħìĿ´": 6598,
      "ĠìŁģ": 6599,
      "Ġëĵ¤ìĹ¬ëĭ¤": 6600,
      "ĠíķĺëĬĶì§Ģ": 6601,
      "ĠëĦ¤ìĿ´ë²Ħ": 6602,
      "ìĸĳìĿĦ": 6603,
      "ë¯¸ëħ¸": 6604,
      "ĠìĿ½ìĸ´": 6605,
      "Ġìłģì¤ĳìľ¨": 6606,
      "ì¦Īë¥¼": 6607,
      "ps": 6608,
      "Ġíģ¬ê³ł": 6609,
      "íķĺê¸°ë¥¼": 6610,
      "ĠìĿ¼íķĺëĬĶ": 6611,
      "ê²łìĬµëĭĪê¹Į": 6612,
      "ĠêµĲíĻĺ": 6613,
      "Ġëĵľë¦½ëĭĪëĭ¤": 6614,
      "ession": 6615,
      "ìĦ¸íı¬": 6616,
      "Ġê²°ë¡ł": 6617,
      "Ġë³µìŀ¡íķľ": 6618,
      "Ġ196": 6619,
      "Ġë©´ìĹŃ": 6620,
      "Ġ35": 6621,
      "íķĺê°Ģ": 6622,
      "Ġì°°": 6623,
      "ĠíĶ¼ê³łìĿĺ": 6624,
      "Ġíķĺëĵľ": 6625,
      "ìĤ¬ê±´": 6626,
      "Ġê¸°ë³¸ìłģìľ¼ë¡ľ": 6627,
      "ì¡¸": 6628,
      "ware": 6629,
      "íĬ¸ìĹĲ": 6630,
      "ìĺģìĿ´": 6631,
      "ĠìĻ¸êµŃìĿ¸": 6632,
      "Ġì»¤ë²Ħ": 6633,
      "ì¹«": 6634,
      "ë¥´ì§Ģ": 6635,
      "ê²°ê³¼": 6636,
      "Ġëį©": 6637,
      "ĠìŀĦìĭł": 6638,
      "Ġê²ī": 6639,
      "ĠëģĪ": 6640,
      "Ġìıĺ": 6641,
      "Ġ2005": 6642,
      "Ġë¹Ħìĥģ": 6643,
      "ìĺĢì§Ģë§Į": 6644,
      "ĠìłĲìľł": 6645,
      "ĠìĦ±ë¦½": 6646,
      "Ġíħį": 6647,
      "ĠìĭľíĹĺëį¤íĶĦìŀĲë£Į": 6648,
      "SAC": 6649,
      "Ġìłľëª©": 6650,
      "íĻĶíķĺëĬĶ": 6651,
      "ëĲľëĭ¤ê³ł": 6652,
      "ĠìĥģíĴĪìĿĦ": 6653,
      "ĠìĿ´ë¦Ħìľ¼ë¡ľ": 6654,
      "Ġê°ĢëĤľ": 6655,
      "Ġì¸µ": 6656,
      "ĠìĿ´íķ´íķĺê³ł": 6657,
      "ì§Ģë°©": 6658,
      "ĠìĦłíĥĿíķł": 6659,
      "Ġê°ľíĺģ": 6660,
      "ìłľëıĦ": 6661,
      "ĠìŀĳëħĦ": 6662,
      "Ġë§İìķĺëĭ¤": 6663,
      "Ġë¹ĦëĤľ": 6664,
      "Ġì§ĳìĸ´": 6665,
      "Ġê·¸ëłĩì§Ģë§Į": 6666,
      "ĠëıĦìĦľ": 6667,
      "Ġíı¬ìŀ¥": 6668,
      "Ġì¦Ŀê¶Į": 6669,
      "ĠëĤ´ê³ł": 6670,
      "ĠâĢĵ": 6671,
      "ĠMicrosoft": 6672,
      "Ġë°ľêµ´": 6673,
      "íģ°": 6674,
      "ìłĦìŁģ": 6675,
      "Ġëĭ´ìĿĢ": 6676,
      "ED": 6677,
      "89": 6678,
      "ìĭ¬íķľ": 6679,
      "Ġëĭ¨ë°±": 6680,
      "ult": 6681,
      "Ġë¯¸ì¹ĺëĬĶ": 6682,
      "íĹ¤": 6683,
      "Ġê²ĥìĿ¸": 6684,
      "ìĸĳìĿĺ": 6685,
      "ĠìķĦìĿ´ìĿĺ": 6686,
      "ĠìĹĨìľ¼ë©°": 6687,
      "Ġë§ĳ": 6688,
      "ĠìĹ¬ë¶Ģë¥¼": 6689,
      "Ġì±ĦìĽĮ": 6690,
      "olution": 6691,
      "400": 6692,
      "ìŀ¬ìĿ¸": 6693,
      "ìłĦë¬¸ê°Ģ": 6694,
      "ĠìĺĪë°°": 6695,
      "evel": 6696,
      "Ġë©Ķëª¨": 6697,
      "ì²´ìĹĲ": 6698,
      "ĠìĽĲìĿ¸": 6699,
      "Ġë³ĦëıĦìĿĺ": 6700,
      "ĠìĽ¹ìĤ¬ìĿ´íĬ¸": 6701,
      "ĠìĤ¬íķŃìĿĦ": 6702,
      ".)": 6703,
      "ĠìŀĪì£ł": 6704,
      "íĺ¸ë¡ľ": 6705,
      "ìĭĿíĴĪ": 6706,
      "Ġìĭłê¸°": 6707,
      "Ġìłľê³µíķł": 6708,
      "Ġìļ°ìļ¸": 6709,
      "Ġê¾": 6710,
      "Ġëª°ìķĦ": 6711,
      "Ġëĭ¤ë¥¼": 6712,
      "Ġë¬´ê¸°": 6713,
      "ĠìĤ¬ìĥģ": 6714,
      "Ġì¶¤": 6715,
      "ĠíķĺëĤĺë¥¼": 6716,
      "ê¹¥": 6717,
      "ĠìĿ´ëłĪëĤĺëĬĶ": 6718,
      "íĮ¡": 6719,
      "ëŀį": 6720,
      "ĠìķłëĭĪ": 6721,
      "íķ´ê°Ģ": 6722,
      "NSE": 6723,
      "ìĹĲëĦĪ": 6724,
      "Ġì¶ľê·¼": 6725,
      "Ġê°Ŀê´Ģ": 6726,
      "ìĻľ": 6727,
      "Ġì¶ĶìĦ¸": 6728,
      "ĠìĭŃìŀĲê°Ģ": 6729,
      "Ġê¸°ë³¸ìłģìĿ¸": 6730,
      "ĠíĹĽ": 6731,
      "mazon": 6732,
      "ëłĪìĬ¤": 6733,
      "Ġë³µìļ©": 6734,
      "ĠíĽĦë°ĺ": 6735,
      "ëĵ¤ìĹĲê²ĮëĬĶ": 6736,
      "ìŀħëĭĪê¹Į": 6737,
      "Ġìłķë§Ĳë¡ľ": 6738,
      "ĠìĹ¬ê²¨": 6739,
      "ê²½ìĺģ": 6740,
      "Ġëį°ëª¨": 6741,
      "101": 6742,
      "Ġëĵ±ìĹĲìĦľ": 6743,
      "Ġëĳ¥": 6744,
      "Ġëĵ¤ìĿĦ": 6745,
      "Ġë¬¼ìĿ´": 6746,
      "ĠìĨįìľ¼ë¡ľ": 6747,
      "ì§ĪíĻĺ": 6748,
      "Ġãħ": 6749,
      "ì£¼ìĭľ": 6750,
      "ĠìľĦìĿĺ": 6751,
      "ĠìĭľíĹĺìĹĲìĦľ": 6752,
      "Ġë²ķìĿ¸": 6753,
      "Ġì§ĢëĭĪ": 6754,
      "Ġê³Ħìĭľ": 6755,
      "ĠëıĻê¸°": 6756,
      "Ġìĭľê°Ħê³¼": 6757,
      "Ġë¬¸ìĿĺ": 6758,
      "36": 6759,
      "ìĤ¬ë¬´": 6760,
      "84": 6761,
      "ëł¸ëįĺ": 6762,
      "work": 6763,
      "ty": 6764,
      "Ġì¡°ì¹ĺë¥¼": 6765,
      "ë¶Ħê¸°": 6766,
      "ëĤĺë¥¼": 6767,
      "ë²ķìĿ¸": 6768,
      "Ġì°½ìĿĺ": 6769,
      "ĠíĿ¡ìĪĺ": 6770,
      "ì¡°ìĦł": 6771,
      "ĠìĿ¸ê³µì§ĢëĬ¥": 6772,
      "Ġìĺ³": 6773,
      "Ġë²łíĬ¸ëĤ¨": 6774,
      "Ġë³¸ìĿ¸": 6775,
      "Ġìĭľê°ĦìĿĢ": 6776,
      "Ġâĸ²": 6777,
      "ìĿ¸íĦ°": 6778,
      "ĠìłĢíķŃ": 6779,
      "Ġ2022": 6780,
      "å±": 6781,
      "ëĸ¡": 6782,
      "ĠìĿ´ëģĮìĸ´": 6783,
      "ë§ĿìĿ´": 6784,
      "ĠíĸĪìĿĦ": 6785,
      "íĮ©": 6786,
      "ĠìĹ°ì£¼": 6787,
      "ĠíļĮìŀ¥ìĿĢ": 6788,
      "ìĹ¬íĸī": 6789,
      "002": 6790,
      "Ġê°ĻìķĦìĦľ": 6791,
      "Ġì¾Į": 6792,
      "Ġê°ķìłľ": 6793,
      "ìĭľì¼°ëĭ¤": 6794,
      "ìĦ±íķľ": 6795,
      "ĠìĽĲìŀĲ": 6796,
      "ë°Ń": 6797,
      "ĠëĨĢëŀĢ": 6798,
      "ì°¨íĶ¼": 6799,
      "ĠìĹ´ê³ł": 6800,
      "ë¯¸íĦ°": 6801,
      "ĠìĭłëĤľ": 6802,
      "ĠìłĳìĨį": 6803,
      "ĠìĿ¸ìŀ¬": 6804,
      "99": 6805,
      "Ġë°±ìĦ±": 6806,
      "ĠìķĬëĬĶëĭ¤ëĬĶ": 6807,
      "ĠíķĺìĹ¬ê¸Ī": 6808,
      "ĠìłĦëł¥": 6809,
      "ĠìŀĲìĽĲ": 6810,
      "ìłĪìĿĦ": 6811,
      "Ġìľłíĸī": 6812,
      "Ġìĵ°ëŁ¬": 6813,
      "ĠìĹħê·¸ëłĪìĿ´": 6814,
      "Ġì»¤í": 6815,
      "ëĶª": 6816,
      "ĠìłķëıĦëĬĶ": 6817,
      "ĠíİĺìĿ´": 6818,
      "ë¡ľê°Ģ": 6819,
      "Ġì²ĺë¶Ħ": 6820,
      "ìĿ´ë²Ī": 6821,
      "ĠìĦ¸ê³Ħë¥¼": 6822,
      "ë¬¼ê³¼": 6823,
      "ê°Ĳíķľ": 6824,
      "íķĺëĵ¯": 6825,
      "ëłĪìĿ´ìħĺ": 6826,
      "ĠìĪĺëĭ¨": 6827,
      "ĠìľĦì¹ĺë¥¼": 6828,
      "ĠëªħìĺĪ": 6829,
      "ĠìĬ¤ìľĦ": 6830,
      "Ġì£¼ìĭľ": 6831,
      "ĠíĹĪëĿ½": 6832,
      "BM": 6833,
      "ì¤ĳìķĻ": 6834,
      "ver": 6835,
      "ìĭŃëĭĪê¹Į": 6836,
      "Ġë¬´ëłµ": 6837,
      "ĠìķĦë¦Ħëĭµ": 6838,
      "ìĤ´ìĿĦ": 6839,
      "Ġê·ľëª¨ìĿĺ": 6840,
      "ìłľìĻĢ": 6841,
      "Ġê±°ì£ł": 6842,
      "Ġì§ĳìľ¼ë¡ľ": 6843,
      "ìĥģëĭ´": 6844,
      "ìļĶíķľ": 6845,
      "esign": 6846,
      "ĠìĿ´ì¤ĳ": 6847,
      "ĠìłģìłĪ": 6848,
      "ĠëĮĢì²ĺ": 6849,
      "íĿĲ": 6850,
      "Ġíĳľìłķìľ¼ë¡ľ": 6851,
      "Ġë°Ķê¹¥": 6852,
      "ĠìĿ´ìĥģìĿ´": 6853,
      "íĺķìĿĺ": 6854,
      "Ġìłķì¹ĺìłģ": 6855,
      "ĠìĤ¬ìŀ¥": 6856,
      "ìĭľíĹĺìĿĢ": 6857,
      "Ġë´īìĤ¬": 6858,
      "Ġíķĺê±°ëĤĺ": 6859,
      "Ġíİ´": 6860,
      "Ġìŀ¥ë¥´": 6861,
      "êµĲìĿĺ": 6862,
      "Ġë¶ĢìĿ¸": 6863,
      "Ġëĭ¤ìĿ´ìĸ´": 6864,
      "Ġëª¨ìĬµìĹĲ": 6865,
      "Ġíıīê°Ģë¥¼": 6866,
      "ìłľìŀĳ": 6867,
      "ë¥ĺê°Ģ": 6868,
      "ĠìĬ¤íĥĢíĬ¸ìĹħ": 6869,
      "Ġê³µëª¨": 6870,
      "Ġê¸°ëĭ¤ë¦¬ê³ł": 6871,
      "fession": 6872,
      "ëĲľëĭ¤ëĬĶ": 6873,
      "ĠìĤ¬ìļ©íķĺë©´": 6874,
      "ê±°ë¦¬ë©°": 6875,
      "ĠëĿ¼ìĿ¸": 6876,
      "ĠìĪĺìĿµìĿĦ": 6877,
      "Ġë¹Ļ": 6878,
      "ĠìŀĲëĿ¼": 6879,
      "ëĵľìĻĢ": 6880,
      "Ġë°ľìĿĦ": 6881,
      "DP": 6882,
      "ĠëĤ´ìĦ¸": 6883,
      "ĠìķĪìłĦíķľ": 6884,
      "fessional": 6885,
      "ëĵ¤ìĿ´ëĭ¤": 6886,
      "Ġê´ĢëŀĮ": 6887,
      "Ġê¹ĶëģĶ": 6888,
      "ĠìĨĮìļĶ": 6889,
      "Ġë¶Ħìķ¼ìĹĲìĦľ": 6890,
      "ĠìĿ¸íĶĦëĿ¼": 6891,
      "ìĭĿê³¼": 6892,
      "ĠSNS": 6893,
      "Ġëĭ¹íķ´": 6894,
      "Ġê°ĢëĿ¼": 6895,
      "ĠìĤ¬ìļ©ìŀĲê°Ģ": 6896,
      "Ġì§Ħì§Ģ": 6897,
      "Ġíĸ¥íĸĪëĭ¤": 6898,
      "Ġìłģíķ©íķľ": 6899,
      "ĠìĥĿê¸¸": 6900,
      "ĠíĻķìĭł": 6901,
      "Ġì±Ļê²¨": 6902,
      "ĠìķĬìķĺì§Ģë§Į": 6903,
      "ëĶľ": 6904,
      "Ġíĸīë³µíķľ": 6905,
      "Ġì¡±": 6906,
      "êµŃìĹĲ": 6907,
      "ĠëĤ¨ê²¨": 6908,
      "ìĥĿíĻľìĿĦ": 6909,
      "ê°Ĳê³¼": 6910,
      "ë²Ħëł¸ëĭ¤": 6911,
      "Ġê³łê°ĿìĿ´": 6912,
      "ì¨": 6913,
      "Ġê°ĸì¶Ķ": 6914,
      "ADM": 6915,
      "Ġì¶Ķìĸµ": 6916,
      "ĠìĬĪíį¼": 6917,
      "ĠìĪľìĭĿê°ĦìĹĲ": 6918,
      "Ġëĭ¤ë¥´ëĭ¤": 6919,
      "Ġì°¾ê¸°": 6920,
      "êµŃê°Ģ": 6921,
      "Ġëª©ìĨĮë¦¬": 6922,
      "ì§ĪìĿĺ": 6923,
      "Ġíķłë¡ľ": 6924,
      "ĠìĿ¼ìĸ´ëĤľ": 6925,
      "ĠìĪłìĿĦ": 6926,
      "ë¯¸ê°Ģ": 6927,
      "Ġê°ĲìķĪ": 6928,
      "Ġëį¤íĶĦëĬĶ": 6929,
      "ĠìłľíĴĪìĿĺ": 6930,
      "Ġì¹Ńì°¬": 6931,
      "Ġìĭ¬íķľ": 6932,
      "ìŀĲëıĦ": 6933,
      "âĢĭ": 6934,
      "ĠìĿ´ìļ©íķĺëĬĶ": 6935,
      "êµŃìłľ": 6936,
      "ĠíķĻìĥĿëĵ¤ìĿ´": 6937,
      "ê°ĦìĿĦ": 6938,
      "Ġëĸ¨ìĸ´ì§ĢëĬĶ": 6939,
      "åį": 6940,
      "Ġíģ¬ëĭ¤": 6941,
      "ĠëĤ´ëĨĵ": 6942,
      "Ġì§Ģìļ±": 6943,
      "íģĲ": 6944,
      "ë¸Įë¦¬": 6945,
      "ĠìĿĳìļ©": 6946,
      "Ġ#": 6947,
      "ĠìŀĲìłĦê±°": 6948,
      "ĠëĦ£ê³ł": 6949,
      "ĠìĿ¼ìĭľ": 6950,
      "Ġë²ķìłķ": 6951,
      "íĶĦë¥¼": 6952,
      "Ġê¸¸ê²Į": 6953,
      "ê°ĸ": 6954,
      "ĠìĿ´ìĸ´ì§ĢëĬĶ": 6955,
      "ĠìķĮìķĦìķ¼": 6956,
      "ìĿ´ë¯Ģë¡ľ": 6957,
      "Ġì§ĢìĹ°": 6958,
      "ĠíļįëĵĿ": 6959,
      "Ġê°ģê°ģìĿĺ": 6960,
      "ĠìłĦë¶ĢíĦ°": 6961,
      "ê³łê¸°": 6962,
      "Ġíķĳ": 6963,
      "ëį´": 6964,
      "Ġìľ¨": 6965,
      "ĠìĿ´ë©Ķ": 6966,
      "Ġë°°ëł¤": 6967,
      "Ġì¡´ìŀ¬íķĺëĬĶ": 6968,
      "Ġêµ¬ìĦ±ëĲľ": 6969,
      "ĠìľĦê¸°": 6970,
      "Ġì£¼ë¨¹": 6971,
      "Ġ2010": 6972,
      "Ġê±¸ìĿĮ": 6973,
      "ĠìķĪëħķ": 6974,
      "49": 6975,
      "ë£°": 6976,
      "Ġì¢Įìļ°": 6977,
      "ĠêµĲê³¼": 6978,
      "Ġë©ĶìĿ´": 6979,
      "ìŀĪìĹĪëĭ¤": 6980,
      "ëª¨ëį¸": 6981,
      "Ġìĸ´ëł¤ìĽĮ": 6982,
      "Ġíİľ": 6983,
      "ĠìĦłìĥĿëĭĺ": 6984,
      "ĠìĤ½": 6985,
      "Ġì½ĶìĬ¤": 6986,
      "ĠìĿĺë¢°": 6987,
      "Ġë°ĶëŀĢëĭ¤": 6988,
      "ĠìĬ¹íĹĮ": 6989,
      "ĠìĹĶì§Ħ": 6990,
      "ë©´ìĿĺ": 6991,
      "Ńī": 6992,
      "ĠìĭĿëĭ¹": 6993,
      "Ġë°Ķëĭ¥ìĹĲ": 6994,
      "Ġê±°ì§Ģ": 6995,
      "ëĥĲëĬĶ": 6996,
      "ĠëĤ´ëł¤ëĭ¤": 6997,
      "Ġê½ī": 6998,
      "ĠìĤ¬ê±´ìĿĦ": 6999,
      "GA": 7000,
      "ĠìķĦëĭĪëĿ¼ê³ł": 7001,
      "êµ¬ë§¤": 7002,
      "ëģ¼ë¦¬": 7003,
      "íķĺëįĶëĿ¼ëıĦ": 7004,
      "ĠìĥĿê°ģë³´ëĭ¤": 7005,
      "Ġë³´ìĻĦ": 7006,
      "ë¡¬": 7007,
      "ĠìµľìłĢ": 7008,
      "ĠíĮĮíĭ°": 7009,
      "ìĦľë¡ľ": 7010,
      "Ġìµľì´ĪìĿĺ": 7011,
      "ì£¼ë¯¼": 7012,
      "ì§ģìĿĦ": 7013,
      "ĠíķĺëĤĺëĭĺìĿĢ": 7014,
      "ìĿ´ê²Į": 7015,
      "Ġê·¸ëĭ¤": 7016,
      "ĠìŀĲìĦ¸íķľ": 7017,
      "AZ": 7018,
      "ìķĺëĬĶëį°": 7019,
      "ĠìĿ´íĺ¼": 7020,
      "1909": 7021,
      "Ġì¢ħë¥ĺìĿĺ": 7022,
      "Ġë¹µ": 7023,
      "Ġê°Ģê¹Ŀ": 7024,
      "Ġì§ĢìĹŃìĹĲ": 7025,
      "Ġëĵ¤ìĸ´ê°ĢëĬĶ": 7026,
      "Ġë°ĽìķĦìķ¼": 7027,
      "Ġë°°ëĭ¬": 7028,
      "Ġì¤ĳìĸ¼": 7029,
      "ĠìĿ¸ìļ©": 7030,
      "Ġë§ĪìĬ¤íģ¬": 7031,
      "Ġë¬´ìĦł": 7032,
      "ëĮĢì²´": 7033,
      "Ġíķłê¹Į": 7034,
      "Ġìķ¡ìĦ¸": 7035,
      "ir": 7036,
      "Ġê³ĦìĹ´": 7037,
      "Ġíķľìª½": 7038,
      "ĠíħĮëĭĪê¹Į": 7039,
      "ĠìĤ¬íļĮìĿĺ": 7040,
      "ĠìķĬìľ¼ë©°": 7041,
      "ĠìĦ¸ë¶Ģ": 7042,
      "Ġë¬´ëł¤": 7043,
      "íĭ¸": 7044,
      "Ġë©į": 7045,
      "Ġë§ĽìĿ´": 7046,
      "Ġë°ĺìĿĳìĿĦ": 7047,
      "ë·Ķ": 7048,
      "ĠíĪ¬ìŁģ": 7049,
      "ĠìķĦìļ¸ëŁ¬": 7050,
      "ales": 7051,
      "Ġì§ĢìĽĲíķĺëĬĶ": 7052,
      "ê²ĥìĿĦ": 7053,
      "ìĽłëįĺ": 7054,
      "ĠíĻĶëł¤íķľ": 7055,
      "ĠìĽĢì§ģìĿ´ëĬĶ": 7056,
      "Ġìķķë°ķ": 7057,
      "ìł¸ìĦľ": 7058,
      "Ġë°ĶëŀĮìĹĲ": 7059,
      "ë¯¸ëĬĶ": 7060,
      "ĠëĪĪì¹ĺ": 7061,
      "Ġë²Ħëł¸ëĭ¤": 7062,
      "Ġëĭ´ê²¨": 7063,
      "Ġì§ĢìĭĿìĿĦ": 7064,
      "Ġì¶Ķê°Ģë¡ľ": 7065,
      "FT": 7066,
      "Ġìłķë¹Ħ": 7067,
      "ĠëĳĲëł¤ìĽĮ": 7068,
      "ĠìĤ¬ë¡ľ": 7069,
      "Ġë¶ĢëĶª": 7070,
      "Ġë¶Ħìķ¼ìĿĺ": 7071,
      "ĠìĿ¼ì¹ĺ": 7072,
      "ĠìĿ¸êµ¬": 7073,
      "Ġì£¼ê´Ģ": 7074,
      "ĠìľłëĮĢ": 7075,
      "ĠëĤ´ëł¸ëĭ¤": 7076,
      "Ġë§ĮëĤĺëĬĶ": 7077,
      "ĠìĿĺì§Ģ": 7078,
      "Ġìµľê·¼ìĹĲëĬĶ": 7079,
      "Ġìĭ¤ë¬´": 7080,
      "ĠìĦłíĥĿíķľ": 7081,
      "ìĻĶëįĺ": 7082,
      "Ġë°°ëĭ¹": 7083,
      "ĠìľłìĤ¬": 7084,
      "PL": 7085,
      "ĠìķĪìĭ¬": 7086,
      "ë¦¬íĬ¸": 7087,
      "ĠìĤ¬ìļ©íķ´": 7088,
      "íħį": 7089,
      "GAP": 7090,
      "ì¢ħìĿ´": 7091,
      "ĠìĦ¤ëĵĿ": 7092,
      "Ġëĭ¹ìĹ°íķľ": 7093,
      "Ġìĺ¤ìĽĶ": 7094,
      "Ġë°ĶìĿ´ëŁ¬ìĬ¤": 7095,
      "ĠìķŀëĳĲê³ł": 7096,
      "Ġìŀ¬ë¬´": 7097,
      "ĠìĪĺì¹ĺ": 7098,
      "ĠëĤĺê°ĢëĬĶ": 7099,
      "ë¨¼íĬ¸": 7100,
      "ĨĴ": 7101,
      "Ġë§ĲìŀħëĭĪëĭ¤": 7102,
      "ĠìĿ¼ì¢ħìĿĺ": 7103,
      "Ġë¯¸ëĿ¼": 7104,
      "Ġë°°íĦ°ë¦¬": 7105,
      "ĠíĬ¹ë³ĦíŀĪ": 7106,
      "Ġê¸Īë°©": 7107,
      "Ġê°Ħíİ¸": 7108,
      "Ġëħ¸íķĺìļ°": 7109,
      "ê°Ģì¡±": 7110,
      "Ġë©ĺ": 7111,
      "íĨ±": 7112,
      "ìļ´ìĺģ": 7113,
      "Ġëĵ¤ìĸ´ê°Ħ": 7114,
      "ow": 7115,
      "ìī½ê²Į": 7116,
      "Ġë¶ĢíĴĪ": 7117,
      "Ġì¤ĺ": 7118,
      "Ġë°Ģëł¤": 7119,
      "Ġì·¨ìķ½": 7120,
      "Ġë³µíķ©": 7121,
      "ìķĦìĭľìķĦ": 7122,
      "Ġíķľì¸µ": 7123,
      "ìľ¼ìĭł": 7124,
      "ĠëĤĺíĥĢëĤĺëĬĶ": 7125,
      "Ġì±Ħë¡ľ": 7126,
      "Ġê³łêµ¬": 7127,
      "Ġë³´ëĤ¸": 7128,
      "Ġë¹Ĺ": 7129,
      "ons": 7130,
      "ass": 7131,
      "Ġê³¼ëıĦ": 7132,
      "ĠìŀĦìĥģ": 7133,
      "ĠìŀĲìĭłë§ĮìĿĺ": 7134,
      "íķ¨ìĿĢ": 7135,
      "Ġê³łë¯¼ìĿĦ": 7136,
      "Ġëĭ´ê³ł": 7137,
      "Ġëª°ëĿ¼": 7138,
      "Ġë¡ľë§Ī": 7139,
      "Ġëª»íķľëĭ¤": 7140,
      "Level": 7141,
      "op": 7142,
      "ĠìĤ¬ëŀĮëĵ¤ê³¼": 7143,
      "Ġëª»íķĺê²Į": 7144,
      "Ġ2004": 7145,
      "Ġì§ĢëĤ´": 7146,
      "ĠíĻľìļ©íķł": 7147,
      "ê´Ģê³¼": 7148,
      "ëłĽ": 7149,
      "Ġë°©ìĸ´": 7150,
      "ëł¸ìĿĦ": 7151,
      "ĠìłľìĻ¸íķĺê³ł": 7152,
      "ĠìłľìĻ¸íķľ": 7153,
      "ĠZ": 7154,
      "ë´Ħ": 7155,
      "ë¥ľ": 7156,
      "Ġë³¸ì§Ī": 7157,
      "ìł¸ìķ¼": 7158,
      "Ġë§Īì¹ľ": 7159,
      "Ġìĵ°ì§Ģ": 7160,
      "Ġë³´ìĹ¬ì£¼ê³ł": 7161,
      "Ġìļ°ìĪĺíķľ": 7162,
      "CWM": 7163,
      "ĠìĿ¸ì¦ĿìĭľíĹĺìŀĲë£Į": 7164,
      "ë¡Ģë¥¼": 7165,
      "Ġë°©íĸ¥ìĿĦ": 7166,
      "ĠEx": 7167,
      "ĠìĦ±ëıĦ": 7168,
      "Ġë¹¼ìķĹ": 7169,
      "ĠìĽĢì§ģìŀĦ": 7170,
      "ĠìĽĮëĤĻ": 7171,
      "Ġê¸°ìĪłìĿ´": 7172,
      "íĭ±": 7173,
      "ĠëĤ«": 7174,
      "ìģĺê²Į": 7175,
      "ĠìĿ´ë²ĪìĹĲëĬĶ": 7176,
      "ìĬµìĿĦ": 7177,
      "Ġê°ĸê²Į": 7178,
      "íĨµìĿĦ": 7179,
      "Ġì£½ìĿĦ": 7180,
      ".âĢĻ": 7181,
      "Ġìłĳì´ī": 7182,
      "ëĮĢìĻĢ": 7183,
      "ĠìłĲê²Ģ": 7184,
      "Ġì±ĦíĥĿ": 7185,
      "Ġì§ĢìĹĪëĭ¤": 7186,
      "ìĦľìĻĢ": 7187,
      "Ġì»¸": 7188,
      "åĲ": 7189,
      "ëłĺ": 7190,
      "ĠìŀĲê¸Ī": 7191,
      "Ġìĺ¬ë¦¬": 7192,
      "Ġë¥ĺ": 7193,
      "êµ°ìĿĦ": 7194,
      "etwork": 7195,
      "Ġê¸īê²©": 7196,
      "Ġìŀħì¦Ŀ": 7197,
      "Ġìŀ¥ìłĲ": 7198,
      "Ġê´Ģê³Ħê°Ģ": 7199,
      "ĠìĤ¬ìļ©ëĲĺëĬĶ": 7200,
      "ĠìĽĥìĿĮ": 7201,
      "Ġëĭ¤ë¦Ħ": 7202,
      "ìĤ°íĻĶ": 7203,
      "ç¥": 7204,
      "ëĿ¼ë¦¬": 7205,
      "ë¥łìĿĢ": 7206,
      "ĠìĿ¸ê¶Į": 7207,
      "ìłĢíŀĪ": 7208,
      "ìļ°ìĬ¤": 7209,
      "ê·¸ëŁ°": 7210,
      "Ġêµ¬ë©į": 7211,
      "FC": 7212,
      "Ġë¶Ģë¥´ëĬĶ": 7213,
      "ê¼¼": 7214,
      "Ġìĸĺê¸°ë¥¼": 7215,
      "íĻľëıĻìĿĦ": 7216,
      "Ġë¶Ģìŀĳìļ©": 7217,
      "Ġì§Ģìĸ´": 7218,
      "Architect": 7219,
      "Ġë¶ĦìľĦê¸°": 7220,
      "ë¶Ħìķ¼": 7221,
      "ĠìĦ±ìŀ¥ìĿĦ": 7222,
      "Ġë¹ĽìĿĦ": 7223,
      "ĠëĨĵìĿĢ": 7224,
      "ĠìĹĳ": 7225,
      "Ġëĭ¤ëĵ¤": 7226,
      "ë¦°ìĿĢ": 7227,
      "ê´Ģê´ĳ": 7228,
      "Ġëħ¸ìĿ¸": 7229,
      "ĠíĨµê³Ħ": 7230,
      "Ġìķŀìľ¼ë¡ľëıĦ": 7231,
      "ë³´ì¦Ŀ": 7232,
      "Ġëĭµëĭµ": 7233,
      "Ġê³¼ìłķìĿ´": 7234,
      "Ġìļ´ìļ©": 7235,
      "Ġì§Ģì¶ľ": 7236,
      "Ġê¸°ìĸµìĿ´": 7237,
      "ĠëĤ´ë±": 7238,
      "ìĿ´ìĥģ": 7239,
      "ĠëĲĺëıĮ": 7240,
      "Ġë¯¸ëĭĪ": 7241,
      "ĠìŀĬì§Ģ": 7242,
      "ìĻĶìĬµëĭĪëĭ¤": 7243,
      "Ġê°ľìĦ¤": 7244,
      "Ġë©Ķìĭľì§Ģë¥¼": 7245,
      "ì¡°ê°Ģ": 7246,
      "Ġì¦ĿìĥģìĿ´": 7247,
      "ê²łìĸ´": 7248,
      "ëį¤íĶĦìĥĺíĶĮ": 7249,
      "Ġë²ĪëıĦ": 7250,
      "Ġë°©ìĹŃ": 7251,
      "Ġ2003": 7252,
      "ì°¾": 7253,
      "ĠìĽĲíĻľ": 7254,
      "Ġëĭ¤ìĿĮìĹĲ": 7255,
      "Ġìĸ´ì°¨íĶ¼": 7256,
      "Ġë°©ë²ķìĹĲ": 7257,
      "59": 7258,
      "87": 7259,
      "å·": 7260,
      "ê°Ĳëıħ": 7261,
      "Ġëĸ¡": 7262,
      "Ġê²½ê³ł": 7263,
      "ĠìĦľìļ¸ìĭľ": 7264,
      "ì°¨ìĿĺ": 7265,
      "íİľ": 7266,
      "ë²ĦìĬ¤": 7267,
      "ê¹ĥ": 7268,
      "Ġë¯¿ìĿĦ": 7269,
      "Ġë³¸ìĿ¸ìĿ´": 7270,
      "Ġìłľê³µíķľëĭ¤": 7271,
      "íĻĶíķĺê³ł": 7272,
      "ê±´ê°ķ": 7273,
      "ĠíĮ½": 7274,
      "Ġìĺ¬ë°Ķë¥¸": 7275,
      "æĿ": 7276,
      "ë¦¬ì¼ĢìĿ´ìħĺ": 7277,
      "ĠíĮ¨ìĬ¤íķĺìĹ¬": 7278,
      "ìŀħìĿĦ": 7279,
      "ĠëĲĺìĸ´ìķ¼": 7280,
      "ĠìĺĪìĻ¸": 7281,
      "ĠìĭĿë¬¼": 7282,
      "ĠìłĦëħĦ": 7283,
      "ĠìĿĮìķħìĿĦ": 7284,
      "íķłì§Ģ": 7285,
      "od": 7286,
      "ì±ħìŀĦ": 7287,
      "íĬ¹ë³Ħ": 7288,
      "Ġì§ļ": 7289,
      "ĠëĤĺë©´": 7290,
      "Ġì¶ķêµ¬": 7291,
      "ëĳĳ": 7292,
      "ĠëıĮëł¸ëĭ¤": 7293,
      "Ġë¸ĮëĿ¼": 7294,
      "ĠëĵĿ": 7295,
      "ĠìĨĮìħľ": 7296,
      "ì²´ìĿ¸": 7297,
      "Ġë¹ĦíĬ¸ì½Ķ": 7298,
      "ì£¼ìĹĲ": 7299,
      "ĠìĻľëĥĲíķĺë©´": 7300,
      "Ġìłķì±ħìĿĦ": 7301,
      "Ġíıīë²Ķíķľ": 7302,
      "Ġë¶Ģë¶Ģ": 7303,
      "íķĺìĿ´": 7304,
      "ì²ĺë¶Ħ": 7305,
      "Ġìĺ¤ëŀĺëĲľ": 7306,
      "Ġe": 7307,
      "ĠìĭľìŀĳëĲľ": 7308,
      "Ġë¬´íķľ": 7309,
      "ê¸īìĿĦ": 7310,
      "ĠëĤĺìĺ¤ê³ł": 7311,
      "ĠìĿ´ëĵ¤ìĿĦ": 7312,
      "Ġë§¤ëıĦ": 7313,
      "ìĻĢìĦľ": 7314,
      "Ġìĵ°ëłĪ": 7315,
      "ë¶ķ": 7316,
      "ĠíĿĻ": 7317,
      "Ġë§ĮëĤ¬": 7318,
      "Ġ~": 7319,
      "Ġëª¨ìĬµìľ¼ë¡ľ": 7320,
      "íĸĪìľ¼ëĤĺ": 7321,
      "!!": 7322,
      "ĠìŀĶëľ©": 7323,
      "ìŀĪìĬµëĭĪëĭ¤": 7324,
      "ëıĦìĹĲìĦľ": 7325,
      "ĠëķĮë¡ľëĬĶ": 7326,
      "Ġìĸ´ëĬĲìĥĪ": 7327,
      "Ġì§ĢíĻĺ": 7328,
      "ìĬ¤íĶ¼": 7329,
      "ĠìĦľë¥ĺ": 7330,
      "Ġë¬¸ìłľë¡ľ": 7331,
      "Ġì´ĪìłĲìĿĦ": 7332,
      "Ġë³´ìľłíķĺê³ł": 7333,
      "Ġë¶Ģì²ĺ": 7334,
      "BO": 7335,
      "Ġë¶ĢëĵľëŁ¬ìļ´": 7336,
      "ĠìŀĦê¸Ī": 7337,
      "âĢ¤": 7338,
      "Ġë§ĪìĿĮìĿĺ": 7339,
      "ìŀĲë¦¬ë¥¼": 7340,
      "ĠëŃĲê°Ģ": 7341,
      "Ġb": 7342,
      "Ġìĸ»ìĸ´": 7343,
      "íķĺê¸°ê°Ģ": 7344,
      "ĠíĻĢë¡ľ": 7345,
      "íķĺìŀĲë©´": 7346,
      "Ġìłľìķ½": 7347,
      "¼ìĨĲ": 7348,
      "Ġëªĩëªĩ": 7349,
      "ĠìĿ´ëłĩ": 7350,
      "íĬ¸ë¦¬": 7351,
      "Ġíİ¸íķĺê²Į": 7352,
      "Ġë¶ĦìĿĢ": 7353,
      "ĠìłĦëŀµìĿĦ": 7354,
      "ìĨįìĹĲìĦľ": 7355,
      "ì¤ĺìķ¼": 7356,
      "ĠìĥģìĦ¸": 7357,
      "ìĬ¤íĦ´": 7358,
      "ĳ¥": 7359,
      "ìĺ¤ëĬĺ": 7360,
      "Ġê³µê°ĦìĿ´": 7361,
      "ê²łìĸ´ìļĶ": 7362,
      "íķĺê¸°ëĬĶ": 7363,
      "Ġìĩł": 7364,
      "ĠëĤĺìĦł": 7365,
      "Ġê°Ĳìĥģ": 7366,
      "ìĭ¬ìĿĺ": 7367,
      "ĠAssociate": 7368,
      "Ġì§ĢìĨįìłģìĿ¸": 7369,
      "ĠìľłìĤ¬íķľ": 7370,
      "Ġë®¤ì§Ģ": 7371,
      "íķĺëĿ¼ê³ł": 7372,
      "ìĿ´ìļ©": 7373,
      "Ġìłķê·ľ": 7374,
      "ĠìĦ¸ê³ĦìĹĲìĦľ": 7375,
      "ĠìĨĮì¤ĳíķľ": 7376,
      "Ĭľ": 7377,
      "ĠìĽĲê³łìĹĲê²Į": 7378,
      "Ġë§ĿìĦ¤": 7379,
      "ĠìĿ´ë¥¸ë°Ķ": 7380,
      "Ġì²ľìĹ°": 7381,
      "Ġê°Ģìł¸ëĭ¤": 7382,
      "ĠìķĦë¥´": 7383,
      "ìĦłìĿĢ": 7384,
      "ĠìķĦìļ°": 7385,
      "ĠìłķíķĺëĬĶ": 7386,
      "Ġëħ¸íĬ¸ë¶ģ": 7387,
      "ìĩł": 7388,
      "ĠìĺģìĥģìĿĦ": 7389,
      "ë³´ì§Ģ": 7390,
      "ĠíħĮëĭĪ": 7391,
      "kg": 7392,
      "ĠìĭľëĮĢìĿĺ": 7393,
      "ĠìĻĦë²½íķĺê²Į": 7394,
      "ê³Ħìķ½ìĿĦ": 7395,
      "racle": 7396,
      "Ġíļ¡": 7397,
      "Ġë°ľìĨ¡": 7398,
      "ìĨĮìĹĲìĦľ": 7399,
      "ĠëĴ¤í": 7400,
      "ĠìķĦëĭĪìĹĪ": 7401,
      "éĻ": 7402,
      "ê¸°ë¡Ŀ": 7403,
      "ê³łìŀĲ": 7404,
      "Ġê³µìŀ¥": 7405,
      "Ġë¬´ë¦¬": 7406,
      "ìłĦíķľ": 7407,
      "ê°ľìĿ¸": 7408,
      "Ġê°ĢìĬ´ìĿ´": 7409,
      "ĠëķħìĹĲ": 7410,
      "Ġì¦Ĳê¸°ëĬĶ": 7411,
      "ìĿ´ëįĺ": 7412,
      "ĠìľłëĭĪ": 7413,
      "Ġì£Ħë¥¼": 7414,
      "ĠìĹ°ëł¹": 7415,
      "ĠëĪĦêµ¬ëıĦ": 7416,
      "ì¡Įëįĺ": 7417,
      "ĠìĿ´íķ´ê°Ģ": 7418,
      "ĠCP": 7419,
      "Ġë§ĪìĤ¬": 7420,
      "ĠíĺĦê¸Ī": 7421,
      "ìĽĲëıĦ": 7422,
      "íķĻìĿĺ": 7423,
      "Ġê´Ģëł¨íķľ": 7424,
      "ä»": 7425,
      "Ġìĭłë¶Ģ": 7426,
      "ĠìĤ¬ë¡ľìŀ¡": 7427,
      "Ġë¬¼ê±´ìĿĦ": 7428,
      "ĠìĹĨìĹĪìĬµëĭĪëĭ¤": 7429,
      "íĺ¸ìĻĢ": 7430,
      "Ġ2002": 7431,
      "ëĤ©ëĭĪëĭ¤": 7432,
      "ĠíĻķìĿ¸íķĺê³ł": 7433,
      "GB": 7434,
      "ĠìĿ¸ê¸°ê°Ģ": 7435,
      "ëĨĢìĿ´": 7436,
      "Ġìŀ¡ìĿĢ": 7437,
      "77": 7438,
      "Ġìºłíİĺ": 7439,
      "Ġê°Ģê³µ": 7440,
      "ĠëĤ¨ëħĢ": 7441,
      "ĠìľĦíĥģ": 7442,
      "ê³łíķľ": 7443,
      "ë©´ìľ¼ë¡ľ": 7444,
      "ĠëĤ´ìĿ¼": 7445,
      "Ġë¬´ìĹŃ": 7446,
      "ial": 7447,
      "Ġê²°ìłķìĿĦ": 7448,
      "ìĿ´ìĤ¬": 7449,
      "Ġì¸¡ë©´ìĹĲìĦľ": 7450,
      "ĠëĮĢíķ´ìĦľëıĦ": 7451,
      "ĠëĤ´ëħĦ": 7452,
      "ìŀĪìĸ´": 7453,
      "Ġêµ¬ì²´ìłģìľ¼ë¡ľ": 7454,
      "ê²°ìĿĦ": 7455,
      "êµĲë¥¼": 7456,
      "Ġìĺ¤íķ´": 7457,
      "ê°ľë¡ľ": 7458,
      "ìĬ¤íĶĮëłĪìĿ´": 7459,
      "MG": 7460,
      "ĠíķĦìļĶë¡ľ": 7461,
      "ìĦľë¹ĦìĬ¤ë¥¼": 7462,
      "ap": 7463,
      "ĠìķĪê³ł": 7464,
      "ĠìĿ´ìķ¼ê¸°ëĬĶ": 7465,
      "ĠìĪĺìĺģ": 7466,
      "íĺĳíļĮ": 7467,
      "ĠêµŃê°ĢìĿĺ": 7468,
      "ë±ħ": 7469,
      "ìĿ´ëĵł": 7470,
      "ìŀĲê³ł": 7471,
      "Ġëĭ¤íĸīíŀĪ": 7472,
      "Ġê±¸ìĿĮìĿĦ": 7473,
      "Ġì§Ģíĳľ": 7474,
      "Ġê¿Īê¾¸": 7475,
      "Ġì°½ìŀĳ": 7476,
      "ì¨Į": 7477,
      "ì¤ĳìĿĺ": 7478,
      "Ġê³±": 7479,
      "ĠìĪĺë°±": 7480,
      "Ġë§ĽìĿĦ": 7481,
      "Ġê·¸ëŀĺíĶ½": 7482,
      "ĠíĻľìļ©íķ´": 7483,
      "ë¡ľëıĦ": 7484,
      "ëī": 7485,
      "ĠëĬĲëģ¼ê²Į": 7486,
      "ĠëĲľëĭ¤ë©´": 7487,
      "ëıĻìĹĲ": 7488,
      "ìĿ´ìĹĪëįĺ": 7489,
      "ì£¼ìĹĪëĭ¤": 7490,
      "omp": 7491,
      "ìĥģíĻ©": 7492,
      "Ġëª»íĸĪëįĺ": 7493,
      "Ġëį°ë¦¬ê³ł": 7494,
      "ĠìľĦëĮĢíķľ": 7495,
      "Ġë¶Īíķ©ê²©": 7496,
      "ĠíĸīìľĦë¥¼": 7497,
      "ĠìłĢíĿ¬ëĬĶ": 7498,
      "Ġê°ľë°©": 7499,
      "Ġìĸ´ëł¤ìļ¸": 7500,
      "Ġë¶ĢìĦľ": 7501,
      "ĠëĶĶìŀĲìĿ´ëĦĪ": 7502,
      "Ġë©ĶìĿ¸": 7503,
      "Ġê°ĢìĿ´ëĵľ": 7504,
      "Ġë°Ģìĸ´": 7505,
      "Ġë°Ķìļ¸": 7506,
      "Ġê°ĸì¶Ķê³ł": 7507,
      "Ġë¶Ļìĸ´": 7508,
      "Ġëĵ¤ìĸ´ìĺ¨": 7509,
      "ëĤ´ê¸°": 7510,
      "ĠìĹ°íķ©": 7511,
      "Ġì§Ħíĸīíķĺê³ł": 7512,
      "Ġë·": 7513,
      "Ġì£¼ìĸ´": 7514,
      "Ġìĺ¤ë¥¸ìª½": 7515,
      "ê´Ģê³Ħë¥¼": 7516,
      "ĠíĿł": 7517,
      "ĠìĺĽëĤł": 7518,
      "ĠìŀĲìľłë¡Ńê²Į": 7519,
      "ëİ": 7520,
      "ĠíļĮìłĦ": 7521,
      "ĠëģĦëįķìĺĢëĭ¤": 7522,
      "ĠíĽĦìĽĲ": 7523,
      "03": 7524,
      "Ġìĸ´ëĶĺ": 7525,
      "Ġë¶ķ": 7526,
      "Ġëĭ¹ìĭłìĿĦ": 7527,
      "ëĭŃ": 7528,
      "Ġê°Ģë²¼ìļ´": 7529,
      "ĠìĥĿê¸°ëĬĶ": 7530,
      "ì¹ĺìĹĲ": 7531,
      "ĠíĺĦìŀ¥ìĹĲìĦľ": 7532,
      "ìĭ¤ìĿĺ": 7533,
      "ĠíİĺìĿ´ìĬ¤ë¶ģ": 7534,
      "ê´ĢìĹĲìĦľ": 7535,
      "íģ´ë¡ľìķĮíĤ¬": 7536,
      "ĠìĦłìĤ¬": 7537,
      "ĠìĥĺíĶĮë¬¸ìłľ": 7538,
      "ë¥´ëª¬": 7539,
      "Ġì§Ļ": 7540,
      "īģ": 7541,
      "ĠíĺľíĥĿìĿĦ": 7542,
      "ê³µìĽĲ": 7543,
      "ĠíķĢ": 7544,
      "ëĭ¹ìĿĢ": 7545,
      "ĠìĬ¤ì¼Ģ": 7546,
      "Ġë³¸ê²©ìłģìľ¼ë¡ľ": 7547,
      "Ġd": 7548,
      "ĠìĹ°ê°Ħ": 7549,
      "ĠíĬ¹ìľłìĿĺ": 7550,
      "ĠìĹ¬ìĦ±ìĿĺ": 7551,
      "ĠëĲĺë©°": 7552,
      "Ġê³łíĸ¥": 7553,
      "ìĤ´ìĿ´": 7554,
      "ĠëĤ®ìķĦ": 7555,
      "ê°ģìĿĦ": 7556,
      "ĠCloud": 7557,
      "Ġë¶Ģë¬¸": 7558,
      "ĠëĭŃ": 7559,
      "ëĿ¼ìĿĺ": 7560,
      "Ġê°Ĳìĭ¸": 7561,
      "ĠìĬ¹ë¦¬": 7562,
      "Ġê¶Įë¦¬ë¥¼": 7563,
      "ĠìĤ¬ìļ©íķĺì§Ģ": 7564,
      "ĠíĮ¨íĤ¤": 7565,
      "ĠìĦłì§Ħ": 7566,
      "Ġì¶ľìłľ": 7567,
      "ĠìĿĺëıĦ": 7568,
      "ĠíĺĦìĥģ": 7569,
      "ĠëķĮë¬¸ìĿ´ìĹĪëĭ¤": 7570,
      "ìĤ°ìĹĲ": 7571,
      "Ġìĺ¨ê°ĸ": 7572,
      "Ġëĭ¨ìĿ¼": 7573,
      "ĠìĿ½ëĬĶ": 7574,
      "Ġë¿ĲìĿ´ìĹĪëĭ¤": 7575,
      "ĠíķĺìĺĢìĬµëĭĪëĭ¤": 7576,
      "2102": 7577,
      "ëĭ¬ëĿ¼ê³ł": 7578,
      "ĠëĤ©ë¶Ģ": 7579,
      "ĠìĥģìľĦ": 7580,
      "ĠìĿ´ìĿĺ": 7581,
      "Ġ1000": 7582,
      "ìĦľëıĦ": 7583,
      "Ġì¤ĳìĨĮê¸°ìĹħ": 7584,
      "Ġëĭ´ë³´": 7585,
      "56": 7586,
      "Ġëĭ¨ìĸ´": 7587,
      "Ġìļ°ë¦¬Rayong": 7588,
      "ëĤĺëĭ¤": 7589,
      "Ġê±°ì¹ľ": 7590,
      "ë°Ģíķľ": 7591,
      "ì¶ľìŀĲë£Į": 7592,
      "ĠìĿ´íĽĦìĹĲ": 7593,
      "ĠëĤĺëĿ¼ìĿĺ": 7594,
      "ĠìĹĨìķł": 7595,
      "ìĦ¸ëĬĶ": 7596,
      "Ġë§Īì¹¨ëĤ´": 7597,
      "ĠíĶ¼ê³łìĿ¸ìĿ´": 7598,
      "ĠìĨįëıĦ": 7599,
      "Ġë³¸ìĿ¸ìĿĺ": 7600,
      "Ġëĵ¤ìĸ´ê°Ķëĭ¤": 7601,
      "Ġëª¨ìŀĦ": 7602,
      "ì¥Ĳ": 7603,
      "Ġìŀ¥ìķłìĿ¸": 7604,
      "íĺĳìĿĺ": 7605,
      "ì¤ĢìĿ´": 7606,
      "ìĸ¸ìĿ´": 7607,
      "ãĢī": 7608,
      "ĠìĤ´íİ´ë³´ë©´": 7609,
      "Ġê³łìĨį": 7610,
      "ĠìĤ¬ìłķ": 7611,
      "211": 7612,
      "Ġê°Ĳëĭ¹": 7613,
      "EX": 7614,
      "ëªħê³¼": 7615,
      "ĠìĿ¸íħĮ": 7616,
      "Ġê²½ìļ°ìĹĲëıĦ": 7617,
      "Ġë°ĿìĿĢ": 7618,
      "Ġìĸ¼ë¥¸": 7619,
      "ĠëģĿëĤľ": 7620,
      "íķĻìĬµ": 7621,
      "íķĺìĺĢëĭ¤ê³ł": 7622,
      "ì£¼ì§Ģ": 7623,
      "ĠìłĪìķ½": 7624,
      "ĠìĤ´ìķĦëĤ¨": 7625,
      "ìĭ¤ìĿĢ": 7626,
      "Ġìĺ¤ìĹ¼": 7627,
      "íķ´ë³´ìĦ¸ìļĶ": 7628,
      "ê³µëıĻ": 7629,
      "ĠëıħìŀĲ": 7630,
      "ĠìŀĪìĸ´ëıĦ": 7631,
      "ìĶ¨ìĿĺ": 7632,
      "ĠìķĦíĶĪ": 7633,
      "Ġìĸ´ëĸ¨": 7634,
      "ĠìŀĲìĭłëĵ¤ìĿĺ": 7635,
      "Ġëªħë°±": 7636,
      "Ġì¡´ì¤ĳ": 7637,
      "ĠìłķëıĦê°Ģ": 7638,
      "ĠëĮĢì±ħ": 7639,
      "Ġë¹łìł¸ëĤĺ": 7640,
      "Ġë°ĶëĿ¼ë³´ë©°": 7641,
      "ê°ĲìĹĲ": 7642,
      "Ġìĸ¸ìłł": 7643,
      "Ġê°ļ": 7644,
      "Ġê¸°ë¶Ģ": 7645,
      "48": 7646,
      "ìŀ¬ê°Ģ": 7647,
      "ê²ĥìĿĢ": 7648,
      "ĠíķĺìĭľëĬĶ": 7649,
      "ëĳĺëŁ¬": 7650,
      "ĠITìĿ¸ì¦ĿìĭľíĹĺ": 7651,
      "Ġë°ľê¸ī": 7652,
      "ĠìĿ¸ì¦ĿìĭľíĹĺëį¤íĶĦ": 7653,
      "ìĥģìĹĲìĦľ": 7654,
      ".(": 7655,
      "ìľĹ": 7656,
      "Ġìłľê³µíķ´ëĵľë¦½ëĭĪëĭ¤": 7657,
      "íķ´ìĺ¨": 7658,
      "ìŀİ": 7659,
      "ĠìĿ´ìĥģìĿĦ": 7660,
      "Ġíķĺìĭł": 7661,
      "ĠìĹĨìĸ´ìļĶ": 7662,
      "ĠìĤ¬ëŀĳìĿĺ": 7663,
      "ĠëĮĢìŀ¥": 7664,
      "ìĹĪëĭ¤ê³ł": 7665,
      "ìĭľíĤ¤ê¸°": 7666,
      "ĠìĪĺìĪĺë£Į": 7667,
      "ĠìĬ¤íĭ°": 7668,
      "ì¹ĺë©°": 7669,
      "Ġë§ĪìĿ´": 7670,
      "ĠSt": 7671,
      "Ġë¿Įë¦¬": 7672,
      "Ġìĸ´ë¦´": 7673,
      "ĠìĽĲìĿ¸ìĿ´": 7674,
      "ìľ¼ë¡ľìĦľìĿĺ": 7675,
      "æŃ": 7676,
      "ì¡°ëĬĶ": 7677,
      "ìĨĮìĻĢ": 7678,
      "ĠìĦ¸ìĥģìĿĺ": 7679,
      "Ġë°´": 7680,
      "Ġì§ĳìķĪ": 7681,
      "Ġê²¹": 7682,
      "Ġìłķë³´ê°Ģ": 7683,
      "ĠëĤ´ìļ©ìĿĺ": 7684,
      "Ġëį°ë·Ķ": 7685,
      "Ġë¦¬ë·°": 7686,
      "Ġì°¸ìľ¼ë¡ľ": 7687,
      "ëŀ©": 7688,
      "Ġì¶©ëıĮ": 7689,
      "ì§Ģêµ¬": 7690,
      "OC": 7691,
      "ë¯¼ìĿ´": 7692,
      "Ġê³łíĨµìĿĦ": 7693,
      "IN": 7694,
      "ĠìŀĦìĭľ": 7695,
      "ë¯¸ìĪł": 7696,
      "ĠíĶ¼íķ´ìŀĲ": 7697,
      "å¯": 7698,
      "Ġê³µë¬´ìĽĲ": 7699,
      "Ġê°ĢëĵĿíķľ": 7700,
      "Ġì´īì§Ħ": 7701,
      "Ġë§ĮìĿ¼": 7702,
      "ĠëĲĺë©´ìĦľ": 7703,
      "Ġê°Ģì§ĢëĬĶ": 7704,
      "Ġê³łë§Ī": 7705,
      "Ġì¼ľ": 7706,
      "Ġì¦Ĳê¸°": 7707,
      "ĠíĹ¤ìĸ´": 7708,
      "ìĭľíķľ": 7709,
      "å°": 7710,
      "ĠìķĦëŀĺë¡ľ": 7711,
      "Ġì£¼ìłľë¡ľ": 7712,
      "ìĿ´ë¡ľ": 7713,
      "ĠëŃī": 7714,
      "ĠìĽħ": 7715,
      "ë¦¬ìĬ¤íĬ¸": 7716,
      "ĠëĿ¼ìĿ´ë¸Į": 7717,
      "Sp": 7718,
      "ĠìłĢì§Ģ": 7719,
      "ìĿ´ìĹĪì§Ģë§Į": 7720,
      "ìłĦëŀµ": 7721,
      "MO": 7722,
      "Ġë³´ëĭ¤ëĬĶ": 7723,
      "ĠìĹĨìľ¼ë¯Ģë¡ľ": 7724,
      "Ġëĭ¤ìĪĺìĿĺ": 7725,
      ")-": 7726,
      "ìĽĲëĵ¤ìĿ´": 7727,
      "Ġê±´ê°Ģ": 7728,
      "ìºł": 7729,
      "Ġë§İì§Ģ": 7730,
      "Ġìľ¤íĿ¬ëĬĶ": 7731,
      "ĠìĿ´ë¥´ê¸°ê¹Įì§Ģ": 7732,
      "Huawei": 7733,
      "ê°Ģë©°": 7734,
      "ë¦¼ìĿ´": 7735,
      "Ġì¤ĢìĪĺ": 7736,
      "Ġê³°": 7737,
      "ìĤ¬ìĹħìĿĦ": 7738,
      "Ġë¹ĦëĮĢ": 7739,
      "Ġíģ´ëŁ½": 7740,
      "ë¡Ńê³ł": 7741,
      "Ġê´ĢìłĪ": 7742,
      "ê»ĺìĦľëĬĶ": 7743,
      "ĠëĮĢíĨµëł¹ìĿ´": 7744,
      "Ġì§ĢìĿĢ": 7745,
      "ĠìĹĨëĬĶëį°": 7746,
      "ĠìłľíĴĪìĿĢ": 7747,
      "ĠíĶĦë¦¬ë¯¸ìĹĦ": 7748,
      "ê²½ìĹĲ": 7749,
      "ëł¨ìĿĺ": 7750,
      "38": 7751,
      "900": 7752,
      "Ġìĭľìŀ¥ìĿ´": 7753,
      "Ġê°Ģê²©ìĹĲ": 7754,
      "Ġëĭ¬ìķĦ": 7755,
      "ĠëĥĪëĭ¤": 7756,
      "ĠìĨĮíĮĮ": 7757,
      "ĠìĻ¼ìª½": 7758,
      "ĠìĪĺëł¹": 7759,
      "Pro": 7760,
      "Ġë§Īë²ķ": 7761,
      "ĠPDF": 7762,
      "ìĤ¬ì§Ħ": 7763,
      "HANA": 7764,
      "Ġê°ľìĿ¸ìłģìľ¼ë¡ľ": 7765,
      "Ġì§ĢìĹŃìĹĲìĦľ": 7766,
      "Ġìļ´ìĺģíķĺê³ł": 7767,
      "Ġê³łëĮĢ": 7768,
      "ĠìĻ¸êµĲ": 7769,
      "ìķ¡ìĿĢ": 7770,
      "Ġë³´ê¸ī": 7771,
      "ë¦¬ì¦ĺ": 7772,
      "ĠìĨĲëĭĺ": 7773,
      "ĠëķĮìĿĺ": 7774,
      "Ġê°ĳìŀĳ": 7775,
      "Ġëį§ë¶ĻìĺĢëĭ¤": 7776,
      "Ġê±¸ëł¤": 7777,
      "ĠìĥģìĹħ": 7778,
      "Ġë²ķìłģ": 7779,
      "050": 7780,
      "ë²łìĿ´": 7781,
      "ìĺ¤ê°Ģ": 7782,
      "ëļ±": 7783,
      "ĠìłĪì°¨ë¥¼": 7784,
      "Ġë³Ģíĺ¸ìĤ¬": 7785,
      "Ġìĸ´ì¨Į": 7786,
      "ĠëĬĲê¼Ī": 7787,
      "Ġë¬¸ìŀĲ": 7788,
      "?âĢĻ": 7789,
      "ĠìĥĿìĥĿ": 7790,
      "ĠìĿ´ê³³ìĹĲ": 7791,
      "ìķĦë¦´": 7792,
      "Ġë§Īì¹ĺê³ł": 7793,
      "Ġë§Ĳíķĺë©´": 7794,
      "Ġë¹Ħìłķ": 7795,
      "Ġì¤Ħìĸ´": 7796,
      "CSC": 7797,
      "ì¦Ŀê¶Į": 7798,
      "ĠìĹ¬ìŀĲê°Ģ": 7799,
      "Ġç": 7800,
      "ë¶ĢíĦ°ëĬĶ": 7801,
      "ĠìŀħíķĻ": 7802,
      "Ġì§Ģíĸ¥": 7803,
      "Ġì¶ľìĭľíķľ": 7804,
      "ĠëĬĲê»´ì¡Įëĭ¤": 7805,
      "Ġë¬´íļ¨": 7806,
      "Ġëħ¼ëŀĢ": 7807,
      "ĠëıĮìķĦìĺ¤": 7808,
      "íķŃê³µ": 7809,
      "Ġë§¤ëĭĪ": 7810,
      "ìĦ±ìŀ¥": 7811,
      "Ġì¼ĢìĿ´ë¸Ķ": 7812,
      "ëĬ¦": 7813,
      "?)": 7814,
      "íķ´ì§Ģ": 7815,
      "ìŀĲë£Įë¥¼": 7816,
      "ĠìłĦìĽĲ": 7817,
      "ĠíĹ¤ëĵľ": 7818,
      "ĠìĿ¼ìłķíķľ": 7819,
      "ĠëĤĺëī": 7820,
      "Ġë¬¸íĻĶë¥¼": 7821,
      "ìŀĲë¡ľìĦľ": 7822,
      "Ġë³´ìĿ¸": 7823,
      "Ġë¹łì§Ħ": 7824,
      "Ġê·¸ëłĩëĭ¤": 7825,
      "Ġê·¸ë¦ĩ": 7826,
      "Ġê¸įìłķìłģìĿ¸": 7827,
      "Ġê¹ľì§Ŀ": 7828,
      "ĠìĪĺíķĻ": 7829,
      "ĠìĭľìŀĳíķĺëĬĶ": 7830,
      "Ġê°ķíķĺê²Į": 7831,
      "ì²´ë¡ľ": 7832,
      "ë¯¼ìĿĢ": 7833,
      "Ġìĭľê¸°ìĹĲ": 7834,
      "ĠìĨĲìĥģ": 7835,
      "íķĺìĹĲ": 7836,
      "Ġì¡°ìļ©íŀĪ": 7837,
      "EO": 7838,
      "ì¡°ìłľ": 7839,
      "Ġê²ĥìĿ¸ëį°": 7840,
      "Ġìŀĳê°ĢìĿĺ": 7841,
      "Ġì¶Ķìłģ": 7842,
      "ìłĦìĹĲìĦľ": 7843,
      "ìĦ¸ìĹĲ": 7844,
      "Ġê°Ģìĭľ": 7845,
      "Ġëĵ¤ìĸ´ê°Ī": 7846,
      "Ġê°Ģê²©ìĿĢ": 7847,
      "ĠëģĮê³ł": 7848,
      "ĠìłĲìĹĲ": 7849,
      "ìĺģìĿĺ": 7850,
      "Ġê±°ëŀĺë¥¼": 7851,
      "ìĦ°": 7852,
      "Ġì£¼ëĭĺìĿĺ": 7853,
      "ìķħíķľ": 7854,
      "Ġë³´ëĤ´ëĬĶ": 7855,
      "Ġëª¨íĹĺ": 7856,
      "Ġì§ģíĽĦ": 7857,
      "ë³´ëĭ¤ëıĦ": 7858,
      "Ġë§Īìĭľê³ł": 7859,
      "Ġìĺ¬ëł¸ëĭ¤": 7860,
      "ë©ĶìĿ´ìħĺ": 7861,
      "ĠíĹĮë²ķ": 7862,
      "ëĮĢíĻĶ": 7863,
      "ĠìŀĲê¸°ê°Ģ": 7864,
      "Ġìłĳì¢ħ": 7865,
      "Ġëª¬": 7866,
      "Ġëĺĳê°ĻìĿĢ": 7867,
      "ìĦłìĹĲ": 7868,
      "ìĭłìĿĢ": 7869,
      "ìķĪë§Ī": 7870,
      "ĠìķĦê°Ģ": 7871,
      "ĠëķĲ": 7872,
      "Ġì£¼ìĭĿíļĮìĤ¬": 7873,
      "ĠìķĬìķĺê³ł": 7874,
      "ìĪľìľĦ": 7875,
      "ì¡°ì§ģ": 7876,
      "Ġì§Ģíľĺ": 7877,
      "Ġë²Ĺìĸ´": 7878,
      "Ġë§¤ìŀħ": 7879,
      "ĠìĻĦíĻĶ": 7880,
      "Ġê°Ģêµ¬": 7881,
      "Ġìĭľìŀ¥ìĿĢ": 7882,
      "ìĿ´ìĻĢ": 7883,
      "Ġê·¸ìłľ": 7884,
      "Ġë°ĶëĿ¼ë³´ê³ł": 7885,
      "ĠìĥĿê°ģíķ´ë³´": 7886,
      "ĠìłľíĴĪìĿ´": 7887,
      "ĠìĭĿìĤ¬ë¥¼": 7888,
      "ĠìķĬìķĦìĦľ": 7889,
      "Ġë§ŀìĿĢ": 7890,
      "ĠíĻķìĭ¤íķľ": 7891,
      "Ġëĵľë¦´": 7892,
      "ê°ĲìĿĢ": 7893,
      "Ġêµ½": 7894,
      "ìłĦìĿĢ": 7895,
      "Ġëıħë¦½ìłģìľ¼ë¡ľ": 7896,
      "ĠìłĳìĪĺ": 7897,
      "Ġë¨¸ë¦¬ì¹´": 7898,
      "Ġê±°ë¦¬ë¥¼": 7899,
      "%),": 7900,
      "ì·Ħëĭ¤": 7901,
      "Ġë¶ĦìŁģ": 7902,
      "Ġëĭµë³Ģ": 7903,
      "Ġëĭ¨ëıħ": 7904,
      "Ġìłģì§Ģ": 7905,
      "ìĽ¨ìĿ´": 7906,
      "Ġìĭ¶ìĸ´ìĦľ": 7907,
      "ĠKT": 7908,
      "Ġêº": 7909,
      "Ġê³ĦìłĪ": 7910,
      "Ġêµ¬ìĨį": 7911,
      "ëĨĢ": 7912,
      "ĠíļĮê³Ħ": 7913,
      "Ġ45": 7914,
      "ĠìĤ¶ìĹĲ": 7915,
      "Ġë²ĦíĬ¼ìĿĦ": 7916,
      "Ġëĭ¤ìļ´ë°ĽìķĦ": 7917,
      "ë¥´íģ¬": 7918,
      "ĠìĪ¨ìĸ´": 7919,
      "ĠëĵľëĶĶìĸ´": 7920,
      "ĠìķĦëĵ¤ìĿ´": 7921,
      "ĠêµĲìĤ¬": 7922,
      "íķĺëĿ¼ëĬĶ": 7923,
      "Ġì£¼ë³ĢìĹĲ": 7924,
      "ä¹": 7925,
      "ëıĦìļ°": 7926,
      "Ġê¶Įìŀ¥": 7927,
      "ĠìĭľíĹĺëį¤íĶĦê³µë¶Ģ": 7928,
      "íķĺë¥¼": 7929,
      "Ġìĭ¬íĮĲ": 7930,
      "Ġë¹Ħë¡ľìĨĮ": 7931,
      "ĠìĬ¹ì§Ħ": 7932,
      "ê·ľì¹Ļ": 7933,
      "Ġê±°ì§ĵë§Ĳ": 7934,
      "ĠìĨĮìĭĿìĿĦ": 7935,
      "Ġì¦Ĳê²¨": 7936,
      "ìĦłê±°": 7937,
      "ĠëĤłì¹´": 7938,
      "ĠìĭľëĮĢë¥¼": 7939,
      "Ġë¶ģíķľìĿĺ": 7940,
      "ĠìĹĨìľ¼ë©´": 7941,
      "est": 7942,
      "Ġëĭ¤ëĭĪëĬĶ": 7943,
      "ĠìĨĮë©¸": 7944,
      "ĠìĿ¸ìĩĦ": 7945,
      "ĠìĿ¼ìľ¼íĤ¤": 7946,
      "Ġè": 7947,
      "ĠëĨĴìĬµëĭĪëĭ¤": 7948,
      "ĠìĭľíĹĺìĹĲ": 7949,
      "Ġëį¤íĶĦê³µë¶Ģë¬¸ìłľ": 7950,
      "ĠëĮĢíļĮ": 7951,
      "Ġê¼¼ê¼¼": 7952,
      "ĠëĬĲëģ¼ê³ł": 7953,
      "ìŀ¥íķľ": 7954,
      "Ġìłģëĭ¹": 7955,
      "Ġë²Ħë¦¬ê³ł": 7956,
      "95": 7957,
      "Ġê°Ģê¹ĮìĽĮ": 7958,
      "Ġì§Ŀ": 7959,
      "ê³łìĿĺ": 7960,
      "ë°ķíķľ": 7961,
      "Ġê·¸ëĤĺë§Ī": 7962,
      "Ġê´ĢìłĲìĹĲìĦľ": 7963,
      "Design": 7964,
      "ĠëĶľ": 7965,
      "ìķ½íĴĪ": 7966,
      "ĠëĦĮ": 7967,
      "Ġë³µìĿĮ": 7968,
      "Ġì´Īëŀĺ": 7969,
      "å¤§": 7970,
      "ì§Ģê¸Ī": 7971,
      "ĠìĤ¬ê±´ìĿ´": 7972,
      "Ġë°Ł": 7973,
      "ëĵ¤ê³ł": 7974,
      "Ġëĭ¹ëĩ¨": 7975,
      "ĠíĶ¼ê³¤": 7976,
      "Ġìĸ´ìĥī": 7977,
      "Ġê°ĢìĨį": 7978,
      "Ġë³´íİ¸": 7979,
      "Ġ&": 7980,
      "Ġë¶ĻìĹ¬": 7981,
      "ëĤŃ": 7982,
      "Ġë§īìķĦ": 7983,
      "ĠìĪĺë©´": 7984,
      "ĠëĤ¨ìŀĲìĿĺ": 7985,
      "Ġê¼´": 7986,
      "íĸĪëĬĶì§Ģ": 7987,
      "ĠìĹħê·¸ëłĪìĿ´ëĵľ": 7988,
      "ĠëĮĢë²ķìĽĲ": 7989,
      "Ġë©Ģíĭ°": 7990,
      "ĠìĦ¤í": 7991,
      "PS": 7992,
      "Ġì£¼ìŀ¥ìĿĢ": 7993,
      "66": 7994,
      "Ġë¶Īìĸ´": 7995,
      "ìķĦë¦¬": 7996,
      "Ġëª¨ìŀĲ": 7997,
      "ëł¬íķľ": 7998,
      "Ġë¬¸ìĿ´": 7999,
      "Ġíķľë°©ìĹĲ": 8000,
      "ìĭľíĶ¼": 8001,
      "Ġê³łìĥĿ": 8002,
      "Ġìłķì°©": 8003,
      "ìĽĢìĿĢ": 8004,
      "ĠìĦľë¡ľë¥¼": 8005,
      "Ġê°±": 8006,
      "Ġìŀĳê²Į": 8007,
      "Ġìĸĩ": 8008,
      "ìĨĮë¦¬ê°Ģ": 8009,
      "Ġëª¨ì§ĳ": 8010,
      "Ġíĺķìłľ": 8011,
      "ĠìľłìłĦ": 8012,
      "ì¹ĺê¸°": 8013,
      "ĠíĶ¼ë¡ľ": 8014,
      "ĠìĥĿê°ģíķĺë©´": 8015,
      "ĠìĸĳìĦ±": 8016,
      "Ġë°ĺëıĦì²´": 8017,
      "Ġíķľë²ĪìĹĲ": 8018,
      "ĠìĭľíĹĺê³µë¶Ģ": 8019,
      "ë¥´ë©°": 8020,
      "ĠìĽĶëĵľ": 8021,
      "ĠìĨįëıĦë¥¼": 8022,
      "ìłĪì°¨": 8023,
      "Ġë³´ìĹ¬ì¤Ģëĭ¤": 8024,
      "ìľłê°Ģ": 8025,
      "ê¹Įì§ĢìĿĺ": 8026,
      "ìŀĲìĤ°": 8027,
      "ë¬¸ê³¼": 8028,
      "Ġê·¸ëħĢìĹĲê²Į": 8029,
      "ĠêµŃíļĮ": 8030,
      "ë°Ľì§Ģ": 8031,
      "ĠìĹ°êµ¬ë¥¼": 8032,
      "íĺ¸ìĹĲ": 8033,
      "ìĦĿìĹĲ": 8034,
      "ê¿Ī": 8035,
      "ĠìĹĦê²©": 8036,
      "ĠìĺģìĽħ": 8037,
      "Ġì§Ħë³´": 8038,
      "ĠìŀĪìĿĦì§Ģ": 8039,
      "Ġê¹¨ìĸ´": 8040,
      "ĠìłĢíĿ¬ê°Ģ": 8041,
      "ê²ĢìĤ¬": 8042,
      "ĠëĤĺìĦ°ëĭ¤": 8043,
      "Ġìŀ¥ìĭĿ": 8044,
      "ĠëĤ´ìī¬": 8045,
      "Ġê±´ëį°": 8046,
      "Ġìłģê·¹ìłģìĿ¸": 8047,
      "ĠìļĶêµ¬íķĺëĬĶ": 8048,
      "ĠìĿ´ë¥´ëĬĶ": 8049,
      "ĠìĦ¤ëªħìĿĦ": 8050,
      "Ġê´ľíŀĪ": 8051,
      "ĠëĨĴìĿ´ëĬĶ": 8052,
      "ĠìĹĨëĭ¤ë©´": 8053,
      "ĠìĤ¬ìĭ¤ìĿ´ëĭ¤": 8054,
      "Ġëĭ¤ìĭľê¸Ī": 8055,
      "ê°Ģë£¨": 8056,
      "íĦ°ê°Ģ": 8057,
      "Ġëĭ¤ìĿĮëĤł": 8058,
      "Ġì°¢": 8059,
      "ĠìĭľíĹĺì¤Ģë¹Ħ": 8060,
      "Ġìŀ¬íĻľ": 8061,
      "ĠëĤ´ë±ī": 8062,
      "ãĢĮ": 8063,
      "ĠëĬĲê»´ì§ĢëĬĶ": 8064,
      "ëį¤íĶĦìĿĺ": 8065,
      "ĠíĽĦìĹĲëĬĶ": 8066,
      "Ġìĭľê³µ": 8067,
      "ĠìĤ¬ê¸°": 8068,
      "ĠíĻľìļ©íķľ": 8069,
      "ìĪŃ": 8070,
      "ìĺģìĿĢ": 8071,
      "ìĿ¼ê³¼": 8072,
      "ĠìķĬëĭ¤ëĬĶ": 8073,
      "Ġìĥģíĥľê°Ģ": 8074,
      "ĠêµŃë°©": 8075,
      "ĠìĬ¤íİ": 8076,
      "ĠíĶĮëĿ¼ìĬ¤íĭ±": 8077,
      "Ġê³łëĵ±íķĻêµĲ": 8078,
      "Ġìķ¨ë²Ķ": 8079,
      "ë¬´ëĬĶ": 8080,
      "Ġê´Ģê´ĳê°Ŀ": 8081,
      "ĠíķŃëª©": 8082,
      "Ġìĸµìłľ": 8083,
      "Ġì¡°ìĸ¸": 8084,
      "ĠëĤĺìĺ¤ì§Ģ": 8085,
      "Ġìŀħìŀ¥ìĿĦ": 8086,
      "Ġì¤ĳìĿĺ": 8087,
      "Ġê³¼ìĦ¸": 8088,
      "ëĲĺìĹĪìľ¼ë©°": 8089,
      "Ġë§¤ìŀ¥": 8090,
      "ĠìĹ°ê´Ģ": 8091,
      "ĠìĿ´ê¸°": 8092,
      "ĠìĿ´ëĤ´ìĹĲ": 8093,
      "ìĹĲìĦľë§Į": 8094,
      "íĬ¸ë¡¤": 8095,
      "ĠëĴ¤ì§ĳ": 8096,
      "íĺĦìŀ¬": 8097,
      "Ġë¶ĵ": 8098,
      "ëĮĢíļĮ": 8099,
      "Ġë³ĦëıĦë¡ľ": 8100,
      "ìķ¡ìĿ´": 8101,
      "Ġìłķìŀĳ": 8102,
      "Ġì¿łíĤ¤": 8103,
      "ĠìĿ´íĥĪë¦¬ìķĦ": 8104,
      "ëĭ´ìĿĦ": 8105,
      "Ġì§Ģìĥģ": 8106,
      "Ġê³³ìĿ´ëĭ¤": 8107,
      "ĠìĤ¬ëıĦ": 8108,
      "Ġìĺ¤íĶ¼": 8109,
      "700": 8110,
      "ĠìĿ¼ìĿ´ìĹĪëĭ¤": 8111,
      "ĠìĿ¼ìĸ´ëĤĺëĬĶ": 8112,
      "Ġìĸ»ëĬĶ": 8113,
      "Ġëª©ìĪ¨ìĿĦ": 8114,
      "ĠìĻ¸íĻĺ": 8115,
      "Ġìķ±ìĿĦ": 8116,
      "íķĺëĬĶì§Ģ": 8117,
      "HMJ": 8118,
      "ĠêµŃíĨł": 8119,
      "Ġìłľìłķ": 8120,
      "Ġìŀ¬ë°°": 8121,
      "Ġìŀħìŀ¥ìĹĲìĦľ": 8122,
      "Ġë¶ĦìľĦê¸°ê°Ģ": 8123,
      "Ġìĥģì²ĺë¥¼": 8124,
      "ĠìĨĮì¤ĳ": 8125,
      "Ġë¡ľê·¸": 8126,
      "Ġë°ķìĤ¬": 8127,
      "íĮĲë§¤": 8128,
      "ĠìĭľìłĲ": 8129,
      "Ķ½": 8130,
      "ĠëĤĺê°Ķëĭ¤": 8131,
      "Ġê³¼ëª©": 8132,
      "ìĥĿìĿĺ": 8133,
      "íķ´ë³¼": 8134,
      "ìĦ±ìłģ": 8135,
      "Ġìŀ¬ëĬ¥": 8136,
      "ìĸ´ì¡Įëĭ¤": 8137,
      "ĠíķĦìļĶíķł": 8138,
      "ìłľê³µ": 8139,
      "ëĲĺê²Į": 8140,
      "ĠëıĮíĮĮ": 8141,
      "HQT": 8142,
      "íķľëį°": 8143,
      "ĠìĿ´ìłł": 8144,
      "ë¡ľì§Ģ": 8145,
      "Ġíģ¬ê¸°": 8146,
      "ìĿ´ëıĦ": 8147,
      "Ġê¹ĥ": 8148,
      "ĠëģĶ": 8149,
      "Ġë§ĲëĿ¼": 8150,
      "ĠìĹ°ìĺĪ": 8151,
      "Ġê±´ëĦ¤": 8152,
      "Ġë¬¸ìĦľ": 8153,
      "ĠíĺĦìŀ¬ëĬĶ": 8154,
      "Ġëª¨ë¥´ê²łëĭ¤": 8155,
      "ĠìĦľìĦľíŀĪ": 8156,
      "Ġë¬¸ìŀ¬ìĿ¸": 8157,
      "Ġëĭ¨ìĹ½": 8158,
      "ìĨĮëħĦ": 8159,
      "ĠìľĦíĹĺíķľ": 8160,
      "ĠëĤłìĶ¨": 8161,
      "os": 8162,
      "Ġëª©ìłģìĿĦ": 8163,
      "force": 8164,
      "ìŀ¬ìĤ°": 8165,
      "ĠìłĦíĮĮ": 8166,
      "olutions": 8167,
      "Ġëĭ¤íķĺê³ł": 8168,
      "ìĽĢìĹĲ": 8169,
      "íİĢ": 8170,
      "ìĸ´ë§ģ": 8171,
      "Ġê²ĮìĿ´": 8172,
      "ĠìķĦë²Ħì§ĢìĿĺ": 8173,
      "Ġì¤ĳìĹĲìĦľëıĦ": 8174,
      "Designer": 8175,
      "Ġìĺ¤ì§Ģ": 8176,
      "ĠìĿ´ëĭ¤": 8177,
      "Ġì§Ĳìŀĳ": 8178,
      "ĠëįĶíķ´": 8179,
      "Ġë¬»ëĬĶ": 8180,
      "ëĵ±ê¸ī": 8181,
      "ĠìŀĲìķĦ": 8182,
      "ë°©íĸ¥": 8183,
      "ì²ľë§Į": 8184,
      "ê²¨ì§Ħ": 8185,
      "Ġë°ľíĳľíķľ": 8186,
      "Ġê¶": 8187,
      "Ġìłľê³µíķ´ëĵľë¦¬ëĬĶ": 8188,
      "CR": 8189,
      "ĠìłĢìŀĲëĬĶ": 8190,
      "ĠìĬ¤íĶ¼ì»¤": 8191,
      "ĠëĤĺíķľíħĮ": 8192,
      "Ġì¢ĭê²Į": 8193,
      "íķĺê²ĮëıĦ": 8194,
      "ĠëıĻìĽĲ": 8195,
      "Ġíķĺìħ¨": 8196,
      "ë¡Ģë¡ľ": 8197,
      "ĠìĦ¸ìĥģìĿ´": 8198,
      "Ġë¡¤": 8199,
      "ĠìĿ´íĮĮëĬĶ": 8200,
      "Ġìĭľì¼ľ": 8201,
      "ìĥ¤": 8202,
      "Ġë¬´ê´Ģ": 8203,
      "ĠìĿĢì±ĦëĬĶ": 8204,
      "Ġê³łìĸĳ": 8205,
      "Ġê²°ê³¼ëĬĶ": 8206,
      "ê³łëıĦ": 8207,
      "ì´ĪìĹĲ": 8208,
      "Ġëª°ëł¤": 8209,
      "Ġê´´ë¡Ń": 8210,
      "ìŀ¬ë¡ľ": 8211,
      "Ġíĺ¸ê¸°": 8212,
      "Ġì¢ĭê²łëĭ¤": 8213,
      "Ġë°¸": 8214,
      "Ġìŀİ": 8215,
      "ĠìĤ´íİ´ë³´": 8216,
      "Ġë¶Ģëĭ¹": 8217,
      "Ġì¢ħëª©": 8218,
      "Ġê°Ħì£¼": 8219,
      "Ġëĭ¹ì²¨": 8220,
      "Ġì¤¬": 8221,
      "Ġê¹Ģìłķ": 8222,
      "ĠìķĦìĿ´ëĵ¤ìĿĢ": 8223,
      "Ġë§Įëĵłëĭ¤": 8224,
      "ëĿ¼ê°Ģ": 8225,
      "ĠíķľêµŃìĹĲ": 8226,
      "ĠëģĿëĤ´": 8227,
      "Ġë°ĺëł¤": 8228,
      "ĠëĦĪëĬĶ": 8229,
      "ĠìĦ±ì·¨": 8230,
      "Ġëĵłëĭ¤": 8231,
      "íĻĪ": 8232,
      "ĠëķħìĿĦ": 8233,
      "Ġì¶ľê°Ħ": 8234,
      "ê·¸ë¦¬ê³ł": 8235,
      "ĠìĿĺíĺ¹": 8236,
      "ĠíĿĲë¥´ëĬĶ": 8237,
      "ĠíļĮìĤ¬ë¥¼": 8238,
      "68": 8239,
      "ĠíĳľìłķìĿ´": 8240,
      "ĠíķľêµŃìĹĲìĦľ": 8241,
      "ĠëĶĶìĬ¤íĶĮëłĪìĿ´": 8242,
      "ĠìłĦê¸°ì°¨": 8243,
      "ob": 8244,
      "ĠíĻĺìŀĲìĿĺ": 8245,
      "Ġì§Ħë£Į": 8246,
      "Ġìŀ¬ëĤľ": 8247,
      "ĠìŀĪëĬĶê°Ģ": 8248,
      "ìĿĺê°Ģ": 8249,
      "Ġëļľëł·": 8250,
      "Ġì¹ľêµ¬ê°Ģ": 8251,
      "ĠëĮĢíķĻêµĲ": 8252,
      "íĽĦìĿĺ": 8253,
      "ĠìĦ¸ê¸Ī": 8254,
      "ĠëħĢìĦĿ": 8255,
      "ì£¼ìĻĢ": 8256,
      "ard": 8257,
      "ë¹Ħë¡ľ": 8258,
      "Ġë¶ī": 8259,
      "ì°¨ë¡Ģ": 8260,
      "Ġë²Īíĺ¸": 8261,
      "ìļķìĿĦ": 8262,
      "Ġë°ľìłĦìĿĦ": 8263,
      "ìĿ´ì¦Ī": 8264,
      "Ġíį¼íİĻíĬ¸íķľ": 8265,
      "ĠëĪĮëŁ¬": 8266,
      "Ġíĳ¹": 8267,
      "íļĮìĽĲ": 8268,
      "Ġë§ŀì§Ģ": 8269,
      "ĠìłĦì²´ë¥¼": 8270,
      "ĠíĬ¹ìĦ±ìĿĦ": 8271,
      "ĠëĤĺìģĺ": 8272,
      "Ġê±°ëĳĲ": 8273,
      "ĠìĤ¶ìĿ´": 8274,
      "Ĺê²Į": 8275,
      "Ġê³¤ëŀĢ": 8276,
      "QM": 8277,
      "ĠMS": 8278,
      "ĠíĨµì¦Ŀ": 8279,
      "ĠìĿ¸ìĥĿìĿĦ": 8280,
      "ĠëĤļ": 8281,
      "ê°ĳëĭĪëĭ¤": 8282,
      "ê³¼ëıĦ": 8283,
      "onsult": 8284,
      "Ġê·¸ê±°": 8285,
      "Ġê¿Ģ": 8286,
      "ĠìłĦê¹Įì§Ģ": 8287,
      "ĠëĨĴìĹ¬": 8288,
      "Ġë³Ħì§Ģ": 8289,
      "Ġì¶Ķì¶ľ": 8290,
      "Ġë²¼": 8291,
      "ĠëĲĺëıĦë¡Ŀ": 8292,
      "ìľ¼ëł¤": 8293,
      "ë¯¸ëĶĶìĸ´": 8294,
      "ë¸ĮëĿ¼": 8295,
      "ĠìķĦëĭĪíķľ": 8296,
      "ĠíĿ©": 8297,
      "Ġíķ´ê²°íķł": 8298,
      "ĠíĪ¬ëªħ": 8299,
      "ìŀĲëıĻì°¨": 8300,
      "ĠìĿ¼ê´Ģ": 8301,
      "ĠìĿĢìĪĺëĬĶ": 8302,
      "ĠìłĲìĭ¬": 8303,
      "ëĺĲíķľ": 8304,
      "TM": 8305,
      "ëĵ±ìĿĺ": 8306,
      "ë°ĶëŀĮ": 8307,
      "ëŁ¼íĶĦ": 8308,
      "ĠìĿ´ìļ©ìŀĲìĿĺ": 8309,
      "Ġê¸°ë¡ĿíĸĪëĭ¤": 8310,
      "ë¶ĦìĦĿ": 8311,
      "onsultant": 8312,
      "ë²Ķì£Ħ": 8313,
      "Ġë¬¼ìĹĲ": 8314,
      "ìĦľìķ¼": 8315,
      "Ġíĩ´ì§ģ": 8316,
      "Ġ150": 8317,
      "Ġíĳ¸ë¥¸": 8318,
      "Ġìĭľìŀĳìľ¼ë¡ľ": 8319,
      "Ġê·¸ëĵ¤ìĹĲê²Į": 8320,
      "ĠìĿ¸ì¦Ŀê³µë¶Ģ": 8321,
      "ĠìĿµìĪĻíķľ": 8322,
      "ĠìĺĪìģľ": 8323,
      "ë³ĳìĿĦ": 8324,
      "Ġì£½ìĿĮìĿĦ": 8325,
      "ĠìĪĺìĽĲ": 8326,
      "ĠìĦľë¹ĦìĬ¤ìĿĺ": 8327,
      "ĠìķķëıĦ": 8328,
      "ĠìĥĿê°ģíķĺì§Ģ": 8329,
      "ĠíıĲê¸°": 8330,
      "ê²½ì°°": 8331,
      "ëł¸ê³ł": 8332,
      "Ġ32": 8333,
      "ĠìĦ¸ê³ĦìĿĺ": 8334,
      "Ġë¶Ģëĭ´ìĿĦ": 8335,
      "ĠìķĬëĬĶëĭ¤ë©´": 8336,
      "ĠìķĦëĭĮëį°": 8337,
      "ë¬¼ì§Ī": 8338,
      "ĠêµŃíļĮìĿĺ": 8339,
      "ĠìĥģíĻ©ìĿ´ëĭ¤": 8340,
      "Ġ$": 8341,
      "ĠìłĦì²´ìĿĺ": 8342,
      "Ġë³´ì¶©": 8343,
      "ĠíķĺëĤĺëıĦ": 8344,
      "Ġë³¸ëŀĺ": 8345,
      "Ġìŀī": 8346,
      "Ġê²ĥìĿ¼ê¹Į": 8347,
      "ìĥīìĿĺ": 8348,
      "íĬ¸ìĻĢ": 8349,
      "Ġì¹¨ë¬µ": 8350,
      "Ġë¨¸ë¦¬ê°Ģ": 8351,
      "Ġë§ĲìĶĢìĿ´": 8352,
      "íĤ·": 8353,
      "Ġë¶ĪêµĲ": 8354,
      "Ġì¦Ĳê±°ìļ´": 8355,
      "ìµľê·¼": 8356,
      "Ġìĺ¬ëŀĲëĭ¤": 8357,
      "RO": 8358,
      "ĠíĽĦíļĮ": 8359,
      "Ġë°ĶëĿ¼ëĬĶ": 8360,
      "ê±´ìĿ´": 8361,
      "ìĪĺìĿµ": 8362,
      "ĠìĿ¸ë¯¼": 8363,
      "ëª¨ê°Ģ": 8364,
      "Ġì»¨ìĦ¤í": 8365,
      "Ġì¦ĿìĹ¬": 8366,
      "ĠëĤĺìĿ´ê°Ģ": 8367,
      "Ġë²Ħë¦°": 8368,
      "ĠëĮĵ": 8369,
      "ĠìĪĺë¡Ŀ": 8370,
      "ë¶ĪìĿĦ": 8371,
      "ê²°ìĿ´": 8372,
      "Ġê°Ħëĭ¨íķĺê²Į": 8373,
      "íĮ¬": 8374,
      "oun": 8375,
      "ĠìĦ±ëĬ¥ìĿĦ": 8376,
      "ìĿ¸ìĤ¬": 8377,
      "ĠíĺĢ": 8378,
      "ì¿Ħ": 8379,
      "ĠëıĮìķĦìĺ¨": 8380,
      "Ġíķ´ì£¼ëĬĶ": 8381,
      "ĠìľĦíĹĺìĿ´": 8382,
      "Ġìĭ¶ëĭ¤ë©´": 8383,
      "ìĿĺë£Į": 8384,
      "ĠíĶ½": 8385,
      "----": 8386,
      "ĠëĮĢíķĺìĹ¬ëĬĶ": 8387,
      "ecial": 8388,
      "ìľ¼ìĭľ": 8389,
      "Ġë¶Īíĸī": 8390,
      "Ġë§Īê°Ĳ": 8391,
      "ĠìķĬìķĺìĿĦ": 8392,
      "Ġëĵ¤ìĸ´ìĺ¤ëĬĶ": 8393,
      "ìĭľì¼°": 8394,
      "ĠìĨĲíķ´ë°°": 8395,
      "âĢĿ(": 8396,
      "Ġê±´ê°ķìĿĦ": 8397,
      "ìŀĲê²©ì¦ĿìĿĦ": 8398,
      "ĠìĤ¬ìłĦìĹĲ": 8399,
      "Ġë°©ê¸Ī": 8400,
      "ĠìŀĲìĭĿ": 8401,
      "Ġíķ¸ëĵľíı°": 8402,
      "ĠìĮĵìķĦ": 8403,
      "Ġë°°ìłľ": 8404,
      "ĠëĤ¨ìŀĲëĬĶ": 8405,
      "ìķĦëħ¸": 8406,
      "Ġëª©ìłģìĿ´": 8407,
      "Ġë©ĶìĿ¼": 8408,
      "Ġêµ¬ìĦ±ëĲĺìĸ´": 8409,
      "Ġìŀħì£¼": 8410,
      "Ġê³łìĬ¤": 8411,
      "ê¸°êµ¬": 8412,
      "ìĬ¤íİĺ": 8413,
      "Ġê±°ëĿ¼": 8414,
      "ID": 8415,
      "ì²´íĹĺ": 8416,
      "Ġë°°ê°Ģ": 8417,
      "SB": 8418,
      "Ġë¯¿ìĿĮìĿ´": 8419,
      "Ġë¹Ħìļ©ìĿ´": 8420,
      "ìĿ¸ëĵ¤": 8421,
      "ĠìłĦìĦ¸ê³Ħ": 8422,
      "Ġë§ĪëĶĶ": 8423,
      "II": 8424,
      "07": 8425,
      "Ġë¬´ìĤ¬": 8426,
      "121": 8427,
      "ìĥµ": 8428,
      "ìĽĢê³¼": 8429,
      "ä½": 8430,
      "ìļ©ìľ¼ë¡ľ": 8431,
      "ª¼": 8432,
      "ĠëĪĪë¬¼ìĿĦ": 8433,
      "ë¹ĦìĹĲ": 8434,
      "Ġë°°íı¬": 8435,
      "ĠìķĪê²¨": 8436,
      "ĠìĿ¸ìĥģìĿĦ": 8437,
      "ĠãĢĪ": 8438,
      ".[": 8439,
      "ĠëĤĺëĪĦìĸ´": 8440,
      "Ġëĭ¤ë¦¬": 8441,
      "Ġíļ¨ê³¼ìłģìĿ¸": 8442,
      "ëł¹ìĿĦ": 8443,
      "Ġì¶ľëł¥": 8444,
      "Ġë²ķë¬´": 8445,
      "Ġíĳľë©´": 8446,
      "Ġê°Ģëł¤": 8447,
      "ĠìĽĮíģ¬": 8448,
      "ìĦ¤ìĿĦ": 8449,
      "Ġê°ľë´ī": 8450,
      "ìĪĻíķľ": 8451,
      "Ġê³¼ê±°ìĿĺ": 8452,
      "Ġ2001": 8453,
      "ì°¸ê³ł": 8454,
      "Ġê¸°ì¤ĢìĿĦ": 8455,
      "Ġê±¸ë¦°": 8456,
      "ë¡ľìĽĮ": 8457,
      "Ġê¸´ê¸ī": 8458,
      "¤íĺķ": 8459,
      "Ġê³łëĤľ": 8460,
      "Ġëª¨ìľ¼": 8461,
      "Ġë¹Ħê°Ģ": 8462,
      "Ġëª¨ëį¸ìĿĦ": 8463,
      "ìłģìĿĢ": 8464,
      "Ġë²ķìĿĦ": 8465,
      "ĠìłĢìĿĺ": 8466,
      "Ġì²´ì¤ĳ": 8467,
      "Ġìī½ê³ł": 8468,
      "34": 8469,
      "ĠëĤ¯ìĦł": 8470,
      "Ġíķ´ë³´": 8471,
      "Ġê¸ĪìĨį": 8472,
      "ĠëĮĢëĭµíĸĪëĭ¤": 8473,
      "ES": 8474,
      "ĠìĿ´ìĹĪëĭ¤": 8475,
      "Ġê²½íĸ¥ìĿ´": 8476,
      "Ġì°¨ìĿ´ë¥¼": 8477,
      "ĠëĪĦìĽĮ": 8478,
      "íķĺê²łëĭ¤ê³ł": 8479,
      "ĠëĮĢíĨµëł¹ìĿĢ": 8480,
      "êµŃë¯¼": 8481,
      "ë³´ëĵľ": 8482,
      "Ġíķľëį°": 8483,
      "Ġê°Ģê²©ìĿĦ": 8484,
      "å±±": 8485,
      "ĠìĿ´ëŁ´": 8486,
      "Ġë°©ìķĪìĿĦ": 8487,
      "Ġì£¼ìĽĲìĿ´": 8488,
      "ìķ±": 8489,
      "Ġê¸°ìŀĲ": 8490,
      "Ġìĸ»ê³ł": 8491,
      "ance": 8492,
      "ìĿ¼ë³¸": 8493,
      "ĠíĻįì½©": 8494,
      "ĠìĺĪìĪĺëĭĺìĿĺ": 8495,
      "Ġëĵ¤ìĸ´ìĻĶëĭ¤": 8496,
      "Ġì¤ĳìĭ¬ìĿĺ": 8497,
      "Ġê·¸ìłľìķ¼": 8498,
      "Ġëĭ¬ì½¤": 8499,
      "ëĤĺê³ł": 8500,
      "Ġë³ĢëıĻ": 8501,
      "achi": 8502,
      "th": 8503,
      "Ġë¹Ħìĭ¼": 8504,
      "ĠëĲĺê²Į": 8505,
      "ë¬´ê°Ģ": 8506,
      "Ġê°ĦìĹĲ": 8507,
      "Ġì£¼ìĭĿìĿĦ": 8508,
      "Ġì£¼ìłľ": 8509,
      "Ġìĺ¨ëª¸": 8510,
      "ĠìĿ´ë¦ĦìĿĢ": 8511,
      "ĠìķĪìłķìłģìĿ¸": 8512,
      "Ġê¸°ë»Ĳ": 8513,
      "ĠíĥĵìĹĲ": 8514,
      "ìļ°ê¸°": 8515,
      "Ġì£¼ìŀ¥íķĺëĬĶ": 8516,
      "Ġìĭľìŀĳíķł": 8517,
      "ĠRayongìĹĲìĦľ": 8518,
      "ĠëĤ´ë¦°": 8519,
      "Ġë°ĺíĻĺ": 8520,
      "ĠìĦ¸ê³ĦìłģìĿ¸": 8521,
      "ëĴ¤": 8522,
      "ĠìĥĿëªħìĿĦ": 8523,
      "Ġíļ¨ê³¼ìłģìľ¼ë¡ľ": 8524,
      "Ġê³łìĬ¤ëŀĢíŀĪ": 8525,
      "éĩ": 8526,
      "ĠëĦĺì¹ĺëĬĶ": 8527,
      "ĠíķĺìĸĢ": 8528,
      "Ġìĥģìŀ¥": 8529,
      "ìĹĪëĭ¤ëĬĶ": 8530,
      "Ġì§Ģìĭľ": 8531,
      "ĠìĿ¼ìłľ": 8532,
      "ê³łìļĶ": 8533,
      "ìĦ¸ë¡ľ": 8534,
      "ĠìķĦìĿ´ëĵ¤ìĿĺ": 8535,
      "ĠíĸĪìĸ´ìļĶ": 8536,
      "ë°±ìĿĦ": 8537,
      "ĠITìĿ¸ì¦Ŀ": 8538,
      "Mware": 8539,
      "ĠëĦĪë¨¸": 8540,
      "Ġíķ´ìĸĳ": 8541,
      "Ġê²½ìļ°ë¥¼": 8542,
      "ĠìķħíĻĶ": 8543,
      "ìĬ¤íĤ¤": 8544,
      "Ġë¯¸ëĿ¼ë²¨": 8545,
      "ĠìĥĿê°ģëıĦ": 8546,
      "ê¸Ģë¡ľ": 8547,
      "Ġêµ¬ê²½": 8548,
      "ĠìĭľíĹĺê³µë¶ĢìŀĲë£Į": 8549,
      "ë¯¼ì¡±": 8550,
      "ìĺĢëĬĶëį°": 8551,
      "Ġë¦¬ê·¸": 8552,
      "êµŃìĹĲìĦľ": 8553,
      "ĠìŀĪê¸°ìĹĲ": 8554,
      "Ġê¸°ìĽĲ": 8555,
      "Ġê³µìĿĦ": 8556,
      "ĠíĿĲë¦ĦìĿĦ": 8557,
      "39": 8558,
      "Ġëª¨ëĭĪíĦ°ë§ģ": 8559,
      "ĠëĸłëĤľ": 8560,
      "Ġíĥľìĸ´ëĤľ": 8561,
      "ĠëıĻìĺģìĥģ": 8562,
      "íķ´ì§Ħëĭ¤": 8563,
      "ë¹¨ë¦¬": 8564,
      "Ġ%": 8565,
      "Ġìĸ´ë¦¬": 8566,
      "ĠìŀĲì¡´": 8567,
      "ĠíĮĮìĿ¼ìĿĦ": 8568,
      "Ġë¹ĽìĿ´": 8569,
      "ĠíĶĦë¦°": 8570,
      "Ġì²łìłĢíŀĪ": 8571,
      "ĠíĶĦëłĪìŀĦ": 8572,
      "Ġì°¨ìĽĲìĹĲìĦľ": 8573,
      "Ġê·¸ë¡ľ": 8574,
      "Ġë§ŀì¶": 8575,
      "ĠìħĶ": 8576,
      "ìĸ´ëĸ": 8577,
      "Ġëªħì¹Ń": 8578,
      "ĠìºĶ": 8579,
      "ê°ľíĺģ": 8580,
      "okia": 8581,
      "Ġê·¸ë¦¬ìĬ¤ëıĦìĿĺ": 8582,
      "ĠëĪĪìķŀìĹĲ": 8583,
      "Ġíĥľìĸ´": 8584,
      "ĠìŀĪê±°ëĤĺ": 8585,
      "ì²´ìľ¡": 8586,
      "łì§Ģ": 8587,
      "ĠìłĦíĺķ": 8588,
      "Ġë°ĶëŀĮìĿ´": 8589,
      "Ġíĺģëªħ": 8590,
      "ĠìĿ¼ë¶ĢëŁ¬": 8591,
      "Ġê³łìľł": 8592,
      "ìĪĺìĪĺ": 8593,
      "Ġìĺ¹": 8594,
      "tic": 8595,
      "ê¸ĪìĹĲ": 8596,
      "Ġìĭłê²½ìĿĦ": 8597,
      "ëĦ¬": 8598,
      "ì£¼ê¸°": 8599,
      "ĠìĿĮìĦ±": 8600,
      "Ġì£¼ìĦ¸ìļĶ": 8601,
      "ìĿ¸ì¹ĺ": 8602,
      "JN": 8603,
      "Ġê·¸ëŁ¬ë©´ìĦľ": 8604,
      "ĠìĬ¤íĶĦ": 8605,
      "ĠìĿĺìĻ¸": 8606,
      "ĠìĬ¤íĤ¬": 8607,
      "Ġê´Ģëł¨íķ´": 8608,
      "ĠìĦ¸ìĥģìĹĲìĦľ": 8609,
      "Ġìŀ¥ìłĲìĿ´": 8610,
      "Ġìĺ¤íĶĦëĿ¼ìĿ¸": 8611,
      "Ġì§Ģíķĺì²ł": 8612,
      "Ġìĭ¶ëĭ¤ëĬĶ": 8613,
      "ĠìĦ¤ë§Ī": 8614,
      "ĠìĤ°ì±ħ": 8615,
      "ĠíĿĺëŁ¬ëĤĺ": 8616,
      "íĸĪëĭ¤ë©´": 8617,
      "Ġëĵ¤ë©´": 8618,
      "ì¾Įíķľ": 8619,
      "ìŀĲëĵ¤ê³¼": 8620,
      "ting": 8621,
      "ĠìķĦìĿ´ëĵ¤ìĿĦ": 8622,
      "Ġë°ĺì§Ŀ": 8623,
      "SAPìĿ¸ì¦Ŀ": 8624,
      "Ġë¶ĢëŁ¬": 8625,
      "ĠìŀłìĿĦ": 8626,
      "íĶ¼ê³ł": 8627,
      "ĠìĹĦë§Īê°Ģ": 8628,
      "alesforce": 8629,
      "ìĤ¬ìĿ¸": 8630,
      "Ġê²ªê³ł": 8631,
      "ecialty": 8632,
      "ê·¸ëŁ¬ëĤĺ": 8633,
      "ĠìĿ¸ëł¥": 8634,
      "Ġê°ģìŀĲ": 8635,
      "ìħ¨ìĸ´": 8636,
      "ë¡łìĿĺ": 8637,
      "Ġì£¼ì£¼": 8638,
      "ê°ĢìĻĢ": 8639,
      "ëĵ±ê¸°": 8640,
      "ì¿¨": 8641,
      "ĠìĽ¬": 8642,
      "ĠìĪĺìĹħìĿĦ": 8643,
      "ĠíĺĳìĹħ": 8644,
      "ë§¤íĽĦ": 8645,
      "Ġë¯¼ì£¼ì£¼ìĿĺ": 8646,
      "Ġof": 8647,
      "Ġê°Ĳì§Ģ": 8648,
      "Ġë³´ëĤ´ê³ł": 8649,
      "Ġë·°": 8650,
      "ĠìŀħìĹĲ": 8651,
      "ĠìľĦë²ķ": 8652,
      "ìļ°ë©°": 8653,
      "Ġë¬´ìĦŃ": 8654,
      "Ġì§ĢëĤľëĭ¬": 8655,
      "ĠìķĻ": 8656,
      "Ġìĺ¬ë¦¼íĶ½": 8657,
      "ĠëĶĶìŀĲìĿ¸ìĿĦ": 8658,
      "Ġëŀľ": 8659,
      "Ġê°Ģë¥´ì³Ĳ": 8660,
      "ìŀĦìĹĲëıĦ": 8661,
      "Ġì¹ĺìĹ´íķľ": 8662,
      "íĦ°ëĬĶ": 8663,
      "Ġì¶ľìŀħ": 8664,
      "Ġê°ģìŀĲìĿĺ": 8665,
      "ê°ĦìĿ´": 8666,
      "Ġêµ¬íķĺëĬĶ": 8667,
      "Ġê°ĲëıĻ": 8668,
      "ĠìŀĪìĹĪìĿĦ": 8669,
      "Ġëĸ´": 8670,
      "ì¸µìĿĺ": 8671,
      "ê°ĢìĬ¤": 8672,
      "Ġê²ĢìĿĦ": 8673,
      "ìĬ¤íĨłëŀĳ": 8674,
      "Ġëħ¸ëł¥ìĿ´": 8675,
      "ê³łìĹĲ": 8676,
      "Ġë§ĽìŀĪëĬĶ": 8677,
      "Ġì¹ĺìľł": 8678,
      "ĠìĥĮ": 8679,
      "Ġì§ĢëĤĺì¹ĺê²Į": 8680,
      "ĠìķĦëĭĪìķ¼": 8681,
      "Ġê°ĲìłķìĿ´": 8682,
      "æĺ": 8683,
      "ĠíĻĶìŀ¥íĴĪ": 8684,
      "ĠìĺĪìĥģë¬¸ìłľ": 8685,
      "ĠìĪĺë¦¬": 8686,
      "Ġê³µìŀĳ": 8687,
      "ĠíĶĦë¡ľìłĿíĬ¸ë¥¼": 8688,
      "Ġ36": 8689,
      "eg": 8690,
      "ìľĦìĻĢ": 8691,
      "íŀĮëĭ¤": 8692,
      "Ġìĭľëĭ¬": 8693,
      "Ġìĭłíĺ¸": 8694,
      "Ġë§Īëķħ": 8695,
      "ĠíħįìĬ¤íĬ¸": 8696,
      "ĠìĭľíĤ¤": 8697,
      "Ġëª¨ëŀĺ": 8698,
      "ĠìĿ´ê±¸": 8699,
      "Ġì°¨ëĿ¼ë¦¬": 8700,
      "Ġì£¼ë³ĢìĿĺ": 8701,
      "ë§Īê°Ģ": 8702,
      "ĠìĿ´ìŀ¬": 8703,
      "ĠìķĦìĭ¤": 8704,
      "ĠìĹ°ê·¹": 8705,
      "Ġëĵ±ê¸ī": 8706,
      "Ġë°©ìĤ¬": 8707,
      "ĠìĬ¤íĨłë¦¬": 8708,
      "ĠìĿ´ìĦ±": 8709,
      "Ġê°ľìŀħ": 8710,
      "Ġê°Ĳìĭľ": 8711,
      "ĠíĶ¼ê³łìĿ¸ìĿĺ": 8712,
      "Ġìłģë²ķ": 8713,
      "ê²¹": 8714,
      "ĠìĤ¬ìłķìĿ´": 8715,
      "Ġìķ½ê°ĦìĿĺ": 8716,
      "íĥĲ": 8717,
      "ĠìĦ±ê³µìĿĦ": 8718,
      "Ġëĭ¨ê¸°": 8719,
      "ë§ĪëĬĶ": 8720,
      "Ġì´Īëĵ±íķĻêµĲ": 8721,
      "ĠìĤ¬ìĿ´ë¡ľ": 8722,
      "ë¥ĺìĿĺ": 8723,
      "ìĭľê°ĦìĿ´": 8724,
      "Ġì§ĦíĸīíķĺëĬĶ": 8725,
      "Ġë§¤ê°ģ": 8726,
      "Ġì£¼ì²´": 8727,
      "Ġìľłì¶ľ": 8728,
      "ìĿ¸ëıĦ": 8729,
      "ĠëıĦëįķ": 8730,
      "82": 8731,
      "ws": 8732,
      "Ġëĵ±ìŀ¥íķĺëĬĶ": 8733,
      "ĠíĽ¼ìĨĲ": 8734,
      "ĠìĿ´ìŀĲ": 8735,
      "ĠíĥģìĽĶ": 8736,
      "Ġê±°ë£©": 8737,
      "âĹ": 8738,
      "Ġëª«": 8739,
      "MI": 8740,
      "Ġì§ĢìŀĲ": 8741,
      "ĠìĹŃëŁīìĿĦ": 8742,
      "åĪ": 8743,
      "Ġì¹ĺê³ł": 8744,
      "ĠìĨĮìľłê¶ĮìĿ´": 8745,
      "ĠìĿ´ìĥģìľ¼ë¡ľ": 8746,
      "ĠìĿ´ê°Ģ": 8747,
      "ìĿĮìķħ": 8748,
      "Ġíķ´ìĥģ": 8749,
      "Ġê·ĢíķĺìĿĺ": 8750,
      "ĠìĤ´ìķĦê°Ģ": 8751,
      "ìĪľíĻĺ": 8752,
      "ì§ģìĽĲ": 8753,
      "ìĭľíĭ°": 8754,
      "ê²°ìłķ": 8755,
      "Ġë§ĲìĿ´ìķ¼": 8756,
      "lication": 8757,
      "ĠìĹ´ë¦¬ëĬĶ": 8758,
      "Ġë¬¸ìłľìĿĺ": 8759,
      "Ġëĭ¤íĺĦ": 8760,
      "Ĥ¨": 8761,
      "ìłĲìĿĺ": 8762,
      "ĠìŀĲì²´ë¥¼": 8763,
      "Ġê²ĥìĿ´ì£ł": 8764,
      "Ġê²ĥìĿ¼": 8765,
      "ĠìĿ¼ìŀĲë¦¬": 8766,
      "ĠìľĦíĹĺìĿĦ": 8767,
      "Ġì£¼ìłĢ": 8768,
      "Ġì¦Ŀìĸ¸": 8769,
      "íĬ¹íŀĪ": 8770,
      "ìļ©íĴĪ": 8771,
      "ĠìłĦë¬¸ìłģìĿ¸": 8772,
      "Ġíķ´ê°Ģ": 8773,
      "Ġê°ĪìĪĺë¡Ŀ": 8774,
      "ë¹ĦìĻĢ": 8775,
      "Ġìłľë²ķ": 8776,
      "ĠIP": 8777,
      "ĠìłĦìĿĺ": 8778,
      "ĠìĦľëĳĺëŁ¬": 8779,
      "Ġë°©ìķĪ": 8780,
      "Ġë°ľìĸ¸": 8781,
      "ĠìĿ´ê³³ìĹĲìĦľ": 8782,
      "gle": 8783,
      "Ġì§ģìłĦ": 8784,
      "ìĹĲëĦĪì§Ģ": 8785,
      "Ġìŀĥìĸ´ë²Ħ": 8786,
      "ë®": 8787,
      "ĠìĥĿë¬¼": 8788,
      "ê´Ģìľ¼ë¡ľ": 8789,
      "ĠìķĪíĥĢê¹Į": 8790,
      "ìĮį": 8791,
      "ĠëįĶëĬĶ": 8792,
      "ìĺģìĹħ": 8793,
      "ê¸°ìĹĲëĬĶ": 8794,
      "ĠìµľìĨĮíĻĶ": 8795,
      "ĠíĸĪëĭ¤ê³ł": 8796,
      "Ġìĭ¤ëł¥": 8797,
      "Ġêµ¬ì¡°ë¥¼": 8798,
      "Ġê²½ëĤ¨": 8799,
      "ĠìĹĨëįĺ": 8800,
      "ê³ĦëĬĶ": 8801,
      "Ġìĺ¬ë¦°": 8802,
      "ĠìķĦíĶĦë¦¬ì¹´": 8803,
      "ìķĦìĽĥ": 8804,
      "ëĲĺëıĦë¡Ŀ": 8805,
      "Ġë¶Ħíķł": 8806,
      "ë¦¬ëįĺ": 8807,
      "Ġëĵ¤ì§Ģ": 8808,
      "ĠRayongëĬĶ": 8809,
      "Ġëħ¸ëł¥íķĺê³ł": 8810,
      "ìĥĿìĿ´": 8811,
      "Ġìŀ¡ìķĺëĭ¤": 8812,
      "ĠëıĦëĮĢì²´": 8813,
      "Ġë²ĶìľĦë¥¼": 8814,
      "Ġêº¾": 8815,
      "ĠëĮĢíĳľíķĺëĬĶ": 8816,
      "Ġìľłìŀħ": 8817,
      "ëĺĳ": 8818,
      "Ġë°°ìļ´": 8819,
      "ĠìĤ´ìĿ¸": 8820,
      "âĹĭâĹĭ": 8821,
      "ëĲĺëĬĶëį°": 8822,
      "ĠìĪľíĻĺ": 8823,
      "Ġë©ľ": 8824,
      "ì·¨ëĵĿ": 8825,
      "ìĿ¸íĦ°ëĦ·": 8826,
      "íŀĪì§Ģ": 8827,
      "Ġë¶ĢëĵľëŁ½ê²Į": 8828,
      "ëĬ¦ê²Į": 8829,
      "ì¤ĢìĿĢ": 8830,
      "ĠìķĦìĿ´ëĬĶ": 8831,
      "ĠìłķìĭłìĿ´": 8832,
      "Ġê·Ģì¡±": 8833,
      "ĠìĿĺë¯¸íķ©ëĭĪëĭ¤": 8834,
      "47": 8835,
      "Ġì±Ķ": 8836,
      "Ġë¨¹ìĸ´": 8837,
      "ì¤ĳìĹĲìĦľ": 8838,
      "ĠìķłíĶĮë¦¬ì¼ĢìĿ´ìħĺ": 8839,
      "ĠìłĦëıĦ": 8840,
      "Ľ¸": 8841,
      "Ġíķ©ë³ĳ": 8842,
      "Ġê±´ëĦ": 8843,
      "Ġê¸°ë¦Ħ": 8844,
      "Ġë§ĪìĿĮìĿĢ": 8845,
      "Ġê°ĢìĪĺ": 8846,
      "Ġìĸ´ì©Ĳ": 8847,
      "ĠíĻľìķ½": 8848,
      "ê°Ģìŀħ": 8849,
      "ì§Ħê³¼": 8850,
      "ìĺ¤íĶ¼": 8851,
      "ngine": 8852,
      "Ġë¶Ħìķ¼ìĹĲ": 8853,
      "Ġê³ģìĹĲ": 8854,
      "ĠëģĿìĿ´": 8855,
      "Ġê°ĪìķĦ": 8856,
      "ĠìķĦë²Ħì§Ģê°Ģ": 8857,
      "itachi": 8858,
      "Ġì±ħìĿĺ": 8859,
      "Ġìĥģìĭ¤": 8860,
      "ì½Ķë¦¬ìķĦ": 8861,
      "ĠìĿ¼ìĸ´ëĤ¬ëĭ¤": 8862,
      "ìĺ¤ë¥¼": 8863,
      "ìķ¼ë§Į": 8864,
      "ëŀŃ": 8865,
      "ãģ": 8866,
      "form": 8867,
      "ĠíĹĪê°Ģ": 8868,
      "ì§ĦíĿ¥": 8869,
      "Ġíķĺë£¨ìĹĲ": 8870,
      "ĠìĹĲëĦĪì§Ģë¥¼": 8871,
      "Ġìī¬ìĽĮ": 8872,
      "Ġíģ¬ë¦¬": 8873,
      "ĠìŀĦìĿĺë¡ľ": 8874,
      "ìĭľíĹĺì¤Ģë¹Ħ": 8875,
      "ìĭľíĹĺìĿĺ": 8876,
      "Ġì¡°ëªħ": 8877,
      "ĠìĦ¸ì¢ħ": 8878,
      "ë¬¼ìĹĪëĭ¤": 8879,
      "Ġê¸°ìģ¨": 8880,
      "ģëĭĪëĭ¤": 8881,
      "ĠìĨįìĿĺ": 8882,
      "ĠìĤ¬ìĿ´ì¦Ī": 8883,
      "Ġë¬¸ëĵĿ": 8884,
      "Ġì°¾ìķĦê°Ģ": 8885,
      "¤íŀĪ": 8886,
      "Ġë°Ľê¸°": 8887,
      "anag": 8888,
      "ĠíķĺëĤĺìĶ©": 8889,
      "ĠìĦ¸ê³Ħìłģìľ¼ë¡ľ": 8890,
      "ĠìĭľëĤĺ": 8891,
      "Ġìľ¡ìĦ±": 8892,
      "Ġê¸Īìķ¡ìĿĦ": 8893,
      "ĬľëĶĶìĺ¤": 8894,
      "Ġê´Ģë¦¬ë¥¼": 8895,
      "CL": 8896,
      "Ġê²ĢìĤ¬ë¥¼": 8897,
      "ì¤¬ëĭ¤": 8898,
      "Ġìµľê·¼ìĹĲ": 8899,
      "Ġìļ°ëł¤ê°Ģ": 8900,
      "íĹĪê°Ģ": 8901,
      "Ġê³µê²©ìĿĦ": 8902,
      "ì½ķìĭľ": 8903,
      "Ġì±ħìĿ´": 8904,
      "61": 8905,
      "Ġì²ŃìĻĢ": 8906,
      "Ġìĸ´ì¨Įëĵł": 8907,
      "Ġìĭ¶ìĿĦ": 8908,
      "ĠìĪĺìļĶê°Ģ": 8909,
      "ìĹĪê¸°": 8910,
      "Ġë§¡ìĿĢ": 8911,
      "Ġë¶ĢìłķìłģìĿ¸": 8912,
      "Ġìľłíĺ¹": 8913,
      "ĠíĨµìĥģ": 8914,
      "ë¥¨": 8915,
      "ĠìĦľë¡ľìĿĺ": 8916,
      "ĠíĺĦìĭ¤ìĿĦ": 8917,
      "ĠìĬ¬íĶĶ": 8918,
      "ĠìĻĶìĬµëĭĪëĭ¤": 8919,
      "ëĵĪ": 8920,
      "Ġìĭ¬ìŀ¥ìĿ´": 8921,
      "ì¹´ìĿ´": 8922,
      "Ġì¶ķë³µ": 8923,
      "ì£¼ìĭĿ": 8924,
      "Ġìĸ´ëłµì§Ģ": 8925,
      "Ġíı¬ìĬ¤íĮħ": 8926,
      "íķĺìĺĢëĬĶëį°": 8927,
      "Ġê¸°ê°ģ": 8928,
      "Ġìĭľíĸīëł¹": 8929,
      "ĠíĦ°ìł¸": 8930,
      "ĠìĨĲë°Ķëĭ¥": 8931,
      "Ġê¸°ê°Ģ": 8932,
      "ĠëĤ¬ëĭ¤": 8933,
      "ĠíĨłëĮĢë¡ľ": 8934,
      "ëĭ¹ìĹĲ": 8935,
      "ì¤ĳìĿ¸": 8936,
      "ĠëĮĢëĭµìĿĦ": 8937,
      "ĠìĦłëıĦ": 8938,
      "Ġê²°ê³¼ìĹĲ": 8939,
      "ëĲĺê¸°ëıĦ": 8940,
      "ëĬ¥ëł¥": 8941,
      "ë¶ĢìĹĲìĦľ": 8942,
      "Ġíķĺëł¤ê³ł": 8943,
      "ĠìŀĲë³¸ì£¼ìĿĺ": 8944,
      "ĠìĿ´ì£¼": 8945,
      "ìŀ¬ìĿĺ": 8946,
      "MA": 8947,
[...]
