{
  "version": "1.0",
  "truncation": null,
  "padding": null,
  "added_tokens": [
    {
      "id": 0,
      "content": "<pad>",
      "single_word": false,
      "lstrip": false,
      "rstrip": false,
      "normalized": false,
      "special": true
    },
    {
      "id": 1,
      "content": "<bos>",
      "single_word": false,
      "lstrip": false,
      "rstrip": false,
      "normalized": false,
      "special": true
    },
    {
      "id": 2,
      "content": "<eos>",
      "single_word": false,
      "lstrip": false,
      "rstrip": false,
      "normalized": false,
      "special": true
    },
    {
      "id": 3,
      "content": "<unk>",
      "single_word": false,
      "lstrip": false,
      "rstrip": false,
      "normalized": false,
      "special": true
    }
  ],
  "normalizer": null,
  "pre_tokenizer": {
    "type": "ByteLevel",
    "add_prefix_space": false,
    "trim_offsets": true,
    "use_regex": true
  },
  "post_processor": {
    "type": "TemplateProcessing",
    "single": [
      {
        "SpecialToken": {
          "id": "<bos>",
          "type_id": 0
        }
      },
      {
        "Sequence": {
          "id": "A",
          "type_id": 0
        }
      },
      {
        "SpecialToken": {
          "id": "<eos>",
          "type_id": 0
        }
      }
    ],
    "pair": [
      {
        "SpecialToken": {
          "id": "<bos>",
          "type_id": 0
        }
      },
      {
        "Sequence": {
          "id": "A",
          "type_id": 0
        }
      },
      {
        "SpecialToken": {
          "id": "<eos>",
          "type_id": 0
        }
      },
      {
        "Sequence": {
          "id": "B",
          "type_id": 1
        }
      },
      {
        "SpecialToken": {
          "id": "<eos>",
          "type_id": 1
        }
      }
    ],
    "special_tokens": {
      "<bos>": {
        "id": "<bos>",
        "ids": [
          1
        ],
        "tokens": [
          "<bos>"
        ]
      },
      "<eos>": {
        "id": "<eos>",
        "ids": [
          2
        ],
        "tokens": [
          "<eos>"
        ]
      }
    }
  },
  "decoder": {
    "type": "ByteLevel",
    "add_prefix_space": true,
    "trim_offsets": true,
    "use_regex": true
  },
  "model": {
    "type": "BPE",
    "dropout": null,
    "unk_token": "<unk>",
    "continuing_subword_prefix": null,
    "end_of_word_suffix": null,
    "fuse_unk": false,
    "byte_fallback": true,
    "ignore_merges": false,
    "vocab": {
      "<pad>": 0,
      "<bos>": 1,
      "<eos>": 2,
      "<unk>": 3,
      "!": 4,
      "\"": 5,
      "#": 6,
      "$": 7,
      "%": 8,
      "&": 9,
      "'": 10,
      "(": 11,
      ")": 12,
      "*": 13,
      "+": 14,
      ",": 15,
      "-": 16,
      ".": 17,
      "/": 18,
      "0": 19,
      "1": 20,
      "2": 21,
      "3": 22,
      "4": 23,
      "5": 24,
      "6": 25,
      "7": 26,
      "8": 27,
      "9": 28,
      ":": 29,
      ";": 30,
      "<": 31,
      "=": 32,
      ">": 33,
      "?": 34,
      "@": 35,
      "A": 36,
      "B": 37,
      "C": 38,
      "D": 39,
      "E": 40,
      "F": 41,
      "G": 42,
      "H": 43,
      "I": 44,
      "J": 45,
      "K": 46,
      "L": 47,
      "M": 48,
      "N": 49,
      "O": 50,
      "P": 51,
      "Q": 52,
      "R": 53,
      "S": 54,
      "T": 55,
      "U": 56,
      "V": 57,
      "W": 58,
      "X": 59,
      "Y": 60,
      "Z": 61,
      "[": 62,
      "\\": 63,
      "]": 64,
      "^": 65,
      "_": 66,
      "`": 67,
      "a": 68,
      "b": 69,
      "c": 70,
      "d": 71,
      "e": 72,
      "f": 73,
      "g": 74,
      "h": 75,
      "i": 76,
      "j": 77,
      "k": 78,
      "l": 79,
      "m": 80,
      "n": 81,
      "o": 82,
      "p": 83,
      "q": 84,
      "r": 85,
      "s": 86,
      "t": 87,
      "u": 88,
      "v": 89,
      "w": 90,
      "x": 91,
      "y": 92,
      "z": 93,
      "{": 94,
      "|": 95,
      "}": 96,
      "~": 97,
      "¡": 98,
      "¢": 99,
      "£": 100,
      "¤": 101,
      "¥": 102,
      "¦": 103,
      "§": 104,
      "¨": 105,
      "©": 106,
      "ª": 107,
      "«": 108,
      "¬": 109,
      "®": 110,
      "¯": 111,
      "°": 112,
      "±": 113,
      "²": 114,
      "³": 115,
      "´": 116,
      "µ": 117,
      "¶": 118,
      "·": 119,
      "¸": 120,
      "¹": 121,
      "º": 122,
      "»": 123,
      "¼": 124,
      "½": 125,
      "¾": 126,
      "¿": 127,
      "Â": 128,
      "Ã": 129,
      "Ä": 130,
      "Å": 131,
      "Ç": 132,
      "È": 133,
      "É": 134,
      "Ê": 135,
      "Ë": 136,
      "Ì": 137,
      "Í": 138,
      "Î": 139,
      "Ï": 140,
      "Ð": 141,
      "Ñ": 142,
      "Ö": 143,
      "×": 144,
      "Ø": 145,
      "Ù": 146,
      "Ú": 147,
      "Û": 148,
      "Ü": 149,
      "à": 150,
      "á": 151,
      "â": 152,
      "ã": 153,
      "ä": 154,
      "å": 155,
      "æ": 156,
      "ç": 157,
      "è": 158,
      "é": 159,
      "ê": 160,
      "ë": 161,
      "ì": 162,
      "í": 163,
      "ï": 164,
      "Ċ": 165,
      "Ġ": 166,
      "Ģ": 167,
      "ģ": 168,
      "Ĥ": 169,
      "ĥ": 170,
      "Ħ": 171,
      "ħ": 172,
      "Ĩ": 173,
      "ĩ": 174,
      "Ī": 175,
      "ī": 176,
      "Ĭ": 177,
      "ĭ": 178,
      "Į": 179,
      "į": 180,
      "İ": 181,
      "ı": 182,
      "Ĳ": 183,
      "ĳ": 184,
      "Ĵ": 185,
      "ĵ": 186,
      "Ķ": 187,
      "ķ": 188,
      "ĸ": 189,
      "Ĺ": 190,
      "ĺ": 191,
      "Ļ": 192,
      "ļ": 193,
      "Ľ": 194,
      "ľ": 195,
      "Ŀ": 196,
      "ŀ": 197,
      "Ł": 198,
      "ł": 199,
      "Ń": 200,
      "Ġt": 201,
      "Ġa": 202,
      "he": 203,
      "in": 204,
      "Ġ\"": 205,
      "on": 206,
      "re": 207,
      "ou": 208,
      "Ġthe": 209,
      "er": 210,
      "Ġs": 211,
      "es": 212,
      "an": 213,
      "Ġc": 214,
      "at": 215,
      "\":": 216,
      "Ġw": 217,
      "ing": 218,
      "Ġb": 219,
      "\",": 220,
      "it": 221,
      "Ġp": 222,
      "Ġo": 223,
      "le": 224,
      "Ġy": 225,
      "Ġf": 226,
      "Ġyou": 227,
      "en": 228,
      "Ġto": 229,
      "Ġ[": 230,
      "Ġan": 231,
      "st": 232,
      "Ġm": 233,
      "ar": 234,
      "ic": 235,
      "or": 236,
      "Ġd": 237,
      "ll": 238,
      "is": 239,
      "Ġand": 240,
      "Ġin": 241,
      "ion": 242,
      "as": 243,
      "Ġh": 244,
      "Ġof": 245,
      "id": 246,
      "ow": 247,
      "om": 248,
      "se": 249,
      ".\\": 250,
      "ep": 251,
      "if": 252,
      "al": 253,
      "la": 254,
      "ed": 255,
      ".\",": 256,
      "oo": 257,
      "Ġg": 258,
      "Ġyour": 259,
      "and": 260,
      "qu": 261,
      "Ġl": 262,
      "Ġth": 263,
      "Ġon": 264,
      "step": 265,
      "et": 266,
      "el": 267,
      "Ġn": 268,
      "ce": 269,
      "est": 270,
      "ld": 271,
      "ver": 272,
      "nC": 273,
      "Ġe": 274,
      "Ġu": 275,
      "Ġbe": 276,
      "Ġis": 277,
      "ve": 278,
      "Ġre": 279,
      "Ġst": 280,
      "ot": 281,
      "idat": 282,
      "andidat": 283,
      "\"]": 284,
      "candidat": 285,
      "Ġ[\"": 286,
      "\"],": 287,
      "su": 288,
      "oun": 289,
      "ont": 290,
      "ru": 291,
      "ro": 292,
      "ct": 293,
      "ĠT": 294,
      "ent": 295,
      "Ġor": 296,
      "ard": 297,
      "Ġfor": 298,
      "to": 299,
      "ag": 300,
      "Ġit": 301,
      "ul": 302,
      "estion": 303,
      "ig": 304,
      "ke": 305,
      "ith": 306,
      "ay": 307,
      "ch": 308,
      "Ġare": 309,
      "our": 310,
      "ir": 311,
      "ad": 312,
      "Ġwith": 313,
      "itle": 314,
      "Ġmo": 315,
      "ation": 316,
      "im": 317,
      "sub": 318,
      "steps": 319,
      "substeps": 320,
      "red": 321,
      "title": 322,
      "her": 323,
      "wer": 324,
      "am": 325,
      "swer": 326,
      "ut": 327,
      "ho": 328,
      "ly": 329,
      "ill": 330,
      "ble": 331,
      "Ġthat": 332,
      "ount": 333,
      "all": 334,
      "old": 335,
      "Ġas": 336,
      "ĠI": 337,
      "out": 338,
      "iff": 339,
      "Ġcan": 340,
      "Ġsh": 341,
      "ens": 342,
      "question": 343,
      "ty": 344,
      "qui": 345,
      "Ġpla": 346,
      "ra": 347,
      "us": 348,
      "ier": 349,
      "ck": 350,
      "ur": 351,
      "ason": 352,
      "il": 353,
      "count": 354,
      "icul": 355,
      "Ġha": 356,
      "Ġtru": 357,
      "Ġcont": 358,
      "lab": 359,
      "Ġhe": 360,
      "ifficul": 361,
      "quired": 362,
      "ource": 363,
      "Ġwh": 364,
      "label": 365,
      "Ġtrue": 366,
      "hoo": 367,
      "Ġfr": 368,
      "Ġse": 369,
      "igh": 370,
      "asoning": 371,
      "kens": 372,
      "ifficulty": 373,
      "ifier": 374,
      "source": 375,
      "hard": 376,
      "gold": 377,
      "answer": 378,
      "required": 379,
      "\"}": 380,
      ">\",": 381,
      ">\"],": 382,
      "difficulty": 383,
      "{\"": 384,
      "Ġ\"<": 385,
      "reasoning": 386,
      "verifier": 387,
      "candidate": 388,
      "candidates": 389,
      "Ġ[\"<": 390,
      "tokens": 391,
      "ĠA": 392,
      "hoose": 393,
      "Ġdo": 394,
      "Ġwill": 395,
      "ices": 396,
      "ĠThe": 397,
      "Choose": 398,
      "ers": 399,
      "ake": 400,
      "Ġsu": 401,
      "Ġcom": 402,
      "Ġne": 403,
      "xt": 404,
      "Ġle": 405,
      "pe": 406,
      "hoices": 407,
      "32": 408,
      ":\\": 409,
      "nChoices": 410,
      "nA": 411,
      "nB": 412,
      "nD": 413,
      "ight": 414,
      "Ġat": 415,
      "ate": 416,
      "Ġr": 417,
      "ant": 418,
      "Ġ\\": 419,
      "ĠS": 420,
      "Ġ\\\"": 421,
      "Ġ4": 422,
      "inu": 423,
      "ter": 424,
      "Ġhave": 425,
      "Ġcontinu": 426,
      "Ġmost": 427,
      "pp": 428,
      "ol": 429,
      "ible": 430,
      "'s": 431,
      "ide": 432,
      "Ġpro": 433,
      "ain": 434,
      "ess": 435,
      "art": 436,
      "um": 437,
      "Ġal": 438,
      "ĠH": 439,
      "Ġv": 440,
      "Ġli": 441,
      "king": 442,
      "res": 443,
      "op": 444,
      "ome": 445,
      "ĠIf": 446,
      "Ġfrom": 447,
      "em": 448,
      "ext": 449,
      "Ġwe": 450,
      "end": 451,
      "own": 452,
      "age": 453,
      "Ġnot": 454,
      "Ġup": 455,
      "ĠY": 456,
      "Ġex": 457,
      "ass": 458,
      "ould": 459,
      ".\"],": 460,
      "hell": 461,
      "Ġso": 462,
      "40": 463,
      "ind": 464,
      "Ġch": 465,
      "Ġout": 466,
      "ri": 467,
      "ĠC": 468,
      "owan": 469,
      "wag": 470,
      "Ġcontinuation": 471,
      "Ġplaus": 472,
      "ontext": 473,
      "Ġplausible": 474,
      "Rowan": 475,
      "aswag": 476,
      "nContext": 477,
      "hellaswag": 478,
      "Ġj": 479,
      "Ġk": 480,
      "ater": 481,
      "ons": 482,
      "ound": 483,
      "ther": 484,
      "Ġun": 485,
      "Ġwhe": 486,
      "ry": 487,
      "ĠW": 488,
      "Ġif": 489,
      "Ġby": 490,
      "ine": 491,
      "ick": 492,
      "Ġde": 493,
      "ĠYou": 494,
      "ook": 495,
      "ort": 496,
      "ood": 497,
      "Ġcl": 498,
      "ally": 499,
      "Ġthen": 500,
      "Ġthem": 501,
      "ge": 502,
      "ile": 503,
      "Ġsp": 504,
      "ĠM": 505,
      "ore": 506,
      "Ġab": 507,
      "Ġmay": 508,
      "Ġthey": 509,
      "Ġar": 510,
      "Ġman": 511,
      "gh": 512,
      "ĠP": 513,
      "'t": 514,
      "Ġinto": 515,
      "ive": 516,
      "per": 517,
      "os": 518,
      "Ġ(": 519,
      "Ġuse": 520,
      "Ġget": 521,
      "ĠHow": 522,
      "Ġfe": 523,
      "ack": 524,
      "one": 525,
      "ies": 526,
      "ist": 527,
      "th": 528,
      "Ġother": 529,
      "ice": 530,
      "ment": 531,
      "ĠF": 532,
      "Ġbo": 533,
      "Ġwor": 534,
      "Ġad": 535,
      "ip": 536,
      "so": 537,
      "ough": 538,
      "no": 539,
      "Ġus": 540,
      "ren": 541,
      "Ġwater": 542,
      "ĠD": 543,
      "Ġall": 544,
      "un": 545,
      "Qu": 546,
      "au": 547,
      "ure": 548,
      "Ġmake": 549,
      "ting": 550,
      "Question": 551,
      "nQuestion": 552,
      "Ġta": 553,
      "ĠB": 554,
      "Ġoff": 555,
      "Ġ3": 556,
      "Ġcon": 557,
      "Ġneed": 558,
      "ach": 559,
      "head": 560,
      "Ġbest": 561,
      "Ġbut": 562,
      "Ġtim": 563,
      "ud": 564,
      "Ġgo": 565,
      "Ġone": 566,
      "Ġsc": 567,
      "Ġmore": 568,
      "Ġthis": 569,
      "Ġ1": 570,
      "ĠTh": 571,
      "Ġgr": 572,
      "Ġdown": 573,
      "ect": 574,
      "Ġshould": 575,
      "Ġabout": 576,
      "header": 577,
      "Ġen": 578,
      "ust": 579,
      "iv": 580,
      "Ġcomp": 581,
      "Ġro": 582,
      "Ġfl": 583,
      "ie": 584,
      "der": 585,
      "yes": 586,
      "Ġsome": 587,
      "Ġlo": 588,
      "ast": 589,
      "ool": 590,
      "ense": 591,
      "ame": 592,
      "Ġalso": 593,
      "Ġpe": 594,
      "ity": 595,
      "ong": 596,
      "ite": 597,
      "Ġac": 598,
      "Ġla": 599,
      "Ġher": 600,
      "ts": 601,
      "Ġany": 602,
      "Ġtheir": 603,
      "iz": 604,
      "Ġover": 605,
      "Ġwhat": 606,
      "Ġco": 607,
      "Ġte": 608,
      "Ġhis": 609,
      "Ġhel": 610,
      "Ġwant": 611,
      "Ġusing": 612,
      "Ġsm": 613,
      "Ġback": 614,
      "Ġpl": 615,
      "Ġtime": 616,
      "ĠThis": 617,
      "ich": 618,
      "Ġwhen": 619,
      "ions": 620,
      "Ġhelp": 621,
      "ak": 622,
      "Ġru": 623,
      "ople": 624,
      "ac": 625,
      "ap": 626,
      "Ġdis": 627,
      "Ġinc": 628,
      "Ġme": 629,
      "mons": 630,
      "act": 631,
      "Ġhand": 632,
      "ĠR": 633,
      "ĠL": 634,
      "ial": 635,
      "Ġanswer": 636,
      "ely": 637,
      "monsense": 638,
      "les": 639,
      "Ġwhile": 640,
      "hes": 641,
      "fore": 642,
      "assage": 643,
      "orm": 644,
      "are": 645,
      "com": 646,
      "ase": 647,
      "ff": 648,
      "Ġplay": 649,
      "Ġonly": 650,
      "Ġpeople": 651,
      "Ġapp": 652,
      "ab": 653,
      "ree": 654,
      "Ġ2": 655,
      "ĠO": 656,
      "Ġlike": 657,
      "ber": 658,
      "ai": 659,
      "Ġthr": 660,
      "very": 661,
      "Ġkn": 662,
      "Ġim": 663,
      "alk": 664,
      "Ġaround": 665,
      "Ġpre": 666,
      "Ġwas": 667,
      "Ġhow": 668,
      "av": 669,
      "ĠU": 670,
      "Ġspe": 671,
      "Ġsure": 672,
      "ink": 673,
      "len": 674,
      "Ġtw": 675,
      "Ġpers": 676,
      "ans": 677,
      "ows": 678,
      "du": 679,
      "ance": 680,
      "ated": 681,
      "hing": 682,
      "ire": 683,
      "ĠIn": 684,
      "Ġwork": 685,
      "Ġadd": 686,
      "Ġcle": 687,
      "Ġperson": 688,
      "ĠG": 689,
      "urn": 690,
      "ces": 691,
      "'re": 692,
      "Ġbu": 693,
      "Ġsee": 694,
      "amp": 695,
      "ress": 696,
      "Ġhas": 697,
      "Ġbefore": 698,
      "ven": 699,
      "ild": 700,
      "Ġbl": 701,
      "ings": 702,
      "ĠE": 703,
      "able": 704,
      "gin": 705,
      "ĠIt": 706,
      "Ġshe": 707,
      "Ġper": 708,
      "Ġwhich": 709,
      "ose": 710,
      "ous": 711,
      "Ġpa": 712,
      "Ġput": 713,
      "Ġcar": 714,
      "Ġstart": 715,
      "cess": 716,
      "way": 717,
      "reat": 718,
      "Ġop": 719,
      "ace": 720,
      "Ġsk": 721,
      "bs": 722,
      "Ġpr": 723,
      "sel": 724,
      "ps": 725,
      "rent": 726,
      "qa": 727,
      "Ġtr": 728,
      "Ġbot": 729,
      "Ġpo": 730,
      "Ġke": 731,
      "Ġdog": 732,
      "Ġfind": 733,
      "Ġche": 734,
      "ents": 735,
      "?\\": 736,
      "Ġpart": 737,
      "Ġag": 738,
      "Ġbr": 739,
      "ign": 740,
      "gle": 741,
      "Ġrem": 742,
      "ations": 743,
      "Ġbegin": 744,
      "Ġdon": 745,
      "ors": 746,
      "form": 747,
      "Ġtwo": 748,
      "get": 749,
      "Ġtra": 750,
      "ving": 751,
      "fter": 752,
      "aking": 753,
      "ft": 754,
      "ars": 755,
      "lect": 756,
      "ition": 757,
      "we": 758,
      "Ġsl": 759,
      "ause": 760,
      "vel": 761,
      "Ġday": 762,
      "ical": 763,
      "Ġph": 764,
      "Ġwho": 765,
      "Ġthan": 766,
      "ary": 767,
      "ark": 768,
      "Ġfir": 769,
      "ates": 770,
      "Ġinst": 771,
      "ish": 772,
      "Ġfo": 773,
      "te": 774,
      "other": 775,
      "Ġquestion": 776,
      "Ġcol": 777,
      "ail": 778,
      "self": 779,
      "ĠFor": 780,
      "dy": 781,
      "Ġgood": 782,
      "Ġpos": 783,
      "Ġstand": 784,
      "Ġeach": 785,
      "Ġbet": 786,
      "Ġthere": 787,
      "Ġfeel": 788,
      "Ġwell": 789,
      "ove": 790,
      "Ġsmall": 791,
      "Ġtake": 792,
      "ang": 793,
      "Ġnew": 794,
      "Ġem": 795,
      "Ġcam": 796,
      "ning": 797,
      "Ġimp": 798,
      "Ġatt": 799,
      "Ġra": 800,
      "Ġway": 801,
      "ĠN": 802,
      "ves": 803,
      "lud": 804,
      "Ġball": 805,
      "ull": 806,
      "Ġlar": 807,
      "led": 808,
      "Ġclean": 809,
      "Ġser": 810,
      "Ġsit": 811,
      "ds": 812,
      "ating": 813,
      "Ġthrough": 814,
      "Ġfirst": 815,
      "ub": 816,
      "Ġunder": 817,
      "oogle": 818,
      "up": 819,
      "Ġqu": 820,
      "ix": 821,
      "owing": 822,
      "Ġwhere": 823,
      "lo": 824,
      "ue": 825,
      "Ġdiff": 826,
      "reen": 827,
      "Ġbec": 828,
      "Ġrun": 829,
      "Ġmight": 830,
      "Ġlook": 831,
      "Ġtop": 832,
      "Ġend": 833,
      "Ġdoes": 834,
      "Ġty": 835,
      "Ġhold": 836,
      "hen": 837,
      "Ġdiffe": 838,
      "Ġkeep": 839,
      "Ġfood": 840,
      "Ġloc": 841,
      "Ġcamer": 842,
      "Ġtry": 843,
      "Ġhim": 844,
      "Ġmin": 845,
      "Ġset": 846,
      "Ġact": 847,
      "Ġinclud": 848,
      "omet": 849,
      "ms": 850,
      "allen": 851,
      "og": 852,
      "ĠSt": 853,
      "Ġafter": 854,
      "Ġcat": 855,
      "wn": 856,
      "Ġright": 857,
      "Ġcut": 858,
      "Ġam": 859,
      "Ġcamera": 860,
      "ower": 861,
      "ise": 862,
      "ĠWh": 863,
      "ence": 864,
      "side": 865,
      "33": 866,
      "ave": 867,
      "Ġsy": 868,
      "als": 869,
      "ĠMake": 870,
      "Ġlong": 871,
      "its": 872,
      "ract": 873,
      "Ġexamp": 874,
      "tau": 875,
      "Ġside": 876,
      "nE": 877,
      "Ġcommonsense": 878,
      "commonsense": 879,
      "Ġshown": 880,
      "til": 881,
      "ari": 882,
      "Ġap": 883,
      "'ll": 884,
      "Ġyes": 885,
      "Ġdifferent": 886,
      "Ġanother": 887,
      "Ġres": 888,
      "arch": 889,
      "ize": 890,
      "49": 891,
      "48": 892,
      "Ġsur": 893,
      "Ġpassage": 894,
      "Ġplace": 895,
      "ward": 896,
      "ia": 897,
      "Ġno": 898,
      "ĠBe": 899,
      "nswer": 900,
      "Ġcomm": 901,
      "google": 902,
      "tle": 903,
      "Ġyourself": 904,
      "Ġknow": 905,
      "bool": 906,
      "Answer": 907,
      "Passage": 908,
      "nPassage": 909,
      "boolq": 910,
      "Ġmu": 911,
      "Ġdes": 912,
      "Ġrec": 913,
      "Ġwr": 914,
      "int": 915,
      "Ġwom": 916,
      "Ġarea": 917,
      "Ġevery": 918,
      "Ġjust": 919,
      "ell": 920,
      "Ġbre": 921,
      "Ġfri": 922,
      "Ġexample": 923,
      "Ġ20": 924,
      "Ġrep": 925,
      "Ġsuch": 926,
      "Ġpain": 927,
      "Ġthese": 928,
      "Ġeas": 929,
      "Ġhair": 930,
      "Ġcre": 931,
      "ten": 932,
      "Ġfriend": 933,
      "alking": 934,
      "Ġav": 935,
      "ne": 936,
      "eter": 937,
      "sh": 938,
      "ĠK": 939,
      "Ġhome": 940,
      "ific": 941,
      "Ġprodu": 942,
      "Ġexp": 943,
      "ys": 944,
      "bo": 945,
      "ever": 946,
      "pt": 947,
      "atch": 948,
      "Ġspec": 949,
      "Ġcons": 950,
      "Ġits": 951,
      "Ġfin": 952,
      "Ġlarge": 953,
      "Ġlight": 954,
      "Ġ,": 955,
      "Ġagain": 956,
      "lic": 957,
      "arm": 958,
      "ider": 959,
      "ner": 960,
      "Ġreg": 961,
      "Ġroom": 962,
      "Ġturn": 963,
      "Ġbody": 964,
      "Ġind": 965,
      "allenai": 966,
      "Ġeven": 967,
      "Ġsame": 968,
      "Ġinter": 969,
      "ange": 970,
      "Ġmed": 971,
      "Ġsomet": 972,
      "ump": 973,
      "Ġwalk": 974,
      "Ġwould": 975,
      "Ġuntil": 976,
      "Ġchild": 977,
      "ert": 978,
      "uring": 979,
      "vent": 980,
      "Ġair": 981,
      "ily": 982,
      "vers": 983,
      "gr": 984,
      "ade": 985,
      "Ġmuch": 986,
      "Ġcal": 987,
      "Ġnum": 988,
      "Ġaway": 989,
      "Ġdec": 990,
      "Ġcor": 991,
      "Ġsho": 992,
      "Ġread": 993,
      "Ġgl": 994,
      "Ġbeing": 995,
      "ci": 996,
      "Ġhigh": 997,
      "ict": 998,
      "ject": 999,
      "hed": 1000,
      "ouse": 1001,
      "Ġbow": 1002,
      "ction": 1003,
      "Ġfoll": 1004,
      "Ġlist": 1005,
      "Ġbas": 1006,
      "ĠJ": 1007,
      "Ġtoo": 1008,
      "ments": 1009,
      "ful": 1010,
      "Ġsw": 1011,
      "line": 1012,
      "Ġcould": 1013,
      "Ġform": 1014,
      "Ġdr": 1015,
      "kes": 1016,
      "Ġlif": 1017,
      "book": 1018,
      "gs": 1019,
      "ĠUse": 1020,
      "Ġhead": 1021,
      "chool": 1022,
      "ash": 1023,
      "Ġsim": 1024,
      "Ġown": 1025,
      "Ġopen": 1026,
      "Ġfront": 1027,
      "Ġsever": 1028,
      "Ġvery": 1029,
      "ory": 1030,
      "ond": 1031,
      "Ġmany": 1032,
      "oid": 1033,
      "Ġwoman": 1034,
      "ead": 1035,
      "Ġlet": 1036,
      "Ġwind": 1037,
      "ath": 1038,
      "Ġ:": 1039,
      "ĠAs": 1040,
      "ee": 1041,
      "Ġpaper": 1042,
      "ng": 1043,
      "Ġent": 1044,
      "ĠWhen": 1045,
      "Ġhands": 1046,
      "ord": 1047,
      "Ġpres": 1048,
      "Ġdri": 1049,
      "Ġgu": 1050,
      "Ġsa": 1051,
      "Ġjo": 1052,
      "Ġseveral": 1053,
      "Ġused": 1054,
      "ear": 1055,
      "Ġrel": 1056,
      "Ġplant": 1057,
      "ins": 1058,
      "Ġcr": 1059,
      "Ġbegins": 1060,
      "Ġdry": 1061,
      "Ġschool": 1062,
      "Ġbus": 1063,
      "read": 1064,
      "Ġsec": 1065,
      "anc": 1066,
      "any": 1067,
      "ween": 1068,
      "00": 1069,
      "ather": 1070,
      "ost": 1071,
      "Ġsign": 1072,
      "Ġfi": 1073,
      "Ġstore": 1074,
      "Ġdi": 1075,
      "ips": 1076,
      "gether": 1077,
      "Ġtalk": 1078,
      "Ġbetween": 1079,
      "Ġappe": 1080,
      "oor": 1081,
      "Ġpie": 1082,
      "Ġpot": 1083,
      "Ġscreen": 1084,
      "Ġpur": 1085,
      "irl": 1086,
      "Ġinform": 1087,
      "Ġbla": 1088,
      "ank": 1089,
      "Ġmet": 1090,
      "ph": 1091,
      "sure": 1092,
      "Ġref": 1093,
      "Ġimport": 1094,
      "Ġtogether": 1095,
      "Ġdep": 1096,
      "Ġclot": 1097,
      "Ġsomething": 1098,
      "Ġcount": 1099,
      "Ġbecause": 1100,
      "Ġprov": 1101,
      "Ġbowl": 1102,
      "Ġloo": 1103,
      "lace": 1104,
      "let": 1105,
      "Ġext": 1106,
      "ger": 1107,
      "Ġcur": 1108,
      "Ġable": 1109,
      "Ġposs": 1110,
      "alth": 1111,
      "Ġsupp": 1112,
      "Ġgra": 1113,
      "Ġmen": 1114,
      "rest": 1115,
      "ular": 1116,
      "Ġbeh": 1117,
      "Ġmix": 1118,
      "Ġsal": 1119,
      "Ġplaying": 1120,
      "iness": 1121,
      "Ġthings": 1122,
      "Ġminut": 1123,
      "Ġopt": 1124,
      "Ġfil": 1125,
      "Ġlit": 1126,
      "irt": 1127,
      "ures": 1128,
      "Ġplan": 1129,
      "Ġimportant": 1130,
      "oot": 1131,
      "io": 1132,
      "Ġve": 1133,
      "ident": 1134,
      "Ġwhite": 1135,
      "ual": 1136,
      "Ġgen": 1137,
      "oup": 1138,
      "Ġgoing": 1139,
      "enc": 1140,
      "Ġcontinues": 1141,
      "ĠTo": 1142,
      "Ġinformation": 1143,
      "ved": 1144,
      "Ġcontain": 1145,
      "Ġfew": 1146,
      "Ġcho": 1147,
      "ult": 1148,
      "Ġlik": 1149,
      "Ġboth": 1150,
      "sul": 1151,
      "Ġdire": 1152,
      "Ġinclude": 1153,
      "eld": 1154,
      "Ġgive": 1155,
      "ĠThere": 1156,
      "air": 1157,
      "Ġtable": 1158,
      "Ġmove": 1159,
      "Ġnumber": 1160,
      "ĠYour": 1161,
      "Ġdoing": 1162,
      "ĠOn": 1163,
      "ides": 1164,
      "de": 1165,
      "Ġstud": 1166,
      "Ġmus": 1167,
      "Ġsn": 1168,
      "ited": 1169,
      "Ġsomeone": 1170,
      "ib": 1171,
      "cus": 1172,
      "Ġsub": 1173,
      "ros": 1174,
      "Ġob": 1175,
      "Ġoften": 1176,
      "Ġsay": 1177,
      "dd": 1178,
      "ĠAl": 1179,
      "Ġvari": 1180,
      "Ġhealth": 1181,
      "Ġbeen": 1182,
      "ĠUn": 1183,
      "Ġhard": 1184,
      "Ġgirl": 1185,
      "Ġname": 1186,
      "Ġacc": 1187,
      "aring": 1188,
      "Ġcare": 1189,
      "Ġduring": 1190,
      "mer": 1191,
      "Ġwall": 1192,
      "ĠAn": 1193,
      "ĠThey": 1194,
      "Ġlikely": 1195,
      "iss": 1196,
      "ton": 1197,
      "Ġask": 1198,
      "ffect": 1199,
      "Ġpass": 1200,
      "Ġdist": 1201,
      "Ġbox": 1202,
      "ours": 1203,
      "Ġface": 1204,
      "Ġstill": 1205,
      "Ġenough": 1206,
      "ities": 1207,
      "Ġpan": 1208,
      "Ġsurf": 1209,
      "Ġoil": 1210,
      "Ġground": 1211,
      "Ġstate": 1212,
      "ĠSome": 1213,
      "sed": 1214,
      "erc": 1215,
      "cc": 1216,
      "Ġcheck": 1217,
      "ets": 1218,
      "sually": 1219,
      "ying": 1220,
      "Ġbott": 1221,
      "ness": 1222,
      "Ġint": 1223,
      "ĠTry": 1224,
      "Ġclose": 1225,
      "Ġfloor": 1226,
      "atter": 1227,
      "ically": 1228,
      "Ġcard": 1229,
      "Ġhouse": 1230,
      "gg": 1231,
      "Ġrest": 1232,
      "ctor": 1233,
      "Ġshow": 1234,
      "Ġfree": 1235,
      "ric": 1236,
      "Ġpossible": 1237,
      "Ġminutes": 1238,
      "Ġaccount": 1239,
      "Ġtem": 1240,
      "iew": 1241,
      "Ġdra": 1242,
      "akes": 1243,
      "Ġmaking": 1244,
      "Ġide": 1245,
      "here": 1246,
      "Ġprocess": 1247,
      "ek": 1248,
      "vice": 1249,
      "pect": 1250,
      "Ġchar": 1251,
      "Ġtyp": 1252,
      "ature": 1253,
      "Ġless": 1254,
      "Ġbru": 1255,
      "Ġtype": 1256,
      "board": 1257,
      "Ġlot": 1258,
      "Ġblack": 1259,
      "ced": 1260,
      "icks": 1261,
      "rop": 1262,
      "Ġglass": 1263,
      "pping": 1264,
      "Ġonline": 1265,
      "Ġexper": 1266,
      "Ġpar": 1267,
      "ĠDo": 1268,
      "Ġfall": 1269,
      "Ġbar": 1270,
      "Ġrequi": 1271,
      "iting": 1272,
      "gar": 1273,
      "ems": 1274,
      "Ġamount": 1275,
      "ye": 1276,
      "ork": 1277,
      "erg": 1278,
      "Ġleft": 1279,
      "Ġleast": 1280,
      "Ġfam": 1281,
      "Ġsto": 1282,
      "room": 1283,
      "ines": 1284,
      "Ġwithout": 1285,
      "Ġshows": 1286,
      "fe": 1287,
      "oney": 1288,
      "ients": 1289,
      "Ġskin": 1290,
      "Ġbuild": 1291,
      "ience": 1292,
      "Ġgame": 1293,
      "42": 1294,
      "ling": 1295,
      "Ġremove": 1296,
      "gan": 1297,
      "open": 1298,
      "Ġputs": 1299,
      "Ġtalking": 1300,
      "Ġmust": 1301,
      "cle": 1302,
      "ept": 1303,
      "Ġstr": 1304,
      "Ġfun": 1305,
      "Ġtimes": 1306,
      "Ġwebs": 1307,
      "Ġcup": 1308,
      "Ġprot": 1309,
      "eterm": 1310,
      "Ġstop": 1311,
      "Ġusually": 1312,
      "Ġonto": 1313,
      "ian": 1314,
      "co": 1315,
      "Ġseen": 1316,
      "Ġperform": 1317,
      "Ġcook": 1318,
      "bookqa": 1319,
      "openbookqa": 1320,
      "els": 1321,
      "Ġbusiness": 1322,
      "Ġstep": 1323,
      "Ġpol": 1324,
      "ĠHe": 1325,
      "Ġspr": 1326,
      "Ġ201": 1327,
      "Ġbottom": 1328,
      "Ġing": 1329,
      "aves": 1330,
      "Ġproper": 1331,
      "Ġinte": 1332,
      "Ġtakes": 1333,
      "Ġvis": 1334,
      "Ġsol": 1335,
      "Ġcome": 1336,
      "Ġed": 1337,
      "Ġbetter": 1338,
      "Ġold": 1339,
      "Ġcause": 1340,
      "stand": 1341,
      "Ġcour": 1342,
      "thing": 1343,
      "ious": 1344,
      "Ġnext": 1345,
      "Ġjump": 1346,
      "Ġstanding": 1347,
      "Ġalong": 1348,
      "Ġbook": 1349,
      "ĠDon": 1350,
      "Ġclass": 1351,
      "bb": 1352,
      "Ġweight": 1353,
      "Ġgener": 1354,
      "ĠThese": 1355,
      "iding": 1356,
      "Ġboard": 1357,
      "ches": 1358,
      "Ġ19": 1359,
      "ross": 1360,
      "ĠHowever": 1361,
      "Ġcolor": 1362,
      "Ġproduct": 1363,
      "ike": 1364,
      "ef": 1365,
      "Ġweek": 1366,
      "Ġbel": 1367,
      "Ġlocal": 1368,
      "Ġred": 1369,
      "Ġlittle": 1370,
      "ember": 1371,
      "Ġdirect": 1372,
      "Ġinv": 1373,
      "ats": 1374,
      "Ġthree": 1375,
      ").": 1376,
      "Ġwood": 1377,
      "Ġret": 1378,
      "Ġholding": 1379,
      "Ġingred": 1380,
      "Ġlead": 1381,
      "Ġpay": 1382,
      "Ġwatch": 1383,
      "Ġfull": 1384,
      "arn": 1385,
      "ways": 1386,
      "Ġsyst": 1387,
      "eep": 1388,
      "Ġchoose": 1389,
      "Ġfield": 1390,
      "Ġothers": 1391,
      "fort": 1392,
      "Ġstre": 1393,
      "Ġhor": 1394,
      "Ġstra": 1395,
      "Ġel": 1396,
      "Ġteam": 1397,
      "Ġsimp": 1398,
      "ety": 1399,
      "Ġmark": 1400,
      "Ġhapp": 1401,
      "Ġallow": 1402,
      "ify": 1403,
      "ately": 1404,
      "ually": 1405,
      "ional": 1406,
      "Ġinside": 1407,
      "Ġthink": 1408,
      "Ġcontact": 1409,
      "ending": 1410,
      "Ġorder": 1411,
      "Ġmade": 1412,
      "br": 1413,
      "ĠLook": 1414,
      "Ġ5": 1415,
      "ĠPlace": 1416,
      "Ġtrans": 1417,
      "ium": 1418,
      "Ġsearch": 1419,
      "Ġexerc": 1420,
      "),": 1421,
      "Ġavoid": 1422,
      "Ġtreat": 1423,
      "ages": 1424,
      "ient": 1425,
      "Ġgiv": 1426,
      "Ġelect": 1427,
      "Ġinterest": 1428,
      "ics": 1429,
      "Ġsqu": 1430,
      "ining": 1431,
      "cks": 1432,
      "Ġwa": 1433,
      "Ġmeas": 1434,
      "Ġgetting": 1435,
      "Ġingredients": 1436,
      "Ġhot": 1437,
      "Ġwalks": 1438,
      "Ġbed": 1439,
      "ĠSe": 1440,
      "Ġcreate": 1441,
      "Ġemp": 1442,
      "Ġfeet": 1443,
      "Ġdoctor": 1444,
      "hip": 1445,
      "Ġbag": 1446,
      "Ġcert": 1447,
      "ased": 1448,
      "Ġcontinue": 1449,
      "Ġcir": 1450,
      "be": 1451,
      "Ġice": 1452,
      "Ġcent": 1453,
      "Ġprof": 1454,
      "Ġlooking": 1455,
      "Ġbehind": 1456,
      "ĠAdd": 1457,
      "Ġmoney": 1458,
      "Ġi": 1459,
      "ĠKeep": 1460,
      "Ġsun": 1461,
      "Ġleg": 1462,
      "Ġfriends": 1463,
      "Ġconsider": 1464,
      "ility": 1465,
      "Ġwon": 1466,
      "ative": 1467,
      "Ġtri": 1468,
      "Ġcall": 1469,
      "Ġphone": 1470,
      "Ġwarm": 1471,
      "Ġinf": 1472,
      "ĠRem": 1473,
      "Ġtool": 1474,
      "outh": 1475,
      "Ġir": 1476,
      "ĠWhat": 1477,
      "ware": 1478,
      "Ġspace": 1479,
      "Ġfla": 1480,
      "ĠCl": 1481,
      "ĠTake": 1482,
      "Ġquick": 1483,
      "Ġnear": 1484,
      "etermine": 1485,
      "gram": 1486,
      "Ġspecific": 1487,
      "Ġbuy": 1488,
      "Ġconc": 1489,
      "Ġheat": 1490,
      "ale": 1491,
      "Ġsand": 1492,
      "Ġpurch": 1493,
      "ipe": 1494,
      "ĠV": 1495,
      "ids": 1496,
      "Ġmain": 1497,
      "Ġgroup": 1498,
      "Ġlevel": 1499,
      "Ġpast": 1500,
      "Ġmot": 1501,
      "Ġhal": 1502,
      "Ġline": 1503,
      "Ġlife": 1504,
      "Ġca": 1505,
      "Ġresul": 1506,
      "Ġwere": 1507,
      "Ġrequire": 1508,
      "ied": 1509,
      "wards": 1510,
      "Ġprep": 1511,
      "Ġbecome": 1512,
      "Ġpaint": 1513,
      "Ġsle": 1514,
      "Ġbreak": 1515,
      "ases": 1516,
      "Ġfamily": 1517,
      "Ġprogram": 1518,
      "Ġgreat": 1519,
      "Ġcomput": 1520,
      "Ġbir": 1521,
      "Ġoutside": 1522,
      "Ġlaw": 1523,
      "Ġfru": 1524,
      "Ġrunning": 1525,
      "nect": 1526,
      "''": 1527,
      "Ġsoft": 1528,
      "oth": 1529,
      "``": 1530,
      "me": 1531,
      "str": 1532,
      "Ġsize": 1533,
      "Ġmont": 1534,
      "Ġchange": 1535,
      "oc": 1536,
      "Ġes": 1537,
      "arc": 1538,
      "Ġcompany": 1539,
      "Ġmil": 1540,
      "Ġcover": 1541,
      "Ġsystem": 1542,
      "Ġstarts": 1543,
      "Ġcommon": 1544,
      "Ġhit": 1545,
      "Ġproble": 1546,
      "ĠChe": 1547,
      "Ġfour": 1548,
      "Ġincre": 1549,
      "Ġkit": 1550,
      "Ġconf": 1551,
      "ruct": 1552,
      "Ġseason": 1553,
      "Ġ``": 1554,
      "Ġgets": 1555,
      "Ġavai": 1556,
      "Ġonce": 1557,
      "dle": 1558,
      "Ġremo": 1559,
      "umps": 1560,
      "Ġwebsite": 1561,
      "ently": 1562,
      "Ġprevent": 1563,
      "lable": 1564,
      "Ġstick": 1565,
      "ither": 1566,
      "stic": 1567,
      "less": 1568,
      "Ġeat": 1569,
      "ator": 1570,
      "Ġanim": 1571,
      "Ġtest": 1572,
      "arly": 1573,
      "Ġmonth": 1574,
      "fer": 1575,
      "Ġthough": 1576,
      "ern": 1577,
      "Ġz": 1578,
      "Ġtemper": 1579,
      "Ġsurface": 1580,
      "ĠChoose": 1581,
      "Ġeng": 1582,
      "Ġbig": 1583,
      "atur": 1584,
      "tain": 1585,
      "ames": 1586,
      "Ġtell": 1587,
      "Ġorgan": 1588,
      "ince": 1589,
      "Ġavailable": 1590,
      "Ġbutton": 1591,
      "ted": 1592,
      "ĠFind": 1593,
      "Ġdrink": 1594,
      "bers": 1595,
      "Ġpop": 1596,
      "Ġpull": 1597,
      "Ġtow": 1598,
      "velop": 1599,
      "Ġboy": 1600,
      "Ġshort": 1601,
      "rap": 1602,
      "Ġlow": 1603,
      "Ġmind": 1604,
      "mon": 1605,
      "Ġhaving": 1606,
      "Ġstay": 1607,
      "Ġappear": 1608,
      "Ġter": 1609,
      "Ġtree": 1610,
      "Ġye": 1611,
      "Ġsitting": 1612,
      "ized": 1613,
      "Ġswe": 1614,
      "Ġfoot": 1615,
      "Ġwrite": 1616,
      "Ġvide": 1617,
      "ably": 1618,
      "Ġtext": 1619,
      "Ġfollow": 1620,
      "Ġslow": 1621,
      "Ġdone": 1622,
      "Ġdem": 1623,
      "Ġmater": 1624,
      "lay": 1625,
      "ĠCheck": 1626,
      "med": 1627,
      "Ġgrow": 1628,
      "Ġeye": 1629,
      "Ġsugar": 1630,
      "oms": 1631,
      "Ġwalking": 1632,
      "Ġsleep": 1633,
      "Ġcomputer": 1634,
      "Ġdef": 1635,
      "Ġland": 1636,
      "41": 1637,
      "oss": 1638,
      "Ġapply": 1639,
      "ĠGet": 1640,
      "Ġfing": 1641,
      "ym": 1642,
      "Ġwhether": 1643,
      "Ġresp": 1644,
      "Ġbra": 1645,
      "Ġbutter": 1646,
      "Ġpoint": 1647,
      "Ġcap": 1648,
      "Ġhorse": 1649,
      "Ġeffect": 1650,
      "Ġmaterial": 1651,
      "Ġdoesn": 1652,
      "Ġcond": 1653,
      "acter": 1654,
      "AR": 1655,
      "cri": 1656,
      "Ġpract": 1657,
      "ention": 1658,
      "rees": 1659,
      "Ġprovide": 1660,
      "Ġaddress": 1661,
      "ARC": 1662,
      "ills": 1663,
      "Ġneeds": 1664,
      "ails": 1665,
      "Ġpiece": 1666,
      "Ġfollowing": 1667,
      "Ġselect": 1668,
      "Ġpower": 1669,
      "Ġ10": 1670,
      "Ġcontro": 1671,
      "Ġcomes": 1672,
      "Ġmakes": 1673,
      "Ġpet": 1674,
      "ready": 1675,
      "land": 1676,
      "Ġnow": 1677,
      "Ġhalf": 1678,
      "Ġactiv": 1679,
      "ec": 1680,
      "view": 1681,
      "Ġblue": 1682,
      "'ve": 1683,
      "Ġalready": 1684,
      "eds": 1685,
      "Ġgoes": 1686,
      "ouch": 1687,
      "Ġexc": 1688,
      "Ġdevelop": 1689,
      "ational": 1690,
      "Ġintern": 1691,
      "Ġmid": 1692,
      "Ġchang": 1693,
      "Ġroll": 1694,
      "Ġprotect": 1695,
      "ball": 1696,
      "cing": 1697,
      "Ġgreen": 1698,
      "Ġyear": 1699,
      "Ġinstead": 1700,
      "Ġdeg": 1701,
      "ĠClick": 1702,
      "Ġuses": 1703,
      "Ġtaking": 1704,
      "Ġobject": 1705,
      "Ġclick": 1706,
      "pr": 1707,
      "Ġcomfort": 1708,
      "Ġfound": 1709,
      "Ġart": 1710,
      "Ġbrush": 1711,
      "Ġdisp": 1712,
      "ants": 1713,
      "Ġmi": 1714,
      "ution": 1715,
      "ergy": 1716,
      "ming": 1717,
      "Ġsupport": 1718,
      "Ġwin": 1719,
      "ots": 1720,
      "comm": 1721,
      "load": 1722,
      "Ġdays": 1723,
      "Ġev": 1724,
      "ement": 1725,
      "cket": 1726,
      "Ġleaves": 1727,
      "cially": 1728,
      "Ġpage": 1729,
      "Ġbit": 1730,
      "Ġwindow": 1731,
      "ime": 1732,
      "Ġsym": 1733,
      "Ġfast": 1734,
      "Ġeither": 1735,
      "ape": 1736,
      "Ġcred": 1737,
      "Ġsnow": 1738,
      "Ġcool": 1739,
      "Ġtrying": 1740,
      "Ġocc": 1741,
      "xture": 1742,
      "icle": 1743,
      "isk": 1744,
      "aving": 1745,
      "row": 1746,
      "Ġoffice": 1747,
      "Ġposition": 1748,
      "Ġval": 1749,
      "Ġcase": 1750,
      "Ġregular": 1751,
      "ined": 1752,
      "Ġlay": 1753,
      "Ġworking": 1754,
      "Ġyoung": 1755,
      "Ġplastic": 1756,
      "Ġqual": 1757,
      "Ġmach": 1758,
      "Ġdru": 1759,
      "ively": 1760,
      "Ġident": 1761,
      "oon": 1762,
      "Ġpub": 1763,
      "Ġhum": 1764,
      "ns": 1765,
      "Ġpus": 1766,
      "Ġhad": 1767,
      "Ġalways": 1768,
      "Ġlegs": 1769,
      "Ġwearing": 1770,
      "ĠOnce": 1771,
      "Ġben": 1772,
      "inal": 1773,
      "Ġdet": 1774,
      "Ġho": 1775,
      "Ġyears": 1776,
      "Ġmem": 1777,
      "pl": 1778,
      "ished": 1779,
      "Ġkey": 1780,
      "Ġlive": 1781,
      "Ġveget": 1782,
      "ug": 1783,
      "Ġrece": 1784,
      "Ġeasier": 1785,
      "Ġaut": 1786,
      "Ġwash": 1787,
      "Ġexercise": 1788,
      "Ġ6": 1789,
      "Ġcold": 1790,
      "Ġjob": 1791,
      "Ġaccess": 1792,
      "ĠCh": 1793,
      "rents": 1794,
      "Ġconnect": 1795,
      "Ġmat": 1796,
      "Ġpieces": 1797,
      "Ġthose": 1798,
      "Ġphys": 1799,
      "Ġdesign": 1800,
      "Ġhours": 1801,
      "Ġacross": 1802,
      "Ġcontrol": 1803,
      "pped": 1804,
      "Ġliqu": 1805,
      "Ġpersonal": 1806,
      "Ġrele": 1807,
      "Ġenergy": 1808,
      "ries": 1809,
      "Ġsalt": 1810,
      "Ġlast": 1811,
      "Ġspeak": 1812,
      "Ġfile": 1813,
      "pecially": 1814,
      "Ġmoving": 1815,
      "ision": 1816,
      "Ġitems": 1817,
      "Ġidea": 1818,
      "Ġstands": 1819,
      "Ġagainst": 1820,
      "Ġmixture": 1821,
      "ivid": 1822,
      "Ġcertain": 1823,
      "iling": 1824,
      "Ġpack": 1825,
      "imes": 1826,
      "ĠMost": 1827,
      "Ġcomplet": 1828,
      "Ġopp": 1829,
      "Ġeyes": 1830,
      "Ġmeet": 1831,
      "ĠGo": 1832,
      "Ġemplo": 1833,
      "Ġbreat": 1834,
      "Ġappro": 1835,
      "Ġunderstand": 1836,
      "Ġste": 1837,
      "Ġvideo": 1838,
      "Ġreason": 1839,
      "resh": 1840,
      "Ġcra": 1841,
      "not": 1842,
      "Ġgar": 1843,
      "Ġmeans": 1844,
      "Ġpict": 1845,
      "Ġma": 1846,
      "pper": 1847,
      "cum": 1848,
      "ife": 1849,
      "ock": 1850,
      "Ġnatur": 1851,
      "ency": 1852,
      "Ġrelations": 1853,
      "ones": 1854,
      "Ġmoves": 1855,
      "Ġquickly": 1856,
      "Ġlearn": 1857,
      "Ġcell": 1858,
      "Ġoffer": 1859,
      "Ġvac": 1860,
      "Ġsetting": 1861,
      "Ġplants": 1862,
      "Ġchildren": 1863,
      "Ġce": 1864,
      "Ġfit": 1865,
      "Ġaddition": 1866,
      "Ġcurrent": 1867,
      "Ġass": 1868,
      "Ġkind": 1869,
      "Ġtemperature": 1870,
      "Ġblood": 1871,
      "Ġends": 1872,
      "work": 1873,
      "ior": 1874,
      "epar": 1875,
      "Ġcream": 1876,
      "Ġnecess": 1877,
      "Ġpick": 1878,
      "Ġsing": 1879,
      "Ġsty": 1880,
      "Ġcomple": 1881,
      "Ġreal": 1882,
      "Ġvarious": 1883,
      "rit": 1884,
      "Ġstates": 1885,
      "Ġbring": 1886,
      "Ġrese": 1887,
      "Ġfire": 1888,
      "Ġrout": 1889,
      "Ġfac": 1890,
      "ances": 1891,
      "Ġnon": 1892,
      "Ġparents": 1893,
      "Ġnut": 1894,
      "Ġcla": 1895,
      "Ġfish": 1896,
      "Ġsoap": 1897,
      "inking": 1898,
      "Ġlower": 1899,
      "Ġjumps": 1900,
      "ables": 1901,
      "Ġespecially": 1902,
      "Ġcity": 1903,
      "ĠThen": 1904,
      "Ġmic": 1905,
      "Ġareas": 1906,
      "Ġprofess": 1907,
      "Ġpost": 1908,
      "Ġmar": 1909,
      "Ġnet": 1910,
      "Ġeasily": 1911,
      "ĠAsk": 1912,
      "Ġins": 1913,
      "Ġleave": 1914,
      "Ġredu": 1915,
      "cial": 1916,
      "Ġpri": 1917,
      "Ġexperience": 1918,
      "Ġspray": 1919,
      "Ġsecond": 1920,
      "Ġspecial": 1921,
      "sing": 1922,
      "Ġcomb": 1923,
      "Ġtypes": 1924,
      "jo": 1925,
      "Ġriding": 1926,
      "Ġattention": 1927,
      "Ġcost": 1928,
      "Ġmouth": 1929,
      "Ġphot": 1930,
      "Ġpool": 1931,
      "Ġnight": 1932,
      "Ġfact": 1933,
      "Ġmachine": 1934,
      "ese": 1935,
      "Ġbad": 1936,
      "ato": 1937,
      "Ġmilk": 1938,
      "Ġgre": 1939,
      "Ġpu": 1940,
      "Ġmusic": 1941,
      "Ġfresh": 1942,
      "Ġdid": 1943,
      "Ġmeasure": 1944,
      "Ġclear": 1945,
      "ges": 1946,
      "Ġbath": 1947,
      "ata": 1948,
      "Ġfocus": 1949,
      "Ġdam": 1950,
      "Ġseries": 1951,
      "Ġplaces": 1952,
      "Ġincluding": 1953,
      "Ġbase": 1954,
      "Ġdetermine": 1955,
      "Ġspeaking": 1956,
      "Ġvol": 1957,
      "Ġturns": 1958,
      "Ġbal": 1959,
      "asy": 1960,
      "Ġcommun": 1961,
      "Ġgoal": 1962,
      "oof": 1963,
      "Ġrope": 1964,
      "Ġtowel": 1965,
      "Ġoption": 1966,
      "Ġsepar": 1967,
      "onstr": 1968,
      "olog": 1969,
      "ĠCons": 1970,
      "rist": 1971,
      "Ġcru": 1972,
      "od": 1973,
      "Ġoven": 1974,
      "orth": 1975,
      "port": 1976,
      "ery": 1977,
      "Ġcorner": 1978,
      "light": 1979,
      "Ġprob": 1980,
      "Ġbaking": 1981,
      "Ġcleaning": 1982,
      "Ġcust": 1983,
      "Ġbuilding": 1984,
      "Ġoptions": 1985,
      "Ġdisc": 1986,
      "ential": 1987,
      "ute": 1988,
      "ote": 1989,
      "Ġcontainer": 1990,
      "--": 1991,
      "Ġtravel": 1992,
      "Ġadv": 1993,
      "Ġdemonstr": 1994,
      "Ġtend": 1995,
      "Ġpurchase": 1996,
      "Ġcourt": 1997,
      "Ġreally": 1998,
      "Ġlim": 1999,
      "Ġtrack": 2000,
      "Ġshirt": 2001,
      "ask": 2002,
      "Ġthrows": 2003,
      "Ġbro": 2004,
      "ĠAfter": 2005,
      "ĠConsider": 2006,
      "itive": 2007,
      "Ġarm": 2008,
      "ĠAv": 2009,
      "Ġsympt": 2010,
      "ĠPut": 2011,
      "Ġdrive": 2012,
      "Ġstain": 2013,
      "Ġmult": 2014,
      "Ġeasy": 2015,
      "Ġwhy": 2016,
      "Ġnorm": 2017,
      "iqu": 2018,
      "Ġbottle": 2019,
      "Ġready": 2020,
      "Ġissu": 2021,
      "Ġsitu": 2022,
      "commend": 2023,
      "ew": 2024,
      "ĠStart": 2025,
      "Ġmetho": 2026,
      "Ġgym": 2027,
      "Ġmiddle": 2028,
      "Ġage": 2029,
      "Ġswim": 2030,
      "ĠCom": 2031,
      "icking": 2032,
      "rodu": 2033,
      "Ġwear": 2034,
      "ightly": 2035,
      "Ġmean": 2036,
      "Ġcenter": 2037,
      "Ġtab": 2038,
      "Ġdogs": 2039,
      "eth": 2040,
      "Ġmetal": 2041,
      "Ġ8": 2042,
      "Ġwindows": 2043,
      "ze": 2044,
      "ints": 2045,
      "Ġrecommend": 2046,
      "vices": 2047,
      "Ġbike": 2048,
      "Ġdevice": 2049,
      "ination": 2050,
      "Ġcloth": 2051,
      "ital": 2052,
      "ican": 2053,
      "Ġdoor": 2054,
      "Ġleng": 2055,
      "Ġstri": 2056,
      "Ġclothes": 2057,
      "ĠUnited": 2058,
      "rew": 2059,
      "Ġenjo": 2060,
      "ĠAvoid": 2061,
      "Ġgard": 2062,
      "ring": 2063,
      "Ġensure": 2064,
      "ired": 2065,
      "Ġcoo": 2066,
      "Ġlater": 2067,
      "day": 2068,
      "Ġport": 2069,
      "Ġperio": 2070,
      "Ġsides": 2071,
      "Ġworld": 2072,
      "Ġsafe": 2073,
      "Ġdirt": 2074,
      "Ġcredit": 2075,
      "Ġtub": 2076,
      "Ġmod": 2077,
      "itions": 2078,
      "Ġwriting": 2079,
      "Ġclim": 2080,
      "ral": 2081,
      "Ġreturn": 2082,
      "Ġparticul": 2083,
      "yd": 2084,
      "Ġevent": 2085,
      "Ġlocation": 2086,
      "Ġdeep": 2087,
      "Ġappears": 2088,
      "Ġlength": 2089,
      "Ġmenu": 2090,
      "Ġlonger": 2091,
      "Ġju": 2092,
      "Ġmess": 2093,
      "iver": 2094,
      "Ġbab": 2095,
      "Ġhang": 2096,
      "Ġbased": 2097,
      "Ġveh": 2098,
      "Ġlove": 2099,
      "ared": 2100,
      "Ġcutting": 2101,
      "ex": 2102,
      "Ġemail": 2103,
      "Ġic": 2104,
      "ĠMany": 2105,
      "ground": 2106,
      "Ġcannot": 2107,
      "tern": 2108,
      "Ġcomfortable": 2109,
      "ering": 2110,
      "Ġwords": 2111,
      "Ġconst": 2112,
      "Ġhealthy": 2113,
      "Ġinstall": 2114,
      "Ġdark": 2115,
      "Ġruns": 2116,
      "Ġcreat": 2117,
      "ives": 2118,
      "Ġwithin": 2119,
      "Ġthing": 2120,
      "ken": 2121,
      "Ġest": 2122,
      "Ġindivid": 2123,
      "orn": 2124,
      "arth": 2125,
      "ĠInst": 2126,
      "Ġ$": 2127,
      "Ġyell": 2128,
      "Ġholds": 2129,
      "ĠWhere": 2130,
      "Ġtouch": 2131,
      "Ġextra": 2132,
      "Ġcountry": 2133,
      "ĠWhile": 2134,
      "Ġsound": 2135,
      "Ġlooks": 2136,
      "Ġapplic": 2137,
      "Ġlarger": 2138,
      "Ġprobably": 2139,
      "Ġworks": 2140,
      "Ġfilm": 2141,
      "Ġrelationship": 2142,
      "ening": 2143,
      "ully": 2144,
      "Ġstores": 2145,
      "uff": 2146,
      "ĠEn": 2147,
      "ĠWhich": 2148,
      "Ġfoods": 2149,
      "Ġpresent": 2150,
      "Ġparts": 2151,
      "Ġdeal": 2152,
      "ĠRe": 2153,
      "ories": 2154,
      "Ġpark": 2155,
      "Ġpat": 2156,
      "Ġfruit": 2157,
      "Ġfre": 2158,
      "Ġsymptoms": 2159,
      "Ġsum": 2160,
      "Easy": 2161,
      "Ġconvers": 2162,
      "Ġhig": 2163,
      "ĠRemove": 2164,
      "Ġimpro": 2165,
      "Ġstrong": 2166,
      "Ġanything": 2167,
      "Ġnecessary": 2168,
      "Ġspread": 2169,
      "ters": 2170,
      "Ġdate": 2171,
      "Ġcirc": 2172,
      "ites": 2173,
      "Ġstraight": 2174,
      "ouble": 2175,
      "Ġfur": 2176,
      "Ġtowards": 2177,
      "Ġfold": 2178,
      "Ġflat": 2179,
      "Ġcustom": 2180,
      "Ġsocial": 2181,
      "Ġsimply": 2182,
      "Ġcoff": 2183,
      "Ġinj": 2184,
      "Ġsoil": 2185,
      "ists": 2186,
      "Ġpin": 2187,
      "ĠOne": 2188,
      "Ġentire": 2189,
      "Ġbat": 2190,
      "Ġdiet": 2191,
      "Ġhelps": 2192,
      "Ġshoes": 2193,
      "Ġdish": 2194,
      "Ġnatural": 2195,
      "Ġwet": 2196,
      "ĠCon": 2197,
      "unch": 2198,
      "Ġsink": 2199,
      "Ġcompet": 2200,
      "ift": 2201,
      "fully": 2202,
      "Ġpublic": 2203,
      "ered": 2204,
      "ane": 2205,
      "chen": 2206,
      "lev": 2207,
      "Ġ7": 2208,
      "Ġbrown": 2209,
      "Ġknown": 2210,
      "Ġsmaller": 2211,
      "ilar": 2212,
      "Ġelse": 2213,
      "Ġaffect": 2214,
      "ney": 2215,
      "Ġmedical": 2216,
      "uck": 2217,
      "Ġfore": 2218,
      "ĠCut": 2219,
      "aches": 2220,
      "Ġwhole": 2221,
      "Ġsell": 2222,
      "Ġheart": 2223,
      "the": 2224,
      "Ġburn": 2225,
      "Ġliquid": 2226,
      "ises": 2227,
      "Ġpressure": 2228,
      "Ġproducts": 2229,
      "Ġtank": 2230,
      "Ġbank": 2231,
      "ĠEx": 2232,
      "Ġcoffee": 2233,
      "Ġeating": 2234,
      "itch": 2235,
      "Ġsince": 2236,
      "Ġputting": 2237,
      "Ġ15": 2238,
      "Ġeverything": 2239,
      "ĠStates": 2240,
      "Ġthick": 2241,
      "medi": 2242,
      "Ġrub": 2243,
      "Ġservice": 2244,
      "uc": 2245,
      "ĠAt": 2246,
      "Ġboat": 2247,
      "Ġpress": 2248,
      "ifficult": 2249,
      "Ġmount": 2250,
      "Ġver": 2251,
      "Ġdifficult": 2252,
      "Ġcop": 2253,
      "Ġmag": 2254,
      "Ġtalks": 2255,
      "ieve": 2256,
      "iles": 2257,
      "Ġways": 2258,
      "chn": 2259,
      "Ġrisk": 2260,
      "Ġcompletely": 2261,
      "onds": 2262,
      "Ġcake": 2263,
      "Ġsuc": 2264,
      "Ġquestions": 2265,
      "Ġkitchen": 2266,
      "Ġcalled": 2267,
      "Ġhol": 2268,
      "Ġnotice": 2269,
      "ster": 2270,
      "Ġshowing": 2271,
      "Ġchick": 2272,
      "Ġincrease": 2273,
      "Ġsimilar": 2274,
      "Ġheav": 2275,
      "Ġant": 2276,
      "ooth": 2277,
      "ĠShe": 2278,
      "Ġflour": 2279,
      "Ġsmo": 2280,
      "Ġfive": 2281,
      "Ġenv": 2282,
      "Ġfight": 2283,
      "artment": 2284,
      "col": 2285,
      "pa": 2286,
      "Ġaud": 2287,
      "lies": 2288,
      "Ġprom": 2289,
      "ancing": 2290,
      "Ġarms": 2291,
      "rence": 2292,
      "ĠBefore": 2293,
      "Ġmarket": 2294,
      "Ġinches": 2295,
      "ured": 2296,
      "iron": 2297,
      "ding": 2298,
      "Ġdownload": 2299,
      "Ġpractice": 2300,
      "Ġchair": 2301,
      "ĠAll": 2302,
      "Ġemploy": 2303,
      "Ġknife": 2304,
      "ffic": 2305,
      "Ġsau": 2306,
      "top": 2307,
      "ĠAmer": 2308,
      "Ġshape": 2309,
      "Ġlocated": 2310,
      "Ġgrass": 2311,
      "Ġorig": 2312,
      "Ġthrow": 2313,
      "Ġabove": 2314,
      "Ġbatter": 2315,
      "asing": 2316,
      "Ġsave": 2317,
      "ĠAlso": 2318,
      "Ġphysical": 2319,
      "eral": 2320,
      "Ġmeat": 2321,
      "Ġpartner": 2322,
      "Ġvegetables": 2323,
      "Ġcu": 2324,
      "Ġiron": 2325,
      "Ġchanges": 2326,
      "Ġmultip": 2327,
      "man": 2328,
      "Ġabs": 2329,
      "go": 2330,
      "Ġfill": 2331,
      "Ġlic": 2332,
      "Ġimmedi": 2333,
      "Ġband": 2334,
      "Ġdance": 2335,
      "ism": 2336,
      "Ġoper": 2337,
      "Ġfro": 2338,
      "Ġten": 2339,
      "Ġreach": 2340,
      "Ġresearch": 2341,
      "Ġfat": 2342,
      "Ġview": 2343,
      "Ġenviron": 2344,
      "Ġinstruct": 2345,
      "Ġgarden": 2346,
      "Ġbenef": 2347,
      "Ġenjoy": 2348,
      "Ġdig": 2349,
      "Ġsuper": 2350,
      "Ġplate": 2351,
      "Ġpad": 2352,
      "Ġstir": 2353,
      "Ġyellow": 2354,
      "Ġgas": 2355,
      "Ġforward": 2356,
      "Ġ200": 2357,
      "Ġmel": 2358,
      "Ġmedium": 2359,
      "Ġcy": 2360,
      "ury": 2361,
      "Ġdescri": 2362,
      "Ġwatching": 2363,
      "Ġprefer": 2364,
      "Ġtooth": 2365,
      "Ġflow": 2366,
      "Ġperiod": 2367,
      "sc": 2368,
      "Ġflav": 2369,
      "Ġfeeling": 2370,
      "Ġbaby": 2371,
      "ĠSelect": 2372,
      "Ġtechn": 2373,
      "az": 2374,
      "ler": 2375,
      "Ġchem": 2376,
      "Ġ9": 2377,
      "Ġpow": 2378,
      "pen": 2379,
      "eding": 2380,
      "ources": 2381,
      "Ġcaus": 2382,
      "Ġremain": 2383,
      "Ġtypically": 2384,
      "Ġequi": 2385,
      "lish": 2386,
      "Ġchicken": 2387,
      "gen": 2388,
      "Ġcm": 2389,
      "jor": 2390,
      "Ġbehav": 2391,
      "Ġdiv": 2392,
      "Ġlink": 2393,
      "Ġur": 2394,
      "ĠÂ": 2395,
      "Ġ30": 2396,
      "Ġproblem": 2397,
      "Ġdraw": 2398,
      "Ġresult": 2399,
      "Ġproblems": 2400,
      "Ġemot": 2401,
      "Ġsimple": 2402,
      "lax": 2403,
      "Ġet": 2404,
      "Ġcooking": 2405,
      "por": 2406,
      "Ġrock": 2407,
      "Ġgeneral": 2408,
      "Ġtitle": 2409,
      "ĠLe": 2410,
      "Ġcharacter": 2411,
      "Ġparty": 2412,
      "Ġdocum": 2413,
      "acher": 2414,
      "rect": 2415,
      "Ġseeds": 2416,
      "Ġprofessional": 2417,
      "Ġdirectly": 2418,
      "Ġvariety": 2419,
      "ropri": 2420,
      "Ġelectr": 2421,
      "Ġplayer": 2422,
      "soci": 2423,
      "Ġbelow": 2424,
      "Ġstage": 2425,
      "Ġwashing": 2426,
      "just": 2427,
      "Ġreport": 2428,
      "Ġdress": 2429,
      "Ġmy": 2430,
      "Ġwomen": 2431,
      "Ġmedic": 2432,
      "where": 2433,
      "hol": 2434,
      "Ġeg": 2435,
      "Ġattem": 2436,
      "Ġsod": 2437,
      "Ġlemon": 2438,
      "Ġinvol": 2439,
      "Ġcrow": 2440,
      "Ġstreet": 2441,
      "ĠDec": 2442,
      "Ġreduce": 2443,
      "Ġrequired": 2444,
      "ĠThink": 2445,
      "Ġbread": 2446,
      "Ġdesk": 2447,
      "Ġtape": 2448,
      "Ġearly": 2449,
      "Ġlady": 2450,
      "atures": 2451,
      "ams": 2452,
      "Ġhandle": 2453,
      "ĠSc": 2454,
      "Ġvehicle": 2455,
      "Ġteeth": 2456,
      "Ġjumping": 2457,
      "Ġpump": 2458,
      "rig": 2459,
      "Ġindic": 2460,
      "Ġspot": 2461,
      "ified": 2462,
      "Ġmonths": 2463,
      "Ġwrit": 2464,
      "Ġbi": 2465,
      "Ġcuts": 2466,
      "Ġinternet": 2467,
      "Ġreact": 2468,
      "Ġshot": 2469,
      "Ġpair": 2470,
      "Ġcatch": 2471,
      "ored": 2472,
      "Ġfalls": 2473,
      "Ġmov": 2474,
      "Ġletter": 2475,
      "erv": 2476,
      "Ġdiscus": 2477,
      "Ġword": 2478,
      "Ġgenerally": 2479,
      "Ġsaf": 2480,
      "Ġdistance": 2481,
      "Ġenvironment": 2482,
      "ah": 2483,
      "use": 2484,
      "Ġproject": 2485,
      "ĠInstead": 2486,
      "Ġhun": 2487,
      "Ġpurp": 2488,
      "Ġrecord": 2489,
      "Ġnote": 2490,
      "Ġslightly": 2491,
      "Ġneg": 2492,
      "uum": 2493,
      "Ġeggs": 2494,
      "Ġoccur": 2495,
      "Ġsuccess": 2496,
      "Ġtap": 2497,
      "Ġsteps": 2498,
      "ĠSh": 2499,
      "af": 2500,
      "Ġ12": 2501,
      "though": 2502,
      "Ġtraining": 2503,
      "Ġhist": 2504,
      "Ġbasic": 2505,
      "Ġham": 2506,
      "cean": 2507,
      "Ġrather": 2508,
      "Ġdise": 2509,
      "Ġrelax": 2510,
      "Ġdegree": 2511,
      "igure": 2512,
      "Ġhigher": 2513,
      "ley": 2514,
      "ided": 2515,
      "Ġmajor": 2516,
      "Ġear": 2517,
      "Ġthir": 2518,
      "mit": 2519,
      "Ġaren": 2520,
      "Ġalco": 2521,
      "rance": 2522,
      "hedu": 2523,
      "key": 2524,
      "Ġcarry": 2525,
      "ensive": 2526,
      "Ġroutine": 2527,
      "ĠSet": 2528,
      "ĠPre": 2529,
      "Ġnews": 2530,
      "wise": 2531,
      "Ġdrop": 2532,
      "Ġbecom": 2533,
      "Ġmethod": 2534,
      "cl": 2535,
      "ising": 2536,
      "Ġtrees": 2537,
      "Ġisn": 2538,
      "Ġclos": 2539,
      "angu": 2540,
      "Ġspend": 2541,
      "Ġsection": 2542,
      "Ġspeed": 2543,
      "Ġhowever": 2544,
      "Ġenter": 2545,
      "Ġgrabs": 2546,
      "Ġregist": 2547,
      "Ġbrus": 2548,
      "Ġfeelings": 2549,
      "Ġconversation": 2550,
      "fect": 2551,
      "Ġegg": 2552,
      "oors": 2553,
      "Ġimprove": 2554,
      "Ġliving": 2555,
      "Ġkne": 2556,
      "umb": 2557,
      "Ġsport": 2558,
      "Ġfingers": 2559,
      "raph": 2560,
      "min": 2561,
      "Ġmaterials": 2562,
      "Ġcomplete": 2563,
      "Ġslowly": 2564,
      "Ġcarp": 2565,
      "Ġgives": 2566,
      "Ġx": 2567,
      "Ġmotion": 2568,
      "Ġfly": 2569,
      "Ġactually": 2570,
      "Ġseparate": 2571,
      "bit": 2572,
      "Ġsuit": 2573,
      "Ġroad": 2574,
      "Ġyard": 2575,
      "Ġbull": 2576,
      "ration": 2577,
      "Ġelectric": 2578,
      "Ġappropri": 2579,
      "ental": 2580,
      "Ġexpect": 2581,
      "ĠWe": 2582,
      "Ġcourse": 2583,
      "ĠPe": 2584,
      "Ġplayers": 2585,
      "po": 2586,
      "Ġbucket": 2587,
      "Ġnormal": 2588,
      "ĠPl": 2589,
      "osed": 2590,
      "Ġjuice": 2591,
      "Ġblen": 2592,
      "Ġvacuum": 2593,
      "osp": 2594,
      "cul": 2595,
      "oughly": 2596,
      "Ġshel": 2597,
      "Ġcrowd": 2598,
      "Ġlangu": 2599,
      "Ġteacher": 2600,
      "Ġcolle": 2601,
      "Ġstudents": 2602,
      "Ġsituation": 2603,
      "Ġproperly": 2604,
      "ivers": 2605,
      "Ġmon": 2606,
      "Ġsex": 2607,
      "Ġtrim": 2608,
      "Ġsoon": 2609,
      "Ġanimal": 2610,
      "Ġsingle": 2611,
      "Ġequ": 2612,
      "Ġsheet": 2613,
      "Ġexpla": 2614,
      "Ġtax": 2615,
      "vious": 2616,
      "arr": 2617,
      "Ġforth": 2618,
      "Ġsmooth": 2619,
      "Ġgrad": 2620,
      "over": 2621,
      "con": 2622,
      "Ġsource": 2623,
      "Ġassoci": 2624,
      "Ġimmediately": 2625,
      "Ġvers": 2626,
      "Ġstyle": 2627,
      "Ġtrain": 2628,
      "Ġcollect": 2629,
      "Ġproduce": 2630,
      "Ġresults": 2631,
      "now": 2632,
      "urt": 2633,
      "ret": 2634,
      "ĠOpen": 2635,
      "Ġwait": 2636,
      "ĠDecide": 2637,
      "atively": 2638,
      "Ġcolors": 2639,
      "Ġadded": 2640,
      "Ġmom": 2641,
      "Ġballs": 2642,
      "Ġclothing": 2643,
      "Ġmor": 2644,
      "Ġdancing": 2645,
      "kin": 2646,
      "elf": 2647,
      "Ġstory": 2648,
      "Ġdecide": 2649,
      "Ġupper": 2650,
      "Ġnever": 2651,
      "Ġetc": 2652,
      "ging": 2653,
      "Ġdata": 2654,
      "Ġvisit": 2655,
      "Ġbathroom": 2656,
      "ishes": 2657,
      "Ġmoist": 2658,
      "Ġess": 2659,
      "Ġspl": 2660,
      "Ġmembers": 2661,
      "Ġpen": 2662,
      "aily": 2663,
      "Ġbirth": 2664,
      "ique": 2665,
      "ially": 2666,
      "Ġadds": 2667,
      "ugh": 2668,
      "Ġgoogle": 2669,
      "Ġskate": 2670,
      "Ġidentify": 2671,
      "Ġkids": 2672,
      "Ġtast": 2673,
      "Ġstret": 2674,
      "ĠOther": 2675,
      "ĠEven": 2676,
      "Ġbackground": 2677,
      "ica": 2678,
      "ny": 2679,
      "icy": 2680,
      "Ġcondition": 2681,
      "xim": 2682,
      "Ġdro": 2683,
      "Ġsits": 2684,
      "Ġbul": 2685,
      "ressed": 2686,
      "Ġadjust": 2687,
      "atoes": 2688,
      "arp": 2689,
      "aps": 2690,
      ").\\": 2691,
      "Ġpour": 2692,
      "Ġ18": 2693,
      "gn": 2694,
      "Ġcab": 2695,
      "oots": 2696,
      "Ġstops": 2697,
      "cles": 2698,
      "lent": 2699,
      "Ġdue": 2700,
      "Ġcode": 2701,
      "ends": 2702,
      "icles": 2703,
      "Ġflu": 2704,
      "Ġthroughout": 2705,
      "Ġanimals": 2706,
      "Ġdaily": 2707,
      "Ġspin": 2708,
      "Ġstress": 2709,
      "Ġinfect": 2710,
      "Ġengine": 2711,
      "Ġpep": 2712,
      "Ġalcohol": 2713,
      "Ġroof": 2714,
      "ĠSo": 2715,
      "Ġmiss": 2716,
      "Ġglo": 2717,
      "Ġgames": 2718,
      "Ġride": 2719,
      "Ġfollowed": 2720,
      "Ġdamage": 2721,
      "urch": 2722,
      "Ġinstructions": 2723,
      "Ġip": 2724,
      "vern": 2725,
      "inse": 2726,
      "Ġfav": 2727,
      "Ġscrew": 2728,
      "Ġsubject": 2729,
      "Ġminim": 2730,
      "Ġtools": 2731,
      "idge": 2732,
      "ression": 2733,
      "ogn": 2734,
      "Ġchocol": 2735,
      "ners": 2736,
      "Ġocean": 2737,
      "Ġgain": 2738,
      "Ġvet": 2739,
      "Ġblock": 2740,
      "Ġmicro": 2741,
      "Ġtreatment": 2742,
      "Ġsettings": 2743,
      "Ġparticular": 2744,
      "Ġneck": 2745,
      "ks": 2746,
      "Ġimage": 2747,
      "Ġcorrect": 2748,
      "Ġround": 2749,
      "Ġservices": 2750,
      "Ġicon": 2751,
      "word": 2752,
      "Ġsubst": 2753,
      "Ġbeach": 2754,
      "Ġexact": 2755,
      "Ġjud": 2756,
      "Ġcalm": 2757,
      "by": 2758,
      "Ġpicture": 2759,
      "Ġpoints": 2760,
      "Ġappropriate": 2761,
      "Ġfurn": 2762,
      "aged": 2763,
      "aur": 2764,
      "Ġcoup": 2765,
      "Ġschedu": 2766,
      "Ġmultiple": 2767,
      "Ġcopy": 2768,
      "rib": 2769,
      "Ġill": 2770,
      "Ġcub": 2771,
      "Ġ)": 2772,
      "Ġchoice": 2773,
      "Ġseem": 2774,
      "Ġhits": 2775,
      "Ġdepending": 2776,
      "Ġinstance": 2777,
      "Ġcand": 2778,
      "ption": 2779,
      "Ġsometimes": 2780,
      "Ġdel": 2781,
      "most": 2782,
      "Ġinstru": 2783,
      "ils": 2784,
      "ĠHave": 2785,
      "allenge": 2786,
      "ĠUnder": 2787,
      "ords": 2788,
      "Ġdough": 2789,
      "Ġchocolate": 2790,
      "Ġweeks": 2791,
      "Ġhole": 2792,
      "Ġones": 2793,
      "ĠWr": 2794,
      "Ġneeded": 2795,
      "Ġmatch": 2796,
      "Ġfar": 2797,
      "Ġlabel": 2798,
      "Ġmixing": 2799,
      "Ġdisplay": 2800,
      "Ġrange": 2801,
      "Ġlicense": 2802,
      ").\",": 2803,
      "Ġpours": 2804,
      "Ġlens": 2805,
      "ĠOr": 2806,
      "nam": 2807,
      "ili": 2808,
      "Ġbooks": 2809,
      "Ġski": 2810,
      "xy": 2811,
      "Ġskills": 2812,
      "Ġolder": 2813,
      "ĠRemember": 2814,
      "ened": 2815,
      "Ġflips": 2816,
      "abric": 2817,
      "Ġquality": 2818,
      "Ġthin": 2819,
      "ateg": 2820,
      "oop": 2821,
      "Ġpriv": 2822,
      "Ġlose": 2823,
      "Ġheavy": 2824,
      "Ġbehavior": 2825,
      "Ġrad": 2826,
      "oud": 2827,
      "Ġframe": 2828,
      "Ġconsu": 2829,
      "cy": 2830,
      "Ġcit": 2831,
      "riger": 2832,
      "cent": 2833,
      "Ġweather": 2834,
      "Ġlaugh": 2835,
      "Ġcounter": 2836,
      "mp": 2837,
      "Ġcards": 2838,
      "Ġfrequ": 2839,
      "iled": 2840,
      "Ġchemical": 2841,
      "Ġpans": 2842,
      "Ġdecor": 2843,
      "ĠDetermine": 2844,
      "Ġoffic": 2845,
      "Ġseconds": 2846,
      "ĠApp": 2847,
      "ĠNew": 2848,
      "ĠLet": 2849,
      "set": 2850,
      "vered": 2851,
      "Ġer": 2852,
      "roc": 2853,
      "Ġgirls": 2854,
      "Ġfinished": 2855,
      "Ġcircle": 2856,
      "Ġtricks": 2857,
      "like": 2858,
      "Ġfabric": 2859,
      "ipes": 2860,
      "Ġcontract": 2861,
      "Ġsquare": 2862,
      "Ġfavor": 2863,
      "Ġang": 2864,
      "att": 2865,
      "iture": 2866,
      "Ġgoals": 2867,
      "50": 2868,
      "Ġrain": 2869,
      "Ġequip": 2870,
      "Ġfinger": 2871,
      "Ġinvest": 2872,
      "Ġcovered": 2873,
      "Ġindividual": 2874,
      "ization": 2875,
      "Ġoutd": 2876,
      "paper": 2877,
      "Ġself": 2878,
      "ledge": 2879,
      "Ġshop": 2880,
      "ĠJust": 2881,
      "Ġaccept": 2882,
      "Ġbird": 2883,
      "Ġmatter": 2884,
      "Ġallows": 2885,
      "ĠSp": 2886,
      "Ġinterview": 2887,
      "ĠFo": 2888,
      "iction": 2889,
      "Ġcarpet": 2890,
      "Ġgently": 2891,
      "Ġring": 2892,
      "Ġstandard": 2893,
      "Ġmountain": 2894,
      "box": 2895,
      "Ġreading": 2896,
      "nt": 2897,
      "ror": 2898,
      "Ġhuman": 2899,
      "Ġlanguage": 2900,
      "Ġpositive": 2901,
      "ached": 2902,
      "Ġhistory": 2903,
      "aw": 2904,
      "Ġequipment": 2905,
      "Ġlab": 2906,
      "Ġwide": 2907,
      "Ġstudy": 2908,
      "Ġsigns": 2909,
      "Ġsoda": 2910,
      "Ġtight": 2911,
      "Ġwire": 2912,
      "Ġfurniture": 2913,
      "erve": 2914,
      "Ġreceive": 2915,
      "Ġstat": 2916,
      "Ġprepare": 2917,
      "Ġbud": 2918,
      "ĠAmerican": 2919,
      "Ġscru": 2920,
      "tt": 2921,
      "Ġdead": 2922,
      "Ġbreath": 2923,
      "lling": 2924,
      "Ġmaintain": 2925,
      "Ġep": 2926,
      "Ġwra": 2927,
      "Ġdisease": 2928,
      "vert": 2929,
      "Ġwooden": 2930,
      "ands": 2931,
      "Ġthrowing": 2932,
      "Ġsong": 2933,
      "ĠBu": 2934,
      "ĠMe": 2935,
      "Ġplays": 2936,
      "bbing": 2937,
      "right": 2938,
      "Ġhour": 2939,
      "Ġlines": 2940,
      "Ġmanag": 2941,
      "Ġautom": 2942,
      "Ġrice": 2943,
      "Ġstarting": 2944,
      "'d": 2945,
      "ishing": 2946,
      "Ġmorning": 2947,
      "Ġwritten": 2948,
      "Ġgovern": 2949,
      "Ġstren": 2950,
      "ulation": 2951,
      "Ġperfect": 2952,
      "Ġdegrees": 2953,
      "Ġcheese": 2954,
      "Ġrefriger": 2955,
      "Ġpicks": 2956,
      "ppy": 2957,
      "selves": 2958,
      "ification": 2959,
      "Ġalone": 2960,
      "Ġcommunic": 2961,
      "Ġflavor": 2962,
      "ĠWrite": 2963,
      "ĠWith": 2964,
      "Ġperforming": 2965,
      "Ġexcess": 2966,
      "Ġactivities": 2967,
      "lor": 2968,
      "Ġspoon": 2969,
      "Ġsolution": 2970,
      "Ġpatter": 2971,
      "000": 2972,
      "Ġtrip": 2973,
      "Ġdiscuss": 2974,
      "arning": 2975,
      "lebr": 2976,
      "Ġweb": 2977,
      "Ġrate": 2978,
      "ĠBut": 2979,
      "Ġleads": 2980,
      "idence": 2981,
      "idered": 2982,
      "Ġprograms": 2983,
      "Ġslide": 2984,
      "Ġactivity": 2985,
      "Ġapplication": 2986,
      "Ġrestaur": 2987,
      "Ġfeed": 2988,
      "Ġlights": 2989,
      "asure": 2990,
      "Ġtar": 2991,
      "Ġstar": 2992,
      "Ġpush": 2993,
      "bru": 2994,
      "Ġnose": 2995,
      "Ġconsidered": 2996,
      "une": 2997,
      "Ġproperty": 2998,
      "Ġoriginal": 2999,
      "ators": 3000,
      "Ġwrest": 3001,
      "Ġsmell": 3002,
      "Ġremember": 3003,
      "Ġsite": 3004,
      "Ġloss": 3005,
      "Ġrefer": 3006,
      "Ġlock": 3007,
      "Ġhappy": 3008,
      "Ġbalance": 3009,
      "levision": 3010,
      "ush": 3011,
      "Ġattract": 3012,
      "ina": 3013,
      "aste": 3014,
      "Ġeveryone": 3015,
      "ctions": 3016,
      "Ġvine": 3017,
      "for": 3018,
      "Ġtea": 3019,
      "Ġgiving": 3020,
      "ised": 3021,
      "Ġcases": 3022,
      "Ġtom": 3023,
      "Ġmovie": 3024,
      "Ġdust": 3025,
      "Ġele": 3026,
      "Ġlevels": 3027,
      "ula": 3028,
      "Ġplaced": 3029,
      "Ġshoe": 3030,
      "Ġinterested": 3031,
      "Ġrabb": 3032,
      "Ġswitch": 3033,
      "Ġedge": 3034,
      "Ġgiven": 3035,
      "Ġlegal": 3036,
      "Ġthird": 3037,
      "Ġadditional": 3038,
      "ĠThat": 3039,
      "Ġintrodu": 3040,
      "Ġmother": 3041,
      "Ġprim": 3042,
      "Ġmember": 3043,
      "ĠJo": 3044,
      "und": 3045,
      "Ġpictures": 3046,
      "Ġcelebr": 3047,
      "Ġstreng": 3048,
      "Ġinsu": 3049,
      "Ġheight": 3050,
      "Ġrespons": 3051,
      "Ġble": 3052,
      "Ġthemselves": 3053,
      "Ġvi": 3054,
      "Ġpassword": 3055,
      "ĠRead": 3056,
      "Ġtrad": 3057,
      "Ġcats": 3058,
      "Ġtables": 3059,
      "Ġswimming": 3060,
      "Ġfed": 3061,
      "anch": 3062,
      "Ġpregn": 3063,
      "Ġwheel": 3064,
      "Ġschedule": 3065,
      "Ġfinish": 3066,
      "Ġcups": 3067,
      "rom": 3068,
      "Ġdocument": 3069,
      "val": 3070,
      "itor": 3071,
      "ĠTalk": 3072,
      "Ġcompan": 3073,
      "Ġforms": 3074,
      "Ġaside": 3075,
      "Ġthor": 3076,
      "Ġincludes": 3077,
      "Ġconsist": 3078,
      "Ġbacter": 3079,
      "Ġriver": 3080,
      "Ġexam": 3081,
      "ĠPour": 3082,
      "Ġguy": 3083,
      "Ġrepres": 3084,
      "ĠTap": 3085,
      "Ġpotential": 3086,
      "ares": 3087,
      "Ġsix": 3088,
      "Ġeffective": 3089,
      "Ġcast": 3090,
      "Ġexperi": 3091,
      "dom": 3092,
      "acks": 3093,
      "Ġcage": 3094,
      "atic": 3095,
      "Ġhitting": 3096,
      "fact": 3097,
      "Ġfix": 3098,
      "bon": 3099,
      "ences": 3100,
      "Ġclips": 3101,
      "Ġcollege": 3102,
      "cer": 3103,
      "ibility": 3104,
      "ison": 3105,
      "Ġorange": 3106,
      "Ġlid": 3107,
      "aging": 3108,
      "Ġcross": 3109,
      "Ġmass": 3110,
      "izing": 3111,
      "Ġkeeping": 3112,
      "Ġdrinking": 3113,
      "Ġpopular": 3114,
      "Ġclimb": 3115,
      "Ġitem": 3116,
      "Ġtherap": 3117,
      "Ġtrust": 3118,
      "Ġskateboard": 3119,
      "Ġfinal": 3120,
      "Ġfreez": 3121,
      "order": 3122,
      "Ġtask": 3123,
      "Ġpit": 3124,
      "Ġtelevision": 3125,
      "Ġrid": 3126,
      "ged": 3127,
      "ues": 3128,
      "ĠTw": 3129,
      "Ġfle": 3130,
      "Ġrequires": 3131,
      "Ġmuscles": 3132,
      "sen": 3133,
      "Ġreview": 3134,
      "Ġpowder": 3135,
      "ĠTurn": 3136,
      "ended": 3137,
      "Ġanx": 3138,
      "Ġideas": 3139,
      "ik": 3140,
      "Ġinch": 3141,
      "Ġdeb": 3142,
      "Ġrepe": 3143,
      "Ġsharp": 3144,
      "Ġcleans": 3145,
      "Ġparent": 3146,
      "Ġtick": 3147,
      "hor": 3148,
      "ĠCre": 3149,
      "Ġloose": 3150,
      "iment": 3151,
      "Ġcabin": 3152,
      "Ġmir": 3153,
      "Ġenc": 3154,
      "Ġnumbers": 3155,
      "ĠPeople": 3156,
      "Ġaware": 3157,
      "zz": 3158,
      "Ġamer": 3159,
      "Ġscen": 3160,
      "Ġreplace": 3161,
      "Ġmodel": 3162,
      "ĠDe": 3163,
      "Ġforce": 3164,
      "aces": 3165,
      "Ġholes": 3166,
      "Ġdecre": 3167,
      "Ġstation": 3168,
      "Ġwat": 3169,
      "Ġfut": 3170,
      "Ġinsurance": 3171,
      "Ġshare": 3172,
      "Ġlift": 3173,
      "Ġeduc": 3174,
      "Ġreasons": 3175,
      "Ġvinegar": 3176,
      "Ġbars": 3177,
      "ĠBy": 3178,
      "ĠAr": 3179,
      "Ġfurther": 3180,
      "gress": 3181,
      "Ġgun": 3182,
      "Ġbeans": 3183,
      "Ġcouple": 3184,
      "Ch": 3185,
      "izes": 3186,
      "ĠEarth": 3187,
      "Ġaction": 3188,
      "Ġfacebook": 3189,
      "Ġhar": 3190,
      "Ġlayer": 3191,
      "Ġyog": 3192,
      "Ġrules": 3193,
      "Ġstarted": 3194,
      "sult": 3195,
      "app": 3196,
      "ĠMix": 3197,
      "ault": 3198,
      "Ġboil": 3199,
      "Ġwebsites": 3200,
      "Ġrespect": 3201,
      "Ġspecies": 3202,
      "Ġlog": 3203,
      "rus": 3204,
      "Ġtot": 3205,
      "Ġdiag": 3206,
      "Ġstudent": 3207,
      "20": 3208,
      "Ġtur": 3209,
      "Ġhyd": 3210,
      "Ġqui": 3211,
      "Ġgarlic": 3212,
      "Ġfigure": 3213,
      "Ġvary": 3214,
      "Ġapart": 3215,
      "ĠÂ°": 3216,
      "Ġfem": 3217,
      "Ġmeal": 3218,
      "round": 3219,
      "Ġsent": 3220,
      "Ġsend": 3221,
      "Ġlate": 3222,
      "Ġaudience": 3223,
      "Ġterm": 3224,
      "Ġabsor": 3225,
      "dent": 3226,
      "Ġcoll": 3227,
      "Ġserious": 3228,
      "ĠTy": 3229,
      "Ġadding": 3230,
      "Ġtall": 3231,
      "used": 3232,
      "anger": 3233,
      "Ġ/": 3234,
      "Ġrequ": 3235,
      "ortun": 3236,
      "ĠNot": 3237,
      "Ġconditions": 3238,
      "Ġacid": 3239,
      "Ġdetails": 3240,
      "Ġkick": 3241,
      "Ġdeath": 3242,
      "Ġfully": 3243,
      "Ġstretch": 3244,
      "Ġcontent": 3245,
      "Ġgloves": 3246,
      "ilt": 3247,
      "aster": 3248,
      "Ġhimself": 3249,
      "Ġnames": 3250,
      "Ġ199": 3251,
      "Ġgroc": 3252,
      "Ġcars": 3253,
      "Ġstock": 3254,
      "Ġshower": 3255,
      "iny": 3256,
      "imp": 3257,
      "Ġtaste": 3258,
      "Ġban": 3259,
      "Ġitself": 3260,
      "Ġcamp": 3261,
      "Ġok": 3262,
      "Ġcalcul": 3263,
      "Ġfuture": 3264,
      "Ġtoward": 3265,
      "Ġknowledge": 3266,
      "Ġcarefully": 3267,
      "Ġflowers": 3268,
      "Ġteach": 3269,
      "ĠLear": 3270,
      "istic": 3271,
      "Ġcauses": 3272,
      "Ġhy": 3273,
      "Ġsea": 3274,
      "Ġrecogn": 3275,
      "Ġbask": 3276,
      "Ġwinter": 3277,
      "ology": 3278,
      "Ġissues": 3279,
      "Ġtor": 3280,
      "Ġrot": 3281,
      "10": 3282,
      "Ġwid": 3283,
      "fri": 3284,
      "Ġtarget": 3285,
      "Ġsummer": 3286,
      "Ġpal": 3287,
      "Ġstruct": 3288,
      "Ġdirection": 3289,
      "Ġpulls": 3290,
      "rive": 3291,
      "Ġhelpful": 3292,
      "Ġprote": 3293,
      "Ġmotor": 3294,
      "aut": 3295,
      "ox": 3296,
      "Ġsticks": 3297,
      "Ġfirm": 3298,
      "Ġbreed": 3299,
      "nel": 3300,
      "oint": 3301,
      "ĠPick": 3302,
      "ada": 3303,
      "Ġbuying": 3304,
      "ording": 3305,
      "Ġbattery": 3306,
      "Ġpink": 3307,
      "Ġobs": 3308,
      "Ġincome": 3309,
      "Ġfavorite": 3310,
      "Ġrocks": 3311,
      "Ġregard": 3312,
      "Ġfer": 3313,
      "Ġmail": 3314,
      "Ġsil": 3315,
      "ĠUnderstand": 3316,
      "ĠCle": 3317,
      "Ġlibr": 3318,
      "Ġscr": 3319,
      "Ġsky": 3320,
      "Ġdrain": 3321,
      "Ġdest": 3322,
      "Ġmill": 3323,
      "Ġdistract": 3324,
      "Ġsoftware": 3325,
      "ipping": 3326,
      "Ġpole": 3327,
      "Ġchest": 3328,
      "Ġjour": 3329,
      "Ġshoulder": 3330,
      "ccer": 3331,
      "Ġremoved": 3332,
      "Challenge": 3333,
      "ability": 3334,
      "Ġhost": 3335,
      "Ġbacteria": 3336,
      "Ġcorn": 3337,
      "Ġann": 3338,
      "Ġsolid": 3339,
      "rel": 3340,
      "Ġupd": 3341,
      "Ġdemonstrates": 3342,
      "Ġnetwork": 3343,
      "Ġsens": 3344,
      "Ġhill": 3345,
      "Ġcleaner": 3346,
      "Ġgold": 3347,
      "Ġserve": 3348,
      "Ġcompanies": 3349,
      "Ġfeatures": 3350,
      "ously": 3351,
      "Ġphotos": 3352,
      "hand": 3353,
      "Ġgovernment": 3354,
      "ĠKnow": 3355,
      "Ġdepartment": 3356,
      "Ġobjects": 3357,
      "ires": 3358,
      "icip": 3359,
      "ried": 3360,
      "Ġnegative": 3361,
      "uate": 3362,
      "Ġsmoke": 3363,
      "Ġapple": 3364,
      "Ġrequirements": 3365,
      "Ġwish": 3366,
      "oring": 3367,
      "Ġexist": 3368,
      "Ġadult": 3369,
      "Ġopportun": 3370,
      "Ġjack": 3371,
      "Ġconcern": 3372,
      "Ġfinishes": 3373,
      "Ġsugg": 3374,
      "Ġsoccer": 3375,
      "Ġrefrigerator": 3376,
      "Ġlawn": 3377,
      "Ġpret": 3378,
      "Ġtray": 3379,
      "Ġhom": 3380,
      "ob": 3381,
      "Ġml": 3382,
      "Ġinit": 3383,
      "Ġtaken": 3384,
      "ission": 3385,
      "Ġhere": 3386,
      "Ġunited": 3387,
      "ĠUsing": 3388,
      "Ġapproach": 3389,
      "Ġcells": 3390,
      "Ġrepresent": 3391,
      "Ġcoming": 3392,
      "ests": 3393,
      "ĠSince": 3394,
      "Ġblow": 3395,
      "orses": 3396,
      "Ġthoughts": 3397,
      "ĠIdent": 3398,
      "Ġdom": 3399,
      "Ġsignific": 3400,
      "Ġnails": 3401,
      "Ġsafety": 3402,
      "mark": 3403,
      "Ġtube": 3404,
      "bed": 3405,
      "ĠFill": 3406,
      "ought": 3407,
      "ume": 3408,
      "ograph": 3409,
      "Ġwrap": 3410,
      "Ġtopic": 3411,
      "Ġvalue": 3412,
      "Ġpumpkin": 3413,
      "itation": 3414,
      "rem": 3415,
      "ron": 3416,
      "Ġbeer": 3417,
      "Ġcoat": 3418,
      "ĠWor": 3419,
      "Ġdriving": 3420,
      "Ġeff": 3421,
      "Ġglasses": 3422,
      "Ġgrowth": 3423,
      "Ġsources": 3424,
      "Ġwaves": 3425,
      "ĠCont": 3426,
      "Ġversion": 3427,
      "Ġthoroughly": 3428,
      "Ġwipe": 3429,
      "Ġideal": 3430,
      "Ġshots": 3431,
      "time": 3432,
      "Ġcontains": 3433,
      "Ġnotes": 3434,
      "Ġchance": 3435,
      "Ġempty": 3436,
      "Ġsweet": 3437,
      "nal": 3438,
      "ilities": 3439,
      "ĠDis": 3440,
      "Ġwax": 3441,
      "Ġcommunity": 3442,
      "Ġaltern": 3443,
      "Ġbell": 3444,
      "ancial": 3445,
      "Ġrefe": 3446,
      "Ġgrocery": 3447,
      "Ġsaying": 3448,
      "Ġbreathing": 3449,
      "atory": 3450,
      "Ġnice": 3451,
      "ĠWash": 3452,
      "Ġfaster": 3453,
      "Ġterms": 3454,
      "ait": 3455,
      "Ġnational": 3456,
      "ĠHold": 3457,
      "Ġtransfer": 3458,
      "Ġfu": 3459,
      "ender": 3460,
      "osing": 3461,
      "iety": 3462,
      "Ġneigh": 3463,
      "antly": 3464,
      "rences": 3465,
      "ĠRep": 3466,
      "Ġbrows": 3467,
      "Ġsus": 3468,
      "Ġneighb": 3469,
      "Ġpound": 3470,
      "Ġthinking": 3471,
      "illed": 3472,
      "Ġprin": 3473,
      "Ġfine": 3474,
      "Ġagre": 3475,
      "friend": 3476,
      "Ġhear": 3477,
      "Ġchrist": 3478,
      "Ġmedia": 3479,
      "Ġsad": 3480,
      "rench": 3481,
      "Ġprevious": 3482,
      "Ġcrit": 3483,
      "Ġfarm": 3484,
      "Ġlearning": 3485,
      "Ġapplying": 3486,
      "Ġrelease": 3487,
      "ĠApply": 3488,
      "Ġ'": 3489,
      "iday": 3490,
      "Ġseat": 3491,
      "itional": 3492,
      "lenty": 3493,
      "Ġattor": 3494,
      "Ġstom": 3495,
      "Ġblank": 3496,
      "Ġprint": 3497,
      "ancy": 3498,
      "Ġassist": 3499,
      "Ġrestaurant": 3500,
      "ched": 3501,
      "Ġcreating": 3502,
      "oups": 3503,
      "Ġever": 3504,
      "Ġarr": 3505,
      "Ġsays": 3506,
      "ĠTwo": 3507,
      "Ġtotal": 3508,
      "Ġtv": 3509,
      "Ġalmost": 3510,
      "Ġgrowing": 3511,
      "Ġdrops": 3512,
      "Ġahead": 3513,
      "Ġanyone": 3514,
      "Ġfinally": 3515,
      "Ġrecommended": 3516,
      "Ġasking": 3517,
      "oph": 3518,
      "Ġunivers": 3519,
      "Ġability": 3520,
      "Ġscore": 3521,
      "Ġeffort": 3522,
      "aries": 3523,
      "roll": 3524,
      "Ġmakeup": 3525,
      "Ġcarr": 3526,
      "Ġmagn": 3527,
      "Ġple": 3528,
      "Ġplenty": 3529,
      "Ġvo": 3530,
      "oses": 3531,
      "ĠAlthough": 3532,
      "Ġswing": 3533,
      "Ġclaim": 3534,
      "Ġevents": 3535,
      "mb": 3536,
      "Ġaff": 3537,
      "Ġtown": 3538,
      "ĠCreate": 3539,
      "Ġhabit": 3540,
      "airs": 3541,
      "Ġcreated": 3542,
      "Ġpepper": 3543,
      "ague": 3544,
      "rict": 3545,
      "Ġrecipe": 3546,
      "Ġbasket": 3547,
      "Ġwild": 3548,
      "ived": 3549,
      "Ġfourth": 3550,
      "Ġknees": 3551,
      "ĠDep": 3552,
      "Ġfinancial": 3553,
      "Ġstove": 3554,
      "Ġclub": 3555,
      "Ġkid": 3556,
      "augh": 3557,
      "Ġfunction": 3558,
      "Ġsense": 3559,
      "Ġjar": 3560,
      "Ġsupplies": 3561,
      "Ġhappen": 3562,
      "Ġlibrary": 3563,
      "Ġinteract": 3564,
      "Ġpasta": 3565,
      "Ġessential": 3566,
      "inate": 3567,
      "Ġactive": 3568,
      "verage": 3569,
      "Ġwine": 3570,
      "Ġpeel": 3571,
      "Ġprice": 3572,
      "Ġbrain": 3573,
      "Ġattemp": 3574,
      "ned": 3575,
      "Ġchain": 3576,
      "Ġsmile": 3577,
      "atever": 3578,
      "Ġbeginning": 3579,
      "Ġsandw": 3580,
      "iliar": 3581,
      "gest": 3582,
      "Ġtoile": 3583,
      "Ġhorses": 3584,
      "Ġmanu": 3585,
      "Ġstuff": 3586,
      "Ġaccom": 3587,
      "Ġprepared": 3588,
      "Ġdart": 3589,
      "Ġtries": 3590,
      "Ġepis": 3591,
      "Ġmirror": 3592,
      "Ġpul": 3593,
      "Ġ100": 3594,
      "Ġexpensive": 3595,
      "Ġfacing": 3596,
      "Ġregularly": 3597,
      "Ġcharge": 3598,
      "Ġclasses": 3599,
      "Ġearth": 3600,
      "Ġspring": 3601,
      "Ġrubber": 3602,
      "Ġstomach": 3603,
      "ony": 3604,
      "Ġther": 3605,
      "Ġspins": 3606,
      "Ġcapt": 3607,
      "wh": 3608,
      "Ġestab": 3609,
      "Ġcommit": 3610,
      "Ġprovided": 3611,
      "ĠAlways": 3612,
      "Ġexcept": 3613,
      "Ġauthor": 3614,
      "asp": 3615,
      "ĠIdentify": 3616,
      "icing": 3617,
      "Ġtrouble": 3618,
      "ream": 3619,
      "Ġcot": 3620,
      "Ġdouble": 3621,
      "Ġsupply": 3622,
      "Ġmeeting": 3623,
      "Ġcas": 3624,
      "ales": 3625,
      "phone": 3626,
      "Ġsunlight": 3627,
      "pes": 3628,
      "ĠBec": 3629,
      "cher": 3630,
      "Ġcable": 3631,
      "ĠMay": 3632,
      "Ġge": 3633,
      "Ġlimit": 3634,
      "Ġquiet": 3635,
      "ĠIs": 3636,
      "Ġstrength": 3637,
      "Ġtwice": 3638,
      "Ġsort": 3639,
      "Ġmap": 3640,
      "Ġkill": 3641,
      "Ġsurround": 3642,
      "Ġopening": 3643,
      "iest": 3644,
      "Ġgear": 3645,
      "Ġoccas": 3646,
      "fficient": 3647,
      "ws": 3648,
      "ums": 3649,
      "ĠBuy": 3650,
      "Ġhon": 3651,
      "Ġhardware": 3652,
      "etic": 3653,
      "rain": 3654,
      "hn": 3655,
      "Ġ+": 3656,
      "ope": 3657,
      "Ġleaf": 3658,
      "Ġpuppy": 3659,
      "rief": 3660,
      "erm": 3661,
      "Ġpenc": 3662,
      "Ġmis": 3663,
      "ĠPro": 3664,
      "Ġwants": 3665,
      "ache": 3666,
      "Ġleaving": 3667,
      "Ġbrand": 3668,
      "Ġlifts": 3669,
      "ĠEnter": 3670,
      "Ġinjury": 3671,
      "lete": 3672,
      "Ġsciss": 3673,
      "Ġveter": 3674,
      "Ġfear": 3675,
      "Ġworry": 3676,
      "Ġsecure": 3677,
      "Ġfiles": 3678,
      "Ġanxiety": 3679,
      "Ġsoak": 3680,
      "comfort": 3681,
      "Ġsyn": 3682,
      "Ġsets": 3683,
      "Ġteams": 3684,
      "Ġcitiz": 3685,
      "Ġpill": 3686,
      "arily": 3687,
      "Ġfris": 3688,
      "Ġwalls": 3689,
      "Ġattached": 3690,
      "Ġfederal": 3691,
      "Ġharm": 3692,
      "Ġattach": 3693,
      "Ġmoment": 3694,
      "Ġnur": 3695,
      "Ġdrums": 3696,
      "mas": 3697,
      "water": 3698,
      "inder": 3699,
      "ss": 3700,
      "ĠLearn": 3701,
      "Ġje": 3702,
      "Ġtire": 3703,
      "Ġmac": 3704,
      "ĠSee": 3705,
      "Ġdesigned": 3706,
      "Ġgraph": 3707,
      "ĠInc": 3708,
      "anced": 3709,
      "Ġminute": 3710,
      "Ġprivate": 3711,
      "ener": 3712,
      "Ġmist": 3713,
      "Ġproce": 3714,
      "Ġ24": 3715,
      "Ġfalling": 3716,
      "Ġmessage": 3717,
      "Ġmanufact": 3718,
      "Ġhose": 3719,
      "Ġgall": 3720,
      "hood": 3721,
      "Ġpath": 3722,
      "Ġdanger": 3723,
      "Ġrabbit": 3724,
      "urity": 3725,
      "Ġremoving": 3726,
      "ĠAltern": 3727,
      "Ġtoilet": 3728,
      "Ġpotatoes": 3729,
      "Ġrinse": 3730,
      "Ġemerg": 3731,
      "Ġpanel": 3732,
      "ĠWorld": 3733,
      "fl": 3734,
      "raw": 3735,
      "enses": 3736,
      "ief": 3737,
      "Ġreleased": 3738,
      "Ġbudget": 3739,
      "mm": 3740,
      "zen": 3741,
      "aly": 3742,
      "acy": 3743,
      "Ġbright": 3744,
      "Ġpainting": 3745,
      "Ġprior": 3746,
      "Ġol": 3747,
      "Ġinse": 3748,
      "Ġpolice": 3749,
      "brush": 3750,
      "issu": 3751,
      "Ġexh": 3752,
      "ĠAny": 3753,
      "Ġyet": 3754,
      "ionally": 3755,
      "sume": 3756,
      "Ġlots": 3757,
      "ĠGive": 3758,
      "Ġguide": 3759,
      "xygen": 3760,
      "Ġaf": 3761,
      "Ġach": 3762,
      "Ġfair": 3763,
      "Ġfruits": 3764,
      "Ġdial": 3765,
      "aling": 3766,
      "ults": 3767,
      "Ġrespond": 3768,
      "des": 3769,
      "itud": 3770,
      "llow": 3771,
      "Ġkno": 3772,
      "Ġsold": 3773,
      "ĠMeasure": 3774,
      "Ġarg": 3775,
      "Ġcountries": 3776,
      "Ġinvolved": 3777,
      "fit": 3778,
      "ĠHere": 3779,
      "Ġprotein": 3780,
      "ax": 3781,
      "ĠNote": 3782,
      "Ġcookies": 3783,
      "Ġhop": 3784,
      "Ġmeasuring": 3785,
      "cep": 3786,
      "ĠCan": 3787,
      "arian": 3788,
      "Ġirrit": 3789,
      "Ġbenefits": 3790,
      "Ġdrinks": 3791,
      "ĠCol": 3792,
      "Ġsales": 3793,
      "Ġencour": 3794,
      "Ġblo": 3795,
      "Ġeight": 3796,
      "Ġarticle": 3797,
      "ension": 3798,
      "Ġsports": 3799,
      "Ġcash": 3800,
      "ertain": 3801,
      "Ġ2017": 3802,
      "Ġfemale": 3803,
      "Ġrag": 3804,
      "uro": 3805,
      "Ġmuscle": 3806,
      "hyd": 3807,
      "Ġmoder": 3808,
      "Ġboun": 3809,
      "Ġlap": 3810,
      "Ġdepend": 3811,
      "Ġfrequently": 3812,
      "Ġrequest": 3813,
      "down": 3814,
      "Ġnothing": 3815,
      "Ġplans": 3816,
      "iner": 3817,
      "Ġreflect": 3818,
      "Ġnutri": 3819,
      "Ġsauce": 3820,
      "Ġwrong": 3821,
      "Ġtenn": 3822,
      "Ġhosp": 3823,
      "ĠVis": 3824,
      "Ġload": 3825,
      "Ġsmiling": 3826,
      "Ġgroups": 3827,
      "Ġsomewhere": 3828,
      "aker": 3829,
      "Ġmeals": 3830,
      "Ġshut": 3831,
      "Ġveterin": 3832,
      "lt": 3833,
      "Ġtherm": 3834,
      "Ġwilling": 3835,
      "Ġunless": 3836,
      "Ġserving": 3837,
      "ometimes": 3838,
      "Ġwake": 3839,
      "Ġdu": 3840,
      "Ġbecomes": 3841,
      "rate": 3842,
      "Ġmixed": 3843,
      "Ġappearance": 3844,
      "ĠBecause": 3845,
      "iving": 3846,
      "ĠEng": 3847,
      "Ġcaused": 3848,
      "Ġpig": 3849,
      "iers": 3850,
      "Ġath": 3851,
      "lished": 3852,
      "Ġbill": 3853,
      "Ġangle": 3854,
      "Ġgift": 3855,
      "Ġformat": 3856,
      "Ġcareer": 3857,
      "Ġ2018": 3858,
      "Ġsat": 3859,
      "Ġbur": 3860,
      "Ġpred": 3861,
      "Ġoxygen": 3862,
      "Ġgather": 3863,
      "Ġsaucep": 3864,
      "Ġgot": 3865,
      "Ġscissors": 3866,
      "Ġdin": 3867,
      "Ġlisten": 3868,
      "Ġstatement": 3869,
      "rowave": 3870,
      "Ġapproxim": 3871,
      "pare": 3872,
      "Ġau": 3873,
      "lets": 3874,
      "Ġhurt": 3875,
      "roid": 3876,
      "Ġrow": 3877,
      "Ġid": 3878,
      "Ġcustomer": 3879,
      "Ġbecoming": 3880,
      "ifying": 3881,
      "Ġsuff": 3882,
      "Ġphoto": 3883,
      "Ġps": 3884,
      "Ġeventually": 3885,
      "Ġunit": 3886,
      "Ġplat": 3887,
      "Ġprovides": 3888,
      "Ġbroken": 3889,
      "Ġexactly": 3890,
      "Ġsaucepan": 3891,
      "berries": 3892,
      "Ġperformance": 3893,
      "Ġforest": 3894,
      "rete": 3895,
      "Ġpier": 3896,
      "Ġhook": 3897,
      "ĠWear": 3898,
      "Ġplanning": 3899,
      "Ġimm": 3900,
      "Ġappl": 3901,
      "Ġcustomers": 3902,
      "yle": 3903,
      "yees": 3904,
      "Ġ50": 3905,
      "Ġmale": 3906,
      "Ġattempt": 3907,
      "Ġtour": 3908,
      "ores": 3909,
      "Ġflower": 3910,
      "Ġcart": 3911,
      "Ġ\\\".": 3912,
      "Ġteen": 3913,
      "bal": 3914,
      "Ġhall": 3915,
      "Ġbasis": 3916,
      "Ġsick": 3917,
      "Ġworth": 3918,
      "Ġfolder": 3919,
      "Ġmoisture": 3920,
      "iced": 3921,
      "Ġdiss": 3922,
      "Ġlaws": 3923,
      "Ġcow": 3924,
      "pers": 3925,
      "illa": 3926,
      "ĠPurch": 3927,
      "izz": 3928,
      "Ġrelated": 3929,
      "Ġloan": 3930,
      "Ġcotton": 3931,
      "30": 3932,
      "Ġpipe": 3933,
      "Ġmild": 3934,
      "ĠPay": 3935,
      "Ġrent": 3936,
      "ama": 3937,
      "ister": 3938,
      "ĠRo": 3939,
      "Ġshap": 3940,
      "ico": 3941,
      "ĠSl": 3942,
      "lock": 3943,
      "Ġobtain": 3944,
      "Ġceiling": 3945,
      "Ġfuel": 3946,
      "ana": 3947,
      "irty": 3948,
      "Ġpaste": 3949,
      "Ġemployees": 3950,
      "Ġissue": 3951,
      "Ġshovel": 3952,
      "ourses": 3953,
      "Ġdrum": 3954,
      "Ġpinata": 3955,
      "Ġbrowser": 3956,
      "Ġshad": 3957,
      "uals": 3958,
      "Ġprem": 3959,
      "Ġresources": 3960,
      "Ġexercises": 3961,
      "Ġexperienc": 3962,
      "ĠSearch": 3963,
      "Ġcabinet": 3964,
      "ashing": 3965,
      "Ġnail": 3966,
      "Ġcosts": 3967,
      "Ġrace": 3968,
      "Ġsites": 3969,
      "ield": 3970,
      "Ġtail": 3971,
      "Ġstraw": 3972,
      "Ġcompetition": 3973,
      "Ġsandwich": 3974,
      "irm": 3975,
      "apor": 3976,
      "Ġpurpose": 3977,
      "60": 3978,
      "Ġhi": 3979,
      "Ġflip": 3980,
      "Ġslices": 3981,
      "Ġdifference": 3982,
      "Ġdried": 3983,
      "15": 3984,
      "aff": 3985,
      "Ġsouth": 3986,
      "orpor": 3987,
      "duct": 3988,
      "Ġemb": 3989,
      "Ġevenly": 3990,
      "Ġjoin": 3991,
      "Ġremoves": 3992,
      "ma": 3993,
      "Ã©": 3994,
      "soft": 3995,
      "Ġcommonly": 3996,
      "na": 3997,
      "va": 3998,
      "Ġpile": 3999,
      "ĠSu": 4000,
      "Ġnearby": 4001,
      "Ġcycle": 4002,
      "Ġtennis": 4003,
      "Ġcry": 4004,
      "Ġped": 4005,
      "Ġrule": 4006,
      "Ġpercent": 4007,
      "Ġindust": 4008,
      "Ġmixer": 4009,
      "Ġbrushing": 4010,
      "Ġattorney": 4011,
      "Ġ0": 4012,
      "hest": 4013,
      "Ġblog": 4014,
      "Ġlisted": 4015,
      "Ġinfl": 4016,
      "Ġaw": 4017,
      "Ġtoy": 4018,
      "Ġjournal": 4019,
      "mber": 4020,
      "Ġcourses": 4021,
      "orage": 4022,
      "Ġlake": 4023,
      "Ġcalories": 4024,
      "hips": 4025,
      "Ġbelieve": 4026,
      "Ġparticularly": 4027,
      "Ġwed": 4028,
      "Ġbirds": 4029,
      "Ġgymn": 4030,
      "Ġchristmas": 4031,
      "Ġsla": 4032,
      "Ġpun": 4033,
      "Ġadmin": 4034,
      "Ġbigger": 4035,
      "ĠPress": 4036,
      "Ġmanage": 4037,
      "met": 4038,
      "Ġwar": 4039,
      "Ġrat": 4040,
      "Ġfrost": 4041,
      "based": 4042,
      "ĠEach": 4043,
      "Ġraise": 4044,
      "itude": 4045,
      "Ġasse": 4046,
      "Ġowner": 4047,
      "ĠDr": 4048,
      "Ġflash": 4049,
      "gent": 4050,
      "Ġcateg": 4051,
      "ĠPr": 4052,
      "Ġexpress": 4053,
      "bris": 4054,
      "ww": 4055,
      "wood": 4056,
      "Ġturning": 4057,
      "Ġgrab": 4058,
      "Ġspeaks": 4059,
      "ĠClean": 4060,
      "atically": 4061,
      "Ġhanging": 4062,
      "Ġmold": 4063,
      "Ġknee": 4064,
      "Ġtowels": 4065,
      "Ġhtt": 4066,
      "Ġnorth": 4067,
      "ĠTr": 4068,
      "Ġprop": 4069,
      "Ġeducation": 4070,
      "ĠPurchase": 4071,
      "Ġlost": 4072,
      "Ġ//": 4073,
      "esh": 4074,
      "Ġkiss": 4075,
      "Ġthought": 4076,
      "Ġtissu": 4077,
      "Ġstorage": 4078,
      "isp": 4079,
      "Ġseed": 4080,
      "Ġdebris": 4081,
      "Ġmicrowave": 4082,
      "Ġplayed": 4083,
      "Ġaccording": 4084,
      "Ġexcel": 4085,
      "Ġcurrently": 4086,
      "vest": 4087,
      "Ġstru": 4088,
      "Ġdecision": 4089,
      "Ġpencil": 4090,
      "gers": 4091,
      "Ġdeterm": 4092,
      "Ġrepla": 4093,
      "heat": 4094,
      "Ġthumb": 4095,
      "rogen": 4096,
      "chan": 4097,
      "Ġadap": 4098,
      "Ġdriver": 4099,
      "Ġschools": 4100,
      "Ġsecurity": 4101,
      "yl": 4102,
      "alled": 4103,
      "Ġfinding": 4104,
      "ashes": 4105,
      "vere": 4106,
      "Ġappoint": 4107,
      "Ġguit": 4108,
      "Ġmeaning": 4109,
      "ĠSometimes": 4110,
      "attoo": 4111,
      "onent": 4112,
      "Ġheld": 4113,
      "iring": 4114,
      "Ġlip": 4115,
      "Ġpulling": 4116,
      "Ġtattoo": 4117,
      "irst": 4118,
      "Ġcareful": 4119,
      "apers": 4120,
      "ĠGr": 4121,
      "Ġagency": 4122,
      "Ġcult": 4123,
      "Ġroot": 4124,
      "Ġsquee": 4125,
      "hold": 4126,
      "Ġesc": 4127,
      "Ġelectrical": 4128,
      "Ġagreement": 4129,
      "Ġemergency": 4130,
      "avig": 4131,
      "Ġoutdoors": 4132,
      "ded": 4133,
      "Ġign": 4134,
      "Ġtoothbrush": 4135,
      "Ġprimary": 4136,
      "Ġolive": 4137,
      "Ġbrief": 4138,
      "Ġboys": 4139,
      "Ġletters": 4140,
      "Ġlands": 4141,
      "Ġadvance": 4142,
      "Ġger": 4143,
      "ĠSun": 4144,
      "Ġapproximately": 4145,
      "ĠFe": 4146,
      "Ġexpl": 4147,
      "Ġdie": 4148,
      "elt": 4149,
      "Ġforget": 4150,
      "Ġsurv": 4151,
      "ino": 4152,
      "Ġshake": 4153,
      "Ġprofile": 4154,
      "Ġmanufacture": 4155,
      "Ġmanual": 4156,
      "Ġsalad": 4157,
      "ockey": 4158,
      "Ġtraffic": 4159,
      "Ġlocations": 4160,
      "Ġloved": 4161,
      "Ġmood": 4162,
      "Ġtheme": 4163,
      "rup": 4164,
      "Ġlean": 4165,
      "Ġsteam": 4166,
      "Ġdoll": 4167,
      "ship": 4168,
      "Ġfilter": 4169,
      "Ġstring": 4170,
      "Ġpatient": 4171,
      "free": 4172,
      "Ġdeter": 4173,
      "Ġcausing": 4174,
      "Ġneighbor": 4175,
      "ailed": 4176,
      "Ġwww": 4177,
      "itter": 4178,
      "Ġconcrete": 4179,
      "Ġfence": 4180,
      "Ġminimum": 4181,
      "Ġpru": 4182,
      "Ġcolored": 4183,
      "Ġelectron": 4184,
      "Ġhospital": 4185,
      "Ġdirty": 4186,
      "Ġhat": 4187,
      "hoosing": 4188,
      "Ġfreezer": 4189,
      "Ġstructure": 4190,
      "ĠVisit": 4191,
      "mission": 4192,
      "inch": 4193,
      "Ġearn": 4194,
      "ĠSm": 4195,
      "Ġaccident": 4196,
      "Ġpants": 4197,
      "Ġuseful": 4198,
      "Ġblind": 4199,
      "Ġbedroom": 4200,
      "ĠDepending": 4201,
      "ĠX": 4202,
      "ooting": 4203,
      "Ġreaches": 4204,
      "Ġtrash": 4205,
      "Ġspots": 4206,
      "Ġmechan": 4207,
      "Ġtip": 4208,
      "elds": 4209,
      "Ġdesired": 4210,
      "Ġinfection": 4211,
      "Ġcube": 4212,
      "Ġsess": 4213,
      "Ġgri": 4214,
      "Ġrides": 4215,
      "Ġplatform": 4216,
      "Ġhu": 4217,
      "Ġmental": 4218,
      "alle": 4219,
      "ĠSpr": 4220,
      "Ġemotions": 4221,
      "Ġsav": 4222,
      "ĠBring": 4223,
      "Ġrecords": 4224,
      "Ġproced": 4225,
      "Ġunique": 4226,
      "osis": 4227,
      "Ġtransport": 4228,
      "Ġholiday": 4229,
      "Ġbite": 4230,
      "Ġbeef": 4231,
      "Ġgarage": 4232,
      "irts": 4233,
      "Ġmort": 4234,
      "Ġgel": 4235,
      "Ġrom": 4236,
      "aks": 4237,
      "ĠLoc": 4238,
      "Ġboxes": 4239,
      "cut": 4240,
      "Ġax": 4241,
      "ulate": 4242,
      "Ġadvert": 4243,
      "Ġsuccessful": 4244,
      "ometer": 4245,
      "Ġvisible": 4246,
      "Ġbags": 4247,
      "Ġhoney": 4248,
      "Ġsaid": 4249,
      "Ġconfident": 4250,
      "Ġpushing": 4251,
      "Ġequal": 4252,
      "Ġapplies": 4253,
      "Ġmop": 4254,
      "Ġsteel": 4255,
      "Ġproduced": 4256,
      "Ġvoice": 4257,
      "Ġden": 4258,
      "dge": 4259,
      "ipp": 4260,
      "Ġfilled": 4261,
      "Ġsleeping": 4262,
      "Ġcig": 4263,
      "ĠAd": 4264,
      "Ġunderstanding": 4265,
      "19": 4266,
      "Ġroast": 4267,
      "Ġworkout": 4268,
      "Ġcalls": 4269,
      "Ġbeat": 4270,
      "Ġextrem": 4271,
      "imate": 4272,
      "Ġparticip": 4273,
      "Ġour": 4274,
      "idel": 4275,
      "Ġshaving": 4276,
      "Ġaccur": 4277,
      "angle": 4278,
      "inger": 4279,
      "Ġboiling": 4280,
      "Ġvegetable": 4281,
      "Ġcloser": 4282,
      "Ġseems": 4283,
      "Ġsystems": 4284,
      "orter": 4285,
      "Ġattack": 4286,
      "Ġoils": 4287,
      "Ġpurchased": 4288,
      "Ġguitar": 4289,
      "Ġshoulders": 4290,
      "Ġmovements": 4291,
      "Ġinterests": 4292,
      "Ġreturns": 4293,
      "12": 4294,
      "onse": 4295,
      "Ġimpact": 4296,
      "'m": 4297,
      "hone": 4298,
      "rupt": 4299,
      "Ġdishes": 4300,
      "Ġabsorb": 4301,
      "Ġtrig": 4302,
      "Ġlaying": 4303,
      "Ġstains": 4304,
      "Ġstrip": 4305,
      "Ġindicate": 4306,
      "Ġcheer": 4307,
      "epend": 4308,
      "Ġgroom": 4309,
      "ĠStud": 4310,
      "Ġcalf": 4311,
      "Ġmanufacturer": 4312,
      "Ġbeaut": 4313,
      "Ġfollows": 4314,
      "Ġmovement": 4315,
      "Ġfrozen": 4316,
      "Ġneut": 4317,
      "Ġdepression": 4318,
      "ky": 4319,
      "Ġflo": 4320,
      "oli": 4321,
      "ĠAnd": 4322,
      "Ġchanging": 4323,
      "bar": 4324,
      "Ġtiles": 4325,
      "Ġcolum": 4326,
      "Ġdesktop": 4327,
      "urope": 4328,
      "Ġgent": 4329,
      "Ġweak": 4330,
      "Ġdevices": 4331,
      "Ġmixes": 4332,
      "Ġbroad": 4333,
      "zzle": 4334,
      "Ġhur": 4335,
      "Ġhockey": 4336,
      "Ġshopping": 4337,
      "Ġinsert": 4338,
      "itary": 4339,
      "Ġdip": 4340,
      "Ġcancer": 4341,
      "ĠFirst": 4342,
      "Ġrod": 4343,
      "Ġrubbing": 4344,
      "Ġallowed": 4345,
      "Ġbrushes": 4346,
      "Ġdecrease": 4347,
      "ille": 4348,
      "Ġupon": 4349,
      "Ġoppos": 4350,
      "Ġscrub": 4351,
      "Ġdissol": 4352,
      "dder": 4353,
      "rome": 4354,
      "Ġamaz": 4355,
      "Ġfamiliar": 4356,
      "ĠStir": 4357,
      "Ġdiam": 4358,
      "Ġemotional": 4359,
      "Ġassociated": 4360,
      "Ġwhatever": 4361,
      "Ġwatches": 4362,
      "Ġinsect": 4363,
      "Ġdinner": 4364,
      "Ġfluid": 4365,
      "ribut": 4366,
      "hel": 4367,
      "Ġconsult": 4368,
      "Ġresponse": 4369,
      "ians": 4370,
      "Ġbun": 4371,
      "acters": 4372,
      "Ġpackage": 4373,
      "Ġscra": 4374,
      "Ġsplit": 4375,
      "bee": 4376,
      "entially": 4377,
      "ĠCover": 4378,
      "Ġnormally": 4379,
      "..": 4380,
      "Ġmethods": 4381,
      "Ġofficial": 4382,
      "rated": 4383,
      "walk": 4384,
      "Ġportion": 4385,
      "poons": 4386,
      "lass": 4387,
      "Ġprec": 4388,
      "Ġpopulation": 4389,
      "ĠJohn": 4390,
      "ode": 4391,
      "Ġvan": 4392,
      "Ġmaybe": 4393,
      "iforn": 4394,
      "Ġscience": 4395,
      "Ġcloset": 4396,
      "Ġamounts": 4397,
      "Ġnuts": 4398,
      "ram": 4399,
      "ampoo": 4400,
      "Ġconcent": 4401,
      "Ġvolume": 4402,
      "Ġspinning": 4403,
      "Ġcharacters": 4404,
      "Ġhappens": 4405,
      "ference": 4406,
      "Ġsituations": 4407,
      "tical": 4408,
      "Ġshell": 4409,
      "Ġwest": 4410,
      "Ġwave": 4411,
      "Ġded": 4412,
      "Ġlen": 4413,
      "Ġimages": 4414,
      "Ġdangerous": 4415,
      "Ġtips": 4416,
      "Ġadop": 4417,
      "Ġcompla": 4418,
      "Ġbreast": 4419,
      "Ġtraditional": 4420,
      "Ġextremely": 4421,
      "ties": 4422,
      "Ġparalle": 4423,
      "oe": 4424,
      "inated": 4425,
      "Ġsamp": 4426,
      "ĠPrepare": 4427,
      "Ġamerican": 4428,
      "ruction": 4429,
      "Ġoverall": 4430,
      "Ġopens": 4431,
      "ĠLeave": 4432,
      "ifornia": 4433,
      "Ġcro": 4434,
      "Ġflight": 4435,
      "Ġhoriz": 4436,
      "Ġsuggest": 4437,
      "haps": 4438,
      "Ġears": 4439,
      "Ġrole": 4440,
      "Ġturned": 4441,
      "pack": 4442,
      "Ġinsp": 4443,
      "Ġyoga": 4444,
      "anches": 4445,
      "Ġending": 4446,
      "Ġcookie": 4447,
      "ls": 4448,
      "Ġlack": 4449,
      "Ġokay": 4450,
      "aught": 4451,
      "Ġwaste": 4452,
      "Ġcovers": 4453,
      "Ġinternational": 4454,
      "ĠAlternatively": 4455,
      "gal": 4456,
      "Ġcarbon": 4457,
      "Ġedges": 4458,
      "Ġindividuals": 4459,
      "Ġsignificant": 4460,
      "Ġtired": 4461,
      "ĠBr": 4462,
      "ĠLay": 4463,
      "dden": 4464,
      "Ġdrawer": 4465,
      "Ġwidth": 4466,
      "stick": 4467,
      "Ġdoors": 4468,
      "Ġhotel": 4469,
      "Ġexplain": 4470,
      "Ġnutrients": 4471,
      "Ġmal": 4472,
      "Ġalthough": 4473,
      "Ġdrug": 4474,
      "Ġaqu": 4475,
      "Ġroots": 4476,
      "Ġgentle": 4477,
      "Ġassign": 4478,
      "ĠAllow": 4479,
      "Ġblender": 4480,
      "Ġadminist": 4481,
      "Ġtre": 4482,
      "Ġharder": 4483,
      "oxide": 4484,
      "ĠHaving": 4485,
      "ĠCup": 4486,
      "Ġspecifically": 4487,
      "Ġconnected": 4488,
      "Ġnewspaper": 4489,
      "tic": 4490,
      "Ġspending": 4491,
      "Ġprompt": 4492,
      "Ġemployee": 4493,
      "Ġtie": 4494,
      "hop": 4495,
      "Ġkay": 4496,
      "Ġotherwise": 4497,
      "Ġzo": 4498,
      "Ġrh": 4499,
      "Ġpolicy": 4500,
      "Ġmonthly": 4501,
      "Ġlimited": 4502,
      "bits": 4503,
      "Ġhous": 4504,
      "Ġbenefit": 4505,
      "Ġscratch": 4506,
      "itam": 4507,
      "Ġsudden": 4508,
      "Ġclip": 4509,
      "Ġhide": 4510,
      "Ġshampoo": 4511,
      "Ġatm": 4512,
      "Ġsmiles": 4513,
      "Ġsurger": 4514,
      "Ġtoothp": 4515,
      "Ġuniversity": 4516,
      "Ġfeels": 4517,
      "Ġjobs": 4518,
      "Ġsurfaces": 4519,
      "ĠNo": 4520,
      "Ġnaturally": 4521,
      "inct": 4522,
      "antic": 4523,
      "ĠCall": 4524,
      "ĠDuring": 4525,
      "Ġquite": 4526,
      "Ġtexture": 4527,
      "case": 4528,
      "reg": 4529,
      "Ġbelt": 4530,
      "Ġsweat": 4531,
      "Ġsubstit": 4532,
      "Ġradi": 4533,
      "ker": 4534,
      "Ġsizes": 4535,
      "Ġlunch": 4536,
      "Ġmob": 4537,
      "Ġusb": 4538,
      "ĠRec": 4539,
      "Ġaccounts": 4540,
      "Ġhumans": 4541,
      "Ġfrisbee": 4542,
      "come": 4543,
      "Ġsections": 4544,
      "Ġ\\\",": 4545,
      "Ġsupple": 4546,
      "Ġperforms": 4547,
      "onge": 4548,
      "Ġhoop": 4549,
      "allow": 4550,
      "ĠInd": 4551,
      "Ġkeyboard": 4552,
      "Ġaverage": 4553,
      "Ġbuilt": 4554,
      "Ġeasiest": 4555,
      "neath": 4556,
      "Ġflex": 4557,
      "Ġfail": 4558,
      "iration": 4559,
      "ustral": 4560,
      "Ġcooked": 4561,
      "Ġillness": 4562,
      "Ġadvant": 4563,
      "een": 4564,
      "off": 4565,
      "yer": 4566,
      "isions": 4567,
      "ards": 4568,
      "ĠCar": 4569,
      "ĠNorth": 4570,
      "Ġairport": 4571,
      "Ġsmoking": 4572,
      "Ġclimbing": 4573,
      "Ġgymnast": 4574,
      "Ġmask": 4575,
      "ado": 4576,
      "lend": 4577,
      "Ġconnection": 4578,
      "Ġfighting": 4579,
      "Ġscrews": 4580,
      "ulated": 4581,
      "Ġpayment": 4582,
      "Ġreaction": 4583,
      "Ġlun": 4584,
      "ĠPer": 4585,
      "Ġpattern": 4586,
      "Ġoccurs": 4587,
      "Ġcitizens": 4588,
      "isms": 4589,
      "Ġbranches": 4590,
      "Ġstatus": 4591,
      "usion": 4592,
      "Ġhelping": 4593,
      "Ġregarding": 4594,
      "Ġaim": 4595,
      "assed": 4596,
      "Ġplacing": 4597,
      "Ġdisorder": 4598,
      "ĠAnother": 4599,
      "place": 4600,
      "Ġ197": 4601,
      "Ġcrack": 4602,
      "Ġtong": 4603,
      "Ġfeature": 4604,
      "Ġpoin": 4605,
      "Ġamong": 4606,
      "back": 4607,
      "Ġpets": 4608,
      "Ġnerv": 4609,
      "amed": 4610,
      "Ġstuck": 4611,
      "itionally": 4612,
      "Ġproduction": 4613,
      "Ġscene": 4614,
      "Ġ16": 4615,
      "Ġwaiting": 4616,
      "Ġpolish": 4617,
      "iform": 4618,
      "Ġopposite": 4619,
      "Ġunderneath": 4620,
      "Ġleather": 4621,
      "Ġorganization": 4622,
      "Ġtherapy": 4623,
      "Ġrecognize": 4624,
      "ĠCal": 4625,
      "Ġskip": 4626,
      "Ġeffects": 4627,
      "Ġdevelopment": 4628,
      "Ġaffected": 4629,
      "Ġautomatically": 4630,
      "vant": 4631,
      "Ġcame": 4632,
      "Ġkeeps": 4633,
      "Ġrolls": 4634,
      "Ġinitial": 4635,
      "Ġaccompl": 4636,
      "ders": 4637,
      "Ġdamp": 4638,
      "Ġsevere": 4639,
      "Ġonions": 4640,
      "Ġ\\\".\",": 4641,
      "Ġadults": 4642,
      "ĠBoth": 4643,
      "Ġattend": 4644,
      "Ġresid": 4645,
      "Ġincreased": 4646,
      "esearch": 4647,
      "Ġparallel": 4648,
      "Ġdressed": 4649,
      "inum": 4650,
      "Ġfee": 4651,
      "Ġroller": 4652,
      "put": 4653,
      "sa": 4654,
      "osition": 4655,
      "Ġsidewalk": 4656,
      "Ġiphone": 4657,
      "Ġpregnancy": 4658,
      "Ġachieve": 4659,
      "Ġsurgery": 4660,
      "Ġalum": 4661,
      "Ġ17": 4662,
      "Ġ2016": 4663,
      "Ġfootball": 4664,
      "Ġoperating": 4665,
      "cast": 4666,
      "ĠBegin": 4667,
      "Ġfactors": 4668,
      "Ġdebt": 4669,
      "arge": 4670,
      "Ġdent": 4671,
      "ĠResearch": 4672,
      "Ġcertific": 4673,
      "Ġcalling": 4674,
      "Ġpushes": 4675,
      "screen": 4676,
      "ĠZ": 4677,
      "Ġfork": 4678,
      "Ġlays": 4679,
      "Ġexpenses": 4680,
      "Ġprotection": 4681,
      "Ġcomplex": 4682,
      "Ġmedication": 4683,
      "Ġjun": 4684,
      "ĠType": 4685,
      "ga": 4686,
      "Ġwipes": 4687,
      "Ġlogo": 4688,
      "Ġsmart": 4689,
      "Ġraz": 4690,
      "Ġclosed": 4691,
      "Ġpersonality": 4692,
      "Ġestate": 4693,
      "Ġshade": 4694,
      "Ġvict": 4695,
      "izer": 4696,
      "Ġresist": 4697,
      "Ġclassroom": 4698,
      "Ġfrustr": 4699,
      "ych": 4700,
      "Ġnor": 4701,
      "ivity": 4702,
      "Ġchopped": 4703,
      "Ġ198": 4704,
      "eled": 4705,
      "Ġisland": 4706,
      "Ġpoor": 4707,
      "Ġnovel": 4708,
      "Ġviol": 4709,
      "ĠLocate": 4710,
      "Ġcigare": 4711,
      "Ġstars": 4712,
      "Ġtraveling": 4713,
      "11": 4714,
      "Ġ13": 4715,
      "ĠEnsure": 4716,
      "Ġchoosing": 4717,
      "ĠBl": 4718,
      "Ġslice": 4719,
      "ĠHeat": 4720,
      "uit": 4721,
      "Ġanger": 4722,
      "Ġraw": 4723,
      "Ġenglish": 4724,
      "tub": 4725,
      "Ġboo": 4726,
      "Ġuser": 4727,
      "Ġdrag": 4728,
      "Ġassess": 4729,
      "Ġnervous": 4730,
      "ander": 4731,
      "Ġsequ": 4732,
      "Ġdidn": 4733,
      "Ġcircles": 4734,
      "Ġgrill": 4735,
      "Ġprescri": 4736,
      "Ġleading": 4737,
      "Ġpregnant": 4738,
      "Ġexisting": 4739,
      "dies": 4740,
      "Ġpatterns": 4741,
      "mail": 4742,
      "night": 4743,
      "Ġstairs": 4744,
      "ĠTell": 4745,
      "ĠGener": 4746,
      "Ġpreparing": 4747,
      "Ġnutr": 4748,
      "Ġhamster": 4749,
      "Ġink": 4750,
      "ulf": 4751,
      "Ġmush": 4752,
      "Ġsuitable": 4753,
      "Ġswings": 4754,
      "Ġtile": 4755,
      "Ġbound": 4756,
      "Ġscient": 4757,
      "Ġboards": 4758,
      "Ġnotebook": 4759,
      "Ġhonest": 4760,
      "Ġ000": 4761,
      "Ġloud": 4762,
      "ĠSw": 4763,
      "Ġconduct": 4764,
      "Ġcoach": 4765,
      "Ġcamel": 4766,
      "lier": 4767,
      "Ġfan": 4768,
      "Ġrev": 4769,
      "Ġsponge": 4770,
      "Ġallerg": 4771,
      "ĠEvery": 4772,
      "Ġsaw": 4773,
      "ĠOnly": 4774,
      "Ġpassing": 4775,
      "Ġwrestling": 4776,
      "uce": 4777,
      "yc": 4778,
      "Ġbutt": 4779,
      "Ġelements": 4780,
      "Ġrepair": 4781,
      "Ġfiber": 4782,
      "iques": 4783,
      "amm": 4784,
      "ses": 4785,
      "Ġinstalled": 4786,
      "ĠNever": 4787,
      "ashion": 4788,
      "Ġtemperatures": 4789,
      "Ġflying": 4790,
      "Ġfishing": 4791,
      "Ġunable": 4792,
      "ĠWait": 4793,
      "Ġpocket": 4794,
      "Ġstem": 4795,
      "Ġgoods": 4796,
      "Ġlayers": 4797,
      "Ġmelt": 4798,
      "Ġshoot": 4799,
      "Ġapartment": 4800,
      "Ġmouse": 4801,
      "Ġseal": 4802,
      "Ġseven": 4803,
      "Ġpaying": 4804,
      "Ġcommunication": 4805,
      "Ġveterinarian": 4806,
      "Ġindepend": 4807,
      "Ġcardboard": 4808,
      "Ġsprays": 4809,
      "Ġhorizont": 4810,
      "Ġtun": 4811,
      "Ġreprodu": 4812,
      "Ġelim": 4813,
      "Ġtomatoes": 4814,
      "idelines": 4815,
      "nk": 4816,
      "Ġchoices": 4817,
      "Ġbond": 4818,
      "Ġbeam": 4819,
      "Ġdocuments": 4820,
      "fi": 4821,
      "Ġparking": 4822,
      "Ġdirected": 4823,
      "Ġreve": 4824,
      "ĠGather": 4825,
      "Ġexamples": 4826,
      "ĠPlan": 4827,
      "Ġshooting": 4828,
      "ĠAct": 4829,
      "oline": 4830,
      "Ġopin": 4831,
      "ĠComb": 4832,
      "Ġsatis": 4833,
      "Ġonion": 4834,
      "eties": 4835,
      "istics": 4836,
      "Ġgrav": 4837,
      "Ġregister": 4838,
      "mi": 4839,
      "Ġ11": 4840,
      "Ġupset": 4841,
      "Ġentertain": 4842,
      "Ġdirections": 4843,
      "inations": 4844,
      "Ġcore": 4845,
      "Ġvitam": 4846,
      "Ġinteresting": 4847,
      "'',": 4848,
      "Ġtissue": 4849,
      "hib": 4850,
      "Ġ25": 4851,
      "Ġincluded": 4852,
      "Ġmagaz": 4853,
      "Ġpretty": 4854,
      "raid": 4855,
      "Ġ40": 4856,
      "Ġarrow": 4857,
      "mble": 4858,
      "ĠBeing": 4859,
      "Ġregion": 4860,
      "Ġpounds": 4861,
      "ĠGenerally": 4862,
      "Ġcoun": 4863,
      "Ġsheets": 4864,
      "Ġfoil": 4865,
      "lude": 4866,
      "lines": 4867,
      "Ġstone": 4868,
      "Ġchurch": 4869,
      "Ġuniform": 4870,
      "ĠPres": 4871,
      "Ġusers": 4872,
      "Ġrelatively": 4873,
      "yard": 4874,
      "Ġfridge": 4875,
      "Ġwanted": 4876,
      "Ġasked": 4877,
      "Ġchips": 4878,
      "Ġanywhere": 4879,
      "Ġtubes": 4880,
      "thern": 4881,
      "Ġpaid": 4882,
      "Ġtrail": 4883,
      "Ġpose": 4884,
      "Ġmoon": 4885,
      "Ġoffers": 4886,
      "Ġafraid": 4887,
      "reme": 4888,
      "Ġnature": 4889,
      "encies": 4890,
      "Ġsupermark": 4891,
      "ech": 4892,
      "Ġbicy": 4893,
      "Ġvent": 4894,
      "Ġkicks": 4895,
      "Ġrubs": 4896,
      "Ġrights": 4897,
      "Ġindoor": 4898,
      "Ġcurtain": 4899,
      "Ġvideos": 4900,
      "den": 4901,
      "ups": 4902,
      "Ġtoys": 4903,
      "ester": 4904,
      "ounced": 4905,
      "Ġlikes": 4906,
      "riage": 4907,
      "Ġreceived": 4908,
      "Ġbelly": 4909,
      "list": 4910,
      "Ġdism": 4911,
      "Ġemployer": 4912,
      "Ġrazor": 4913,
      "sual": 4914,
      "Ġchances": 4915,
      "ĠBrit": 4916,
      "Ġsyrup": 4917,
      "Ġdefin": 4918,
      "Ġcouch": 4919,
      "Ġpicking": 4920,
      "eling": 4921,
      "Ġshouldn": 4922,
      "Ġsexual": 4923,
      "Ġhomes": 4924,
      "gage": 4925,
      "house": 4926,
      "reci": 4927,
      "Ġsolar": 4928,
      "Ġwrapping": 4929,
      "Ġdetergent": 4930,
      "Ġrect": 4931,
      "ĠMan": 4932,
      "Ġtouching": 4933,
      "Ġdisplayed": 4934,
      "suit": 4935,
      "Ġretail": 4936,
      "Ġstream": 4937,
      "Ġbreaks": 4938,
      "Ġvacc": 4939,
      "Ġstrips": 4940,
      "bage": 4941,
      "ĠWatch": 4942,
      "Ġworse": 4943,
      "Ġadvice": 4944,
      "Ġmanagement": 4945,
      "Ġlips": 4946,
      "Ġcheap": 4947,
      "Ġpositions": 4948,
      "Ġcontainers": 4949,
      "iate": 4950,
      "Ġpermit": 4951,
      "Ġglue": 4952,
      "Ġrelig": 4953,
      "Ġremaining": 4954,
      "Ġsilver": 4955,
      "Ġmillion": 4956,
      "Ġlu": 4957,
      "anted": 4958,
      "olf": 4959,
      "Ġouter": 4960,
      "Ġdescrib": 4961,
      "Ġdrawing": 4962,
      "Ġpages": 4963,
      "Ġinsul": 4964,
      "Ġaspect": 4965,
      "Ġdryer": 4966,
      "Ġdemonstrating": 4967,
      "Ġoutdoor": 4968,
      "fast": 4969,
      "itution": 4970,
      "Ġeast": 4971,
      "Ġincorpor": 4972,
      "Ġapps": 4973,
      "ĠIns": 4974,
      "Ġfields": 4975,
      "Ġtempl": 4976,
      "Ġpolit": 4977,
      "Ġ2015": 4978,
      "Ġmaxim": 4979,
      "osphere": 4980,
      "Ġpsych": 4981,
      "Ġindustry": 4982,
      "Ġven": 4983,
      "arium": 4984,
      "Ġurine": 4985,
      "Ġbegan": 4986,
      "Ġkept": 4987,
      "ĠKing": 4988,
      "Ġspreads": 4989,
      "Ġlargest": 4990,
      "Ġorganic": 4991,
      "ĠComp": 4992,
      "Ġinjured": 4993,
      "Ġcandy": 4994,
      "uary": 4995,
      "Ġoun": 4996,
      "Ġscrap": 4997,
      "ival": 4998,
      "Ġmedications": 4999,
      "Ġshelf": 5000,
      "Ġaluminum": 5001,
      "tens": 5002,
      "Ġtag": 5003,
      "onents": 5004,
      "Ġeval": 5005,
      "Ġsubs": 5006,
      "ĠRinse": 5007,
      "lers": 5008,
      "cto": 5009,
      "Ġstyles": 5010,
      "Ġfertil": 5011,
      "Ġhips": 5012,
      "Ġopportunity": 5013,
      "verse": 5014,
      "arsh": 5015,
      "Ġserves": 5016,
      "Ġextract": 5017,
      "dered": 5018,
      "Ġrolling": 5019,
      "ological": 5020,
      "Ġmissing": 5021,
      "Ġmode": 5022,
      "ĠFollow": 5023,
      "Ġscale": 5024,
      "Ġapples": 5025,
      "Ġrap": 5026,
      "Ġstrateg": 5027,
      "can": 5028,
      "Ġhaven": 5029,
      "aked": 5030,
      "Ġdemonstrate": 5031,
      "Ġsounds": 5032,
      "Ġjudge": 5033,
      "sized": 5034,
      "Ġfashion": 5035,
      "uses": 5036,
      "Ġangry": 5037,
      "Ġshakes": 5038,
      "Ġprogress": 5039,
      "Ġchemicals": 5040,
      "ctober": 5041,
      "Ġweld": 5042,
      "itting": 5043,
      "Ġabdom": 5044,
      "Ġbored": 5045,
      "Ġagree": 5046,
      "ibly": 5047,
      "Ġkinds": 5048,
      "Ġ&": 5049,
      "Ġplug": 5050,
      "Ġbusy": 5051,
      "Ġtoes": 5052,
      "Ġrough": 5053,
      "Ġuncomfort": 5054,
      "Ġorganiz": 5055,
      "Ġpracticing": 5056,
      "Ġincreases": 5057,
      "Ġmonitor": 5058,
      "Ġelev": 5059,
      "adem": 5060,
      "Ġsearching": 5061,
      "commod": 5062,
      "Ġrib": 5063,
      "ĠSpe": 5064,
      "unes": 5065,
      "Ġencourage": 5066,
      "Ġmobile": 5067,
      "ole": 5068,
      "Ġchart": 5069,
      "Ġaccommod": 5070,
      "ĠStay": 5071,
      "inary": 5072,
      "Ġshr": 5073,
      "Ġclock": 5074,
      "Ġgod": 5075,
      "Ġphr": 5076,
      "ĠQu": 5077,
      "Ġsquash": 5078,
      "Ġmotiv": 5079,
      "ĠReg": 5080,
      "ida": 5081,
      "ural": 5082,
      "Ġrestrict": 5083,
      "Ġelig": 5084,
      "Ġticket": 5085,
      "fish": 5086,
      "lim": 5087,
      "Ġwrist": 5088,
      "Ġspouse": 5089,
      "ĠDown": 5090,
      "ĠList": 5091,
      "Ġrack": 5092,
      "Ġdigest": 5093,
      "Ġmelted": 5094,
      "Ġties": 5095,
      "ĠTherefore": 5096,
      "Ġappointment": 5097,
      "vas": 5098,
      "arrow": 5099,
      "Ġarch": 5100,
      "ĠBo": 5101,
      "Ġpoll": 5102,
      "Ġlightly": 5103,
      "Ġvolun": 5104,
      "gment": 5105,
      "Ġbend": 5106,
      "Ġbones": 5107,
      "Ġutil": 5108,
      "Ġactual": 5109,
      "Ġcounty": 5110,
      "Ġintake": 5111,
      "Ġlabor": 5112,
      "do": 5113,
      "uries": 5114,
      "ĠYork": 5115,
      "Ġrose": 5116,
      "inkle": 5117,
      "odes": 5118,
      "Ġtablespoons": 5119,
      "Ġsail": 5120,
      "Ġplain": 5121,
      "Ġconv": 5122,
      "Ġrug": 5123,
      "Ġhappiness": 5124,
      "Ġdiving": 5125,
      "Ġtasks": 5126,
      "Ġuncomfortable": 5127,
      "Ġtou": 5128,
      "Ġjav": 5129,
      "Ġlistening": 5130,
      "Ġtests": 5131,
      "Ġevidence": 5132,
      "Ġmodels": 5133,
      "Ġresponsible": 5134,
      "bre": 5135,
      "ras": 5136,
      "Ġyork": 5137,
      "Ġtruck": 5138,
      "Ġunc": 5139,
      "Ġclosely": 5140,
      "Ġinstrument": 5141,
      "ront": 5142,
      "yst": 5143,
      "sp": 5144,
      "inc": 5145,
      "Ġwound": 5146,
      "Ġpou": 5147,
      "Ġmaster": 5148,
      "oma": 5149,
      "Ġlat": 5150,
      "ping": 5151,
      "Ġpor": 5152,
      "ĠRun": 5153,
      "Ġbranch": 5154,
      "ĠStand": 5155,
      "Ġcommerc": 5156,
      "Ġletting": 5157,
      "Ġathlet": 5158,
      "Ġcommercial": 5159,
      "Ġstaff": 5160,
      "aint": 5161,
      "Ġlie": 5162,
      "Ġtrick": 5163,
      "Ġmemory": 5164,
      "Ġclimate": 5165,
      "Ġbulb": 5166,
      "Ġbridge": 5167,
      "Ġrelevant": 5168,
      "ĠAmerica": 5169,
      "Ġ90": 5170,
      "Ġmanager": 5171,
      "born": 5172,
      "ĠSay": 5173,
      "ĠWater": 5174,
      "Ġscre": 5175,
      "Ġenable": 5176,
      "Ġrare": 5177,
      "Ġjoint": 5178,
      "Ġwallpaper": 5179,
      "Ġcubes": 5180,
      "ĠFocus": 5181,
      "Ġsentence": 5182,
      "Ġ-": 5183,
      "ician": 5184,
      "Ġlives": 5185,
      "Ġbackpack": 5186,
      "Ġclearly": 5187,
      "Ġagent": 5188,
      "Ġnoise": 5189,
      "Ġlifting": 5190,
      "Ġauto": 5191,
      "Ġaccurate": 5192,
      "Ġneutral": 5193,
      ".,": 5194,
      "Ġcombination": 5195,
      "Ġwhisk": 5196,
      "ĠCo": 5197,
      "iping": 5198,
      "Ġwhenever": 5199,
      "body": 5200,
      "Ġvolley": 5201,
      "Ġpillow": 5202,
      "avigate": 5203,
      "Ġmushroom": 5204,
      "lings": 5205,
      "ulations": 5206,
      "Ġflesh": 5207,
      "Ġseek": 5208,
      "Ġbottles": 5209,
      "Ġdates": 5210,
      "Ġgum": 5211,
      "hern": 5212,
      "Ġroughly": 5213,
      "Ġspeech": 5214,
      "Ġdiagno": 5215,
      "term": 5216,
      "Ġpurchasing": 5217,
      "Ġgradually": 5218,
      "ĠCombine": 5219,
      "ĠDraw": 5220,
      "Ġfriendly": 5221,
      "Ġowners": 5222,
      "Ġobvious": 5223,
      "Ġkitten": 5224,
      "Ġcompleted": 5225,
      "Ġmicrosoft": 5226,
      "estic": 5227,
      "Ġult": 5228,
      "Ġshorter": 5229,
      "Ġobst": 5230,
      "Ġhighly": 5231,
      "Ġstudying": 5232,
      "Ġorigin": 5233,
      "Ġthermometer": 5234,
      "Ġtone": 5235,
      "atives": 5236,
      "Ġwal": 5237,
      "Ġinner": 5238,
      "Ġspir": 5239,
      "ĠPh": 5240,
      "ĠFigure": 5241,
      "cessed": 5242,
      "Ġperman": 5243,
      "Ġpharm": 5244,
      "ggles": 5245,
      "Ġpurple": 5246,
      "Ġradio": 5247,
      "Ġjew": 5248,
      "Ġindex": 5249,
      "Ġpotato": 5250,
      "Ġopportunities": 5251,
      "aled": 5252,
      "Ġpel": 5253,
      "Ġhabits": 5254,
      "Ġguard": 5255,
      "Ġbreakfast": 5256,
      "Ġconstruction": 5257,
      "Ġtechniques": 5258,
      "Ġskiing": 5259,
      "pla": 5260,
      "adium": 5261,
      "Ġweigh": 5262,
      "Ġskil": 5263,
      "Ġcorpor": 5264,
      "Ġargum": 5265,
      "Ġcolumn": 5266,
      "Ġmanner": 5267,
      "Ġafford": 5268,
      "ĠInclude": 5269,
      "ĠXbox": 5270,
      "Ġcaught": 5271,
      "Ġgone": 5272,
      "rab": 5273,
      "Ġspo": 5274,
      "Ġpron": 5275,
      "Ġlighter": 5276,
      "Ġgrains": 5277,
      "Ġconfirm": 5278,
      "ername": 5279,
      "Ġcircuit": 5280,
      "Ġsib": 5281,
      "lex": 5282,
      "ĠRed": 5283,
      "Ġgrain": 5284,
      "Ġwaist": 5285,
      "Ġrelationships": 5286,
      "anut": 5287,
      "Ġod": 5288,
      "Ġlosing": 5289,
      "Ġship": 5290,
      "Ġcontents": 5291,
      "Ġchanged": 5292,
      "Ġdamaged": 5293,
      "Ġinstallation": 5294,
      "Ġlaughing": 5295,
      "uly": 5296,
      "ĠOft": 5297,
      "Ġqualify": 5298,
      "ipped": 5299,
      "ray": 5300,
      "Ġscores": 5301,
      "Ġhighlight": 5302,
      "Ġlitter": 5303,
      "Ġvarieties": 5304,
      "Ġmilitary": 5305,
      "Ġcapital": 5306,
      "Ġmatches": 5307,
      "Ġtongue": 5308,
      "Ġvia": 5309,
      "ĠRes": 5310,
      "berry": 5311,
      "Ġeffectively": 5312,
      "Ġ60": 5313,
      "Ġgrease": 5314,
      "Ġnamed": 5315,
      "Ġhomework": 5316,
      "Ġexperiment": 5317,
      "Ġevapor": 5318,
      "Ġtechnique": 5319,
      "pro": 5320,
      "Ġupright": 5321,
      "Ġtreats": 5322,
      "Ġopponent": 5323,
      "Ġmeasurements": 5324,
      "Ġlenses": 5325,
      "Ġvanilla": 5326,
      "iders": 5327,
      "ĠTe": 5328,
      "Ġprices": 5329,
      "conut": 5330,
      "Ġexec": 5331,
      "Ġexposed": 5332,
      "Ġbench": 5333,
      "Ġmarketing": 5334,
      "Ġinflu": 5335,
      "tte": 5336,
      "Ġbes": 5337,
      "Ġpine": 5338,
      "Ġcanada": 5339,
      "ĠAc": 5340,
      "Ġcoconut": 5341,
      "weight": 5342,
      "Ġcommand": 5343,
      "Ġdispla": 5344,
      "Ġcircular": 5345,
      "Ġepisodes": 5346,
      "Ġbare": 5347,
      "itis": 5348,
      "Ġhula": 5349,
      "Ġexch": 5350,
      "Ġcompost": 5351,
      "Ġearlier": 5352,
      "bow": 5353,
      "Ġdim": 5354,
      "Ġkm": 5355,
      "inea": 5356,
      "Ġlawyer": 5357,
      "Ġsinging": 5358,
      "Ġattempting": 5359,
      "Ġskillet": 5360,
      "che": 5361,
      "Ġfau": 5362,
      "Ġey": 5363,
      "Ġallowing": 5364,
      "Ġpayments": 5365,
      "Ġswelling": 5366,
      "Ġcalculate": 5367,
      "Ġboss": 5368,
      "arter": 5369,
      "Ġlets": 5370,
      "Ġchecking": 5371,
      "ferences": 5372,
      "Ġcarrying": 5373,
      "Ġbirthday": 5374,
      "aspoon": 5375,
      "Ġexcellent": 5376,
      "Ġbake": 5377,
      "Ġchamp": 5378,
      "Ġkicking": 5379,
      "apan": 5380,
      "abet": 5381,
      "Ġvehicles": 5382,
      "Ġfixed": 5383,
      "Ġadvantage": 5384,
      "Ġmut": 5385,
      "ountain": 5386,
      "Ġteaspoon": 5387,
      "Ġsurpr": 5388,
      "Ġdrying": 5389,
      "Ġupdate": 5390,
      "Ġswinging": 5391,
      "Ġoccasionally": 5392,
      "Ġwedding": 5393,
      "Ġnarrow": 5394,
      "Ġmole": 5395,
      "ĠMar": 5396,
      "Ġseeing": 5397,
      "Ġdefault": 5398,
      "Ġgreater": 5399,
      "Ġpulled": 5400,
      "wing": 5401,
      "Ġpeanut": 5402,
      "Ġpasses": 5403,
      "Ġmedicine": 5404,
      "Ġapplied": 5405,
      "ios": 5406,
      "Ġarrive": 5407,
      "Ġusername": 5408,
      "Ġ21": 5409,
      "Ġfoam": 5410,
      "Ġmarks": 5411,
      "Ġandroid": 5412,
      "Ġginger": 5413,
      "Ġplates": 5414,
      "Ġhttps": 5415,
      "rates": 5416,
      "sequ": 5417,
      "ĠSever": 5418,
      "Ġcontinuously": 5419,
      "gged": 5420,
      "Ġmath": 5421,
      "iminal": 5422,
      "Ġactions": 5423,
      "Ġposts": 5424,
      "Ġburning": 5425,
      "Ġpeppers": 5426,
      "Ġhip": 5427,
      "utions": 5428,
      "Ġrates": 5429,
      "Ġfeeding": 5430,
      "ivil": 5431,
      "Ġfoc": 5432,
      "Ġcredits": 5433,
      "Ġbleeding": 5434,
      "Ġsupermarket": 5435,
      "Ġsocks": 5436,
      "Ġdisco": 5437,
      "Ġblowing": 5438,
      "Ġcontacts": 5439,
      "Ġamazon": 5440,
      "ustralia": 5441,
      "Ġheads": 5442,
      "Ġguests": 5443,
      "Ġcovering": 5444,
      "Ġattempts": 5445,
      "Ġbol": 5446,
      "Ġfract": 5447,
      "ĠSouth": 5448,
      "Ġappreci": 5449,
      "Ġpassport": 5450,
      "Ġassociation": 5451,
      "Ġwins": 5452,
      "Ġplu": 5453,
      "Ġtelling": 5454,
      "ĠPreheat": 5455,
      "Ġsusp": 5456,
      "Ġprocedure": 5457,
      "ĠAcc": 5458,
      "Ġsecret": 5459,
      "eptember": 5460,
      "Ġfif": 5461,
      "Ġmart": 5462,
      "Ġgal": 5463,
      "Ġstim": 5464,
      "Ġcompare": 5465,
      "ĠNow": 5466,
      "Ġreput": 5467,
      "airy": 5468,
      "Ġvisual": 5469,
      "Ġtherapist": 5470,
      "Ġsubstitute": 5471,
      "Ġstur": 5472,
      "ott": 5473,
      "irgin": 5474,
      "ckets": 5475,
      "iewer": 5476,
      "Ġlaund": 5477,
      "Ġparties": 5478,
      "Ġdepos": 5479,
      "iano": 5480,
      "Ġmiles": 5481,
      "Ġmoved": 5482,
      "Ġclou": 5483,
      "Ġmini": 5484,
      "Ġcere": 5485,
      "Ġanti": 5486,
      "Ġsafely": 5487,
      "ĠSeveral": 5488,
      "Ġpunch": 5489,
      "Ġfather": 5490,
      "Ġtele": 5491,
      "Ġconfidence": 5492,
      "Ġtin": 5493,
      "ality": 5494,
      "Ġgest": 5495,
      "Ġdeveloping": 5496,
      "ini": 5497,
      "inant": 5498,
      "ĠWar": 5499,
      "Ġherself": 5500,
      "Ġpainful": 5501,
      "Ġseasons": 5502,
      "Ġdetailed": 5503,
      "Ġinvestig": 5504,
      "mers": 5505,
      "Ġking": 5506,
      "vey": 5507,
      "Ġloosen": 5508,
      "Ġselling": 5509,
      "Ġvirus": 5510,
      "roph": 5511,
      "Ġtwitter": 5512,
      "Ġvalid": 5513,
      "Ġfaces": 5514,
      "Ġshelter": 5515,
      "Ġexplains": 5516,
      "Ġrepeated": 5517,
      "Ġharvest": 5518,
      "Ġvolunte": 5519,
      "omy": 5520,
      "Ġwashes": 5521,
      "Ġprinter": 5522,
      "Ġlaptop": 5523,
      "Ġbicycle": 5524,
      "Ġjeans": 5525,
      "igan": 5526,
      "ades": 5527,
      "Ġchun": 5528,
      "ĠFrom": 5529,
      "Ġcleaned": 5530,
      "Ġexpand": 5531,
      "Ġindoors": 5532,
      "force": 5533,
      "anuary": 5534,
      "ĠWork": 5535,
      "Ġ14": 5536,
      "Ġaid": 5537,
      "Ġhorm": 5538,
      "Ġstun": 5539,
      "ĠDes": 5540,
      "Ġneedle": 5541,
      "ĠConnect": 5542,
      "Ġyogurt": 5543,
      "Ġjacket": 5544,
      "Ġdarts": 5545,
      "Ġsession": 5546,
      "Ġorganizations": 5547,
      "ensity": 5548,
      "Ġscan": 5549,
      "Ġcompat": 5550,
      "Ġovernight": 5551,
      "Ġminor": 5552,
      "Ġtells": 5553,
      "Ġmovies": 5554,
      "Ġclicking": 5555,
      "Ġconven": 5556,
      "Ġcontaining": 5557,
      "Ġproperties": 5558,
      "equ": 5559,
      "Ġtrap": 5560,
      "Ġbecame": 5561,
      "new": 5562,
      "Ġdrill": 5563,
      "Ġdiameter": 5564,
      "Ġcertificate": 5565,
      "such": 5566,
      "Ġrooms": 5567,
      "point": 5568,
      "car": 5569,
      "Ġcd": 5570,
      "Ġpc": 5571,
      "Ġspark": 5572,
      "ĠPract": 5573,
      "amps": 5574,
      "Ġvisa": 5575,
      "Ġaccomplish": 5576,
      "Ġcounsel": 5577,
      "Ġpure": 5578,
      "Ġmas": 5579,
      "Ġgray": 5580,
      "Ġherbs": 5581,
      "Ġpotentially": 5582,
      "Ġdescribe": 5583,
      "Ġminimize": 5584,
      "Ġangles": 5585,
      "\\\"": 5586,
      "Ġsan": 5587,
      "estyle": 5588,
      "ĠOb": 5589,
      "Ġblade": 5590,
      "Ġhousehold": 5591,
      "ĠDoing": 5592,
      "Ġcombine": 5593,
      "zy": 5594,
      "Ġgla": 5595,
      "Ġresume": 5596,
      "Ġnumer": 5597,
      "Ġconstantly": 5598,
      "Ġblend": 5599,
      "Ġtoothpaste": 5600,
      "Ġcigarette": 5601,
      "Ġhire": 5602,
      "Ġnu": 5603,
      "Ġchat": 5604,
      "Ġoutfit": 5605,
      "Ġcompound": 5606,
      "Ġchop": 5607,
      "ĠSec": 5608,
      "Ġengage": 5609,
      "Ġhighest": 5610,
      "ĠDownload": 5611,
      "amb": 5612,
      "Ġblows": 5613,
      "Ġtook": 5614,
      "Ġlett": 5615,
      "Ġliter": 5616,
      "Ġshorts": 5617,
      "Ġwinning": 5618,
      "Ġdivor": 5619,
      "Ġfauc": 5620,
      "pan": 5621,
      "sts": 5622,
      "Ġfranch": 5623,
      "Ġbikes": 5624,
      "Ġatmosphere": 5625,
      "Ġshoots": 5626,
      "Ġladder": 5627,
      "Ġexercising": 5628,
      "Ġhumid": 5629,
      "Ġpromot": 5630,
      "Ġdestination": 5631,
      "Ġsample": 5632,
      "even": 5633,
      "itate": 5634,
      "Ġpiano": 5635,
      "Ġprohib": 5636,
      "Ġunw": 5637,
      "Ġremind": 5638,
      "tered": 5639,
      "Ġrecyc": 5640,
      "Ġcraft": 5641,
      "Ġtender": 5642,
      "Ġpointing": 5643,
      "Ġscreens": 5644,
      "otic": 5645,
      "Ġropes": 5646,
      "Ġentering": 5647,
      "ius": 5648,
      "Ġsen": 5649,
      "athe": 5650,
      "Ġtops": 5651,
      "Ġstadium": 5652,
      "Ġmessages": 5653,
      "ĠAtt": 5654,
      "17": 5655,
      "hether": 5656,
      "Ġcities": 5657,
      "Ġstro": 5658,
      "Ġitunes": 5659,
      "Ġvom": 5660,
      "Ġarri": 5661,
      "ĠEat": 5662,
      "Ġclosing": 5663,
      "Ġproceed": 5664,
      "Ġpiercing": 5665,
      "Ġcircum": 5666,
      "ĠAdditionally": 5667,
      "Ġshapes": 5668,
      "fall": 5669,
      "words": 5670,
      "Ġber": 5671,
      "Ġease": 5672,
      "Ġrear": 5673,
      "Ġquart": 5674,
      "Ġrecent": 5675,
      "Ġincreasing": 5676,
      "Ġpalm": 5677,
      "Ġmortgage": 5678,
      "made": 5679,
      "ingu": 5680,
      "ĠTra": 5681,
      "Ġbaton": 5682,
      "ribute": 5683,
      "Ġamerica": 5684,
      "ĠProv": 5685,
      "Ġtiny": 5686,
      "Ġwent": 5687,
      "Ġfrench": 5688,
      "iful": 5689,
      "ifts": 5690,
      "Ġacne": 5691,
      "Ġhelmet": 5692,
      "Ġbusinesses": 5693,
      "Ġcalend": 5694,
      "Ġboyfriend": 5695,
      "Ġdeveloped": 5696,
      "Ġrepeat": 5697,
      "Ġlying": 5698,
      "Ġwheels": 5699,
      "ĠJune": 5700,
      "Ġplanting": 5701,
      "Ġcorrectly": 5702,
      "Ġpremie": 5703,
      "Ġexplore": 5704,
      "Ġfa": 5705,
      "Ġanaly": 5706,
      "ppies": 5707,
      "Ġlocate": 5708,
      "Ġ2014": 5709,
      "Ġperiods": 5710,
      "Ġelectricity": 5711,
      "Ġ\\\".\\": 5712,
      "Ġspaces": 5713,
      "pective": 5714,
      "Ġepisode": 5715,
      "Ġinh": 5716,
      "ĠGu": 5717,
      "ĠContact": 5718,
      "bble": 5719,
      "ka": 5720,
      "anges": 5721,
      "Ġformal": 5722,
      "Ġinjuries": 5723,
      "Ġdigital": 5724,
      "Ġinterviewed": 5725,
      "lamm": 5726,
      "Ġwasher": 5727,
      "Ġintend": 5728,
      "Ġlaundry": 5729,
      "Ġaggress": 5730,
      "ĠNational": 5731,
      "Ġsale": 5732,
      "Ġzone": 5733,
      "Ġmeasurement": 5734,
      "Ġrelaxed": 5735,
      "Ġsensitive": 5736,
      "Ġsurrounding": 5737,
      "Ġeyel": 5738,
      "xic": 5739,
      "appe": 5740,
      "Ġcock": 5741,
      "Ġcord": 5742,
      "Ġformer": 5743,
      "Ġnecessarily": 5744,
      "Ġforeign": 5745,
      "Ġmountains": 5746,
      "Ġthro": 5747,
      "outs": 5748,
      "Ġseasoning": 5749,
      "Ġfloors": 5750,
      "Ġdetect": 5751,
      "Ġteaching": 5752,
      "ĠBritish": 5753,
      "cept": 5754,
      "Ġcentim": 5755,
      "Ġyeast": 5756,
      "Ġaquarium": 5757,
      "Ġheating": 5758,
      "ĠSte": 5759,
      "Ġresol": 5760,
      "Ġhammer": 5761,
      "Ġmodern": 5762,
      "Ġcomplaint": 5763,
      "Ġille": 5764,
      "Ġthreat": 5765,
      "Ġunf": 5766,
      "Ġtopics": 5767,
      "Ġguinea": 5768,
      "gging": 5769,
      "Ġdraft": 5770,
      "Ġstaying": 5771,
      "Ġremains": 5772,
      "tail": 5773,
      "Ġsticking": 5774,
      "Ġadequ": 5775,
      "Ġbackyard": 5776,
      "Ġprovider": 5777,
      "Ġasks": 5778,
      "Ġregistered": 5779,
      "Ġalternative": 5780,
      "Ġdialog": 5781,
      "ĠPresident": 5782,
      "gi": 5783,
      "iors": 5784,
      "zing": 5785,
      "Ġpizz": 5786,
      "eters": 5787,
      "ilies": 5788,
      "Ġchallen": 5789,
      "ĠMove": 5790,
      "ĠPlay": 5791,
      "Ġprocessor": 5792,
      "Ġfoundation": 5793,
      "ĠCommon": 5794,
      "Ġcucum": 5795,
      "Ġturkey": 5796,
      "iable": 5797,
      "icate": 5798,
      "Ġexit": 5799,
      "Ġpeace": 5800,
      "Ġchosen": 5801,
      "Ġgrip": 5802,
      "ple": 5803,
      "Ġrenew": 5804,
      "counter": 5805,
      "Ġdev": 5806,
      "Ġcombined": 5807,
      "ĠOtherwise": 5808,
      "Ġtomato": 5809,
      "Ġestablished": 5810,
      "Ġneighborhood": 5811,
      "tress": 5812,
      "omic": 5813,
      "Ġsufficient": 5814,
      "Ġrise": 5815,
      "ĠWest": 5816,
      "Ġskis": 5817,
      "Ġedit": 5818,
      "Ġphysically": 5819,
      "Ġbulbs": 5820,
      "Ġlettuce": 5821,
      "eness": 5822,
      "Ġmeter": 5823,
      "Ġdifficulty": 5824,
      "Ġstead": 5825,
      "Ġcatches": 5826,
      "Ġdesert": 5827,
      "Ġreco": 5828,
      "Ġcriminal": 5829,
      "Ġtrial": 5830,
      "Ġdetail": 5831,
      "Ġpaddle": 5832,
      "Ġconcerns": 5833,
      "bell": 5834,
      "Ġnic": 5835,
      "Ġfees": 5836,
      "Ġdecisions": 5837,
      "Ġcompete": 5838,
      "ĠEnglish": 5839,
      "Ġtires": 5840,
      "Ġpassed": 5841,
      "Ġmeant": 5842,
      "Ġtwirl": 5843,
      "Ġ2010": 5844,
      "bby": 5845,
      "Ġmarriage": 5846,
      "Ġexperiencing": 5847,
      "uation": 5848,
      "Ġbear": 5849,
      "ĠRef": 5850,
      "Ġimag": 5851,
      "Ġpassion": 5852,
      "Ġescape": 5853,
      "cra": 5854,
      "dri": 5855,
      "que": 5856,
      "Ġsharing": 5857,
      "Ġseated": 5858,
      "Ġjell": 5859,
      "Ġprotective": 5860,
      "Ġdealing": 5861,
      "Ġpurposes": 5862,
      "Ġexpected": 5863,
      "Ġcollar": 5864,
      "Ġjewel": 5865,
      "Ġmall": 5866,
      "Ġmower": 5867,
      "igs": 5868,
      "utter": 5869,
      "ĠPull": 5870,
      "Ġslides": 5871,
      "Ġserved": 5872,
      "Ġcupc": 5873,
      "proof": 5874,
      "Ġassistance": 5875,
      "Ġsized": 5876,
      "Ġnap": 5877,
      "Ġefficient": 5878,
      "Ġvio": 5879,
      "ĠMark": 5880,
      "Ġplus": 5881,
      "Ġpresident": 5882,
      "Ġvision": 5883,
      "Ġweights": 5884,
      "Ġestablish": 5885,
      "Ġsturdy": 5886,
      "Âº": 5887,
      "Ġchic": 5888,
      "ĠFin": 5889,
      "Ġtwist": 5890,
      "Ġphones": 5891,
      "Ġevening": 5892,
      "Ġformed": 5893,
      "Ġstored": 5894,
      "25": 5895,
      "eat": 5896,
      "Ġbone": 5897,
      "anging": 5898,
      "ĠNext": 5899,
      "Ġsolve": 5900,
      "Ġmarried": 5901,
      "cel": 5902,
      "Ġborn": 5903,
      "leep": 5904,
      "Ġreject": 5905,
      "Ġbaseball": 5906,
      "Ġcandle": 5907,
      "Ġreferred": 5908,
      "gy": 5909,
      "Ġfenc": 5910,
      "Ġorganisms": 5911,
      "Ġcooler": 5912,
      "Ġbreathe": 5913,
      "Ġphotograph": 5914,
      "Ġapplications": 5915,
      "Ġbuttons": 5916,
      ".''": 5917,
      "my": 5918,
      "Ġled": 5919,
      "bol": 5920,
      "Ġsne": 5921,
      "aration": 5922,
      "Ġdut": 5923,
      "Ġdream": 5924,
      "Ġcrush": 5925,
      "Ġpouring": 5926,
      "Ġreviews": 5927,
      "inst": 5928,
      "Ġdental": 5929,
      "Ġdefend": 5930,
      "Ġgrey": 5931,
      "Ġdishw": 5932,
      "click": 5933,
      "mes": 5934,
      "Ġcough": 5935,
      "amine": 5936,
      "Ġpros": 5937,
      "Ġvoc": 5938,
      "Ġsoci": 5939,
      "Ġzip": 5940,
      "Ġvacation": 5941,
      "Ġexperiences": 5942,
      "Ġdentist": 5943,
      "Ġnit": 5944,
      "Ġbodies": 5945,
      "Ġlifestyle": 5946,
      "Ġlawsuit": 5947,
      "Ġmattress": 5948,
      "ĠMaybe": 5949,
      "bu": 5950,
      "Ġpant": 5951,
      "ĠAre": 5952,
      "Ġoutline": 5953,
      "Ġbackwards": 5954,
      "ĠOctober": 5955,
      "Ġcupboard": 5956,
      "Ġtesting": 5957,
      "Ġnucle": 5958,
      "nes": 5959,
      "Ġgender": 5960,
      "lying": 5961,
      "Ġtempor": 5962,
      "cloth": 5963,
      "Ġdismount": 5964,
      "heit": 5965,
      "Ġinject": 5966,
      "quet": 5967,
      "Ġalb": 5968,
      "Ġlaunch": 5969,
      "Ġskating": 5970,
      "Ġacting": 5971,
      "Ġmaximum": 5972,
      "osure": 5973,
      "Ġpapers": 5974,
      "Ġhem": 5975,
      "Ġfitness": 5976,
      "Ġillegal": 5977,
      "oub": 5978,
      "Ġpong": 5979,
      "Ġmature": 5980,
      "ĠUS": 5981,
      "Ġbrings": 5982,
      "ĠNe": 5983,
      "Ġbreaking": 5984,
      "Ġbreeding": 5985,
      "Ġpaints": 5986,
      "''.": 5987,
      "Ġfacial": 5988,
      "Ġtension": 5989,
      "Ġbor": 5990,
      "Ġtoday": 5991,
      "ching": 5992,
      "ĠSign": 5993,
      "renheit": 5994,
      "Ġpreferences": 5995,
      "Ġbowls": 5996,
      "ahrenheit": 5997,
      "nut": 5998,
      "rim": 5999,
      "Ġhug": 6000,
      "Ġups": 6001,
      "Ġcomponents": 6002,
      "Ġacadem": 6003,
      "coming": 6004,
      "Ġbasketball": 6005,
      "Ġcalendar": 6006,
      "you": 6007,
      "Ġcivil": 6008,
      "Ġclient": 6009,
      "Ġparticles": 6010,
      "Ġpolo": 6011,
      "Ġcher": 6012,
      "ichigan": 6013,
      "Ġperhaps": 6014,
      "Ġcheers": 6015,
      "ĠJames": 6016,
      "Ġdrives": 6017,
      "Ġpackaging": 6018,
      "Ġhung": 6019,
      "poon": 6020,
      "Ġmm": 6021,
      "Ġfeather": 6022,
      "Ġcomplic": 6023,
      "Ġhandling": 6024,
      "Ġthrown": 6025,
      "Ġyounger": 6026,
      "Ġadvanced": 6027,
      "Ġpreferred": 6028,
      "Ġcasual": 6029,
      "Ġmushrooms": 6030,
      "istry": 6031,
      "Ġflor": 6032,
      "Ġtrade": 6033,
      "ublic": 6034,
      "Ġmajority": 6035,
      "Ġdistractions": 6036,
      "Ġadopt": 6037,
      "Ġfaucet": 6038,
      "Ġpizza": 6039,
      "Ġaer": 6040,
      "illy": 6041,
      "ĠBru": 6042,
      "Ġpoly": 6043,
      "Ġopened": 6044,
      "Ġflag": 6045,
      "pril": 6046,
      "ugust": 6047,
      "Ġsuperv": 6048,
      "Ġinsects": 6049,
      "Ġtreated": 6050,
      "Ġfocused": 6051,
      "Ġtex": 6052,
      "bohyd": 6053,
      "Ġcrime": 6054,
      "Ġsoup": 6055,
      "Ġdivid": 6056,
      "Ġhearing": 6057,
      "ĠWhether": 6058,
      "ĠThough": 6059,
      "Ġpoison": 6060,
      "Ġraised": 6061,
      "Ġvisiting": 6062,
      "Ġcreative": 6063,
      "Ġeligible": 6064,
      "Ġdv": 6065,
      "Ġdairy": 6066,
      "ovember": 6067,
      "Ġpressing": 6068,
      "Ġelement": 6069,
      "Ġtablespoon": 6070,
      "Ġstrawberries": 6071,
      "Ġvolleyball": 6072,
      "ĠIde": 6073,
      "Ġclin": 6074,
      "Ġgrown": 6075,
      "ĠWhy": 6076,
      "Ġenters": 6077,
      "Ġpresence": 6078,
      "Ġinternal": 6079,
      "Ġcomfortably": 6080,
      "Ġcharacteristics": 6081,
      "Ġprojects": 6082,
      "ĠCanada": 6083,
      "Ġbeside": 6084,
      "pically": 6085,
      "annel": 6086,
      "ĠHigh": 6087,
      "Ġscoop": 6088,
      "Ġgrade": 6089,
      "Ġskill": 6090,
      "Ġsweep": 6091,
      "Ġlanding": 6092,
      "Ġcrust": 6093,
      "Ġteachers": 6094,
      "Ġcarrier": 6095,
      "Ġknock": 6096,
      "FA": 6097,
      "Ġbache": 6098,
      "Ġdat": 6099,
      "Ġstones": 6100,
      "Ġcomment": 6101,
      "Ġrich": 6102,
      "ĠSit": 6103,
      "Ġstopping": 6104,
      "Ġhappened": 6105,
      "Ġmeasures": 6106,
      "Ġabsol": 6107,
      "Ġconsume": 6108,
      "Ġcleanser": 6109,
      "Ġrapid": 6110,
      "spr": 6111,
      "ubs": 6112,
      "Ġtut": 6113,
      "ĠApril": 6114,
      "ĠMarch": 6115,
      "Ġgrams": 6116,
      "Ġflipping": 6117,
      "ĠJuly": 6118,
      "Ġcentral": 6119,
      "Ġassets": 6120,
      "ĠOften": 6121,
      "Ġexchange": 6122,
      "Ġtrop": 6123,
      "Ġpermission": 6124,
      "Ġquarter": 6125,
      "Ġstudio": 6126,
      "Ġretain": 6127,
      "Ġborder": 6128,
      "Ġhoo": 6129,
      "charge": 6130,
      "ĠSimp": 6131,
      "Ġtherefore": 6132,
      "Ġstudies": 6133,
      "Ġpresentation": 6134,
      "Ġlabeled": 6135,
      "Ġsurvive": 6136,
      "Ġkil": 6137,
      "Ġdeer": 6138,
      "Ġresident": 6139,
      "Ġdesire": 6140,
      "Ġcorners": 6141,
      "Ġpossess": 6142,
      "Ġfont": 6143,
      "ĠFl": 6144,
      "Ġpoem": 6145,
      "Ġsignal": 6146,
      "Ġmicrophone": 6147,
      "Ġinstructor": 6148,
      "Ġkayak": 6149,
      "inating": 6150,
      "Ġfahrenheit": 6151,
      "Ġstems": 6152,
      "ĠEurope": 6153,
      "ĠJanuary": 6154,
      "Ġentry": 6155,
      "Ġsqueeze": 6156,
      "Ġhorizontal": 6157,
      "Ġchunks": 6158,
      "isc": 6159,
      "imal": 6160,
      "comp": 6161,
      "Ġdeli": 6162,
      "Ġexperienced": 6163,
      "Ġboot": 6164,
      "Ġhaz": 6165,
      "Ġrins": 6166,
      "Ġunsure": 6167,
      "Ġrecip": 6168,
      "Ġartist": 6169,
      "Ġemployment": 6170,
      "ĠLeague": 6171,
      "Ġfairly": 6172,
      "Ġelectronic": 6173,
      "Ġdivorce": 6174,
      "gun": 6175,
      "Ġfake": 6176,
      "Ġecon": 6177,
      "ĠAm": 6178,
      "Ġleash": 6179,
      "Ġspreading": 6180,
      "Ġvertical": 6181,
      "Ġdescription": 6182,
      "Ġhuge": 6183,
      "Ġtemplate": 6184,
      "Ġcush": 6185,
      "Ġoffered": 6186,
      "Ġconce": 6187,
      "Ġshock": 6188,
      "cious": 6189,
      "Ġsubmit": 6190,
      "Ġcollection": 6191,
      "erals": 6192,
      "cember": 6193,
      "ĠCook": 6194,
      "Ġprofession": 6195,
      "Ġclimbs": 6196,
      "Ġintroduce": 6197,
      "eath": 6198,
      "yal": 6199,
      "Ġliver": 6200,
      "Ġknows": 6201,
      "Ġcoloring": 6202,
      "Ġsticky": 6203,
      "Ġapproaches": 6204,
      "Ġcommunicate": 6205,
      "18": 6206,
      "ml": 6207,
      "Ġcanvas": 6208,
      "Ġdiscomfort": 6209,
      "Ġextended": 6210,
      "Ġinvolve": 6211,
      "Ġmoistur": 6212,
      "Ġthroat": 6213,
      "Ġtexas": 6214,
      "nosis": 6215,
      "icious": 6216,
      "alt": 6217,
      "Ġalarm": 6218,
      "Ġafterwards": 6219,
      "Ġdeciding": 6220,
      "Ġversions": 6221,
      "Ġgallon": 6222,
      "Ġbeautiful": 6223,
      "Ġsatisf": 6224,
      "Ġaggressive": 6225,
      "Ġ_": 6226,
      "Ġgau": 6227,
      "Ġwithd": 6228,
      "ĠSeptember": 6229,
      "Ġwashed": 6230,
      "Ġguidelines": 6231,
      "Ġsnacks": 6232,
      "ĠIsland": 6233,
      "Ġdatab": 6234,
      "ays": 6235,
      "using": 6236,
      "Ġreader": 6237,
      "Ġstirring": 6238,
      "ipper": 6239,
      "look": 6240,
      "Ġment": 6241,
      "utes": 6242,
      "ĠFr": 6243,
      "Ġcarbohyd": 6244,
      "Ġdepends": 6245,
      "Ġcomputers": 6246,
      "Ġfreezing": 6247,
      "Ġnood": 6248,
      "Ġec": 6249,
      "Ġ45": 6250,
      "Ġgrand": 6251,
      "Ġpots": 6252,
      "Ġbringing": 6253,
      "Ġlinks": 6254,
      "Ġdressing": 6255,
      "Ġinvolves": 6256,
      "Ġcategory": 6257,
      "Ġwelding": 6258,
      "Ġbac": 6259,
      "Ġbends": 6260,
      "Ġlime": 6261,
      "ĠSer": 6262,
      "Ġalign": 6263,
      "Ġslope": 6264,
      "shirt": 6265,
      "Ġshops": 6266,
      "Ġplanet": 6267,
      "Ġexpert": 6268,
      "Ġarticles": 6269,
      "Ġrecommendations": 6270,
      "Ġsubstance": 6271,
      "Ġattachment": 6272,
      "Ġjavel": 6273,
      "dred": 6274,
      "Ġpork": 6275,
      "Ġfelt": 6276,
      "Ġmer": 6277,
      "orial": 6278,
      "isher": 6279,
      "Ġcontra": 6280,
      "Ġscar": 6281,
      "Ġcalifornia": 6282,
      "Ġhundred": 6283,
      "Ġgrooming": 6284,
      "Ġbachelor": 6285,
      "Ġclay": 6286,
      "Ġinvent": 6287,
      "Ġtrunk": 6288,
      "Ġthank": 6289,
      "Ġrecently": 6290,
      "Ġlotion": 6291,
      "Ġgreens": 6292,
      "ĠConsult": 6293,
      "aper": 6294,
      "Ġ--": 6295,
      "Ġsout": 6296,
      "Ġcandidat": 6297,
      "Ġwiping": 6298,
      "inue": 6299,
      "Ġlogin": 6300,
      "Ġbrands": 6301,
      "Ġbeneath": 6302,
      "Ġpinch": 6303,
      "Ġmotorcy": 6304,
      "Ġtoss": 6305,
      "Ġhood": 6306,
      "ruit": 6307,
      "cknow": 6308,
      "Ġjail": 6309,
      "Ġintense": 6310,
      "Ġqualified": 6311,
      "Ġkneeling": 6312,
      "Ġdescribes": 6313,
      "ĠPractice": 6314,
      "Ġsight": 6315,
      "Ġank": 6316,
      "sters": 6317,
      "icial": 6318,
      "Ġshift": 6319,
      "ilts": 6320,
      "ĠCity": 6321,
      "Ġfluff": 6322,
      "ĠUsually": 6323,
      "Ġworkplace": 6324,
      "Ġquant": 6325,
      "Ġdrama": 6326,
      "Ġdemand": 6327,
      "Ġrealize": 6328,
      "Ġsuccessfully": 6329,
      "Ġinfected": 6330,
      "ĠSuper": 6331,
      "erts": 6332,
      "Ġboots": 6333,
      "Ġfits": 6334,
      "Ġshave": 6335,
      "hesis": 6336,
      "Ġrecipes": 6337,
      "Ġproviding": 6338,
      "Ġsquares": 6339,
      "ernal": 6340,
      "Ġpublished": 6341,
      "Ġindicates": 6342,
      "Ġargument": 6343,
      "mel": 6344,
      "Ġdating": 6345,
      "Ġren": 6346,
      "ota": 6347,
      "Ġlease": 6348,
      "Ġsoy": 6349,
      "ĠWill": 6350,
      "Ġworked": 6351,
      "cium": 6352,
      "Ġsigned": 6353,
      "Ġentirely": 6354,
      "Ġwrapped": 6355,
      "Ġcelebrate": 6356,
      "Ġannual": 6357,
      "Ġadapt": 6358,
      "Ġaccommodate": 6359,
      "cers": 6360,
      "then": 6361,
      "yth": 6362,
      "Ġaward": 6363,
      "Ġspect": 6364,
      "Ġtickets": 6365,
      "band": 6366,
      "onal": 6367,
      "Ġbills": 6368,
      "aser": 6369,
      "Ġthigh": 6370,
      "Ġeats": 6371,
      "Ġracket": 6372,
      "Ġbasement": 6373,
      "Ġrefers": 6374,
      "Ġbelief": 6375,
      "Ġstrainer": 6376,
      "Ġvalve": 6377,
      "Ġhope": 6378,
      "Ġgreet": 6379,
      "Ġ=": 6380,
      "Ġthread": 6381,
      "Ġbeard": 6382,
      "ĠBla": 6383,
      "Ġminerals": 6384,
      "Ġtypical": 6385,
      "Ġfilling": 6386,
      "Ġexplaining": 6387,
      "Ġindependent": 6388,
      "arant": 6389,
      "Ġstorm": 6390,
      "Ġassume": 6391,
      "Ġrings": 6392,
      "Ġfewer": 6393,
      "Ġprev": 6394,
      "Ġdries": 6395,
      "tube": 6396,
      "Ġpermanent": 6397,
      "iam": 6398,
      "Ġthy": 6399,
      "Ġmostly": 6400,
      "Ġjog": 6401,
      "Ġclients": 6402,
      "Ġconver": 6403,
      "ĠShow": 6404,
      "Ġbleach": 6405,
      "lead": 6406,
      "see": 6407,
      "amel": 6408,
      "Ġshallow": 6409,
      "Ġmeditation": 6410,
      "Ġ196": 6411,
      "Ġterrit": 6412,
      "Ġidentification": 6413,
      "Ġroute": 6414,
      "Ġrecording": 6415,
      "Ġtaxes": 6416,
      "Ġhyp": 6417,
      "Ġwi": 6418,
      "Ġdash": 6419,
      "Ġconvert": 6420,
      "Ġremoval": 6421,
      "Ġsymbol": 6422,
      "Ġconstant": 6423,
      "Ġpadd": 6424,
      "Ġzooms": 6425,
      "itches": 6426,
      "Ġhus": 6427,
      "Ġbees": 6428,
      "ĠCent": 6429,
      "Ġgrind": 6430,
      "Ġvalu": 6431,
      "Ġvalues": 6432,
      "Ġstronger": 6433,
      "Ġconsistent": 6434,
      "ĠIdeally": 6435,
      "Ġmaps": 6436,
      "ements": 6437,
      "ĠWipe": 6438,
      "Ġkeys": 6439,
      "ĠState": 6440,
      "phones": 6441,
      "Ġdecorations": 6442,
      "ĠRepeat": 6443,
      "Ġsavings": 6444,
      "idden": 6445,
      "Ġstable": 6446,
      "ensions": 6447,
      "ĠSim": 6448,
      "Ġlighting": 6449,
      "Ġaccounting": 6450,
      "Ġdriveway": 6451,
      "Ġsporting": 6452,
      "Ġgolden": 6453,
      "Ġblanket": 6454,
      "Ġblocks": 6455,
      "ito": 6456,
      "Ġdips": 6457,
      "Ġparr": 6458,
      "Ġpolic": 6459,
      "Ġbelong": 6460,
      "Ġstays": 6461,
      "Ġnorthern": 6462,
      "pite": 6463,
      "under": 6464,
      "Ġintended": 6465,
      "Ġpuppies": 6466,
      "Ġbehaviors": 6467,
      "Ġbought": 6468,
      "Ġtodd": 6469,
      "Ġmud": 6470,
      "Ġsettle": 6471,
      "Ġdepth": 6472,
      "Ġpitcher": 6473,
      "Ġcarrots": 6474,
      "Ġfrosting": 6475,
      "Ġopinion": 6476,
      "mate": 6477,
      "Ġtightly": 6478,
      "Ġbark": 6479,
      "ĠAir": 6480,
      "Ġjur": 6481,
      "Ġdeck": 6482,
      "Ġbrother": 6483,
      "wear": 6484,
      "ondon": 6485,
      "bbles": 6486,
      "Ġbraid": 6487,
      "Ġreceiving": 6488,
      "Ġfacts": 6489,
      "Ġpuck": 6490,
      "Ġexecut": 6491,
      "Ġcircumst": 6492,
      "yed": 6493,
      "Ġcin": 6494,
      "Ġleague": 6495,
      "Ġfriendship": 6496,
      "Ġexposure": 6497,
      "Ġsumo": 6498,
      "Ġgravity": 6499,
      "Ġjavelin": 6500,
      "Ġpond": 6501,
      "archment": 6502,
      "Ġexpectations": 6503,
      "Ġtough": 6504,
      "Ġpatch": 6505,
      "ĠMore": 6506,
      "Ġgrows": 6507,
      "Ġguys": 6508,
      "Ġpoles": 6509,
      "Ġlabels": 6510,
      "ĠTypically": 6511,
      "Ġconcerned": 6512,
      "Ġsuddenly": 6513,
      "ĠRecogn": 6514,
      "kn": 6515,
      "Ġtroph": 6516,
      "Ġdances": 6517,
      "Ġsnack": 6518,
      "Ġparag": 6519,
      "Ġaudio": 6520,
      "nament": 6521,
      "Ġannounced": 6522,
      "Ġsuspect": 6523,
      "Ġcaptures": 6524,
      "etch": 6525,
      "Ġcontinuing": 6526,
      "Ġkite": 6527,
      "Ġslip": 6528,
      "Ġunderwater": 6529,
      "neys": 6530,
      "ibilities": 6531,
      "Ġcooker": 6532,
      "Ġconflic": 6533,
      "Ġsnowy": 6534,
      "Ġhydrogen": 6535,
      "Ġdisplays": 6536,
      "Ġtold": 6537,
      "Ġarts": 6538,
      "Ġoverw": 6539,
      "Ġrust": 6540,
      "ĠRub": 6541,
      "Ġpace": 6542,
      "Ġlists": 6543,
      "ĠAss": 6544,
      "Ġrelieve": 6545,
      "Ġgarbage": 6546,
      "ologist": 6547,
      "Ġbreaths": 6548,
      "Ġreplaced": 6549,
      "Ġpruning": 6550,
      "bur": 6551,
      "Ġcontin": 6552,
      "Ġweap": 6553,
      "ĠWom": 6554,
      "ba": 6555,
      "Ġmarch": 6556,
      "Ġprove": 6557,
      "Ġlaid": 6558,
      "Ġdrawn": 6559,
      "Ġperfectly": 6560,
      "Ġreference": 6561,
      "safe": 6562,
      "Ġfranchise": 6563,
      "16": 6564,
      "cip": 6565,
      "fts": 6566,
      "mates": 6567,
      "Ġstool": 6568,
      "umber": 6569,
      "Ġvirt": 6570,
      "Ġbacks": 6571,
      "akers": 6572,
      "Ġserver": 6573,
      "elsius": 6574,
      "Ġ2013": 6575,
      "Ġlandl": 6576,
      "Ġissued": 6577,
      "Ġsodium": 6578,
      "Ġromantic": 6579,
      "ĠProvide": 6580,
      "asher": 6581,
      "Ġnest": 6582,
      "Ġabuse": 6583,
      "Ġtramp": 6584,
      "Ġfilms": 6585,
      "Ġpassen": 6586,
      "Ġbedding": 6587,
      "Ġpolicies": 6588,
      "Ġparchment": 6589,
      "Ġhiding": 6590,
      "Ġrecover": 6591,
      "Ġeveryday": 6592,
      "Ġslee": 6593,
      "Ġexcited": 6594,
      "Ġregistration": 6595,
      "Ġinstruments": 6596,
      "Ġofficer": 6597,
      "Ġrecovery": 6598,
      "Ġparagraph": 6599,
      "Ġsed": 6600,
      "ctors": 6601,
      "Ġchlor": 6602,
      "ĠMic": 6603,
      "Ġformula": 6604,
      "Ġsalmon": 6605,
      "Ġengaged": 6606,
      "Ġmistake": 6607,
      "lasses": 6608,
      "75": 6609,
      "iance": 6610,
      "atin": 6611,
      "holic": 6612,
      "Ġkar": 6613,
      "aped": 6614,
      "Ġcurren": 6615,
      "Ġsnap": 6616,
      "ĠContinue": 6617,
      "Ġcitizenship": 6618,
      "of": 6619,
      "yond": 6620,
      "eless": 6621,
      "ĠIts": 6622,
      "Ġthicker": 6623,
      "Ġwaters": 6624,
      "Ġobserve": 6625,
      "Ġclaims": 6626,
      "ok": 6627,
      "ene": 6628,
      "adian": 6629,
      "ĠIm": 6630,
      "aust": 6631,
      "Ġgoggles": 6632,
      "Ġbrought": 6633,
      "Ġbreeds": 6634,
      "Ġcolorful": 6635,
      "Ġcertified": 6636,
      "Ġfactor": 6637,
      "ervation": 6638,
      "Ġlicensed": 6639,
      "Ġnutrition": 6640,
      "Ġoz": 6641,
      "Ġfig": 6642,
      "Ġstalk": 6643,
      "otch": 6644,
      "Ġlemons": 6645,
      "Ġselection": 6646,
      "Ġsteak": 6647,
      "Ġpads": 6648,
      "Ġcryst": 6649,
      "hea": 6650,
      "Ġyours": 6651,
      "ird": 6652,
      "Ġchrome": 6653,
      "ĠMed": 6654,
      "Ġtransl": 6655,
      "Ġtriangle": 6656,
      "ĠInstall": 6657,
      "ĠÂ½": 6658,
      "related": 6659,
      "ĠSpray": 6660,
      "Ġhouses": 6661,
      "ĠInsert": 6662,
      "Ġphrase": 6663,
      "Ġjewelry": 6664,
      "heet": 6665,
      "anas": 6666,
      "storm": 6667,
      "Ġlin": 6668,
      "Ġripe": 6669,
      "Ġdehyd": 6670,
      "Ġcoast": 6671,
      "Ġloop": 6672,
      "Ġreceives": 6673,
      "Ġbalanced": 6674,
      "Ġdestro": 6675,
      "Ġboost": 6676,
      "Ġnoodles": 6677,
      "ban": 6678,
      "eline": 6679,
      "Ġshy": 6680,
      "Ġsore": 6681,
      "Ġmuse": 6682,
      "Ġsurfing": 6683,
      "cope": 6684,
      "Ġreferee": 6685,
      "ĠTrans": 6686,
      "Ġtrigger": 6687,
      "driver": 6688,
      "ca": 6689,
      "Ġtit": 6690,
      "Ġov": 6691,
      "Ġster": 6692,
      "Ġves": 6693,
      "ĠWind": 6694,
      "Ġshore": 6695,
      "Ġcharged": 6696,
      "Ġpowerful": 6697,
      "Ġstrike": 6698,
      "Ġfatig": 6699,
      "Ġcategories": 6700,
      "Ġignore": 6701,
      "Ġmention": 6702,
      "ooking": 6703,
      "Ġcans": 6704,
      "Ġshaking": 6705,
      "Ġpartners": 6706,
      "Ġexternal": 6707,
      "Ġsunscreen": 6708,
      "Ġreactions": 6709,
      "Ġprincip": 6710,
      "Ġexhaust": 6711,
      "Ġshaped": 6712,
      "Ġounces": 6713,
      "Ġsch": 6714,
      "Ġanal": 6715,
      "Ġthus": 6716,
      "ĠHar": 6717,
      "Ġwheat": 6718,
      "Ġ350": 6719,
      "Ġmug": 6720,
      "Ġpursu": 6721,
      "ĠSpread": 6722,
      "Ġautomatic": 6723,
      "Ġeliminate": 6724,
      "life": 6725,
      "Ġusual": 6726,
      "Ġshirts": 6727,
      "ĠSto": 6728,
      "rie": 6729,
      "ĠDay": 6730,
      "Ġinterior": 6731,
      "Ġfund": 6732,
      "Ġrabbits": 6733,
      "Ġexamine": 6734,
      "ippers": 6735,
      "ĠKingdom": 6736,
      "Ġcarbohydrates": 6737,
      "Ġbump": 6738,
      "ceed": 6739,
      "Ġplaster": 6740,
      "Ġvot": 6741,
      "Ġknowing": 6742,
      "Ġwhose": 6743,
      "Ġrecept": 6744,
      "Ġtouches": 6745,
      "Ġpoured": 6746,
      "Ġforg": 6747,
      "irect": 6748,
      "Ġnearly": 6749,
      "Ġselecting": 6750,
      "Ġcurtains": 6751,
      "ĠSimply": 6752,
      "cular": 6753,
      "worm": 6754,
      "icide": 6755,
      "Ġgate": 6756,
      "Ġri": 6757,
      "Ġsole": 6758,
      "Ġcompl": 6759,
      "ffe": 6760,
      "Ġmeters": 6761,
      "Ġdispos": 6762,
      "Ġkeywords": 6763,
      "Ġironing": 6764,
      "Ġprivacy": 6765,
      "Ġdiagnosis": 6766,
      "Ġpremiered": 6767,
      "Ġcircumstances": 6768,
      "erior": 6769,
      "lla": 6770,
      "ĠSqu": 6771,
      "Ġhabitat": 6772,
      "Ġsteady": 6773,
      "200": 6774,
      "rors": 6775,
      "ËĪ": 6776,
      "isd": 6777,
      "Ġtruth": 6778,
      "ĠCour": 6779,
      "Ġunits": 6780,
      "reek": 6781,
      "aired": 6782,
      "Ġcamels": 6783,
      "Ġcurling": 6784,
      "Ġbuildings": 6785,
      "Ġfirmly": 6786,
      "Ġathlete": 6787,
      "athered": 6788,
      "Ġjelly": 6789,
      "ero": 6790,
      "Ġbent": 6791,
      "Ġyoutube": 6792,
      "oming": 6793,
      "ĠCount": 6794,
      "Ġruler": 6795,
      "Ġcheering": 6796,
      "luding": 6797,
      "cuss": 6798,
      "Ġstatements": 6799,
      "Ġgrades": 6800,
      "Ġupdates": 6801,
      "ĠEngland": 6802,
      "Ġsupplements": 6803,
      "Ġcompatible": 6804,
      "Ġnumerous": 6805,
      "Ġtropical": 6806,
      "Ġprevents": 6807,
      "kins": 6808,
      "Ġwings": 6809,
      "Ġanno": 6810,
      "Ġvag": 6811,
      "Ġvib": 6812,
      "Ġrush": 6813,
      "Ġcolour": 6814,
      "Ġdistinct": 6815,
      "Ġfreeze": 6816,
      "Ġdedu": 6817,
      "Ġappreciate": 6818,
      "erved": 6819,
      "Ġbaked": 6820,
      "oles": 6821,
      "Ġchallenge": 6822,
      "ĠKn": 6823,
      "Ġwindsh": 6824,
      "Ġpresents": 6825,
      "Ġdrivers": 6826,
      "Ġconversations": 6827,
      "Ġbanks": 6828,
      "ĠExamp": 6829,
      "Ġipad": 6830,
      "Ġcastle": 6831,
      "Ġnursing": 6832,
      "Ġdipl": 6833,
      "ĠBrush": 6834,
      "acific": 6835,
      "Ġdrugs": 6836,
      "Ġbacon": 6837,
      "100": 6838,
      "Ġflies": 6839,
      "Ġanswers": 6840,
      "Ġchecks": 6841,
      "ĠReview": 6842,
      "Ġimmediate": 6843,
      "Ġlocker": 6844,
      "Ġoverwhel": 6845,
      "cros": 6846,
      "Ġcomments": 6847,
      "Ġensu": 6848,
      "Ġstrain": 6849,
      "ĠConf": 6850,
      "Ġpreviously": 6851,
      "Ġadequate": 6852,
      "ricul": 6853,
      "Ġnative": 6854,
      "Ġreward": 6855,
      "Ġwhom": 6856,
      "Ġseats": 6857,
      "Ġcloud": 6858,
      "ĠRight": 6859,
      "ĠGe": 6860,
      "Ġcute": 6861,
      "Ġgirlfriend": 6862,
      "nesses": 6863,
      "Ġ500": 6864,
      "Ġresulting": 6865,
      "Ġbrake": 6866,
      "Ġhunting": 6867,
      "Ġarena": 6868,
      "Ġkidney": 6869,
      "Ġ.": 6870,
      "idents": 6871,
      "Ġgran": 6872,
      "Ġbackward": 6873,
      "Ġplane": 6874,
      "Ġoffering": 6875,
      "Ġantib": 6876,
      "Ġadministr": 6877,
      "Ġdishwasher": 6878,
      "Ġjurisd": 6879,
      "axy": 6880,
      "iation": 6881,
      "more": 6882,
      "Ġtill": 6883,
      "eles": 6884,
      "Ġprocessed": 6885,
      "Ġworkers": 6886,
      "Ġagencies": 6887,
      "Ġemails": 6888,
      "Ġcutter": 6889,
      "Ġblades": 6890,
      "Ġdistribut": 6891,
      "Ġinflamm": 6892,
      "Ġmachines": 6893,
      "Ġidentity": 6894,
      "Ġdiscard": 6895,
      "Ġdecorate": 6896,
      "Ġshades": 6897,
      "west": 6898,
      "Ġwires": 6899,
      "ads": 6900,
      "Ġasp": 6901,
      "ĠAim": 6902,
      "ĠWalk": 6903,
      "cient": 6904,
      "orders": 6905,
      "Ġorganized": 6906,
      "Ġtends": 6907,
      "Ġbriefly": 6908,
      "Ġsequel": 6909,
      "gu": 6910,
      "ha": 6911,
      "Ġtheater": 6912,
      "ann": 6913,
      "anish": 6914,
      "Ġcelsius": 6915,
      "Ġasleep": 6916,
      "Ġhedge": 6917,
      "umes": 6918,
      "ĠPar": 6919,
      "Ġworried": 6920,
      "Ġovercome": 6921,
      "avy": 6922,
      "Ġbrit": 6923,
      "Ġrail": 6924,
      "Ġsnake": 6925,
      "Ġtempt": 6926,
      "ĠConst": 6927,
      "Ġessay": 6928,
      "Ġipod": 6929,
      "Ġcopyright": 6930,
      "Ġsynd": 6931,
      "ggle": 6932,
      "Ġbin": 6933,
      "Ġmichigan": 6934,
      "Ġclo": 6935,
      "Ġproof": 6936,
      "Ġtrimming": 6937,
      "Ġresponsibility": 6938,
      "Ġconsistency": 6939,
      "ody": 6940,
      "ta": 6941,
      "Ġchron": 6942,
      "Ġspare": 6943,
      "ifications": 6944,
      "Ġcrick": 6945,
      "boards": 6946,
      "Ġreleases": 6947,
      "Ġarrang": 6948,
      "Ġimmune": 6949,
      "Ġslack": 6950,
      "Ġdigestive": 6951,
      "Ġwife": 6952,
      "ctic": 6953,
      "Ġcleaners": 6954,
      "Ġbush": 6955,
      "ĠNotice": 6956,
      "Ġcartr": 6957,
      "Ġembarr": 6958,
      "Ġvictim": 6959,
      "Ġtelephone": 6960,
      "Ġpins": 6961,
      "iffe": 6962,
      "quire": 6963,
      "Ġoutlet": 6964,
      "ĠMo": 6965,
      "Ġmeets": 6966,
      "Ġfunny": 6967,
      "Ġcaffe": 6968,
      "Ġcracks": 6969,
      "ucky": 6970,
      "Ġstirs": 6971,
      "Ġimprovement": 6972,
      "mary": 6973,
      "Ġwit": 6974,
      "style": 6975,
      "Ġneat": 6976,
      "ĠLike": 6977,
      "ĠGre": 6978,
      "Ġlegally": 6979,
      "Ġclosest": 6980,
      "Ġstretching": 6981,
      "Ġhousing": 6982,
      "Ġwithdraw": 6983,
      "play": 6984,
      "erk": 6985,
      "orie": 6986,
      "Ġfrag": 6987,
      "Ġunl": 6988,
      "Ġdelete": 6989,
      "Ġspat": 6990,
      "Ġbuff": 6991,
      "Ġbrick": 6992,
      "Ġdioxide": 6993,
      "Ġoccup": 6994,
      "ĠScroll": 6995,
      "Ġscrewdriver": 6996,
      "Ġdominant": 6997,
      "Ġaccidentally": 6998,
      "Ġlungs": 6999,
      "Ġlatest": 7000,
      "Ġvessel": 7001,
      "Ġtent": 7002,
      "ĠTex": 7003,
      "Ġuneven": 7004,
      "Ġspices": 7005,
      "Ġlacros": 7006,
      "ĠNovember": 7007,
      "Ġforming": 7008,
      "Ġleaders": 7009,
      "Ġmarker": 7010,
      "Ġliquids": 7011,
      "Ġvolcan": 7012,
      "iverse": 7013,
      "Ġreports": 7014,
      "ĠSoak": 7015,
      "Ġgraphic": 7016,
      "ĠListen": 7017,
      "ĠRecognize": 7018,
      "Ġlacrosse": 7019,
      "Ġcement": 7020,
      "Ġfal": 7021,
      "ĠNor": 7022,
      "Ġwinner": 7023,
      "Ġflavors": 7024,
      "Ġchemistry": 7025,
      "Ġwraps": 7026,
      "Ġinspiration": 7027,
      "Ġaspects": 7028,
      "Ġfra": 7029,
      "ifies": 7030,
      "Ġthrive": 7031,
      "ĠPu": 7032,
      "ĠPla": 7033,
      "hesive": 7034,
      "angular": 7035,
      "Ġmuff": 7036,
      "Ġingredient": 7037,
      "Ġscrape": 7038,
      "Ġmagazine": 7039,
      "Ġribbon": 7040,
      "ĠObtain": 7041,
      "wall": 7042,
      "Ġorg": 7043,
      "imately": 7044,
      "Ġtruly": 7045,
      "rial": 7046,
      "Ġfeat": 7047,
      "ĠOf": 7048,
      "Ġremote": 7049,
      "Ġcalcium": 7050,
      "Ġstopped": 7051,
      "Ġselected": 7052,
      "Ġaccessories": 7053,
      "Ġcrus": 7054,
      "Ġtechnology": 7055,
      "Ġpalms": 7056,
      "Ġsignificantly": 7057,
      "Ġpredators": 7058,
      "Ġobstac": 7059,
      "Ġchampions": 7060,
      "Ġeth": 7061,
      "Ġstilts": 7062,
      "Ġshark": 7063,
      "Ġshaves": 7064,
      "Ġshaker": 7065,
      "Ġages": 7066,
      "Ġimpress": 7067,
      "Ġfunctions": 7068,
      "Ġsunny": 7069,
      "Ġwarmer": 7070,
      "Ġsoften": 7071,
      "Ġspecialty": 7072,
      "bruary": 7073,
      "iter": 7074,
      "Ġseam": 7075,
      "resp": 7076,
      "ĠPark": 7077,
      "Ġcyl": 7078,
      "arrhea": 7079,
      "Ġnurs": 7080,
      "Ġculture": 7081,
      "Ġflexible": 7082,
      "Ġclouds": 7083,
      "lled": 7084,
      "epts": 7085,
      "rub": 7086,
      "Ġviewer": 7087,
      "Ġraises": 7088,
      "Ġcoverage": 7089,
      "Ġcountryside": 7090,
      "Ġpatients": 7091,
      "isphere": 7092,
      "care": 7093,
      "van": 7094,
      "Ġmul": 7095,
      "Ġcontest": 7096,
      "Ġsemi": 7097,
      "Ġbeforehand": 7098,
      "ĠEither": 7099,
      "Ġpossibly": 7100,
      "Ġclassic": 7101,
      "Ġpractices": 7102,
      "Ġfacility": 7103,
      "Ġbatteries": 7104,
      "Ġhungry": 7105,
      "Ġkarate": 7106,
      "Ġwindshield": 7107,
      "Ġtoe": 7108,
      "store": 7109,
      "orge": 7110,
      "Ġshuff": 7111,
      "Ġvote": 7112,
      "Ġupside": 7113,
      "ĠMin": 7114,
      "ĠPat": 7115,
      "Ġ22": 7116,
      "ĠOver": 7117,
      "Ġcrab": 7118,
      "Ġrestaurants": 7119,
      "Ġprofessionals": 7120,
      "Ġdatabase": 7121,
      "BC": 7122,
      "Ġsatur": 7123,
      "Ġnause": 7124,
      "ĠAugust": 7125,
      "olina": 7126,
      "acity": 7127,
      "angers": 7128,
      "Ġrake": 7129,
      "Ġperformed": 7130,
      "Ġorganize": 7131,
      "Ġdescribed": 7132,
      "Ġrelaxation": 7133,
      "ĠKnowing": 7134,
      "ias": 7135,
      "illing": 7136,
      "Ġconvent": 7137,
      "Ġresting": 7138,
      "Ġfunds": 7139,
      "Ġhistor": 7140,
      "Ġinfections": 7141,
      "Ġinvestment": 7142,
      "ĠSpend": 7143,
      "ĠDecember": 7144,
      "Ġsyndrome": 7145,
      ").\"],": 7146,
      "itely": 7147,
      "Ġoats": 7148,
      "arms": 7149,
      "Ġdump": 7150,
      "omb": 7151,
      "Ġstack": 7152,
      "ounce": 7153,
      "utely": 7154,
      "ĠLine": 7155,
      "ĠWhite": 7156,
      "ptions": 7157,
      "Ġcharges": 7158,
      "ĠGetting": 7159,
      "Ġdiseases": 7160,
      "Ġjudges": 7161,
      "Ġproceeds": 7162,
      "Ġconvenient": 7163,
      "sey": 7164,
      "edy": 7165,
      "Ġgums": 7166,
      "Ġbeyond": 7167,
      "Ġshared": 7168,
      "ops": 7169,
      "Ġjars": 7170,
      "Ġfever": 7171,
      "Ġhandles": 7172,
      "Ġdifferently": 7173,
      "Ġ2011": 7174,
      "Ġpleasure": 7175,
      "Ġmistakes": 7176,
      "Ġtrailer": 7177,
      "Ġlandlord": 7178,
      "inter": 7179,
      "Ġyol": 7180,
      "ago": 7181,
      "lymp": 7182,
      "Ġheard": 7183,
      "Ġtear": 7184,
      "Ġacts": 7185,
      "Ġrelative": 7186,
      "Ġbushes": 7187,
      "ggling": 7188,
      "Ġelder": 7189,
      "Ġpainted": 7190,
      "Ġzoo": 7191,
      "Ġsoapy": 7192,
      "Ġpuzzle": 7193,
      "Ġlimits": 7194,
      "Ġshelves": 7195,
      "Ġdivided": 7196,
      "Ġcurrency": 7197,
      "ean": 7198,
      "Ġtied": 7199,
      "Ġdive": 7200,
      "Ġstance": 7201,
      "Ġrim": 7202,
      "ĠMaking": 7203,
      "ĠGood": 7204,
      "Ġshears": 7205,
      "shaped": 7206,
      "Ġreliable": 7207,
      "Ġgrounds": 7208,
      "Ġbutterf": 7209,
      "Ġcritical": 7210,
      "Ġtu": 7211,
      "Ġdye": 7212,
      "Ġeurope": 7213,
      "Ġbee": 7214,
      "Ġheal": 7215,
      "ĠMon": 7216,
      "Ġdisappe": 7217,
      "Ġjoy": 7218,
      "inese": 7219,
      "Ġtreatments": 7220,
      "Ġprotected": 7221,
      "ĠChange": 7222,
      "apple": 7223,
      "Ġscrat": 7224,
      "Ġpedal": 7225,
      "Ġhttp": 7226,
      "Ġsupplement": 7227,
      "Ġvitamins": 7228,
      "ystem": 7229,
      "craft": 7230,
      "Ġdvd": 7231,
      "Ġtoddler": 7232,
      "known": 7233,
      "ael": 7234,
      "lus": 7235,
      "Ġgolf": 7236,
      "Ġnom": 7237,
      "irrel": 7238,
      "Ġunlock": 7239,
      "Ġslot": 7240,
      "ysis": 7241,
      "Ġguarant": 7242,
      "Ġdiarrhea": 7243,
      "Ġprocessing": 7244,
      "arnish": 7245,
      "Ġpercentage": 7246,
      "Ġpantry": 7247,
      "Ġspatula": 7248,
      "Ġwarr": 7249,
      "Ġpup": 7250,
      "Ġfountain": 7251,
      "Ġnine": 7252,
      "Ġchase": 7253,
      "ossible": 7254,
      "Ġsubscri": 7255,
      "45": 7256,
      "Ġbrist": 7257,
      "asant": 7258,
      "ĠTest": 7259,
      "Ġshiny": 7260,
      "Ġsust": 7261,
      "Ġrash": 7262,
      "Ġadvent": 7263,
      "Ġscent": 7264,
      "Ġcolander": 7265,
      "Ġavoc": 7266,
      "Ġmelting": 7267,
      "Ġjudgment": 7268,
      "Ġhiking": 7269,
      "ĠCalifornia": 7270,
      "abetes": 7271,
      "Ġabsolutely": 7272,
      "aming": 7273,
      "ĠTheir": 7274,
      "opy": 7275,
      "Ġdefe": 7276,
      "ĠOff": 7277,
      "Ġregulations": 7278,
      "Ġdecided": 7279,
      "Ġweekend": 7280,
      "going": 7281,
      "Ġfrequent": 7282,
      "ĠAccording": 7283,
      "Ġvomiting": 7284,
      "Ġfencing": 7285,
      "Ġdismounts": 7286,
      "Ġmotorcycle": 7287,
      "face": 7288,
      "high": 7289,
      "Ġsile": 7290,
      "ici": 7291,
      "Ġnarr": 7292,
      "Ġcanoe": 7293,
      "Ġchasing": 7294,
      "ĠDry": 7295,
      "Ġflood": 7296,
      "Ġdischarge": 7297,
      "ogs": 7298,
      "Ġconsists": 7299,
      "Ġbattle": 7300,
      "screw": 7301,
      "Ġsongs": 7302,
      "Ġ->": 7303,
      "Ġdiscover": 7304,
      "Ġstunts": 7305,
      "Ġberries": 7306,
      "Ġfluffy": 7307,
      "Ġtrampoline": 7308,
      "ĠTexas": 7309,
      "Ġunne": 7310,
      "Ġ360": 7311,
      "Ġplot": 7312,
      "Ġmex": 7313,
      "Ġtraits": 7314,
      "Ġdepart": 7315,
      "Ġmeasured": 7316,
      "ĠChrist": 7317,
      "Ġportions": 7318,
      "Ġcreates": 7319,
      "Ġpowdered": 7320,
      "Ġrepresentative": 7321,
      "Ġarrows": 7322,
      "Ġabdomen": 7323,
      "Ġreven": 7324,
      "Ġunion": 7325,
      "unt": 7326,
      "Ġdisk": 7327,
      "Ġdisability": 7328,
      "Ġtrained": 7329,
      "Ġweekly": 7330,
      "Ġconsidering": 7331,
      "Ġsticker": 7332,
      "Ġrealistic": 7333,
      "Ġspraying": 7334,
      "Ġstretches": 7335,
      "Ġcitizen": 7336,
      "Ġresidue": 7337,
      "Ġscientific": 7338,
      "Ġmuseum": 7339,
      "Ġhidden": 7340,
      "ĠStop": 7341,
      "Ġicing": 7342,
      "Ġpromote": 7343,
      "Ġdivide": 7344,
      "Ġbanana": 7345,
      "Ġdedic": 7346,
      "oul": 7347,
      "Ġtoast": 7348,
      "Ġdies": 7349,
      "Ġshing": 7350,
      "Ġheated": 7351,
      "emp": 7352,
      "Ġdiscount": 7353,
      "Ġbowling": 7354,
      "Ġtransact": 7355,
      "Ġlandsc": 7356,
      "Ġspeaker": 7357,
      "Ġrouter": 7358,
      "Ġenjoying": 7359,
      "Ġdiagnose": 7360,
      "Ġrepeatedly": 7361,
      "ifferent": 7362,
      "lar": 7363,
      "yn": 7364,
      "igor": 7365,
      "ĠAf": 7366,
      "ĠFam": 7367,
      "Ġcompass": 7368,
      "Ġbother": 7369,
      "Ġregions": 7370,
      "ĠUnivers": 7371,
      "Ġnegot": 7372,
      "Ġintroduction": 7373,
      "Ġbounce": 7374,
      "Ġtransportation": 7375,
      "Ġadvertising": 7376,
      "Ġevaluate": 7377,
      "Ġinfluence": 7378,
      "Ġbunch": 7379,
      "Ġramp": 7380,
      "Ġrob": 7381,
      "ĠEst": 7382,
      "Ġinstant": 7383,
      "Ġextend": 7384,
      "Ġfiling": 7385,
      "Ġmarked": 7386,
      "Ġmembership": 7387,
      "Ġpenal": 7388,
      "Ġfloat": 7389,
      "fiber": 7390,
      "Ġunwanted": 7391,
      "BA": 7392,
      "Ġfant": 7393,
      "Ġmur": 7394,
      "verages": 7395,
      "Ġstiff": 7396,
      "ĠSam": 7397,
      "Ġvital": 7398,
      "ĠMen": 7399,
      "Ġprepares": 7400,
      "Ġliquor": 7401,
      "Ġclaps": 7402,
      "Ġdarker": 7403,
      "Ġlemonade": 7404,
      "Ġillust": 7405,
      "Ġreplacement": 7406,
      "Ġdollars": 7407,
      "Ġtemporary": 7408,
      "ĠCourt": 7409,
      "but": 7410,
      "mption": 7411,
      "rs": 7412,
      "agn": 7413,
      "iveness": 7414,
      "Ġloans": 7415,
      "Ġpeas": 7416,
      "grade": 7417,
      "Ġjoints": 7418,
      "Ġdesignated": 7419,
      "Ġclaws": 7420,
      "Ġrisks": 7421,
      "namon": 7422,
      "Ġsmells": 7423,
      "ikely": 7424,
      "Ġrecipient": 7425,
      "Ġfatigue": 7426,
      "ola": 7427,
      "anes": 7428,
      "Ġder": 7429,
      "ĠSk": 7430,
      "Ġvapor": 7431,
      "ĠCong": 7432,
      "Ġwoods": 7433,
      "bees": 7434,
      "Ġconcert": 7435,
      "Ġcrun": 7436,
      "Ġfolded": 7437,
      "Ġholidays": 7438,
      "bla": 7439,
      "Ġbroom": 7440,
      "Ġhell": 7441,
      "Ġchin": 7442,
      "Ġblower": 7443,
      "Ġsliding": 7444,
      "Ġbarr": 7445,
      "Ġrespir": 7446,
      "Ġphysician": 7447,
      "Ġapproved": 7448,
      "Ġaffects": 7449,
      "Ġdomain": 7450,
      "Ġsaved": 7451,
      "Ġprescription": 7452,
      "Ġtbs": 7453,
      "onic": 7454,
      "Ġhiring": 7455,
      "rable": 7456,
      "Ġperspective": 7457,
      "ĠGently": 7458,
      "Ġextreme": 7459,
      "Ġpreparation": 7460,
      "Ġbites": 7461,
      "Ġwik": 7462,
      "Ġtablet": 7463,
      "iana": 7464,
      "Ġtreating": 7465,
      "Ġmoderate": 7466,
      "Ġvitamin": 7467,
      "Ġventil": 7468,
      "Ġnursery": 7469,
      "eal": 7470,
      "Ġinput": 7471,
      "Ġresource": 7472,
      "amic": 7473,
      "Ġspider": 7474,
      "Ġcope": 7475,
      "Ġcopper": 7476,
      "Ġcourts": 7477,
      "Ġconstruct": 7478,
      "ĠExamine": 7479,
      "Ġwashington": 7480,
      "ĠPlant": 7481,
      "Ġdecorating": 7482,
      "valent": 7483,
      "tml": 7484,
      "Ġfats": 7485,
      "hose": 7486,
      "Ġsuits": 7487,
      "Ġrip": 7488,
      "Ġupload": 7489,
      "Ġperoxide": 7490,
      "Ġinvite": 7491,
      "Ġsquirrel": 7492,
      "Ġcenters": 7493,
      "Ġmagic": 7494,
      "Ġscrubbing": 7495,
      "Ġsadness": 7496,
      "Ġinflammation": 7497,
      "da": 7498,
      "Ġpic": 7499,
      "Ġstap": 7500,
      "uration": 7501,
      "Ġconference": 7502,
      "Ġposes": 7503,
      "losure": 7504,
      "Ġdistrict": 7505,
      "Ġavoiding": 7506,
      "Ġconcept": 7507,
      "Ġhalfway": 7508,
      "Ġdeeper": 7509,
      "Ġassociate": 7510,
      "Ġstrengthen": 7511,
      "Ġsuffer": 7512,
      "Ġfailure": 7513,
      "Ġpolitical": 7514,
      "Ġacademic": 7515,
      "22": 7516,
      "bra": 7517,
      "cue": 7518,
      "wide": 7519,
      "Ġshred": 7520,
      "Ġscri": 7521,
      "Ġproduces": 7522,
      "Ġbelie": 7523,
      "Ġhappening": 7524,
      "Ġprofit": 7525,
      "Ġpointed": 7526,
      "Ġfocusing": 7527,
      "Ġoperate": 7528,
      "Ġshadow": 7529,
      "Ġunlikely": 7530,
      "Ġorgans": 7531,
      "alf": 7532,
      "Ġvaries": 7533,
      "ĠMex": 7534,
      "Ġarrest": 7535,
      "Ġbubble": 7536,
      "Ġcheek": 7537,
      "Ġafterno": 7538,
      "Ġwashcloth": 7539,
      "Ġreducing": 7540,
      "ĠExpla": 7541,
      "Ġchairs": 7542,
      "Ġintroduced": 7543,
      "Ġbind": 7544,
      "Ġtoxic": 7545,
      "Ġdoub": 7546,
      "elp": 7547,
      "Ġnation": 7548,
      "agram": 7549,
      "umbs": 7550,
      "ĠMoon": 7551,
      "ĠDiv": 7552,
      "ĠBre": 7553,
      "Ġshed": 7554,
      "Ġbarn": 7555,
      "Ġbabies": 7556,
      "Ġreaching": 7557,
      "Ġtrainer": 7558,
      "Ġwrestle": 7559,
      "Ġattractive": 7560,
      "what": 7561,
      "Ġexhib": 7562,
      "ĠRoll": 7563,
      "Ġmechanical": 7564,
      "Ġallergies": 7565,
      "Ġreputable": 7566,
      "35": 7567,
      "tr": 7568,
      "ĠPart": 7569,
      "Ġenem": 7570,
      "Ġdifferences": 7571,
      "Ġinstalling": 7572,
      "Ġbeneficial": 7573,
      "Ġ2007": 7574,
      "Ġlinked": 7575,
      "Ġgraduate": 7576,
      "Ġregardless": 7577,
      "Ġbounces": 7578,
      "Ġbeauty": 7579,
      "_{": 7580,
      "bac": 7581,
      "Ġos": 7582,
      "Ġmamm": 7583,
      "Ġthumbs": 7584,
      "Ġreached": 7585,
      "ĠWrap": 7586,
      "ĠFI": 7587,
      "Ġflowing": 7588,
      "Ġpaw": 7589,
      "Ġchew": 7590,
      "tenance": 7591,
      "Ġplanted": 7592,
      "Ġretire": 7593,
      "Ġurl": 7594,
      "ĠSmall": 7595,
      "Ġcounselor": 7596,
      "spring": 7597,
      "Ġvaluable": 7598,
      "erto": 7599,
      "Ġsour": 7600,
      "Ġlef": 7601,
      "Ġadm": 7602,
      "Ġads": 7603,
      "ĠUp": 7604,
      "Ġblu": 7605,
      "Ġsax": 7606,
      "Ġcrash": 7607,
      "Ġexterior": 7608,
      "Ġhalves": 7609,
      "Ġremover": 7610,
      "Ġcooling": 7611,
      "Ġbulk": 7612,
      "Ġgallons": 7613,
      "Ġsessions": 7614,
      "irginia": 7615,
      "Ġsouthern": 7616,
      "Ġcinnamon": 7617,
      "spe": 7618,
      "Ġsister": 7619,
      "agon": 7620,
      "Ġroses": 7621,
      "Ġlamp": 7622,
      "ĠIntern": 7623,
      "Ġsquat": 7624,
      "Ġgardening": 7625,
      "Ġcatching": 7626,
      "Ġprimarily": 7627,
      "Ġjunk": 7628,
      "Ġoriginally": 7629,
      "Ġgauge": 7630,
      "Ġcav": 7631,
      "Ġbon": 7632,
      "Ġow": 7633,
      "Ġalt": 7634,
      "Ġappla": 7635,
      "Ġpod": 7636,
      "Ġraising": 7637,
      "Ġmineral": 7638,
      "Ġsubt": 7639,
      "Ġelbow": 7640,
      "Ġreasonable": 7641,
      "Ġ70": 7642,
      "ĠPeel": 7643,
      "Ġadjusts": 7644,
      "Ġsubjects": 7645,
      "Ġlaughs": 7646,
      "Ġmagnetic": 7647,
      "Ġdollar": 7648,
      "Ġmagazines": 7649,
      "Ġsociety": 7650,
      "Ġtbsp": 7651,
      "Ġpitch": 7652,
      "Ġya": 7653,
      "Ġhay": 7654,
      "Ġrein": 7655,
      "Ġstories": 7656,
      "utch": 7657,
      "hos": 7658,
      "Ġchannel": 7659,
      "Ġunu": 7660,
      "Ġskates": 7661,
      "anks": 7662,
      "Ġpanic": 7663,
      "Ġblended": 7664,
      "Ġmaintaining": 7665,
      "Ġcritic": 7666,
      "Ġdetermining": 7667,
      "Ġutility": 7668,
      "Ġgalaxy": 7669,
      "Ġsenior": 7670,
      "ythm": 7671,
      "Ġshuffle": 7672,
      "Ġunnecess": 7673,
      "tage": 7674,
      "year": 7675,
      "Ġsor": 7676,
      "Ġske": 7677,
      "Ġwool": 7678,
      "Ġpom": 7679,
      "Ġcontam": 7680,
      "Ġcontribute": 7681,
      "Ġdose": 7682,
      "Ġglove": 7683,
      "Ġrelief": 7684,
      "Ġmembr": 7685,
      "Ġmeetings": 7686,
      "Ġdelivery": 7687,
      "Ġparrot": 7688,
      "cont": 7689,
      "cour": 7690,
      "iant": 7691,
      "long": 7692,
      "town": 7693,
      "Ġtren": 7694,
      "Ġsam": 7695,
      "Ġdum": 7696,
      "enty": 7697,
      "Ġord": 7698,
      "ĠMet": 7699,
      "ĠBest": 7700,
      "ĠEmp": 7701,
      "Ġcheaper": 7702,
      "Ġattitude": 7703,
      "Ġhealthier": 7704,
      "Ġrelaxing": 7705,
      "Ġvolunteer": 7706,
      "fla": 7707,
      "ila": 7708,
      "Ġtack": 7709,
      "Ġtread": 7710,
      "Ġinex": 7711,
      "Ġlumps": 7712,
      "Ġlined": 7713,
      "ensation": 7714,
      "ĠAg": 7715,
      "Ġkits": 7716,
      "ĠWashing": 7717,
      "Ġhandy": 7718,
      "arest": 7719,
      "loc": 7720,
      "ĠStick": 7721,
      "Ġformation": 7722,
      "Ġpaintball": 7723,
      "Ġpops": 7724,
      "Ġpubl": 7725,
      "Ġmemor": 7726,
      "Ġ80": 7727,
      "naments": 7728,
      "which": 7729,
      "Ġparticipate": 7730,
      "lined": 7731,
      "hett": 7732,
      "andom": 7733,
      "rum": 7734,
      "Ġchap": 7735,
      "reness": 7736,
      "Ġbackup": 7737,
      "velope": 7738,
      "Ġdiabetes": 7739,
      "Ġsweater": 7740,
      "plant": 7741,
      "Ġspecialized": 7742,
      "Ġconstit": 7743,
      "Ġfluids": 7744,
      "Ġsubstances": 7745,
      "Ġharmful": 7746,
      "ĠSprinkle": 7747,
      "nic": 7748,
      "itors": 7749,
      "ĠAng": 7750,
      "ĠWho": 7751,
      "Ġclar": 7752,
      "Ġclubs": 7753,
      "Ġskirt": 7754,
      "Ġpray": 7755,
      "Ġagg": 7756,
      "ĠNavigate": 7757,
      "Ġdram": 7758,
      "Ġgenetic": 7759,
      "Ġcertification": 7760,
      "ĠKeeping": 7761,
      "Ġfocuses": 7762,
      "Ġrecorded": 7763,
      "inyl": 7764,
      "Ġrevol": 7765,
      "Ġpharmacy": 7766,
      "Ġcentimeters": 7767,
      "ĠAssess": 7768,
      "Ġfalse": 7769,
      "Ġafternoon": 7770,
      "14": 7771,
      "how": 7772,
      "iat": 7773,
      "Ġacknow": 7774,
      "erves": 7775,
      "ĠPush": 7776,
      "osion": 7777,
      "Ġtimer": 7778,
      "Ġcarn": 7779,
      "ario": 7780,
      "Ġcardio": 7781,
      "Ġcooks": 7782,
      "Ġwireless": 7783,
      "Ġdiscussion": 7784,
      "Ġscenes": 7785,
      "Ġincorporate": 7786,
      "ĠBlack": 7787,
      "Ġribs": 7788,
      "Ġnausea": 7789,
      "aver": 7790,
      "fire": 7791,
      "tra": 7792,
      "Ġtheat": 7793,
      "Ġbows": 7794,
      "Ġpud": 7795,
      "ĠTreat": 7796,
      "imeter": 7797,
      "ĠSub": 7798,
      "ĠLog": 7799,
      "Ġmusical": 7800,
      "Ġradiation": 7801,
      "Ġcorporation": 7802,
      "lig": 7803,
      "Ġll": 7804,
      "Ġbonds": 7805,
      "ĠHer": 7806,
      "Ġgrate": 7807,
      "Ġoverly": 7808,
      "ichael": 7809,
      "grad": 7810,
      "Ġguest": 7811,
      "Ġorganism": 7812,
      "Ġdefined": 7813,
      "Ġgarment": 7814,
      "Ġlearned": 7815,
      "Ġwriter": 7816,
      "Ġfrisbees": 7817,
      "Ġentertainment": 7818,
      "Ġdeposit": 7819,
      "Ġchickens": 7820,
      "mint": 7821,
      "rant": 7822,
      "writ": 7823,
      "left": 7824,
      "arse": 7825,
      "Ġgathered": 7826,
      "Ġfry": 7827,
      "Ġalph": 7828,
      "ĠFold": 7829,
      "ĠDifferent": 7830,
      "ĠOld": 7831,
      "phas": 7832,
      "rica": 7833,
      "Ġeditor": 7834,
      "Ġroads": 7835,
      "ĠBuild": 7836,
      "Ġcheerlead": 7837,
      "Ġsiblings": 7838,
      "Ġcontrast": 7839,
      "onnect": 7840,
      "Ġbay": 7841,
      "Ġfoss": 7842,
      "ara": 7843,
      "Ġenvelope": 7844,
      "Ġdisney": 7845,
      "Ġsliced": 7846,
      "uba": 7847,
      "Ġinspect": 7848,
      "lantic": 7849,
      "Ġson": 7850,
      "Ġwand": 7851,
      "Ġwel": 7852,
      "stru": 7853,
      "ĠAb": 7854,
      "Ġleak": 7855,
      "Ġliz": 7856,
      "ĠDef": 7857,
      "Ġcompress": 7858,
      "Ġ2012": 7859,
      "fortun": 7860,
      "Ġrequirement": 7861,
      "Ġqualities": 7862,
      "Ġdeeply": 7863,
      "Ġtrusted": 7864,
      "Ġsuffering": 7865,
      "Ġboundaries": 7866,
      "Ġrestrictions": 7867,
      "Ġconflict": 7868,
      "ĠCongress": 7869,
      "Ġlefto": 7870,
      "rams": 7871,
      "Ġpipes": 7872,
      "Ġoh": 7873,
      "Ġcontext": 7874,
      "Ġfrying": 7875,
      "iped": 7876,
      "unction": 7877,
      "Ġcoating": 7878,
      "Ġcurls": 7879,
      "ccoli": 7880,
      "Ġdefense": 7881,
      "Ġbananas": 7882,
      "Ġstrengths": 7883,
      "Ġstruggling": 7884,
      "Ġgerms": 7885,
      "Ġblinds": 7886,
      "Ġdashboard": 7887,
      "Ġcompliment": 7888,
      "Ġfraud": 7889,
      "mun": 7890,
      "pre": 7891,
      "vings": 7892,
      "Ġcel": 7893,
      "Ġwaving": 7894,
      "Ġdives": 7895,
      "llig": 7896,
      "oose": 7897,
      "Ġloses": 7898,
      "ensing": 7899,
      "Ġsem": 7900,
      "Ġkg": 7901,
      "Ġrus": 7902,
      "ormal": 7903,
      "Ġbugs": 7904,
      "Ġprone": 7905,
      "Ġimpossible": 7906,
      "Ġsimmer": 7907,
      "Ġsubmer": 7908,
      "Ġeaten": 7909,
      "Ġcompleting": 7910,
      "Ġirritation": 7911,
      "Ġprompted": 7912,
      "Ġshrimp": 7913,
      "bacco": 7914,
      "kers": 7915,
      "mat": 7916,
      "Ġuk": 7917,
      "Ġmos": 7918,
      "Ġjam": 7919,
      "Ġspine": 7920,
      "ĠMc": 7921,
      "this": 7922,
      "ictional": 7923,
      "Ġmaintenance": 7924,
      "Ġreduced": 7925,
      "ophone": 7926,
      "Ġpineapple": 7927,
      "Ġcaffeine": 7928,
      "Ġfart": 7929,
      "also": 7930,
      "ilarly": 7931,
      "Ġspent": 7932,
      "gines": 7933,
      "Ġreplay": 7934,
      "Ġwonder": 7935,
      "Ġcapable": 7936,
      "Ġpicked": 7937,
      "Ġaccepted": 7938,
      "apanese": 7939,
      "ĠFIFA": 7940,
      "Ġunnecessary": 7941,
      "Ġpra": 7942,
      "Ġox": 7943,
      "organ": 7944,
      "alous": 7945,
      "Ġstoring": 7946,
      "urb": 7947,
      "Ġchill": 7948,
      "Ġboats": 7949,
      "Ġworn": 7950,
      "bert": 7951,
      "Ġattending": 7952,
      "Ġprocesses": 7953,
      "Ġtermin": 7954,
      "Ġseparated": 7955,
      "Ġconsumption": 7956,
      "Ġalternate": 7957,
      "ermany": 7958,
      "Ġreligion": 7959,
      "pace": 7960,
      "vi": 7961,
      "heast": 7962,
      "Ġdorm": 7963,
      "ĠAustralia": 7964,
      "Ġrandom": 7965,
      "Ġuniverse": 7966,
      "ĠPosition": 7967,
      "Ġlob": 7968,
      "Ġjoins": 7969,
      "Ġpurse": 7970,
      "Ġintro": 7971,
      "Ġterr": 7972,
      "Ġcraw": 7973,
      "Ġ150": 7974,
      "Ġheavier": 7975,
      "Ġcandles": 7976,
      "Ġhydrated": 7977,
      "Ġprinted": 7978,
      "Ġfrustrated": 7979,
      "Ġrecycling": 7980,
      "Ġcylinder": 7981,
      "Ġsi": 7982,
      "Ġtower": 7983,
      "Ġgifts": 7984,
      "Ġsomewhat": 7985,
      "Ġperm": 7986,
      "ĠWhatever": 7987,
      "Ġpreserve": 7988,
      "Ġsolutions": 7989,
      "Ġstrap": 7990,
      "Ġsupports": 7991,
      "Ġswims": 7992,
      "Ġreturning": 7993,
      "Ġfreed": 7994,
      "Ġconditioner": 7995,
      "Ġexcessive": 7996,
      "Ġalbum": 7997,
      "Ġtrophy": 7998,
      "ĠExplain": 7999,
      "Ġdull": 8000,
      "Ġbean": 8001,
      "Ġadhesive": 8002,
      "overed": 8003,
      "ĠNet": 8004,
      "Ġsurvey": 8005,
      "Ġappeal": 8006,
      "Ġbiggest": 8007,
      "Ġclap": 8008,
      "Ġcopies": 8009,
      "Ġdownloaded": 8010,
      "Ġacceptable": 8011,
      "Ġcabinets": 8012,
      "Ġhyper": 8013,
      "Ġtournament": 8014,
      "Ġprune": 8015,
      "Ġfaith": 8016,
      "otes": 8017,
      "anta": 8018,
      "Ġvul": 8019,
      "ĠPen": 8020,
      "ĠFed": 8021,
      "Ġowned": 8022,
      "Ġhunt": 8023,
      "Ġcowork": 8024,
      "Ġrhythm": 8025,
      "Ġathletes": 8026,
      "Ġmutual": 8027,
      "Ġwider": 8028,
      "Ġnavigate": 8029,
      "road": 8030,
      "ĠTaking": 8031,
      "Ġengines": 8032,
      "Ġposture": 8033,
      "Ġsuitcase": 8034,
      "Ġlanguages": 8035,
      "Ġjealous": 8036,
      "ĠDrink": 8037,
      "Ġassignment": 8038,
      "Ġresistance": 8039,
      "Ġpelv": 8040,
      "ouis": 8041,
      "Ġsug": 8042,
      "Ġnearest": 8043,
      "Ġvel": 8044,
      "Ġ23": 8045,
      "ĠEl": 8046,
      "Ġmint": 8047,
      "Ġdirector": 8048,
      "Ġpushed": 8049,
      "Ġopposed": 8050,
      "Ġaffection": 8051,
      "Ġemotion": 8052,
      "Ġbroadcast": 8053,
      "Ġstimul": 8054,
      "install": 8055,
      "part": 8056,
      "agus": 8057,
      "uted": 8058,
      "Ġcontribut": 8059,
      "Ġvinyl": 8060,
      "ĠPa": 8061,
      "Ġconsequ": 8062,
      "Ġacqu": 8063,
      "Ġheadache": 8064,
      "Ġaccord": 8065,
      "Ġalongside": 8066,
      "Ġmarkets": 8067,
      "Ġsymptom": 8068,
      "Ġwestern": 8069,
      "Ġreligious": 8070,
      "Ġrespiratory": 8071,
      "Ġsaxophone": 8072,
      "Ġcables": 8073,
      "Ġjer": 8074,
      "Ġprison": 8075,
      "Ġchef": 8076,
      "Ġslight": 8077,
      "Ġresort": 8078,
      "Ġcaul": 8079,
      "Ġconfusion": 8080,
      "Ġfactory": 8081,
      "Ġbroccoli": 8082,
      "Ġbands": 8083,
      "Ġskateboarding": 8084,
      "Ġspreadsheet": 8085,
      "Ġrenewed": 8086,
      "bor": 8087,
      "ham": 8088,
      "wor": 8089,
      "Ġpanc": 8090,
      "Ġstages": 8091,
      "Ġvault": 8092,
      "Ġchip": 8093,
      "Ġdisable": 8094,
      "Ġtract": 8095,
      "Ġdivers": 8096,
      "Ġconfront": 8097,
      "Ġskype": 8098,
      "Ġhurric": 8099,
      "amboo": 8100,
      "Ġexecutive": 8101,
      "Ġdiploma": 8102,
      "pres": 8103,
      "itz": 8104,
      "Ġdense": 8105,
      "aghett": 8106,
      "Ġsees": 8107,
      "ĠCr": 8108,
      "Ġclutter": 8109,
      "Ġusage": 8110,
      "Ġenh": 8111,
      "Ġcoin": 8112,
      "Ġappet": 8113,
      "Ġinstagram": 8114,
      "Ġinterfe": 8115,
      "Ġsweating": 8116,
      "Ġdesigns": 8117,
      "Ġdiscol": 8118,
      "ĠWithout": 8119,
      "Ġkilling": 8120,
      "Ġdetermined": 8121,
      "ĠFebruary": 8122,
      "esterol": 8123,
      "Ġmartial": 8124,
      "aghetti": 8125,
      "range": 8126,
      "Ġft": 8127,
      "Ġbeverage": 8128,
      "Ġalive": 8129,
      "Ġcompar": 8130,
      "ĠLim": 8131,
      "berg": 8132,
      "Ġbubbles": 8133,
      "Ġracing": 8134,
      "ĠAnt": 8135,
      "Ġintellig": 8136,
      "Ġwarmth": 8137,
      "Ġpreventing": 8138,
      "plug": 8139,
      "Ġgoalie": 8140,
      "Ġdivision": 8141,
      "Ġ180": 8142,
      "ĠPerhaps": 8143,
      "Ġstrategy": 8144,
      "Ġfeathers": 8145,
      "Ġapplaud": 8146,
      "mar": 8147,
      "eration": 8148,
      "itations": 8149,
      "Ġpil": 8150,
      "secut": 8151,
      "ifting": 8152,
      "Ġrely": 8153,
      "Ġchalk": 8154,
      "Ġjet": 8155,
      "abol": 8156,
      "Ġtraum": 8157,
      "ĠStar": 8158,
      "Ġproducing": 8159,
      "Ġpossibility": 8160,
      "Ġintent": 8161,
      "Ġpatches": 8162,
      "Ġinterviews": 8163,
      "Ġdomestic": 8164,
      "Ġnitrogen": 8165,
      "80": 8166,
      "bl": 8167,
      "whe": 8168,
      "Ġmice": 8169,
      "Ġmast": 8170,
      "org": 8171,
      "Ġutens": 8172,
      "Ġresu": 8173,
      "Ġcomponent": 8174,
      "Ġattacks": 8175,
      "Ġbasics": 8176,
      "Ġcrisp": 8177,
      "boarding": 8178,
      "Ġdispute": 8179,
      "Ġjuices": 8180,
      "Ġvert": 8181,
      "ĠDiscuss": 8182,
      "Ġfarmer": 8183,
      "mbly": 8184,
      "aughter": 8185,
      "Ġsurrounded": 8186,
      "Ġleafy": 8187,
      "Ġpunish": 8188,
      "Ġzoom": 8189,
      "Ġboredom": 8190,
      "reland": 8191,
      "Ġsending": 8192,
      "Ġmassage": 8193,
      "Ġlane": 8194,
      "Ġreverse": 8195,
      "Ġnoticed": 8196,
      "Ġtwenty": 8197,
      "Ġunderlying": 8198,
      "Ġgenu": 8199,
      "ĠUnlike": 8200,
      "Ġmoments": 8201,
      "Ġcelebrating": 8202,
      "Ġtaller": 8203,
      "Ġgymnastics": 8204,
      "Ġspirit": 8205,
      "Ġsibling": 8206,
      "Ġmexico": 8207,
      "fold": 8208,
      "lest": 8209,
      "pts": 8210,
      "vable": 8211,
      "Ġharsh": 8212,
      "Ġstair": 8213,
      "ĠIreland": 8214,
      "Ġspaghetti": 8215,
      "ĠBow": 8216,
      "Ġblond": 8217,
      "Ġrac": 8218,
      "Ġboxing": 8219,
      "Ġcentury": 8220,
      "Ġinfo": 8221,
      "Ġcrucial": 8222,
      "Ġdropping": 8223,
      "Ġratio": 8224,
      "Ġplatforms": 8225,
      "Ġmerch": 8226,
      "isl": 8227,
      "Ġbeverages": 8228,
      "Ġforces": 8229,
      "Ġframes": 8230,
      "ppings": 8231,
      "lence": 8232,
      "well": 8233,
      "Ġheadphones": 8234,
      "Ġflame": 8235,
      "Ġaddresses": 8236,
      "Ġcontrolled": 8237,
      "Ġstainless": 8238,
      "Ġguns": 8239,
      "ĠSlide": 8240,
      "Ġscraper": 8241,
      "Ġodor": 8242,
      "Ġstroke": 8243,
      "Ġcricket": 8244,
      "Ġdedicated": 8245,
      "mond": 8246,
      "sor": 8247,
      "warm": 8248,
      "wash": 8249,
      "Â°": 8250,
      "Ġcham": 8251,
      "isters": 8252,
      "Ġwaterfall": 8253,
      "ĠDrain": 8254,
      "Ġteas": 8255,
      "Ġdisapp": 8256,
      "abil": 8257,
      "Ġtwe": 8258,
      "Ġsanding": 8259,
      "Ġtested": 8260,
      "Ġbitter": 8261,
      "aska": 8262,
      "Ġtorn": 8263,
      "Ġwidely": 8264,
      "Ġsuggestion": 8265,
      "Ġbouncing": 8266,
      "Ġviewers": 8267,
      "bows": 8268,
      "ona": 8269,
      "Ġpestic": 8270,
      "Ġnavig": 8271,
      "Ġreb": 8272,
      "sus": 8273,
      "Ġran": 8274,
      "Ġ35": 8275,
      "Ġwanting": 8276,
      "ĠObs": 8277,
      "Ġseeking": 8278,
      "Ġbrow": 8279,
      "teen": 8280,
      "Ġcolon": 8281,
      "Ġquit": 8282,
      "Ġtried": 8283,
      "Ġspecialist": 8284,
      "Ġburns": 8285,
      "Ġvacuums": 8286,
      "Ġscrubs": 8287,
      "ĠSlice": 8288,
      "oned": 8289,
      "Ġdock": 8290,
      "ĠBeat": 8291,
      "Ġinterv": 8292,
      "althy": 8293,
      "Ġstandards": 8294,
      "Ġcalculator": 8295,
      "Ġfloating": 8296,
      "Ġavocado": 8297,
      "Ġwarning": 8298,
      "Ġpony": 8299,
      "Ġfist": 8300,
      "Ġtoll": 8301,
      "Ġsteep": 8302,
      "Ġcancel": 8303,
      "Ġshall": 8304,
      "Ġjaw": 8305,
      "Ġaddiction": 8306,
      "Ġchees": 8307,
      "Ġballoon": 8308,
      "Ġheading": 8309,
      "Ġobjective": 8310,
      "Ġsupported": 8311,
      "ĠChar": 8312,
      "Ġnoticeable": 8313,
      "Ġscheduled": 8314,
      "Ġturtle": 8315,
      "Ġveterinary": 8316,
      "Ġduct": 8317,
      "Ġreplacing": 8318,
      "Ġadvertis": 8319,
      "Ġshells": 8320,
      "Ġbreasts": 8321,
      "Ġathletic": 8322,
      "fortunately": 8323,
      "fa": 8324,
      "eramic": 8325,
      "Ġtobacco": 8326,
      "Ġacids": 8327,
      "Ġprey": 8328,
      "ildren": 8329,
      "Ġinstit": 8330,
      "Ġmotions": 8331,
      "Ġreset": 8332,
      "Ġ2009": 8333,
      "Ġdelicate": 8334,
      "ĠDisney": 8335,
      "Ġfrustration": 8336,
      "Ġtitles": 8337,
      "Ġbending": 8338,
      "Ġthous": 8339,
      "Ġcoal": 8340,
      "Ġdisag": 8341,
      "Ġwalked": 8342,
      "Ġcrown": 8343,
      "Ġsignals": 8344,
      "Ġdirectory": 8345,
      "Ġbrace": 8346,
      "Ġseller": 8347,
      "Ġopera": 8348,
      "ĠPlus": 8349,
      "Ġmicrofiber": 8350,
      "Ġbarrier": 8351,
      "Ġscript": 8352,
      "card": 8353,
      "corn": 8354,
      "kward": 8355,
      "Ġfictional": 8356,
      "uls": 8357,
      "Ġshar": 8358,
      "rav": 8359,
      "Ġheel": 8360,
      "Ġsocket": 8361,
      "ĠMiss": 8362,
      "ĠDouble": 8363,
      "Ġoffspring": 8364,
      "abilities": 8365,
      "ansas": 8366,
      "Ġcorresp": 8367,
      "Ġsprink": 8368,
      "Ġawkward": 8369,
      "Ġdissolved": 8370,
      "gae": 8371,
      "Ġcupcake": 8372,
      "Ġbamboo": 8373,
      "Ġpiles": 8374,
      "Ġoral": 8375,
      "ĠII": 8376,
      "Ġdoctors": 8377,
      "Ġuns": 8378,
      "Ġdeals": 8379,
      "ĠMain": 8380,
      "Ġenforce": 8381,
      "Ġcalorie": 8382,
      "Ġchol": 8383,
      "Ġconfused": 8384,
      "atural": 8385,
      "Ġlengthwise": 8386,
      "Ġanxious": 8387,
      "ophy": 8388,
      "Ġstruggle": 8389,
      "Ġmallet": 8390,
      "Ġcocktail": 8391,
      "Ġspectators": 8392,
      "Ġcloves": 8393,
      "Ġheels": 8394,
      "Ġcombs": 8395,
      "Ġlies": 8396,
      "ĠBen": 8397,
      "Ġconsul": 8398,
      "Ġemphas": 8399,
      "Ġsetup": 8400,
      "Ġaccum": 8401,
      "Ġtoolbar": 8402,
      "Ġengland": 8403,
      "Ġpuff": 8404,
      "Ġmounts": 8405,
      "Ġenvironmental": 8406,
      "ĠOrgan": 8407,
      "Ġsaddle": 8408,
      "Ġcapture": 8409,
      "Ġabdominal": 8410,
      "ĠAttach": 8411,
      "ĠExamples": 8412,
      "with": 8413,
      "infect": 8414,
      "Ġcages": 8415,
      "lly": 8416,
      "igration": 8417,
      "Ġchi": 8418,
      "Ġscuba": 8419,
      "ĠLa": 8420,
      "ĠGreen": 8421,
      "Ġblot": 8422,
      "Ġamb": 8423,
      "Ġexpose": 8424,
      "Ġairline": 8425,
      "Ġdealer": 8426,
      "ography": 8427,
      "Ġadministration": 8428,
      "Ġtunnel": 8429,
      "Ġdumbb": 8430,
      "Ġcholesterol": 8431,
      "burn": 8432,
      "Ġsung": 8433,
      "Ġairpl": 8434,
      "Ġconsuming": 8435,
      "Ġdistracted": 8436,
      "Ġmagnifying": 8437,
      "Ġopinions": 8438,
      "ealand": 8439,
      "gas": 8440,
      "mps": 8441,
      "eria": 8442,
      "Ġbumps": 8443,
      "llip": 8444,
      "Ġhills": 8445,
      "run": 8446,
      "Ġvigor": 8447,
      "ĠFood": 8448,
      "Ġaccred": 8449,
      "rican": 8450,
      "Ġconsideration": 8451,
      "Ġfrog": 8452,
      "Ġpeeling": 8453,
      "while": 8454,
      "Ġscratching": 8455,
      "Ġfifth": 8456,
      "Ġscratches": 8457,
      "Ġants": 8458,
      "epting": 8459,
      "Ġisol": 8460,
      "ĠCare": 8461,
      "Ġunt": 8462,
      "ĠPol": 8463,
      "ĠPri": 8464,
      "ĠDist": 8465,
      "Ġfibers": 8466,
      "Ġmetabol": 8467,
      "Ġgrabbing": 8468,
      "Ġbraids": 8469,
      "Ġbankrupt": 8470,
      "Ġspinach": 8471,
      "Ġfeedback": 8472,
      "obile": 8473,
      "Ġgraphics": 8474,
      "person": 8475,
      "ĠSlow": 8476,
      "Ġaustralia": 8477,
      "state": 8478,
      "Ġva": 8479,
      "Ġund": 8480,
      "ĠMa": 8481,
      "Ġ28": 8482,
      "Ġsurge": 8483,
      "Ġheadaches": 8484,
      "Ġplanned": 8485,
      "Ġdistingu": 8486,
      "Ġstrict": 8487,
      "Ġleader": 8488,
      "Ġbroker": 8489,
      "Ġestim": 8490,
      "Ġparked": 8491,
      "Ġtechnical": 8492,
      "Ġengineering": 8493,
      "Ġdrainage": 8494,
      "Ġpillows": 8495,
      "Ġmarsh": 8496,
      "Ġsuicide": 8497,
      "Ġclippers": 8498,
      "Ġdisorders": 8499,
      "Ġbroth": 8500,
      "Ġunderwear": 8501,
      "Ġholder": 8502,
      "Ġexperts": 8503,
      "meal": 8504,
      "Ġcapacity": 8505,
      "Ġfiled": 8506,
      "Ġgaining": 8507,
      "Ġthinner": 8508,
      "Ġstructures": 8509,
      "Ġpunct": 8510,
      "Ġprecip": 8511,
      "Ġreproduce": 8512,
      "Ġankle": 8513,
      "lement": 8514,
      "Ġanch": 8515,
      "Ġmats": 8516,
      "quart": 8517,
      "kewarm": 8518,
      "Ġdos": 8519,
      "Ġatom": 8520,
      "Ġrowing": 8521,
      "Ġket": 8522,
      "Ġencounter": 8523,
      "Ġcoats": 8524,
      "Ġhandstand": 8525,
      "Ġmenstru": 8526,
      "Ġtyping": 8527,
      "Ġzero": 8528,
      "Ġspeakers": 8529,
      "Ġcirculation": 8530,
      "ĠExerc": 8531,
      "Ġvirtual": 8532,
      "ĠMexico": 8533,
      "zed": 8534,
      "requ": 8535,
      "Ġtos": 8536,
      "eps": 8537,
      "Ġul": 8538,
      "Ġstressed": 8539,
      "Ġitch": 8540,
      "Ġassu": 8541,
      "ĠSan": 8542,
      "Ġmane": 8543,
      "Ġfell": 8544,
      "Ġworms": 8545,
      "ĠBas": 8546,
      "Ġsche": 8547,
      "Ġcoord": 8548,
      "Ġpastry": 8549,
      "Ġstained": 8550,
      "ĠOthers": 8551,
      "faction": 8552,
      "Ġcrushed": 8553,
      "Ġobstacles": 8554,
      "Ġyahoo": 8555,
      "fu": 8556,
      "Ġsac": 8557,
      "Ġcone": 8558,
      "ager": 8559,
      "ules": 8560,
      "char": 8561,
      "Ġalter": 8562,
      "gee": 8563,
      "Ġsmoo": 8564,
      "ĠLight": 8565,
      "Ġswitches": 8566,
      "Ġdistress": 8567,
      "Ġpurchases": 8568,
      "Ġfacilities": 8569,
      "Ġmarking": 8570,
      "ĠReal": 8571,
      "Ġgasoline": 8572,
      "Ġurge": 8573,
      "Ġnegatively": 8574,
      "Ġmission": 8575,
      "Ġcontractor": 8576,
      "Ġharness": 8577,
      "vet": 8578,
      "war": 8579,
      "Ġlump": 8580,
      "Ġfriction": 8581,
      "Ġabras": 8582,
      "ĠFlor": 8583,
      "Ġincred": 8584,
      "Ġmeats": 8585,
      "Ġcaring": 8586,
      "Ġpartially": 8587,
      "Ġvegg": 8588,
      "Ġcaps": 8589,
      "Ġsupporting": 8590,
      "Ġparks": 8591,
      "ĠPlug": 8592,
      "cules": 8593,
      "Ġlocked": 8594,
      "Ġcommitted": 8595,
      "Ġdefinitely": 8596,
      "Ġbeliefs": 8597,
      "Ġmulch": 8598,
      "Ġbankruptcy": 8599,
      "Ġbait": 8600,
      "lap": 8601,
      "Ġlids": 8602,
      "Ġmans": 8603,
      "ĠBel": 8604,
      "Ġherb": 8605,
      "Ġcrate": 8606,
      "Ġdiscrim": 8607,
      "Ġestimate": 8608,
      "Ġfolds": 8609,
      "Ġheavily": 8610,
      "Ġdeliver": 8611,
      "Ġdissolve": 8612,
      "...": 8613,
      "Ġscraping": 8614,
      "The": 8615,
      "mo": 8616,
      "tes": 8617,
      "Ġward": 8618,
      "sty": 8619,
      "orate": 8620,
      "quality": 8621,
      "ament": 8622,
      "Ġsuck": 8623,
      "ĠPo": 8624,
      "Ġgrant": 8625,
      "Ġcompared": 8626,
      "Ġcompartment": 8627,
      "Ġworker": 8628,
      "Ġreads": 8629,
      "Ġchops": 8630,
      "Ġintegr": 8631,
      "Ġ195": 8632,
      "Ġcreamy": 8633,
      "Ġdisconnect": 8634,
      "Ġarmy": 8635,
      "Ġtastes": 8636,
      "ribution": 8637,
      "Ġhookah": 8638,
      "Ġconcentration": 8639,
      "Ġounce": 8640,
      "Ġgestures": 8641,
      "Ġcucumber": 8642,
      "Ġrinses": 8643,
      "Ġmosqu": 8644,
      "fat": 8645,
      "rich": 8646,
      "ÉĻ": 8647,
      "Ġcact": 8648,
      "Ġwrench": 8649,
      "Ġping": 8650,
      "Ġgut": 8651,
      "Ġhey": 8652,
      "Ġwhites": 8653,
      "Ġrows": 8654,
      "Ġalert": 8655,
      "Ġscared": 8656,
      "ĠUK": 8657,
      "ĠEd": 8658,
      "ĠEast": 8659,
      "Ġphil": 8660,
      "Ġfamilies": 8661,
      "ĠVer": 8662,
      "Ġhygi": 8663,
      "Ġgerb": 8664,
      "Ġflights": 8665,
      "Ġarrives": 8666,
      "Ġclinic": 8667,
      "Ġinexp": 8668,
      "Ġfades": 8669,
      "sec": 8670,
      "ilty": 8671,
      "Ġdodge": 8672,
      "Ġrating": 8673,
      "Ġvill": 8674,
      "ĠDan": 8675,
      "Ġreserv": 8676,
      "iod": 8677,
      "Ġpolite": 8678,
      "Ġconcepts": 8679,
      "Ġburned": 8680,
      "Ġcollected": 8681,
      "Ġsamples": 8682,
      "Ġporch": 8683,
      "Ġcherry": 8684,
      "Ġcomplicated": 8685,
      "Ġecos": 8686,
      "ĠUniversity": 8687,
      "Ġhello": 8688,
      "oes": 8689,
      "Ġdil": 8690,
      "Ġornaments": 8691,
      "Ġrolled": 8692,
      "Ġphase": 8693,
      "Ġsecured": 8694,
      "ancis": 8695,
      "Ġidentifying": 8696,
      "Ġconnections": 8697,
      "Ġpacking": 8698,
      "Ġverb": 8699,
      "Ġmisses": 8700,
      "Ġfabrics": 8701,
      "Ġabsorbed": 8702,
      "Ġreproduction": 8703,
      "Ġfreedom": 8704,
      "aign": 8705,
      "cu": 8706,
      "Ġbong": 8707,
      "Ġfiction": 8708,
      "Ġmit": 8709,
      "Ġmesh": 8710,
      "umper": 8711,
      "Ġabilities": 8712,
      "Ġmanually": 8713,
      "Ġcoco": 8714,
      "Ġinstitution": 8715,
      "Ġcameras": 8716,
      "Ġreaders": 8717,
      "Ġrelie": 8718,
      "Ġaccel": 8719,
      "Ġintensity": 8720,
      "Ġlessons": 8721,
      "Ġkittens": 8722,
      "Ġequivalent": 8723,
      "nthesis": 8724,
      "Ġlukewarm": 8725,
      "Ġvenue": 8726,
      "Ġhoops": 8727,
      "Ġmembrane": 8728,
      "ev": 8729,
      "hr": 8730,
      "Ġfulf": 8731,
      "assment": 8732,
      "Ġpeak": 8733,
      "Ġpeels": 8734,
      "ĠRico": 8735,
      "Ġfinds": 8736,
      "angles": 8737,
      "Ġimpression": 8738,
      "Ġmucus": 8739,
      "lette": 8740,
      "Ġintim": 8741,
      "Ġoccurred": 8742,
      "Ġkneels": 8743,
      "Ġsplits": 8744,
      "Ġtriggers": 8745,
      "Ġvessels": 8746,
      "Ġretirement": 8747,
      "Ġdumbbell": 8748,
      "cur": 8749,
      "front": 8750,
      "Ġbears": 8751,
      "rof": 8752,
      "Ġlever": 8753,
      "Ġalgae": 8754,
      "Ġaband": 8755,
      "Ġcodes": 8756,
      "aping": 8757,
      "ĠRa": 8758,
      "Ġplayground": 8759,
      "Ġdied": 8760,
      "issions": 8761,
      "Ġdamaging": 8762,
      "ĠArt": 8763,
      "Ġcampaign": 8764,
      "Ġaccompan": 8765,
      "Ġcucumbers": 8766,
      "ĠPuerto": 8767,
      "Ġunusual": 8768,
      "13": 8769,
      "bing": 8770,
      "pal": 8771,
      "press": 8772,
      "held": 8773,
      "Ġdad": 8774,
      "Ġhtml": 8775,
      "semble": 8776,
      "Ġunex": 8777,
      "Ġwasn": 8778,
      "Ġentrance": 8779,
      "Ġaccessible": 8780,
      "Ġadvis": 8781,
      "Ġterminal": 8782,
      "Ġapproaching": 8783,
      "Ġbolts": 8784,
      "ĠWomen": 8785,
      "Ġinterfere": 8786,
      "reams": 8787,
      "Ġbold": 8788,
      "Ġmile": 8789,
      "alian": 8790,
      "Ġshares": 8791,
      "ĠGen": 8792,
      "ĠGold": 8793,
      "ĠExt": 8794,
      "Ġago": 8795,
      "loy": 8796,
      "Ġguilty": 8797,
      "Ġsubway": 8798,
      "Ġlowest": 8799,
      "Ġlayout": 8800,
      "Ġhunger": 8801,
      "Ġbully": 8802,
      "flow": 8803,
      "Ġrental": 8804,
      "Ġreveal": 8805,
      "Ġpollution": 8806,
      "Ġsurprise": 8807,
      "Ġbolt": 8808,
      "Ġcushion": 8809,
      "Ġcandidate": 8810,
      "ĠConstitution": 8811,
      "Ġchronic": 8812,
      "St": 8813,
      "foli": 8814,
      "graph": 8815,
      "tight": 8816,
      "Ġaired": 8817,
      "Ġbatch": 8818,
      "oration": 8819,
      "Ġnone": 8820,
      "ĠRest": 8821,
      "Ġpauses": 8822,
      "Ġnewly": 8823,
      "Ġgloss": 8824,
      "Ġextension": 8825,
      "Ġaccepting": 8826,
      "Ġartific": 8827,
      "Ġconnecting": 8828,
      "ritis": 8829,
      "Ġbandage": 8830,
      "ĠSeek": 8831,
      "Ġcrops": 8832,
      "Ġrectangular": 8833,
      "Ġtutorial": 8834,
      "Ġcartridge": 8835,
      "70": 8836,
      "NA": 8837,
      "lin": 8838,
      "rating": 8839,
      "Ġtumb": 8840,
      "Ġches": 8841,
      "Ġfailed": 8842,
      "Ġstated": 8843,
      "otect": 8844,
      "tops": 8845,
      "ĠSur": 8846,
      "ĠHouse": 8847,
      "Ġsoaking": 8848,
      "Ġarth": 8849,
      "ĠFur": 8850,
      "Ġdespite": 8851,
      "Ġairlines": 8852,
      "ĠSomeone": 8853,
      "Ġbarrel": 8854,
      "Ġretrie": 8855,
      "Ġbeds": 8856,
      "Ġreality": 8857,
      "Ġcoop": 8858,
      "Ġsucceed": 8859,
      "Ġofficially": 8860,
      "Ġhusband": 8861,
      "Ġantibi": 8862,
      "Ġjurisdiction": 8863,
      "gth": 8864,
      "ju": 8865,
      "Ġ32": 8866,
      "ennel": 8867,
      "eli": 8868,
      "Ġshine": 8869,
      "Ġwhit": 8870,
      "Ġram": 8871,
      "Ġgrid": 8872,
      "Ġcommission": 8873,
      "Ġdistilled": 8874,
      "Ġmatters": 8875,
      "Ġtracking": 8876,
      "Ġportable": 8877,
      "Ġpreferably": 8878,
      "Ġvacuuming": 8879,
      "Ġblocked": 8880,
      "Ġhonor": 8881,
      "Ġsoaked": 8882,
      "Ġdurable": 8883,
      "Ġelectronics": 8884,
      "Ġviolin": 8885,
      "Ġstrategies": 8886,
      "profit": 8887,
      "Ġpassionate": 8888,
      "Ġhundreds": 8889,
      "Ġmarching": 8890,
      "ĠTransfer": 8891,
      "Ġbrowse": 8892,
      "cil": 8893,
      "mill": 8894,
      "uated": 8895,
      "reet": 8896,
      "Ġsidelines": 8897,
      "Ġboring": 8898,
      "Ġpars": 8899,
      "ĠThose": 8900,
      "race": 8901,
      "olar": 8902,
      "ĠPict": 8903,
      "Ġworst": 8904,
      "Ġoffices": 8905,
      "Ġsaus": 8906,
      "Ġoptional": 8907,
      "Ġanimated": 8908,
      "Ġurban": 8909,
      "Ġreferences": 8910,
      "Ġshuttle": 8911,
      "Ġallergic": 8912,
      "Ġpharmac": 8913,
      "Ġrapidly": 8914,
      "Ġsatisfied": 8915,
      "Ġdistributed": 8916,
      "Ġtheory": 8917,
      "Ġceramic": 8918,
      "Ġfallen": 8919,
      "Ġtoler": 8920,
      "Ġhing": 8921,
      "idance": 8922,
      "ĠTime": 8923,
      "ĠFrench": 8924,
      "Ġboiled": 8925,
      "Ġpale": 8926,
      "Ġfox": 8927,
      "Ġended": 8928,
      "Ġgenre": 8929,
      "Ġboarding": 8930,
      "Ġwarming": 8931,
      "Ġfolders": 8932,
      "hedule": 8933,
      "valuate": 8934,
      "Ġdecreased": 8935,
      "Ġseriously": 8936,
      "Ġnurse": 8937,
      "Ġmolecules": 8938,
      "Ġaerob": 8939,
      "Ġpaddling": 8940,
      "Ġanalysis": 8941,
      "Ġshingles": 8942,
      "500": 8943,
      "aid": 8944,
      "areness": 8945,
      "Ġderm": 8946,
      "xtures": 8947,
      "ometers": 8948,
      "Ġcounting": 8949,
      "ĠUnless": 8950,
      "Ġparas": 8951,
      "Ġtransition": 8952,
      "Ġios": 8953,
      "Ġquicker": 8954,
      "ĠVe": 8955,
      "Ġmulti": 8956,
      "Ġburner": 8957,
      "Ġerror": 8958,
      "Ġproteins": 8959,
      "Ġupdated": 8960,
      "ĠRepublic": 8961,
      "Ġflashlight": 8962,
      "Ġshrink": 8963,
      "including": 8964,
      "Âºf": 8965,
      "Ġborrow": 8966,
      "Ġinventory": 8967,
      "Ġpassengers": 8968,
      "Ġelderly": 8969,
      "ĠFlorida": 8970,
      "chest": 8971,
      "iw": 8972,
      "ris": 8973,
      "wr": 8974,
      "eries": 8975,
      "Ġore": 8976,
      "utional": 8977,
      "host": 8978,
      "luded": 8979,
      "Ġcramp": 8980,
      "Ġsupposed": 8981,
      "Ġsalon": 8982,
      "Ġlegisl": 8983,
      "Ġemployers": 8984,
      "Ġmultiply": 8985,
      "Ġarrange": 8986,
      "Ġinteractions": 8987,
      "Ġirritate": 8988,
      "Ġcrying": 8989,
      "Ġcroquet": 8990,
      "Ġpenalty": 8991,
      "Ġome": 8992,
      "leum": 8993,
      "Ġmg": 8994,
      "Ġdia": 8995,
      "Ġoutlook": 8996,
      "Ġwatermel": 8997,
      "unk": 8998,
      "ĠGrab": 8999,
      "Ġtrips": 9000,
      "Ġengaging": 9001,
      "Ġpopcorn": 9002,
      "Ġexcit": 9003,
      "Ġinserts": 9004,
      "Ġseparately": 9005,
      "Ġ75": 9006,
      "Ġminimal": 9007,
      "Ġtwirling": 9008,
      "ĠNorthern": 9009,
      "Ġsuggestions": 9010,
      "Ġfills": 9011,
      "Ġdaughter": 9012,
      "Ġdelay": 9013,
      "Ġscroll": 9014,
      "Ġroles": 9015,
      "apy": 9016,
      "ĠLift": 9017,
      "ĠOut": 9018,
      "Ġprime": 9019,
      "Ġraft": 9020,
      "Ġguidance": 9021,
      "Ġhardwood": 9022,
      "bbies": 9023,
      "Ġtranscri": 9024,
      "umbia": 9025,
      "Ġstressful": 9026,
      "Ġresponsibilities": 9027,
      "Ġprocedures": 9028,
      "Ġhorizontally": 9029,
      "Ġelevated": 9030,
      "Ġhormones": 9031,
      "FL": 9032,
      "onna": 9033,
      "Ġsaving": 9034,
      "level": 9035,
      "Ġgir": 9036,
      "Ġhealing": 9037,
      "Ġrude": 9038,
      "Ġslower": 9039,
      "log": 9040,
      "Ġsprinkle": 9041,
      "Ġirons": 9042,
      "ĠClose": 9043,
      "Ġcompletes": 9044,
      "Ġsteering": 9045,
      "Ġmessy": 9046,
      "Ġfantasy": 9047,
      "Ġveggies": 9048,
      "Ġmosquito": 9049,
      "Ġinexpensive": 9050,
      "uous": 9051,
      "Ġtense": 9052,
      "Ġastr": 9053,
      "Ġsieve": 9054,
      "Ġcakes": 9055,
      "Ġdot": 9056,
      "ette": 9057,
      "Ġellip": 9058,
      "Ġstub": 9059,
      "rape": 9060,
      "ĠSwe": 9061,
      "Ġspac": 9062,
      "ĠPop": 9063,
      "Ġscored": 9064,
      "Ġflush": 9065,
      "ĠOpt": 9066,
      "Ġlooked": 9067,
      "Ġlightweight": 9068,
      "Ġirs": 9069,
      "Ġstrikes": 9070,
      "Ġ2006": 9071,
      "Ġcabbage": 9072,
      "Ġinstruction": 9073,
      "Ġaccordingly": 9074,
      "Ġaxis": 9075,
      "ĠSpeak": 9076,
      "Ġpursue": 9077,
      "Ġexcitement": 9078,
      "bi": 9079,
      "foot": 9080,
      "papers": 9081,
      "za": 9082,
      "Ġdreams": 9083,
      "omes": 9084,
      "oman": 9085,
      "Ġgross": 9086,
      "Ġlon": 9087,
      "irds": 9088,
      "Ġloves": 9089,
      "ĠRather": 9090,
      "ĠOcean": 9091,
      "ĠGer": 9092,
      "ĠGreat": 9093,
      "Ġfilming": 9094,
      "Ġfamous": 9095,
      "ĠRemind": 9096,
      "Ġfootage": 9097,
      "Ġrounded": 9098,
      "Ġacidic": 9099,
      "Ġferret": 9100,
      "Ġearthqu": 9101,
[...]
