{
  "version": "1.0",
  "truncation": null,
  "padding": null,
  "added_tokens": [
    {
      "id": 0,
      "content": "<pad>",
      "single_word": false,
      "lstrip": false,
      "rstrip": false,
      "normalized": false,
      "special": true
    },
    {
      "id": 1,
      "content": "<bos>",
      "single_word": false,
      "lstrip": false,
      "rstrip": false,
      "normalized": false,
      "special": true
    },
    {
      "id": 2,
      "content": "<eos>",
      "single_word": false,
      "lstrip": false,
      "rstrip": false,
      "normalized": false,
      "special": true
    },
    {
      "id": 3,
      "content": "<unk>",
      "single_word": false,
      "lstrip": false,
      "rstrip": false,
      "normalized": false,
      "special": true
    },
    {
      "id": 32000,
      "content": "<R0>",
      "single_word": false,
      "lstrip": false,
      "rstrip": false,
      "normalized": false,
      "special": true
    },
    {
      "id": 32001,
      "content": "<R1>",
      "single_word": false,
      "lstrip": false,
      "rstrip": false,
      "normalized": false,
      "special": true
    },
    {
      "id": 32002,
      "content": "<R2>",
      "single_word": false,
      "lstrip": false,
      "rstrip": false,
      "normalized": false,
      "special": true
    },
    {
      "id": 32003,
      "content": "<R3>",
      "single_word": false,
      "lstrip": false,
      "rstrip": false,
      "normalized": false,
      "special": true
    },
    {
      "id": 32004,
      "content": "<R4>",
      "single_word": false,
      "lstrip": false,
      "rstrip": false,
      "normalized": false,
      "special": true
    },
    {
      "id": 32005,
      "content": "<R5>",
      "single_word": false,
      "lstrip": false,
      "rstrip": false,
      "normalized": false,
      "special": true
    },
    {
      "id": 32006,
      "content": "<R6>",
      "single_word": false,
      "lstrip": false,
      "rstrip": false,
      "normalized": false,
      "special": true
    },
    {
      "id": 32007,
      "content": "<R7>",
      "single_word": false,
      "lstrip": false,
      "rstrip": false,
      "normalized": false,
      "special": true
    },
    {
      "id": 32008,
      "content": "<R8>",
      "single_word": false,
      "lstrip": false,
      "rstrip": false,
      "normalized": false,
      "special": true
    },
    {
      "id": 32009,
      "content": "<R9>",
      "single_word": false,
      "lstrip": false,
      "rstrip": false,
      "normalized": false,
      "special": true
    },
    {
      "id": 32010,
      "content": "<R10>",
      "single_word": false,
      "lstrip": false,
      "rstrip": false,
      "normalized": false,
      "special": true
    },
    {
      "id": 32011,
      "content": "<R11>",
      "single_word": false,
      "lstrip": false,
      "rstrip": false,
      "normalized": false,
      "special": true
    },
    {
      "id": 32012,
      "content": "<R12>",
      "single_word": false,
      "lstrip": false,
      "rstrip": false,
      "normalized": false,
      "special": true
    },
    {
      "id": 32013,
      "content": "<R13>",
      "single_word": false,
      "lstrip": false,
      "rstrip": false,
      "normalized": false,
      "special": true
    },
    {
      "id": 32014,
      "content": "<R14>",
      "single_word": false,
      "lstrip": false,
      "rstrip": false,
      "normalized": false,
      "special": true
    },
    {
      "id": 32015,
      "content": "<R15>",
      "single_word": false,
      "lstrip": false,
      "rstrip": false,
      "normalized": false,
      "special": true
    },
    {
      "id": 32016,
      "content": "<R16>",
      "single_word": false,
      "lstrip": false,
      "rstrip": false,
      "normalized": false,
      "special": true
    },
    {
      "id": 32017,
      "content": "<R17>",
      "single_word": false,
      "lstrip": false,
      "rstrip": false,
      "normalized": false,
      "special": true
    },
    {
      "id": 32018,
      "content": "<R18>",
      "single_word": false,
      "lstrip": false,
      "rstrip": false,
      "normalized": false,
      "special": true
    },
    {
      "id": 32019,
      "content": "<R19>",
      "single_word": false,
      "lstrip": false,
      "rstrip": false,
      "normalized": false,
      "special": true
    },
    {
      "id": 32020,
      "content": "<R20>",
      "single_word": false,
      "lstrip": false,
      "rstrip": false,
      "normalized": false,
      "special": true
    },
    {
      "id": 32021,
      "content": "<R21>",
      "single_word": false,
      "lstrip": false,
      "rstrip": false,
      "normalized": false,
      "special": true
    },
    {
      "id": 32022,
      "content": "<R22>",
      "single_word": false,
      "lstrip": false,
      "rstrip": false,
      "normalized": false,
      "special": true
    },
    {
      "id": 32023,
      "content": "<R23>",
      "single_word": false,
      "lstrip": false,
      "rstrip": false,
      "normalized": false,
      "special": true
    },
    {
      "id": 32024,
      "content": "<R24>",
      "single_word": false,
      "lstrip": false,
      "rstrip": false,
      "normalized": false,
      "special": true
    },
    {
      "id": 32025,
      "content": "<R25>",
      "single_word": false,
      "lstrip": false,
      "rstrip": false,
      "normalized": false,
      "special": true
    },
    {
      "id": 32026,
      "content": "<R26>",
      "single_word": false,
      "lstrip": false,
      "rstrip": false,
      "normalized": false,
      "special": true
    },
    {
      "id": 32027,
      "content": "<R27>",
      "single_word": false,
      "lstrip": false,
      "rstrip": false,
      "normalized": false,
      "special": true
    },
    {
      "id": 32028,
      "content": "<R28>",
      "single_word": false,
      "lstrip": false,
      "rstrip": false,
      "normalized": false,
      "special": true
    },
    {
      "id": 32029,
      "content": "<R29>",
      "single_word": false,
      "lstrip": false,
      "rstrip": false,
      "normalized": false,
      "special": true
    },
    {
      "id": 32030,
      "content": "<R30>",
      "single_word": false,
      "lstrip": false,
      "rstrip": false,
      "normalized": false,
      "special": true
    },
    {
      "id": 32031,
      "content": "<R31>",
      "single_word": false,
      "lstrip": false,
      "rstrip": false,
      "normalized": false,
      "special": true
    },
    {
      "id": 32032,
      "content": "<R32>",
      "single_word": false,
      "lstrip": false,
      "rstrip": false,
      "normalized": false,
      "special": true
    },
    {
      "id": 32033,
      "content": "<R33>",
      "single_word": false,
      "lstrip": false,
      "rstrip": false,
      "normalized": false,
      "special": true
    },
    {
      "id": 32034,
      "content": "<R34>",
      "single_word": false,
      "lstrip": false,
      "rstrip": false,
      "normalized": false,
      "special": true
    },
    {
      "id": 32035,
      "content": "<R35>",
      "single_word": false,
      "lstrip": false,
      "rstrip": false,
      "normalized": false,
      "special": true
    },
    {
      "id": 32036,
      "content": "<R36>",
      "single_word": false,
      "lstrip": false,
      "rstrip": false,
      "normalized": false,
      "special": true
    },
    {
      "id": 32037,
      "content": "<R37>",
      "single_word": false,
      "lstrip": false,
      "rstrip": false,
      "normalized": false,
      "special": true
    },
    {
      "id": 32038,
      "content": "<R38>",
      "single_word": false,
      "lstrip": false,
      "rstrip": false,
      "normalized": false,
      "special": true
    },
    {
      "id": 32039,
      "content": "<R39>",
      "single_word": false,
      "lstrip": false,
      "rstrip": false,
      "normalized": false,
      "special": true
    },
    {
      "id": 32040,
      "content": "<R40>",
      "single_word": false,
      "lstrip": false,
      "rstrip": false,
      "normalized": false,
      "special": true
    },
    {
      "id": 32041,
      "content": "<R41>",
      "single_word": false,
      "lstrip": false,
      "rstrip": false,
      "normalized": false,
      "special": true
    },
    {
      "id": 32042,
      "content": "<R42>",
      "single_word": false,
      "lstrip": false,
      "rstrip": false,
      "normalized": false,
      "special": true
    },
    {
      "id": 32043,
      "content": "<R43>",
      "single_word": false,
      "lstrip": false,
      "rstrip": false,
      "normalized": false,
      "special": true
    },
    {
      "id": 32044,
      "content": "<R44>",
      "single_word": false,
      "lstrip": false,
      "rstrip": false,
      "normalized": false,
      "special": true
    },
    {
      "id": 32045,
      "content": "<R45>",
      "single_word": false,
      "lstrip": false,
      "rstrip": false,
      "normalized": false,
      "special": true
    },
    {
      "id": 32046,
      "content": "<R46>",
      "single_word": false,
      "lstrip": false,
      "rstrip": false,
      "normalized": false,
      "special": true
    },
    {
      "id": 32047,
      "content": "<R47>",
      "single_word": false,
      "lstrip": false,
      "rstrip": false,
      "normalized": false,
      "special": true
    },
    {
      "id": 32048,
      "content": "<R48>",
      "single_word": false,
      "lstrip": false,
      "rstrip": false,
      "normalized": false,
      "special": true
    },
    {
      "id": 32049,
      "content": "<R49>",
      "single_word": false,
      "lstrip": false,
      "rstrip": false,
      "normalized": false,
      "special": true
    },
    {
      "id": 32050,
      "content": "<R50>",
      "single_word": false,
      "lstrip": false,
      "rstrip": false,
      "normalized": false,
      "special": true
    },
    {
      "id": 32051,
      "content": "<R51>",
      "single_word": false,
      "lstrip": false,
      "rstrip": false,
      "normalized": false,
      "special": true
    },
    {
      "id": 32052,
      "content": "<R52>",
      "single_word": false,
      "lstrip": false,
      "rstrip": false,
      "normalized": false,
      "special": true
    },
    {
      "id": 32053,
      "content": "<R53>",
      "single_word": false,
      "lstrip": false,
      "rstrip": false,
      "normalized": false,
      "special": true
    },
    {
      "id": 32054,
      "content": "<R54>",
      "single_word": false,
      "lstrip": false,
      "rstrip": false,
      "normalized": false,
      "special": true
    },
    {
      "id": 32055,
      "content": "<R55>",
      "single_word": false,
      "lstrip": false,
      "rstrip": false,
      "normalized": false,
      "special": true
    },
    {
      "id": 32056,
      "content": "<R56>",
      "single_word": false,
      "lstrip": false,
      "rstrip": false,
      "normalized": false,
      "special": true
    },
    {
      "id": 32057,
      "content": "<R57>",
      "single_word": false,
      "lstrip": false,
      "rstrip": false,
      "normalized": false,
      "special": true
    },
    {
      "id": 32058,
      "content": "<R58>",
      "single_word": false,
      "lstrip": false,
      "rstrip": false,
      "normalized": false,
      "special": true
    },
    {
      "id": 32059,
      "content": "<R59>",
      "single_word": false,
      "lstrip": false,
      "rstrip": false,
      "normalized": false,
      "special": true
    },
    {
      "id": 32060,
      "content": "<R60>",
      "single_word": false,
      "lstrip": false,
      "rstrip": false,
      "normalized": false,
      "special": true
    },
    {
      "id": 32061,
      "content": "<R61>",
      "single_word": false,
      "lstrip": false,
      "rstrip": false,
      "normalized": false,
      "special": true
    },
    {
      "id": 32062,
      "content": "<R62>",
      "single_word": false,
      "lstrip": false,
      "rstrip": false,
      "normalized": false,
      "special": true
    },
    {
      "id": 32063,
      "content": "<R63>",
      "single_word": false,
      "lstrip": false,
      "rstrip": false,
      "normalized": false,
      "special": true
    },
    {
      "id": 32064,
      "content": "<R64>",
      "single_word": false,
      "lstrip": false,
      "rstrip": false,
      "normalized": false,
      "special": true
    },
    {
      "id": 32065,
      "content": "<R65>",
      "single_word": false,
      "lstrip": false,
      "rstrip": false,
      "normalized": false,
      "special": true
    },
    {
      "id": 32066,
      "content": "<R66>",
      "single_word": false,
      "lstrip": false,
      "rstrip": false,
      "normalized": false,
      "special": true
    },
    {
      "id": 32067,
      "content": "<R67>",
      "single_word": false,
      "lstrip": false,
      "rstrip": false,
      "normalized": false,
      "special": true
    },
    {
      "id": 32068,
      "content": "<R68>",
      "single_word": false,
      "lstrip": false,
      "rstrip": false,
      "normalized": false,
      "special": true
    },
    {
      "id": 32069,
      "content": "<R69>",
      "single_word": false,
      "lstrip": false,
      "rstrip": false,
      "normalized": false,
      "special": true
    },
    {
      "id": 32070,
      "content": "<R70>",
      "single_word": false,
      "lstrip": false,
      "rstrip": false,
      "normalized": false,
      "special": true
    },
    {
      "id": 32071,
      "content": "<R71>",
      "single_word": false,
      "lstrip": false,
      "rstrip": false,
      "normalized": false,
      "special": true
    },
    {
      "id": 32072,
      "content": "<R72>",
      "single_word": false,
      "lstrip": false,
      "rstrip": false,
      "normalized": false,
      "special": true
    },
    {
      "id": 32073,
      "content": "<R73>",
      "single_word": false,
      "lstrip": false,
      "rstrip": false,
      "normalized": false,
      "special": true
    },
    {
      "id": 32074,
      "content": "<R74>",
      "single_word": false,
      "lstrip": false,
      "rstrip": false,
      "normalized": false,
      "special": true
    },
    {
      "id": 32075,
      "content": "<R75>",
      "single_word": false,
      "lstrip": false,
      "rstrip": false,
      "normalized": false,
      "special": true
    },
    {
      "id": 32076,
      "content": "<R76>",
      "single_word": false,
      "lstrip": false,
      "rstrip": false,
      "normalized": false,
      "special": true
    },
    {
      "id": 32077,
      "content": "<R77>",
      "single_word": false,
      "lstrip": false,
      "rstrip": false,
      "normalized": false,
      "special": true
    },
    {
      "id": 32078,
      "content": "<R78>",
      "single_word": false,
      "lstrip": false,
      "rstrip": false,
      "normalized": false,
      "special": true
    },
    {
      "id": 32079,
      "content": "<R79>",
      "single_word": false,
      "lstrip": false,
      "rstrip": false,
      "normalized": false,
      "special": true
    },
    {
      "id": 32080,
      "content": "<R80>",
      "single_word": false,
      "lstrip": false,
      "rstrip": false,
      "normalized": false,
      "special": true
    },
    {
      "id": 32081,
      "content": "<R81>",
      "single_word": false,
      "lstrip": false,
      "rstrip": false,
      "normalized": false,
      "special": true
    },
    {
      "id": 32082,
      "content": "<R82>",
      "single_word": false,
      "lstrip": false,
      "rstrip": false,
      "normalized": false,
      "special": true
    },
    {
      "id": 32083,
      "content": "<R83>",
      "single_word": false,
      "lstrip": false,
      "rstrip": false,
      "normalized": false,
      "special": true
    },
    {
      "id": 32084,
      "content": "<R84>",
      "single_word": false,
      "lstrip": false,
      "rstrip": false,
      "normalized": false,
      "special": true
    },
    {
      "id": 32085,
      "content": "<R85>",
      "single_word": false,
      "lstrip": false,
      "rstrip": false,
      "normalized": false,
      "special": true
    },
    {
      "id": 32086,
      "content": "<R86>",
      "single_word": false,
      "lstrip": false,
      "rstrip": false,
      "normalized": false,
      "special": true
    },
    {
      "id": 32087,
      "content": "<R87>",
      "single_word": false,
      "lstrip": false,
      "rstrip": false,
      "normalized": false,
      "special": true
    },
    {
      "id": 32088,
      "content": "<R88>",
      "single_word": false,
      "lstrip": false,
      "rstrip": false,
      "normalized": false,
      "special": true
    },
    {
      "id": 32089,
      "content": "<R89>",
      "single_word": false,
      "lstrip": false,
      "rstrip": false,
      "normalized": false,
      "special": true
    },
    {
      "id": 32090,
      "content": "<R90>",
      "single_word": false,
      "lstrip": false,
      "rstrip": false,
      "normalized": false,
      "special": true
    },
    {
      "id": 32091,
      "content": "<R91>",
      "single_word": false,
      "lstrip": false,
      "rstrip": false,
      "normalized": false,
      "special": true
    },
    {
      "id": 32092,
      "content": "<R92>",
      "single_word": false,
      "lstrip": false,
      "rstrip": false,
      "normalized": false,
      "special": true
    },
    {
      "id": 32093,
      "content": "<R93>",
      "single_word": false,
      "lstrip": false,
      "rstrip": false,
      "normalized": false,
      "special": true
    },
    {
      "id": 32094,
      "content": "<R94>",
      "single_word": false,
      "lstrip": false,
      "rstrip": false,
      "normalized": false,
      "special": true
    },
    {
      "id": 32095,
      "content": "<R95>",
      "single_word": false,
      "lstrip": false,
      "rstrip": false,
      "normalized": false,
      "special": true
    },
    {
      "id": 32096,
      "content": "<R96>",
      "single_word": false,
      "lstrip": false,
      "rstrip": false,
      "normalized": false,
      "special": true
    },
    {
      "id": 32097,
      "content": "<R97>",
      "single_word": false,
      "lstrip": false,
      "rstrip": false,
      "normalized": false,
      "special": true
    },
    {
      "id": 32098,
      "content": "<R98>",
      "single_word": false,
      "lstrip": false,
      "rstrip": false,
      "normalized": false,
      "special": true
    },
    {
      "id": 32099,
      "content": "<R99>",
      "single_word": false,
      "lstrip": false,
      "rstrip": false,
      "normalized": false,
      "special": true
    },
    {
      "id": 32100,
      "content": "<R100>",
      "single_word": false,
      "lstrip": false,
      "rstrip": false,
      "normalized": false,
      "special": true
    },
    {
      "id": 32101,
      "content": "<R101>",
      "single_word": false,
      "lstrip": false,
      "rstrip": false,
      "normalized": false,
      "special": true
    },
    {
      "id": 32102,
      "content": "<R102>",
      "single_word": false,
      "lstrip": false,
      "rstrip": false,
      "normalized": false,
      "special": true
    },
    {
      "id": 32103,
      "content": "<R103>",
      "single_word": false,
      "lstrip": false,
      "rstrip": false,
      "normalized": false,
      "special": true
    },
    {
      "id": 32104,
      "content": "<R104>",
      "single_word": false,
      "lstrip": false,
      "rstrip": false,
      "normalized": false,
      "special": true
    },
    {
      "id": 32105,
      "content": "<R105>",
      "single_word": false,
      "lstrip": false,
      "rstrip": false,
      "normalized": false,
      "special": true
    },
    {
      "id": 32106,
      "content": "<R106>",
      "single_word": false,
      "lstrip": false,
      "rstrip": false,
      "normalized": false,
      "special": true
    },
    {
      "id": 32107,
      "content": "<R107>",
      "single_word": false,
      "lstrip": false,
      "rstrip": false,
      "normalized": false,
      "special": true
    },
    {
      "id": 32108,
      "content": "<R108>",
      "single_word": false,
      "lstrip": false,
      "rstrip": false,
      "normalized": false,
      "special": true
    },
    {
      "id": 32109,
      "content": "<R109>",
      "single_word": false,
      "lstrip": false,
      "rstrip": false,
      "normalized": false,
      "special": true
    },
    {
      "id": 32110,
      "content": "<R110>",
      "single_word": false,
      "lstrip": false,
      "rstrip": false,
      "normalized": false,
      "special": true
    },
    {
      "id": 32111,
      "content": "<R111>",
      "single_word": false,
      "lstrip": false,
      "rstrip": false,
      "normalized": false,
      "special": true
    },
    {
      "id": 32112,
      "content": "<R112>",
      "single_word": false,
      "lstrip": false,
      "rstrip": false,
      "normalized": false,
      "special": true
    },
    {
      "id": 32113,
      "content": "<R113>",
      "single_word": false,
      "lstrip": false,
      "rstrip": false,
      "normalized": false,
      "special": true
    },
    {
      "id": 32114,
      "content": "<R114>",
      "single_word": false,
      "lstrip": false,
      "rstrip": false,
      "normalized": false,
      "special": true
    },
    {
      "id": 32115,
      "content": "<R115>",
      "single_word": false,
      "lstrip": false,
      "rstrip": false,
      "normalized": false,
      "special": true
    },
    {
      "id": 32116,
      "content": "<R116>",
      "single_word": false,
      "lstrip": false,
      "rstrip": false,
      "normalized": false,
      "special": true
    },
    {
      "id": 32117,
      "content": "<R117>",
      "single_word": false,
      "lstrip": false,
      "rstrip": false,
      "normalized": false,
      "special": true
    },
    {
      "id": 32118,
      "content": "<R118>",
      "single_word": false,
      "lstrip": false,
      "rstrip": false,
      "normalized": false,
      "special": true
    },
    {
      "id": 32119,
      "content": "<R119>",
      "single_word": false,
      "lstrip": false,
      "rstrip": false,
      "normalized": false,
      "special": true
    },
    {
      "id": 32120,
      "content": "<R120>",
      "single_word": false,
      "lstrip": false,
      "rstrip": false,
      "normalized": false,
      "special": true
    },
    {
      "id": 32121,
      "content": "<R121>",
      "single_word": false,
      "lstrip": false,
      "rstrip": false,
      "normalized": false,
      "special": true
    },
    {
      "id": 32122,
      "content": "<R122>",
      "single_word": false,
      "lstrip": false,
      "rstrip": false,
      "normalized": false,
      "special": true
    },
    {
      "id": 32123,
      "content": "<R123>",
      "single_word": false,
      "lstrip": false,
      "rstrip": false,
      "normalized": false,
      "special": true
    },
    {
      "id": 32124,
      "content": "<R124>",
      "single_word": false,
      "lstrip": false,
      "rstrip": false,
      "normalized": false,
      "special": true
    },
    {
      "id": 32125,
      "content": "<R125>",
      "single_word": false,
      "lstrip": false,
      "rstrip": false,
      "normalized": false,
      "special": true
    },
    {
      "id": 32126,
      "content": "<R126>",
      "single_word": false,
      "lstrip": false,
      "rstrip": false,
      "normalized": false,
      "special": true
    },
    {
      "id": 32127,
      "content": "<R127>",
      "single_word": false,
      "lstrip": false,
      "rstrip": false,
      "normalized": false,
      "special": true
    },
    {
      "id": 32128,
      "content": "<R128>",
      "single_word": false,
      "lstrip": false,
      "rstrip": false,
      "normalized": false,
      "special": true
    },
    {
      "id": 32129,
      "content": "<R129>",
      "single_word": false,
      "lstrip": false,
      "rstrip": false,
      "normalized": false,
      "special": true
    },
    {
      "id": 32130,
      "content": "<R130>",
      "single_word": false,
      "lstrip": false,
      "rstrip": false,
      "normalized": false,
      "special": true
    },
    {
      "id": 32131,
      "content": "<R131>",
      "single_word": false,
      "lstrip": false,
      "rstrip": false,
      "normalized": false,
      "special": true
    },
    {
      "id": 32132,
      "content": "<R132>",
      "single_word": false,
      "lstrip": false,
      "rstrip": false,
      "normalized": false,
      "special": true
    },
    {
      "id": 32133,
      "content": "<R133>",
      "single_word": false,
      "lstrip": false,
      "rstrip": false,
      "normalized": false,
      "special": true
    },
    {
      "id": 32134,
      "content": "<R134>",
      "single_word": false,
      "lstrip": false,
      "rstrip": false,
      "normalized": false,
      "special": true
    },
    {
      "id": 32135,
      "content": "<R135>",
      "single_word": false,
      "lstrip": false,
      "rstrip": false,
      "normalized": false,
      "special": true
    },
    {
      "id": 32136,
      "content": "<R136>",
      "single_word": false,
      "lstrip": false,
      "rstrip": false,
      "normalized": false,
      "special": true
    },
    {
      "id": 32137,
      "content": "<R137>",
      "single_word": false,
      "lstrip": false,
      "rstrip": false,
      "normalized": false,
      "special": true
    },
    {
      "id": 32138,
      "content": "<R138>",
      "single_word": false,
      "lstrip": false,
      "rstrip": false,
      "normalized": false,
      "special": true
    },
    {
      "id": 32139,
      "content": "<R139>",
      "single_word": false,
      "lstrip": false,
      "rstrip": false,
      "normalized": false,
      "special": true
    },
    {
      "id": 32140,
      "content": "<R140>",
      "single_word": false,
      "lstrip": false,
      "rstrip": false,
      "normalized": false,
      "special": true
    },
    {
      "id": 32141,
      "content": "<R141>",
      "single_word": false,
      "lstrip": false,
      "rstrip": false,
      "normalized": false,
      "special": true
    },
    {
      "id": 32142,
      "content": "<R142>",
      "single_word": false,
      "lstrip": false,
      "rstrip": false,
      "normalized": false,
      "special": true
    },
    {
      "id": 32143,
      "content": "<R143>",
      "single_word": false,
      "lstrip": false,
      "rstrip": false,
      "normalized": false,
      "special": true
    },
    {
      "id": 32144,
      "content": "<R144>",
      "single_word": false,
      "lstrip": false,
      "rstrip": false,
      "normalized": false,
      "special": true
    },
    {
      "id": 32145,
      "content": "<R145>",
      "single_word": false,
      "lstrip": false,
      "rstrip": false,
      "normalized": false,
      "special": true
    },
    {
      "id": 32146,
      "content": "<R146>",
      "single_word": false,
      "lstrip": false,
      "rstrip": false,
      "normalized": false,
      "special": true
    },
    {
      "id": 32147,
      "content": "<R147>",
      "single_word": false,
      "lstrip": false,
      "rstrip": false,
      "normalized": false,
      "special": true
    },
    {
      "id": 32148,
      "content": "<R148>",
      "single_word": false,
      "lstrip": false,
      "rstrip": false,
      "normalized": false,
      "special": true
    },
    {
      "id": 32149,
      "content": "<R149>",
      "single_word": false,
      "lstrip": false,
      "rstrip": false,
      "normalized": false,
      "special": true
    },
    {
      "id": 32150,
      "content": "<R150>",
      "single_word": false,
      "lstrip": false,
      "rstrip": false,
      "normalized": false,
      "special": true
    },
    {
      "id": 32151,
      "content": "<R151>",
      "single_word": false,
      "lstrip": false,
      "rstrip": false,
      "normalized": false,
      "special": true
    },
    {
      "id": 32152,
      "content": "<R152>",
      "single_word": false,
      "lstrip": false,
      "rstrip": false,
      "normalized": false,
      "special": true
    },
    {
      "id": 32153,
      "content": "<R153>",
      "single_word": false,
      "lstrip": false,
      "rstrip": false,
      "normalized": false,
      "special": true
    },
    {
      "id": 32154,
      "content": "<R154>",
      "single_word": false,
      "lstrip": false,
      "rstrip": false,
      "normalized": false,
      "special": true
    },
    {
      "id": 32155,
      "content": "<R155>",
      "single_word": false,
      "lstrip": false,
      "rstrip": false,
      "normalized": false,
      "special": true
    },
    {
      "id": 32156,
      "content": "<R156>",
      "single_word": false,
      "lstrip": false,
      "rstrip": false,
      "normalized": false,
      "special": true
    },
    {
      "id": 32157,
      "content": "<R157>",
      "single_word": false,
      "lstrip": false,
      "rstrip": false,
      "normalized": false,
      "special": true
    },
    {
      "id": 32158,
      "content": "<R158>",
      "single_word": false,
      "lstrip": false,
      "rstrip": false,
      "normalized": false,
      "special": true
    },
    {
      "id": 32159,
      "content": "<R159>",
      "single_word": false,
      "lstrip": false,
      "rstrip": false,
      "normalized": false,
      "special": true
    },
    {
      "id": 32160,
      "content": "<R160>",
      "single_word": false,
      "lstrip": false,
      "rstrip": false,
      "normalized": false,
      "special": true
    },
    {
      "id": 32161,
      "content": "<R161>",
      "single_word": false,
      "lstrip": false,
      "rstrip": false,
      "normalized": false,
      "special": true
    },
    {
      "id": 32162,
      "content": "<R162>",
      "single_word": false,
      "lstrip": false,
      "rstrip": false,
      "normalized": false,
      "special": true
    },
    {
      "id": 32163,
      "content": "<R163>",
      "single_word": false,
      "lstrip": false,
      "rstrip": false,
      "normalized": false,
      "special": true
    },
    {
      "id": 32164,
      "content": "<R164>",
      "single_word": false,
      "lstrip": false,
      "rstrip": false,
      "normalized": false,
      "special": true
    },
    {
      "id": 32165,
      "content": "<R165>",
      "single_word": false,
      "lstrip": false,
      "rstrip": false,
      "normalized": false,
      "special": true
    },
    {
      "id": 32166,
      "content": "<R166>",
      "single_word": false,
      "lstrip": false,
      "rstrip": false,
      "normalized": false,
      "special": true
    },
    {
      "id": 32167,
      "content": "<R167>",
      "single_word": false,
      "lstrip": false,
      "rstrip": false,
      "normalized": false,
      "special": true
    },
    {
      "id": 32168,
      "content": "<R168>",
      "single_word": false,
      "lstrip": false,
      "rstrip": false,
      "normalized": false,
      "special": true
    },
    {
      "id": 32169,
      "content": "<R169>",
      "single_word": false,
      "lstrip": false,
      "rstrip": false,
      "normalized": false,
      "special": true
    },
    {
      "id": 32170,
      "content": "<R170>",
      "single_word": false,
      "lstrip": false,
      "rstrip": false,
      "normalized": false,
      "special": true
    },
    {
      "id": 32171,
      "content": "<R171>",
      "single_word": false,
      "lstrip": false,
      "rstrip": false,
      "normalized": false,
      "special": true
    },
    {
      "id": 32172,
      "content": "<R172>",
      "single_word": false,
      "lstrip": false,
      "rstrip": false,
      "normalized": false,
      "special": true
    },
    {
      "id": 32173,
      "content": "<R173>",
      "single_word": false,
      "lstrip": false,
      "rstrip": false,
      "normalized": false,
      "special": true
    },
    {
      "id": 32174,
      "content": "<R174>",
      "single_word": false,
      "lstrip": false,
      "rstrip": false,
      "normalized": false,
      "special": true
    },
    {
      "id": 32175,
      "content": "<R175>",
      "single_word": false,
      "lstrip": false,
      "rstrip": false,
      "normalized": false,
      "special": true
    },
    {
      "id": 32176,
      "content": "<R176>",
      "single_word": false,
      "lstrip": false,
      "rstrip": false,
      "normalized": false,
      "special": true
    },
    {
      "id": 32177,
      "content": "<R177>",
      "single_word": false,
      "lstrip": false,
      "rstrip": false,
      "normalized": false,
      "special": true
    },
    {
      "id": 32178,
      "content": "<R178>",
      "single_word": false,
      "lstrip": false,
      "rstrip": false,
      "normalized": false,
      "special": true
    },
    {
      "id": 32179,
      "content": "<R179>",
      "single_word": false,
      "lstrip": false,
      "rstrip": false,
      "normalized": false,
      "special": true
    },
    {
      "id": 32180,
      "content": "<R180>",
      "single_word": false,
      "lstrip": false,
      "rstrip": false,
      "normalized": false,
      "special": true
    },
    {
      "id": 32181,
      "content": "<R181>",
      "single_word": false,
      "lstrip": false,
      "rstrip": false,
      "normalized": false,
      "special": true
    },
    {
      "id": 32182,
      "content": "<R182>",
      "single_word": false,
      "lstrip": false,
      "rstrip": false,
      "normalized": false,
      "special": true
    },
    {
      "id": 32183,
      "content": "<R183>",
      "single_word": false,
      "lstrip": false,
      "rstrip": false,
      "normalized": false,
      "special": true
    },
    {
      "id": 32184,
      "content": "<R184>",
      "single_word": false,
      "lstrip": false,
      "rstrip": false,
      "normalized": false,
      "special": true
    },
    {
      "id": 32185,
      "content": "<R185>",
      "single_word": false,
      "lstrip": false,
      "rstrip": false,
      "normalized": false,
      "special": true
    },
    {
      "id": 32186,
      "content": "<R186>",
      "single_word": false,
      "lstrip": false,
      "rstrip": false,
      "normalized": false,
      "special": true
    },
    {
      "id": 32187,
      "content": "<R187>",
      "single_word": false,
      "lstrip": false,
      "rstrip": false,
      "normalized": false,
      "special": true
    },
    {
      "id": 32188,
      "content": "<R188>",
      "single_word": false,
      "lstrip": false,
      "rstrip": false,
      "normalized": false,
      "special": true
    },
    {
      "id": 32189,
      "content": "<R189>",
      "single_word": false,
      "lstrip": false,
      "rstrip": false,
      "normalized": false,
      "special": true
    },
    {
      "id": 32190,
      "content": "<R190>",
      "single_word": false,
      "lstrip": false,
      "rstrip": false,
      "normalized": false,
      "special": true
    },
    {
      "id": 32191,
      "content": "<R191>",
      "single_word": false,
      "lstrip": false,
      "rstrip": false,
      "normalized": false,
      "special": true
    },
    {
      "id": 32192,
      "content": "<R192>",
      "single_word": false,
      "lstrip": false,
      "rstrip": false,
      "normalized": false,
      "special": true
    },
    {
      "id": 32193,
      "content": "<R193>",
      "single_word": false,
      "lstrip": false,
      "rstrip": false,
      "normalized": false,
      "special": true
    },
    {
      "id": 32194,
      "content": "<R194>",
      "single_word": false,
      "lstrip": false,
      "rstrip": false,
      "normalized": false,
      "special": true
    },
    {
      "id": 32195,
      "content": "<R195>",
      "single_word": false,
      "lstrip": false,
      "rstrip": false,
      "normalized": false,
      "special": true
    },
    {
      "id": 32196,
      "content": "<R196>",
      "single_word": false,
      "lstrip": false,
      "rstrip": false,
      "normalized": false,
      "special": true
    },
    {
      "id": 32197,
      "content": "<R197>",
      "single_word": false,
      "lstrip": false,
      "rstrip": false,
      "normalized": false,
      "special": true
    },
    {
      "id": 32198,
      "content": "<R198>",
      "single_word": false,
      "lstrip": false,
      "rstrip": false,
      "normalized": false,
      "special": true
    },
    {
      "id": 32199,
      "content": "<R199>",
      "single_word": false,
      "lstrip": false,
      "rstrip": false,
      "normalized": false,
      "special": true
    },
    {
      "id": 32200,
      "content": "<R200>",
      "single_word": false,
      "lstrip": false,
      "rstrip": false,
      "normalized": false,
      "special": true
    },
    {
      "id": 32201,
      "content": "<R201>",
      "single_word": false,
      "lstrip": false,
      "rstrip": false,
      "normalized": false,
      "special": true
    },
    {
      "id": 32202,
      "content": "<R202>",
      "single_word": false,
      "lstrip": false,
      "rstrip": false,
      "normalized": false,
      "special": true
    },
    {
      "id": 32203,
      "content": "<R203>",
      "single_word": false,
      "lstrip": false,
      "rstrip": false,
      "normalized": false,
      "special": true
    },
    {
      "id": 32204,
      "content": "<R204>",
      "single_word": false,
      "lstrip": false,
      "rstrip": false,
      "normalized": false,
      "special": true
    },
    {
      "id": 32205,
      "content": "<R205>",
      "single_word": false,
      "lstrip": false,
      "rstrip": false,
      "normalized": false,
      "special": true
    },
    {
      "id": 32206,
      "content": "<R206>",
      "single_word": false,
      "lstrip": false,
      "rstrip": false,
      "normalized": false,
      "special": true
    },
    {
      "id": 32207,
      "content": "<R207>",
      "single_word": false,
      "lstrip": false,
      "rstrip": false,
      "normalized": false,
      "special": true
    },
    {
      "id": 32208,
      "content": "<R208>",
      "single_word": false,
      "lstrip": false,
      "rstrip": false,
      "normalized": false,
      "special": true
    },
    {
      "id": 32209,
      "content": "<R209>",
      "single_word": false,
      "lstrip": false,
      "rstrip": false,
      "normalized": false,
      "special": true
    },
    {
      "id": 32210,
      "content": "<R210>",
      "single_word": false,
      "lstrip": false,
      "rstrip": false,
      "normalized": false,
      "special": true
    },
    {
      "id": 32211,
      "content": "<R211>",
      "single_word": false,
      "lstrip": false,
      "rstrip": false,
      "normalized": false,
      "special": true
    },
    {
      "id": 32212,
      "content": "<R212>",
      "single_word": false,
      "lstrip": false,
      "rstrip": false,
      "normalized": false,
      "special": true
    },
    {
      "id": 32213,
      "content": "<R213>",
      "single_word": false,
      "lstrip": false,
      "rstrip": false,
      "normalized": false,
      "special": true
    },
    {
      "id": 32214,
      "content": "<R214>",
      "single_word": false,
      "lstrip": false,
      "rstrip": false,
      "normalized": false,
      "special": true
    },
    {
      "id": 32215,
      "content": "<R215>",
      "single_word": false,
      "lstrip": false,
      "rstrip": false,
      "normalized": false,
      "special": true
    },
    {
      "id": 32216,
      "content": "<R216>",
      "single_word": false,
      "lstrip": false,
      "rstrip": false,
      "normalized": false,
      "special": true
    },
    {
      "id": 32217,
      "content": "<R217>",
      "single_word": false,
      "lstrip": false,
      "rstrip": false,
      "normalized": false,
      "special": true
    },
    {
      "id": 32218,
      "content": "<R218>",
      "single_word": false,
      "lstrip": false,
      "rstrip": false,
      "normalized": false,
      "special": true
    },
    {
      "id": 32219,
      "content": "<R219>",
      "single_word": false,
      "lstrip": false,
      "rstrip": false,
      "normalized": false,
      "special": true
    },
    {
      "id": 32220,
      "content": "<R220>",
      "single_word": false,
      "lstrip": false,
      "rstrip": false,
      "normalized": false,
      "special": true
    },
    {
      "id": 32221,
      "content": "<R221>",
      "single_word": false,
      "lstrip": false,
      "rstrip": false,
      "normalized": false,
      "special": true
    },
    {
      "id": 32222,
      "content": "<R222>",
      "single_word": false,
      "lstrip": false,
      "rstrip": false,
      "normalized": false,
      "special": true
    },
    {
      "id": 32223,
      "content": "<R223>",
      "single_word": false,
      "lstrip": false,
      "rstrip": false,
      "normalized": false,
      "special": true
    },
    {
      "id": 32224,
      "content": "<R224>",
      "single_word": false,
      "lstrip": false,
      "rstrip": false,
      "normalized": false,
      "special": true
    },
    {
      "id": 32225,
      "content": "<R225>",
      "single_word": false,
      "lstrip": false,
      "rstrip": false,
      "normalized": false,
      "special": true
    },
    {
      "id": 32226,
      "content": "<R226>",
      "single_word": false,
      "lstrip": false,
      "rstrip": false,
      "normalized": false,
      "special": true
    },
    {
      "id": 32227,
      "content": "<R227>",
      "single_word": false,
      "lstrip": false,
      "rstrip": false,
      "normalized": false,
      "special": true
    },
    {
      "id": 32228,
      "content": "<R228>",
      "single_word": false,
      "lstrip": false,
      "rstrip": false,
      "normalized": false,
      "special": true
    },
    {
      "id": 32229,
      "content": "<R229>",
      "single_word": false,
      "lstrip": false,
      "rstrip": false,
      "normalized": false,
      "special": true
    },
    {
      "id": 32230,
      "content": "<R230>",
      "single_word": false,
      "lstrip": false,
      "rstrip": false,
      "normalized": false,
      "special": true
    },
    {
      "id": 32231,
      "content": "<R231>",
      "single_word": false,
      "lstrip": false,
      "rstrip": false,
      "normalized": false,
      "special": true
    },
    {
      "id": 32232,
      "content": "<R232>",
      "single_word": false,
      "lstrip": false,
      "rstrip": false,
      "normalized": false,
      "special": true
    },
    {
      "id": 32233,
      "content": "<R233>",
      "single_word": false,
      "lstrip": false,
      "rstrip": false,
      "normalized": false,
      "special": true
    },
    {
      "id": 32234,
      "content": "<R234>",
      "single_word": false,
      "lstrip": false,
      "rstrip": false,
      "normalized": false,
      "special": true
    },
    {
      "id": 32235,
      "content": "<R235>",
      "single_word": false,
      "lstrip": false,
      "rstrip": false,
      "normalized": false,
      "special": true
    },
    {
      "id": 32236,
      "content": "<R236>",
      "single_word": false,
      "lstrip": false,
      "rstrip": false,
      "normalized": false,
      "special": true
    },
    {
      "id": 32237,
      "content": "<R237>",
      "single_word": false,
      "lstrip": false,
      "rstrip": false,
      "normalized": false,
      "special": true
    },
    {
      "id": 32238,
      "content": "<R238>",
      "single_word": false,
      "lstrip": false,
      "rstrip": false,
      "normalized": false,
      "special": true
    },
    {
      "id": 32239,
      "content": "<R239>",
      "single_word": false,
      "lstrip": false,
      "rstrip": false,
      "normalized": false,
      "special": true
    },
    {
      "id": 32240,
      "content": "<R240>",
      "single_word": false,
      "lstrip": false,
      "rstrip": false,
      "normalized": false,
      "special": true
    },
    {
      "id": 32241,
      "content": "<R241>",
      "single_word": false,
      "lstrip": false,
      "rstrip": false,
      "normalized": false,
      "special": true
    },
    {
      "id": 32242,
      "content": "<R242>",
      "single_word": false,
      "lstrip": false,
      "rstrip": false,
      "normalized": false,
      "special": true
    },
    {
      "id": 32243,
      "content": "<R243>",
      "single_word": false,
      "lstrip": false,
      "rstrip": false,
      "normalized": false,
      "special": true
    },
    {
      "id": 32244,
      "content": "<R244>",
      "single_word": false,
      "lstrip": false,
      "rstrip": false,
      "normalized": false,
      "special": true
    },
    {
      "id": 32245,
      "content": "<R245>",
      "single_word": false,
      "lstrip": false,
      "rstrip": false,
      "normalized": false,
      "special": true
    },
    {
      "id": 32246,
      "content": "<R246>",
      "single_word": false,
      "lstrip": false,
      "rstrip": false,
      "normalized": false,
      "special": true
    },
    {
      "id": 32247,
      "content": "<R247>",
      "single_word": false,
      "lstrip": false,
      "rstrip": false,
      "normalized": false,
      "special": true
    },
    {
      "id": 32248,
      "content": "<R248>",
      "single_word": false,
      "lstrip": false,
      "rstrip": false,
      "normalized": false,
      "special": true
    },
    {
      "id": 32249,
      "content": "<R249>",
      "single_word": false,
      "lstrip": false,
      "rstrip": false,
      "normalized": false,
      "special": true
    },
    {
      "id": 32250,
      "content": "<R250>",
      "single_word": false,
      "lstrip": false,
      "rstrip": false,
      "normalized": false,
      "special": true
    },
    {
      "id": 32251,
      "content": "<R251>",
      "single_word": false,
      "lstrip": false,
      "rstrip": false,
      "normalized": false,
      "special": true
    },
    {
      "id": 32252,
      "content": "<R252>",
      "single_word": false,
      "lstrip": false,
      "rstrip": false,
      "normalized": false,
      "special": true
    },
    {
      "id": 32253,
      "content": "<R253>",
      "single_word": false,
      "lstrip": false,
      "rstrip": false,
      "normalized": false,
      "special": true
    },
    {
      "id": 32254,
      "content": "<R254>",
      "single_word": false,
      "lstrip": false,
      "rstrip": false,
      "normalized": false,
      "special": true
    },
    {
      "id": 32255,
      "content": "<R255>",
      "single_word": false,
      "lstrip": false,
      "rstrip": false,
      "normalized": false,
      "special": true
    }
  ],
  "normalizer": null,
  "pre_tokenizer": {
    "type": "ByteLevel",
    "add_prefix_space": false,
    "trim_offsets": true,
    "use_regex": true
  },
  "post_processor": {
    "type": "TemplateProcessing",
    "single": [
      {
        "SpecialToken": {
          "id": "<bos>",
          "type_id": 0
        }
      },
      {
        "Sequence": {
          "id": "A",
          "type_id": 0
        }
      },
      {
        "SpecialToken": {
          "id": "<eos>",
          "type_id": 0
        }
      }
    ],
    "pair": [
      {
        "SpecialToken": {
          "id": "<bos>",
          "type_id": 0
        }
      },
      {
        "Sequence": {
          "id": "A",
          "type_id": 0
        }
      },
      {
        "SpecialToken": {
          "id": "<eos>",
          "type_id": 0
        }
      },
      {
        "Sequence": {
          "id": "B",
          "type_id": 1
        }
      },
      {
        "SpecialToken": {
          "id": "<eos>",
          "type_id": 1
        }
      }
    ],
    "special_tokens": {
      "<bos>": {
        "id": "<bos>",
        "ids": [
          1
        ],
        "tokens": [
          "<bos>"
        ]
      },
      "<eos>": {
        "id": "<eos>",
        "ids": [
          2
        ],
        "tokens": [
          "<eos>"
        ]
      }
    }
  },
  "decoder": {
    "type": "ByteLevel",
    "add_prefix_space": true,
    "trim_offsets": true,
    "use_regex": true
  },
  "model": {
    "type": "BPE",
    "dropout": null,
    "unk_token": "<unk>",
    "continuing_subword_prefix": null,
    "end_of_word_suffix": null,
    "fuse_unk": false,
    "byte_fallback": true,
    "ignore_merges": false,
    "vocab": {
      "<pad>": 0,
      "<bos>": 1,
      "<eos>": 2,
      "<unk>": 3,
      "!": 4,
      "\"": 5,
      "#": 6,
      "$": 7,
      "%": 8,
      "&": 9,
      "'": 10,
      "(": 11,
      ")": 12,
      "*": 13,
      "+": 14,
      ",": 15,
      "-": 16,
      ".": 17,
      "/": 18,
      "0": 19,
      "1": 20,
      "2": 21,
      "3": 22,
      "4": 23,
      "5": 24,
      "6": 25,
      "7": 26,
      "8": 27,
      "9": 28,
      ":": 29,
      ";": 30,
      "<": 31,
      "=": 32,
      ">": 33,
      "?": 34,
      "@": 35,
      "A": 36,
      "B": 37,
      "C": 38,
      "D": 39,
      "E": 40,
      "F": 41,
      "G": 42,
      "H": 43,
      "I": 44,
      "J": 45,
      "K": 46,
      "L": 47,
      "M": 48,
      "N": 49,
      "O": 50,
      "P": 51,
      "Q": 52,
      "R": 53,
      "S": 54,
      "T": 55,
      "U": 56,
      "V": 57,
      "W": 58,
      "X": 59,
      "Y": 60,
      "Z": 61,
      "[": 62,
      "\\": 63,
      "]": 64,
      "^": 65,
      "_": 66,
      "`": 67,
      "a": 68,
      "b": 69,
      "c": 70,
      "d": 71,
      "e": 72,
      "f": 73,
      "g": 74,
      "h": 75,
      "i": 76,
      "j": 77,
      "k": 78,
      "l": 79,
      "m": 80,
      "n": 81,
      "o": 82,
      "p": 83,
      "q": 84,
      "r": 85,
      "s": 86,
      "t": 87,
      "u": 88,
      "v": 89,
      "w": 90,
      "x": 91,
      "y": 92,
      "z": 93,
      "{": 94,
      "|": 95,
      "}": 96,
      "~": 97,
      "¡": 98,
      "¢": 99,
      "£": 100,
      "¤": 101,
      "¥": 102,
      "¦": 103,
      "§": 104,
      "¨": 105,
      "©": 106,
      "ª": 107,
      "«": 108,
      "¬": 109,
      "®": 110,
      "¯": 111,
      "°": 112,
      "±": 113,
      "²": 114,
      "³": 115,
      "´": 116,
      "µ": 117,
      "¶": 118,
      "·": 119,
      "¸": 120,
      "¹": 121,
      "º": 122,
      "»": 123,
      "¼": 124,
      "½": 125,
      "¾": 126,
      "¿": 127,
      "Â": 128,
      "Ã": 129,
      "Ä": 130,
      "Å": 131,
      "Æ": 132,
      "Ç": 133,
      "È": 134,
      "É": 135,
      "Ê": 136,
      "Ë": 137,
      "Ì": 138,
      "Í": 139,
      "Î": 140,
      "Ï": 141,
      "Ð": 142,
      "Ñ": 143,
      "Ò": 144,
      "Ó": 145,
      "Ô": 146,
      "Õ": 147,
      "Ö": 148,
      "×": 149,
      "Ø": 150,
      "Ù": 151,
      "Ú": 152,
      "Û": 153,
      "Ü": 154,
      "à": 155,
      "á": 156,
      "â": 157,
      "ã": 158,
      "ä": 159,
      "å": 160,
      "æ": 161,
      "ç": 162,
      "è": 163,
      "é": 164,
      "ê": 165,
      "ë": 166,
      "ì": 167,
      "í": 168,
      "î": 169,
      "ï": 170,
      "ð": 171,
      "ó": 172,
      "Ċ": 173,
      "Ġ": 174,
      "Ģ": 175,
      "ģ": 176,
      "Ĥ": 177,
      "ĥ": 178,
      "Ħ": 179,
      "ħ": 180,
      "Ĩ": 181,
      "ĩ": 182,
      "Ī": 183,
      "ī": 184,
      "Ĭ": 185,
      "ĭ": 186,
      "Į": 187,
      "į": 188,
      "İ": 189,
      "ı": 190,
      "Ĳ": 191,
      "ĳ": 192,
      "Ĵ": 193,
      "ĵ": 194,
      "Ķ": 195,
      "ķ": 196,
      "ĸ": 197,
      "Ĺ": 198,
      "ĺ": 199,
      "Ļ": 200,
      "ļ": 201,
      "Ľ": 202,
      "ľ": 203,
      "Ŀ": 204,
      "ŀ": 205,
      "Ł": 206,
      "ł": 207,
      "Ń": 208,
      "Ġt": 209,
      "Ġa": 210,
      "Ġì": 211,
      "he": 212,
      "in": 213,
      "on": 214,
      "re": 215,
      "ìĿ": 216,
      "er": 217,
      "Ġthe": 218,
      "Ġë": 219,
      "Ġs": 220,
      "at": 221,
      "es": 222,
      "en": 223,
      "Ġo": 224,
      "Ġ\"": 225,
      "Ġc": 226,
      "an": 227,
      "Ġw": 228,
      "is": 229,
      "al": 230,
      "ing": 231,
      "Ġan": 232,
      "Ġp": 233,
      "it": 234,
      "íķ": 235,
      "ou": 236,
      "or": 237,
      "Ġf": 238,
      "Ġb": 239,
      "ed": 240,
      "Ġê": 241,
      "Ġof": 242,
      "ar": 243,
      "ion": 244,
      "Ġm": 245,
      "Ġand": 246,
      "Ġin": 247,
      "ic": 248,
      "Ġto": 249,
      "\":": 250,
      "ìĹ": 251,
      "Ġd": 252,
      "as": 253,
      ".\\": 254,
      "ëĭ": 255,
      "ro": 256,
      "le": 257,
      "##": 258,
      "\",": 259,
      "Ġh": 260,
      "Ġí": 261,
      "ìĿĺ": 262,
      "ëĭ¤": 263,
      "ct": 264,
      "ent": 265,
      "ìĿ´": 266,
      "st": 267,
      "Ġth": 268,
      "il": 269,
      "Ġe": 270,
      "ìĹĲ": 271,
      "Ġ1": 272,
      "ìĦ": 273,
      "ê³": 274,
      "ce": 275,
      "om": 276,
      "ëĬ": 277,
      "Ġl": 278,
      "el": 279,
      "Ġre": 280,
      "ëĬĶ": 281,
      "ë¡": 282,
      "Ġis": 283,
      "Ġn": 284,
      "et": 285,
      "ol": 286,
      ":\\": 287,
      "ìł": 288,
      "ĠìĿ": 289,
      "id": 290,
      "Ġg": 291,
      "ë¡ľ": 292,
      "êµ": 293,
      "ê°": 294,
      "se": 295,
      "ĠT": 296,
      "íķĺ": 297,
      "ve": 298,
      "ëħ": 299,
      "ĠA": 300,
      "ìŀ": 301,
      "ow": 302,
      "ut": 303,
      "im": 304,
      "ch": 305,
      "ë¦": 306,
      "ë¥": 307,
      "Ġ2": 308,
      "ation": 309,
      "ì§": 310,
      "Ġbe": 311,
      "am": 312,
      "###": 313,
      "our": 314,
      "ëħĦ": 315,
      "ìľ": 316,
      "ĠI": 317,
      "Ġu": 318,
      "íķľ": 319,
      "ìĿĦ": 320,
      "Ġst": 321,
      "Ġon": 322,
      "ot": 323,
      "ly": 324,
      "Ġfor": 325,
      "Ġìŀ": 326,
      "ver": 327,
      "ur": 328,
      "ig": 329,
      "ëı": 330,
      "ir": 331,
      "ìĭ": 332,
      "ĮĢ": 333,
      "Ġy": 334,
      "est": 335,
      "¸°": 336,
      "âĢ": 337,
      "pe": 338,
      "if": 339,
      "ay": 340,
      "te": 341,
      "ul": 342,
      "ìĽ": 343,
      "ìķ": 344,
      "Ġthat": 345,
      "Ĥ¬": 346,
      "Ġìł": 347,
      "ĠS": 348,
      "ad": 349,
      "ru": 350,
      "ìĿĢ": 351,
      "ê°Ģ": 352,
      "ith": 353,
      "her": 354,
      "ë¦¬": 355,
      "ê³ł": 356,
      "ìĬ": 357,
      "ab": 358,
      "ìĦľ": 359,
      "Ġ(": 360,
      "xt": 361,
      "Ġare": 362,
      "ĠC": 363,
      "Ġas": 364,
      "Ġpro": 365,
      "Ġê°": 366,
      "and": 367,
      "Ġit": 368,
      "Ġwith": 369,
      "ìľ¼": 370,
      "ì§Ģ": 371,
      "ĠìĿ´": 372,
      "ter": 373,
      "ìĸ": 374,
      "Ġcon": 375,
      "ate": 376,
      "ëĵ": 377,
      "Ġor": 378,
      "Ġ\\": 379,
      "rom": 380,
      "Īëĭ¤": 381,
      "ìļ": 382,
      "ag": 383,
      "ê¸°": 384,
      "Ġë°": 385,
      "ac": 386,
      "oun": 387,
      "00": 388,
      "Ġwh": 389,
      "ty": 390,
      "ë¥¼": 391,
      "ìĬ¤": 392,
      "Ġal": 393,
      "od": 394,
      "Īĺ": 395,
      "ĠThe": 396,
      "ìĿ¼": 397,
      "ĠìĦ": 398,
      "ĠR": 399,
      "Ġìķ": 400,
      "ers": 401,
      "ëĤ": 402,
      "Ġhe": 403,
      "ction": 404,
      "ëıĦ": 405,
      "ain": 406,
      "ìĺ": 407,
      "um": 408,
      "text": 409,
      "op": 410,
      "th": 411,
      "qu": 412,
      "ë¶": 413,
      "êµŃ": 414,
      "Ŀ¼": 415,
      "ak": 416,
      "ess": 417,
      "sw": 418,
      "ëł": 419,
      "ë§": 420,
      "ore": 421,
      "ri": 422,
      "Ġde": 423,
      "ìĿ¸": 424,
      "Ġcom": 425,
      "ê²": 426,
      "{\"": 427,
      "swer": 428,
      "ĠM": 429,
      "nC": 430,
      "ment": 431,
      "ìĭľ": 432,
      "ìĸ´": 433,
      "ëĿ¼": 434,
      "ìĽĶ": 435,
      "ill": 436,
      "Ġcan": 437,
      "ĠIn": 438,
      "ts": 439,
      "ìľ¼ë¡ľ": 440,
      "£¼": 441,
      "ĠìĹ": 442,
      "ud": 443,
      "ë©": 444,
      "Ġsu": 445,
      "Ġìĭ": 446,
      "ĠP": 447,
      "Ġv": 448,
      "us": 449,
      "pt": 450,
      "Ġ-": 451,
      "ew": 452,
      "ĠëĮĢ": 453,
      "ëĲ": 454,
      "ity": 455,
      "estion": 456,
      "iv": 457,
      "res": 458,
      "Ġwe": 459,
      "ies": 460,
      "Ġ19": 461,
      "ĠB": 462,
      "ld": 463,
      "Ġê³": 464,
      "ë°": 465,
      "Ġr": 466,
      "igh": 467,
      "sour": 468,
      "Ġêµ": 469,
      "os": 470,
      "ĠW": 471,
      "ìŀĲ": 472,
      "Ġse": 473,
      "Ġê²": 474,
      "Ġex": 475,
      "Ġë§": 476,
      "Qu": 477,
      "Ġch": 478,
      "ëĮĢ": 479,
      "ìĹĲìĦľ": 480,
      "ìĤ¬": 481,
      "ĠH": 482,
      "Ġby": 483,
      "ist": 484,
      "Ġì§": 485,
      "Ġ\"###": 486,
      "source": 487,
      "ìĻ": 488,
      "red": 489,
      "ì¹": 490,
      "ive": 491,
      "Ġha": 492,
      "type": 493,
      "all": 494,
      "Question": 495,
      "íķ´": 496,
      "ë¯": 497,
      "un": 498,
      "íĻ": 499,
      "em": 500,
      "·¸": 501,
      ".\",": 502,
      "Ġle": 503,
      "ë¶Ģ": 504,
      "Ġat": 505,
      "ra": 506,
      "íķĻ": 507,
      "pp": 508,
      "ë¬": 509,
      "ê³¼": 510,
      "Ġsh": 511,
      "nT": 512,
      "Ġfrom": 513,
      "ci": 514,
      "ìķĦ": 515,
      "Ġìĺ": 516,
      "nA": 517,
      "Ġen": 518,
      "ë³": 519,
      "ĠD": 520,
      "ok": 521,
      "Ġëĭ": 522,
      "ëŀ": 523,
      "ìĥ": 524,
      "ĠĠ": 525,
      "Ġ3": 526,
      "ĠE": 527,
      "ëĤĺ": 528,
      "íĺ": 529,
      "Ġwas": 530,
      "ĠëĤ": 531,
      "âĢĻ": 532,
      "Ġëı": 533,
      "ĠìĤ¬": 534,
      "ant": 535,
      ")\\": 536,
      "Ġyou": 537,
      "ff": 538,
      "Ġìľ": 539,
      "ren": 540,
      "Ġë¶": 541,
      "Ġpl": 542,
      "ĠAn": 543,
      "og": 544,
      "Ġk": 545,
      "ĠF": 546,
      "ort": 547,
      "ì²": 548,
      "ìłķ": 549,
      "ure": 550,
      "Ġhave": 551,
      "Ġus": 552,
      "ëĵ¤": 553,
      "Ġ4": 554,
      "íĸ": 555,
      "ì£¼": 556,
      "stru": 557,
      "ical": 558,
      "ge": 559,
      "old": 560,
      "Ġwor": 561,
      "\"}": 562,
      "ìĪĺ": 563,
      "ëª": 564,
      "Ġë³": 565,
      "age": 566,
      "íĥ": 567,
      "ë²": 568,
      "Ġê·¸": 569,
      "du": 570,
      "ener": 571,
      "rou": 572,
      "Ġun": 573,
      "ëĲĺ": 574,
      "art": 575,
      "ost": 576,
      "êµ¬": 577,
      "ich": 578,
      "struction": 579,
      "Ġne": 580,
      "Ġim": 581,
      "¡°": 582,
      "ine": 583,
      "ens": 584,
      "ide": 585,
      "ason": 586,
      "Ġtheir": 587,
      "per": 588,
      "ect": 589,
      "ight": 590,
      "Ġ<": 591,
      "Ġab": 592,
      "ĠN": 593,
      "ìĨ": 594,
      "¤ĳ": 595,
      "ds": 596,
      "ip": 597,
      "ĠG": 598,
      "ould": 599,
      "oic": 600,
      "pon": 601,
      "ĠìĪĺ": 602,
      "ther": 603,
      "ell": 604,
      "ome": 605,
      "nThe": 606,
      "ëį": 607,
      "ìĦ±": 608,
      "ĠL": 609,
      "gh": 610,
      "ìłģ": 611,
      "íĬ": 612,
      "ence": 613,
      "Ġëª": 614,
      "ia": 615,
      "ìĻĢ": 616,
      "ëŁ": 617,
      "Ġnot": 618,
      "Ġì§Ģ": 619,
      "ik": 620,
      "nB": 621,
      "oc": 622,
      "ìŀ¥": 623,
      "Ġê°Ģ": 624,
      "ë¥´": 625,
      "ëıĻ": 626,
      "ĠâĢ": 627,
      "'s": 628,
      "íĻĶ": 629,
      "Ġyour": 630,
      "iz": 631,
      "pl": 632,
      "ìĺĢ": 633,
      "Ġthis": 634,
      "ìĽĲ": 635,
      "Ġman": 636,
      "ìłľ": 637,
      "ë¯¼": 638,
      "out": 639,
      "Ġinc": 640,
      "iff": 641,
      "Ġhas": 642,
      "ĠìłĦ": 643,
      "ìĿ´ëĭ¤": 644,
      "Ġ5": 645,
      "ount": 646,
      "ound": 647,
      "ĠQuestion": 648,
      "ach": 649,
      "Ġ20": 650,
      "ack": 651,
      "ĠAnswer": 652,
      "Ġê¸°": 653,
      "ates": 654,
      "act": 655,
      "íĬ¸": 656,
      "êµĲ": 657,
      "ood": 658,
      "eneral": 659,
      "Ĥ°": 660,
      "Ġar": 661,
      "ated": 662,
      "Ġad": 663,
      "ater": 664,
      "asoning": 665,
      "ass": 666,
      "Ġcomp": 667,
      "ans": 668,
      "ake": 669,
      "¹Ħ": 670,
      "Ġthey": 671,
      "Ġso": 672,
      "Ġint": 673,
      "nD": 674,
      "ìĹĪëĭ¤": 675,
      "Ġwhe": 676,
      "Ġìĭľ": 677,
      "ast": 678,
      "Ġmore": 679,
      "ust": 680,
      "ĠìķĦ": 681,
      "ĠO": 682,
      "Ġall": 683,
      "ĠìĿ¼": 684,
      "orm": 685,
      "Ġë¬": 686,
      "ĠìŀĪ": 687,
      "Ġte": 688,
      "?\\": 689,
      "Ġcl": 690,
      "Ġcont": 691,
      "ìłĦ": 692,
      "ous": 693,
      "der": 694,
      "so": 695,
      "Ġìłķ": 696,
      "Ġwill": 697,
      "ĠU": 698,
      "ìļ°": 699,
      "cc": 700,
      "ars": 701,
      "Ġdo": 702,
      "ë©°": 703,
      "lab": 704,
      "ìĥģ": 705,
      "Ġtr": 706,
      "ily": 707,
      "Ġìĥ": 708,
      "\\\"": 709,
      "vel": 710,
      "ong": 711,
      "íĨ": 712,
      "Ġwhich": 713,
      "able": 714,
      "ard": 715,
      "ëĵľ": 716,
      "prom": 717,
      "ìĹ¬": 718,
      "answer": 719,
      "ì¹ĺ": 720,
      "prompt": 721,
      "ê²Į": 722,
      "Ġìłľ": 723,
      "Ġdis": 724,
      "nCh": 725,
      "Ġíĺ": 726,
      "ļĮ": 727,
      "´Ģ": 728,
      "íķĺìĺĢ": 729,
      "ial": 730,
      "ĠTh": 731,
      "ĶĦ": 732,
      "Ġimp": 733,
      "oices": 734,
      "ĠRes": 735,
      "Ġëĵ": 736,
      "Ġother": 737,
      "andid": 738,
      "ĠìŀĪëĭ¤": 739,
      "Ġíķľ": 740,
      "general": 741,
      "ìĹŃ": 742,
      "ib": 743,
      "ë©´": 744,
      "label": 745,
      "ĠìĨ": 746,
      "ĽĦ": 747,
      "gold": 748,
      "candid": 749,
      "nChoices": 750,
      "Ġì¤ĳ": 751,
      "ations": 752,
      "Ġj": 753,
      "ĠJ": 754,
      "íĦ": 755,
      "ents": 756,
      "ep": 757,
      "Ġ=": 758,
      "ap": 759,
      "ition": 760,
      "Ġme": 761,
      "ìĦł": 762,
      "ance": 763,
      "Ġìļ": 764,
      "ponse": 765,
      "Ġì²": 766,
      "Ġsp": 767,
      "ind": 768,
      "ãĢ": 769,
      "Ġë¯": 770,
      "ary": 771,
      "Ġper": 772,
      "Ġtim": 773,
      "ks": 774,
      "Ġ\\\"": 775,
      "get": 776,
      "ģ¬": 777,
      "end": 778,
      "ĠíĻ": 779,
      "ally": 780,
      "Ġone": 781,
      "ase": 782,
      "êµŃìĿĺ": 783,
      "are": 784,
      "ìĤ°": 785,
      "ìĦ¸": 786,
      "ì°": 787,
      "av": 788,
      "ber": 789,
      "ook": 790,
      "Ġres": 791,
      "Ġíķĺ": 792,
      "Ġtru": 793,
      "ë§Į": 794,
      "Ġëĭ¤": 795,
      "19": 796,
      "ame": 797,
      "Ġout": 798,
      "one": 799,
      "ace": 800,
      "ild": 801,
      "ĠInstruction": 802,
      "ĠResponse": 803,
      "own": 804,
      "ice": 805,
      "ìļ©": 806,
      "Ġro": 807,
      "au": 808,
      "ëªħ": 809,
      "icul": 810,
      "Ġì¶": 811,
      "Ġ6": 812,
      "Ġíķ": 813,
      "Ġpe": 814,
      "ign": 815,
      "ces": 816,
      "Ġìĸ": 817,
      "ë§Ī": 818,
      "Ġhis": 819,
      "ë¬¸": 820,
      "10": 821,
      "íĦ°": 822,
      "low": 823,
      "edu": 824,
      "ile": 825,
      "ĠìĿ¸": 826,
      "íļĮ": 827,
      "ang": 828,
      "Ġ[": 829,
      "ely": 830,
      "Ġalso": 831,
      "Ġì£¼": 832,
      "Ġbut": 833,
      "ê³Ħ": 834,
      "ĠìŀĲ": 835,
      "reat": 836,
      "Ġë²": 837,
      "ite": 838,
      "ry": 839,
      "form": 840,
      "Ġê³µ": 841,
      "Ġup": 842,
      "led": 843,
      "ko": 844,
      "nI": 845,
      "Ġtrue": 846,
      "nQuestion": 847,
      "ie": 848,
      "Ġìľł": 849,
      "ress": 850,
      "ëĭĪ": 851,
      "amily": 852,
      "ue": 853,
      "qui": 854,
      "ĠëĮĢíķľ": 855,
      "íķĺëĬĶ": 856,
      "ree": 857,
      "Ġíı": 858,
      "Ġinto": 859,
      "eb": 860,
      "ë£": 861,
      "íĮ": 862,
      "fin": 863,
      "Ġabout": 864,
      "Ġspe": 865,
      "Ġthem": 866,
      "Ġsy": 867,
      "íķĺìĺĢëĭ¤": 868,
      "ose": 869,
      "Ġits": 870,
      "ëŁ¬": 871,
      "ĠëĲ": 872,
      "ory": 873,
      "very": 874,
      "ĠRe": 875,
      "Ġë³´": 876,
      "ions": 877,
      "Ġev": 878,
      "ays": 879,
      "ìĭł": 880,
      "Ġ10": 881,
      "ĠìĻ": 882,
      "Ġ200": 883,
      "±°": 884,
      "ĠìĬ": 885,
      "íı": 886,
      "ask": 887,
      "ì¡°": 888,
      "âĢĿ": 889,
      "ors": 890,
      "Ġstud": 891,
      "ê³µ": 892,
      "Ġ8": 893,
      "ĠThis": 894,
      "ople": 895,
      "Ġê²ĥ": 896,
      "íģ¬": 897,
      "ier": 898,
      "Ġcomm": 899,
      "êµ°": 900,
      "ning": 901,
      "Ġ7": 902,
      "Ġtw": 903,
      "ish": 904,
      "¢ħ": 905,
      "ìĨĮ": 906,
      "Ġê²½": 907,
      "\"]": 908,
      "reasoning": 909,
      "Ġ[\"": 910,
      "ĠIt": 911,
      "ĠëıĻ": 912,
      "ìľĦ": 913,
      ">>": 914,
      "Ġë¯¸": 915,
      "Ġì¡°": 916,
      "sh": 917,
      "ĠìľĦ": 918,
      "Ġqu": 919,
      "Ġgo": 920,
      "íĺ¸": 921,
      "20": 922,
      "Ġê°ľ": 923,
      "row": 924,
      "les": 925,
      "con": 926,
      "Ġtime": 927,
      "Ġwere": 928,
      "Ġover": 929,
      "Ġapp": 930,
      "eren": 931,
      "Ġbec": 932,
      "Ġno": 933,
      "Ġhel": 934,
      "ult": 935,
      "ĠëĤĺ": 936,
      "Ġdiff": 937,
      "Ġëĵ±": 938,
      "Ġhow": 939,
      "ê¸": 940,
      "ëĲľ": 941,
      "Ġthan": 942,
      "íĥĢ": 943,
      "ĠêµŃ": 944,
      "Ġìĺģ": 945,
      "Ġë¶Ģ": 946,
      "Ġpeople": 947,
      "Ġbl": 948,
      "okens": 949,
      "Ġwho": 950,
      "),": 951,
      "Ġpre": 952,
      "Ġê³ł": 953,
      "ĠK": 954,
      "Ġher": 955,
      "Ġnew": 956,
      "ìĿĮ": 957,
      "ub": 958,
      "Ġye": 959,
      "ĠSt": 960,
      "als": 961,
      "Ġwork": 962,
      "Ġfe": 963,
      "ë¯¸": 964,
      "Ġhelp": 965,
      "ĠìĨĮ": 966,
      "rough": 967,
      "Ġsome": 968,
      "ì¡": 969,
      "Ġdi": 970,
      "Ġíĥ": 971,
      "Ġkn": 972,
      "ath": 973,
      "ph": 974,
      "ì§Ħ": 975,
      "Ġì°": 976,
      "ĠìĦľ": 977,
      "ë¹Ħ": 978,
      "Ġ18": 979,
      "Ġuse": 980,
      "Ġthere": 981,
      "lud": 982,
      "ĠìĦł": 983,
      "Ġ9": 984,
      "íĤ": 985,
      "olog": 986,
      "ĠìĽ": 987,
      "íķĺê³ł": 988,
      "Ġwhen": 989,
      "ĠìĹ°": 990,
      "ail": 991,
      "ings": 992,
      "Ġlik": 993,
      "ific": 994,
      "Ġneed": 995,
      "nS": 996,
      "ìĭĿ": 997,
      "Ġì¹": 998,
      "íķĺìĹ¬": 999,
      "Ġmany": 1000,
      "ìĺ¤": 1001,
      "Ġdes": 1002,
      "Ġêµ¬": 1003,
      "erv": 1004,
      "Ġbet": 1005,
      "ĠëıĦ": 1006,
      "Ġpart": 1007,
      "Ġmay": 1008,
      "Ġsuch": 1009,
      "Ġcol": 1010,
      "Ġ$": 1011,
      "family": 1012,
      "ĠâĢľ": 1013,
      "Ġwater": 1014,
      "ê°Ħ": 1015,
      "task": 1016,
      "irst": 1017,
      "stem": 1018,
      "12": 1019,
      "ì²´": 1020,
      "eweb": 1021,
      "fineweb": 1022,
      "mer": 1023,
      "Ġprodu": 1024,
      "Ġsc": 1025,
      "we": 1026,
      "ĠĠĠĠ": 1027,
      "ë³´": 1028,
      "ove": 1029,
      "ĠìĦ¸": 1030,
      "ool": 1031,
      "Ġìĺ¤": 1032,
      "ëłĪ": 1033,
      "ick": 1034,
      "Ġìĭł": 1035,
      "gr": 1036,
      "íĸĪëĭ¤": 1037,
      "ne": 1038,
      "Ġrec": 1039,
      "ìŀ¬": 1040,
      "quired": 1041,
      "Ġacc": 1042,
      "alth": 1043,
      "Ġtwo": 1044,
      "Ġmost": 1045,
      "lect": 1046,
      "Ġë°ľ": 1047,
      "ĠìĿĺ": 1048,
      "ll": 1049,
      "ì¶": 1050,
      "ark": 1051,
      "ê²½": 1052,
      "ĠëĮĢíķľë¯¼": 1053,
      "ai": 1054,
      "ough": 1055,
      "uff": 1056,
      "Ġëª¨": 1057,
      "cess": 1058,
      "Ġ12": 1059,
      "Ġoff": 1060,
      "ķĮ": 1061,
      "ëĭ¹": 1062,
      "ause": 1063,
      "Ġshe": 1064,
      "Ġused": 1065,
      "ons": 1066,
      "ple": 1067,
      "Ġinclud": 1068,
      "ov": 1069,
      "ĠíĮ": 1070,
      "put": 1071,
      "ĠêµĲ": 1072,
      "ë³¸": 1073,
      "ëĦ": 1074,
      "Ġwould": 1075,
      "ob": 1076,
      "Ġnum": 1077,
      "ord": 1078,
      "ting": 1079,
      "vers": 1080,
      "Ġcons": 1081,
      "ìĹĪ": 1082,
      "Ġgr": 1083,
      "ìĥĿ": 1084,
      "íķľëĭ¤": 1085,
      "ì¹´": 1086,
      "Ġë§Ī": 1087,
      "edia": 1088,
      "ìĹĲëĬĶ": 1089,
      "ê´Ģ": 1090,
      "ys": 1091,
      "ities": 1092,
      "ĠíĨ": 1093,
      "Ġprov": 1094,
      "Ġeff": 1095,
      "ëł¥": 1096,
      "ĠìĦ±": 1097,
      "nW": 1098,
      "ject": 1099,
      "ĠCh": 1100,
      "ating": 1101,
      "Ġbeen": 1102,
      "íĶĦ": 1103,
      "ĠWh": 1104,
      "Ġph": 1105,
      "ëį°": 1106,
      "rit": 1107,
      "velop": 1108,
      "udget": 1109,
      "ms": 1110,
      "ata": 1111,
      "ĳĲ": 1112,
      "Ġthese": 1113,
      "Ġthen": 1114,
      "Ġë¹Ħ": 1115,
      "ric": 1116,
      "Ġdifferen": 1117,
      "±´": 1118,
      "½Ķ": 1119,
      "Ġwhat": 1120,
      "ë¬¼": 1121,
      "Ġam": 1122,
      "Ġthrough": 1123,
      "hes": 1124,
      "Ġhad": 1125,
      "Ġmake": 1126,
      "count": 1127,
      "lic": 1128,
      "íĽĦ": 1129,
      "ĳľ": 1130,
      "ìľ¼ë©°": 1131,
      "ëł¤": 1132,
      "ĠëĲĺ": 1133,
      "ange": 1134,
      "íĤ¤": 1135,
      "ê°ľ": 1136,
      "ë¬´": 1137,
      "Ġour": 1138,
      "Ġem": 1139,
      "iculty": 1140,
      "ian": 1141,
      ">\\": 1142,
      "Ġfl": 1143,
      "ĠV": 1144,
      "Ġsm": 1145,
      "ê·": 1146,
      "Ġunder": 1147,
      "Ġag": 1148,
      "Ġinter": 1149,
      "Ġsa": 1150,
      "íĨµ": 1151,
      "oth": 1152,
      "ifier": 1153,
      "ments": 1154,
      "Ġdec": 1155,
      "cial": 1156,
      "Ġsystem": 1157,
      "Ġfirst": 1158,
      "Ġëį": 1159,
      "íķĻêµĲ": 1160,
      "ĠHe": 1161,
      "diff": 1162,
      "Ġact": 1163,
      "Ġíķ´": 1164,
      "ade": 1165,
      "},": 1166,
      "uffled": 1167,
      "budget": 1168,
      "required": 1169,
      "difficulty": 1170,
      "router": 1171,
      "candidate": 1172,
      "verifier": 1173,
      "Ġìĥģ": 1174,
      "candidates": 1175,
      "Ġ{\"": 1176,
      "\"],": 1177,
      "shuffled": 1178,
      "ĠíĶĦ": 1179,
      "´Ī": 1180,
      "ĠëķĮ": 1181,
      "Ġany": 1182,
      "ìľł": 1183,
      "Ġif": 1184,
      "ious": 1185,
      "ŀĪ": 1186,
      "Ġê´Ģ": 1187,
      "Ġcar": 1188,
      "ful": 1189,
      "ë°©": 1190,
      "íĭ": 1191,
      "ased": 1192,
      "gy": 1193,
      "rib": 1194,
      "Ġeach": 1195,
      "oin": 1196,
      "ĠUn": 1197,
      "its": 1198,
      "Ġpers": 1199,
      "ì¢ħ": 1200,
      "ollow": 1201,
      "fter": 1202,
      "Ġrel": 1203,
      "ĠëĶ": 1204,
      "ìĹħ": 1205,
      "The": 1206,
      "ìĸĳ": 1207,
      "Ġ199": 1208,
      "ëĲĺìĹĪëĭ¤": 1209,
      "ìķĪ": 1210,
      "Ġëħ": 1211,
      "aking": 1212,
      "ĠíĽĦ": 1213,
      "ĠY": 1214,
      "Ġbu": 1215,
      "11": 1216,
      "Ġget": 1217,
      "ë¦½": 1218,
      "ns": 1219,
      "íĸī": 1220,
      "ëĭ¨": 1221,
      "Ġdevelop": 1222,
      "ual": 1223,
      "Ġ0": 1224,
      "ĠìĹ¬": 1225,
      "ility": 1226,
      "oss": 1227,
      "ìŀĳ": 1228,
      "ĠìĬ¤": 1229,
      "arch": 1230,
      "ê¹": 1231,
      "Ġë¬¸": 1232,
      "pac": 1233,
      "hed": 1234,
      "nP": 1235,
      "íİ": 1236,
      "ise": 1237,
      "íĨł": 1238,
      "ë¶Ħ": 1239,
      "ink": 1240,
      "Ġind": 1241,
      "ìĹ°": 1242,
      "ĠëĤ¨": 1243,
      "íķł": 1244,
      "000": 1245,
      "ten": 1246,
      "Â·": 1247,
      "uring": 1248,
      "ures": 1249,
      "Ġlear": 1250,
      "Ġfollow": 1251,
      "Ġ:": 1252,
      "Ġchild": 1253,
      "instruction": 1254,
      "ĠReasoning": 1255,
      "ëįĺ": 1256,
      "Ġadd": 1257,
      "paca": 1258,
      "ĠTokens": 1259,
      "alpaca": 1260,
      "Ġbr": 1261,
      "Ġdata": 1262,
      "ì¦": 1263,
      ">\",": 1264,
      "Ġrep": 1265,
      "omm": 1266,
      "Ġ\"<": 1267,
      "Ġpr": 1268,
      "ì°¨": 1269,
      "¶Į": 1270,
      "Ġ<<": 1271,
      "ìŀħ": 1272,
      "ics": 1273,
      "gan": 1274,
      "fore": 1275,
      "Ġhealth": 1276,
      "eth": 1277,
      "ween": 1278,
      "ìļ´": 1279,
      "ìķ¼": 1280,
      "Ġrem": 1281,
      "erm": 1282,
      "Ġlike": 1283,
      "ced": 1284,
      "nE": 1285,
      "Ġ'": 1286,
      "ft": 1287,
      "ower": 1288,
      "Ġcould": 1289,
      "18": 1290,
      "Ġê¹": 1291,
      "ational": 1292,
      "Ġob": 1293,
      "ë£¨": 1294,
      "Ġinv": 1295,
      "Ġsur": 1296,
      "ife": 1297,
      "iss": 1298,
      "chn": 1299,
      "ìĪ": 1300,
      "ìĺģ": 1301,
      "Ġbetween": 1302,
      "oy": 1303,
      "Ġac": 1304,
      "Ġíĸ": 1305,
      "ì¤ĳ": 1306,
      "ê·¸": 1307,
      "Ġplan": 1308,
      "Ġonly": 1309,
      "ëŀĺ": 1310,
      "hen": 1311,
      "Ġwhile": 1312,
      "ible": 1313,
      "Ġreg": 1314,
      "ative": 1315,
      "ĠãĢ": 1316,
      "ikip": 1317,
      "ikipedia": 1318,
      "ê°ģ": 1319,
      "ĠìĽĲ": 1320,
      "µľ": 1321,
      "ĠëĮĢíķľë¯¼êµŃìĿĺ": 1322,
      "allen": 1323,
      "nIn": 1324,
      "ck": 1325,
      "ë°ĺ": 1326,
      "Ġë°Ķ": 1327,
      "ĠìĹŃ": 1328,
      "Ġwhere": 1329,
      "ract": 1330,
      "Ġë°©": 1331,
      "ble": 1332,
      "wikipedia": 1333,
      "ëĶ": 1334,
      "Ġlar": 1335,
      "ire": 1336,
      "Ķ¼": 1337,
      "Ġmin": 1338,
      "akes": 1339,
      "Ġco": 1340,
      "Ġë§Į": 1341,
      "Ġty": 1342,
      "íŀĪ": 1343,
      "Ġincre": 1344,
      "ê±°": 1345,
      "Ġ11": 1346,
      "ĠíĨµ": 1347,
      "Ġsk": 1348,
      "Ġperson": 1349,
      "Ġnumber": 1350,
      "ë¶ĢíĦ°": 1351,
      "aw": 1352,
      "Ġyears": 1353,
      "íı¬": 1354,
      "ĠìŀĪëĬĶ": 1355,
      "Ġwell": 1356,
      "ert": 1357,
      "50": 1358,
      "cience": 1359,
      "other": 1360,
      "Ġdifferent": 1361,
      "ited": 1362,
      "Ġform": 1363,
      "ergy": 1364,
      "Ġimport": 1365,
      "Ġhigh": 1366,
      "íĺĦ": 1367,
      "ution": 1368,
      "ìļĶ": 1369,
      "íĮĮ": 1370,
      "Ġë¬´": 1371,
      "Ġê¸": 1372,
      "Ġtrans": 1373,
      "Ġinform": 1374,
      "ë²ķ": 1375,
      "Ġpol": 1376,
      "ëħ¸": 1377,
      "Ġcre": 1378,
      "ìŀĦ": 1379,
      "Ġback": 1380,
      "Ġke": 1381,
      "ps": 1382,
      "ĠíĺĦ": 1383,
      "Ġê·": 1384,
      "ĺĲ": 1385,
      "ĠHow": 1386,
      "Ġmod": 1387,
      "Ġfun": 1388,
      "Ġdown": 1389,
      "ìĨį": 1390,
      "Ġìŀ¥": 1391,
      "ense": 1392,
      "ident": 1393,
      "ê¹Į": 1394,
      "ëł¹": 1395,
      "Ġë¶Ħ": 1396,
      "ë°Ķ": 1397,
      "ëŀĢ": 1398,
      "ands": 1399,
      "Ġlong": 1400,
      "Ġexper": 1401,
      "Ġexam": 1402,
      "Ġru": 1403,
      "Ġusing": 1404,
      "Ġsub": 1405,
      "Ġworld": 1406,
      "Ġê°ķ": 1407,
      "Ġshould": 1408,
      "ĠìķĬ": 1409,
      "Ġplay": 1410,
      "ĠëĤ´": 1411,
      "uch": 1412,
      "oice": 1413,
      "ural": 1414,
      "ãĢĭ": 1415,
      "Ġway": 1416,
      "Ġprocess": 1417,
      "ë¥¸": 1418,
      "Ġë°°": 1419,
      "ĠíĬ": 1420,
      "ues": 1421,
      "arly": 1422,
      "Ġê¹Ģ": 1423,
      "Ġtechn": 1424,
      "Ġsupp": 1425,
      "ì²ľ": 1426,
      "ize": 1427,
      "ëª¨": 1428,
      "ì¡±": 1429,
      "Ġfood": 1430,
      "ict": 1431,
      "Ġspec": 1432,
      "íķ©": 1433,
      "wn": 1434,
      "Ġvar": 1435,
      "arm": 1436,
      "ìĿ´ëĿ¼": 1437,
      "Ġday": 1438,
      "nH": 1439,
      "Ġë¡": 1440,
      "Ġpa": 1441,
      "Ġhum": 1442,
      "ron": 1443,
      "ë¡Ŀ": 1444,
      "ĠInput": 1445,
      "Ġfind": 1446,
      "ology": 1447,
      "ìłģìľ¼ë¡ľ": 1448,
      "ages": 1449,
      "ì½Ķ": 1450,
      "íħ": 1451,
      "Ġset": 1452,
      "¸Į": 1453,
      "Ġê±°": 1454,
      "Ġstr": 1455,
      "iron": 1456,
      "cy": 1457,
      "Ġaround": 1458,
      "ĠìķĮ": 1459,
      "ĠëĺĲ": 1460,
      "Ġinf": 1461,
      "Ġche": 1462,
      "Ġìµľ": 1463,
      "ins": 1464,
      "Ġdoes": 1465,
      "Ġ15": 1466,
      "Ġenergy": 1467,
      "´ĳ": 1468,
      "Ġìŀĳ": 1469,
      "ature": 1470,
      "Ġë°ĺ": 1471,
      "Ġexp": 1472,
      "ĠìĥĿ": 1473,
      "ìĻķ": 1474,
      "íĹ": 1475,
      "Ġpres": 1476,
      "ì§Ģë§Į": 1477,
      "ĠìĿ¼ë³¸": 1478,
      "Ġafter": 1479,
      "Ġì¶ľ": 1480,
      "íĺķ": 1481,
      "ì¸": 1482,
      "Ġê°Ļ": 1483,
      "ually": 1484,
      "Ġdet": 1485,
      "Ġatt": 1486,
      "Ġca": 1487,
      "elf": 1488,
      "Ġeffect": 1489,
      "Ġevery": 1490,
      "Ġsol": 1491,
      "ìłģìĿ¸": 1492,
      "Ġë©": 1493,
      "ëŀĳ": 1494,
      "ĠIf": 1495,
      "Ġbecause": 1496,
      "chool": 1497,
      "nO": 1498,
      "urn": 1499,
      "Ġsee": 1500,
      "ines": 1501,
      "Ġ198": 1502,
      "gs": 1503,
      "ê¶Į": 1504,
      "Ġ+": 1505,
      "Ī¬": 1506,
      "Ġinformation": 1507,
      "Ġsim": 1508,
      "Ġíİ": 1509,
      "ĠãĢĬ": 1510,
      "nF": 1511,
      "ĠEn": 1512,
      "Ġë¶Ī": 1513,
      "ases": 1514,
      "ê¹Įì§Ģ": 1515,
      "ied": 1516,
      "Ġgiv": 1517,
      "Ġëıħ": 1518,
      "ĠëĶ°": 1519,
      "tal": 1520,
      "Ġëħ¸": 1521,
      "ìĦ¤": 1522,
      "ë²Ħ": 1523,
      "Ġrese": 1524,
      "Ġíı¬": 1525,
      "ever": 1526,
      "íĭ°": 1527,
      "ĠThey": 1528,
      "ê±´": 1529,
      "ctions": 1530,
      "Ġìļ°": 1531,
      "ĠìĤ": 1532,
      "ular": 1533,
      "Ġmon": 1534,
      "Ġref": 1535,
      "Ġëªħ": 1536,
      "meric": 1537,
      "arc": 1538,
      "ë¦¬ìķĦ": 1539,
      "pect": 1540,
      "ëŀĮ": 1541,
      "16": 1542,
      "Ġimportant": 1543,
      "Ġìĸ´": 1544,
      "ìļ¸": 1545,
      "Ġfound": 1546,
      "Ġëĭ¹": 1547,
      "Ġknow": 1548,
      "Ġredu": 1549,
      "Ġext": 1550,
      "Ġshow": 1551,
      "Ġbeing": 1552,
      "ë¦°": 1553,
      ").": 1554,
      "ĠìĤ¬ìļ©": 1555,
      "Ġart": 1556,
      "15": 1557,
      "Ġgl": 1558,
      "Ġsign": 1559,
      "Ġgrow": 1560,
      "Ġlead": 1561,
      "ë¥ĺ": 1562,
      "ë¦Ħ": 1563,
      "ving": 1564,
      "ene": 1565,
      "ĠìĻķ": 1566,
      "ëĶĶ": 1567,
      "vent": 1568,
      "ists": 1569,
      "Ġêµ°": 1570,
      "ĠAs": 1571,
      "Ġmuch": 1572,
      "ëĤ´": 1573,
      "Ġ16": 1574,
      "ĠâĢĵ": 1575,
      "Ġloc": 1576,
      "Ġsmall": 1577,
      "ically": 1578,
      "íĸĪ": 1579,
      "ather": 1580,
      "íĳľ": 1581,
      "Ġê²°": 1582,
      "ork": 1583,
      "Ġcount": 1584,
      "ë°ľ": 1585,
      "ìķĺ": 1586,
      "Ġbo": 1587,
      "¤Ģ": 1588,
      "cer": 1589,
      "Ġëĭ¨": 1590,
      "ëĲĺìĸ´": 1591,
      "ness": 1592,
      "Ġsame": 1593,
      "ody": 1594,
      "Ġcommun": 1595,
      "any": 1596,
      "ĠíĮĮ": 1597,
      "ĠìĦ¤": 1598,
      "ety": 1599,
      "Ġë¡ľ": 1600,
      "alk": 1601,
      "Ġval": 1602,
      "Ġ17": 1603,
      "viron": 1604,
      "Ġlife": 1605,
      "ëĵ±": 1606,
      "ìĭľìķĦ": 1607,
      "ized": 1608,
      "ax": 1609,
      "Ġeven": 1610,
      "ential": 1611,
      "Ġpar": 1612,
      "ì£¼ìĿĺ": 1613,
      "Ġcent": 1614,
      "ëĤ¨": 1615,
      "gram": 1616,
      "ëĵ¤ìĿ´": 1617,
      "ĠëĦ": 1618,
      "Ġyes": 1619,
      "tle": 1620,
      "Ġê³Ħ": 1621,
      "Ġdisc": 1622,
      "Ġdist": 1623,
      "Ġtake": 1624,
      "ted": 1625,
      "Ġfin": 1626,
      "ros": 1627,
      "day": 1628,
      "ìĹĲê²Į": 1629,
      "ains": 1630,
      "Ġfollowing": 1631,
      "Ġstudents": 1632,
      "íĥľ": 1633,
      "Ġcomple": 1634,
      "ìĻ¸": 1635,
      "ides": 1636,
      "Ġìĭ¤": 1637,
      "Ġpat": 1638,
      "Ġpop": 1639,
      "Ġcall": 1640,
      "Ġchar": 1641,
      "Ġjust": 1642,
      "Ġcur": 1643,
      "Ġbel": 1644,
      "Ġread": 1645,
      "ê°ķ": 1646,
      "Ġserv": 1647,
      "iew": 1648,
      "Ġend": 1649,
      "Ġmade": 1650,
      "Ġclass": 1651,
      "ĠAmeric": 1652,
      "Ġass": 1653,
      "iqu": 1654,
      "ient": 1655,
      "up": 1656,
      "ª½": 1657,
      "Ġins": 1658,
      "ĠìĹĲ": 1659,
      "nM": 1660,
      "Ġlook": 1661,
      "ëĵ¤ìĿĢ": 1662,
      "alse": 1663,
      "ë¡ł": 1664,
      "Ġthree": 1665,
      "Ġmain": 1666,
      "Ġì§Ħ": 1667,
      "Ġcontin": 1668,
      "Ġorgan": 1669,
      "ism": 1670,
      "Ġent": 1671,
      "ìłĲ": 1672,
      "Ġíķľëĭ¤": 1673,
      "Ġtotal": 1674,
      "ouse": 1675,
      "Ġdep": 1676,
      "Ġboth": 1677,
      "ĠĠĠ": 1678,
      "´Ŀ": 1679,
      "ivid": 1680,
      "ĠëĳĲ": 1681,
      "vironment": 1682,
      "íķ¨": 1683,
      "choice": 1684,
      "Ġlevel": 1685,
      "Ġsent": 1686,
      "Ġown": 1687,
      "Ġë¶ģ": 1688,
      "ves": 1689,
      "Ġtra": 1690,
      "íĻ©": 1691,
      "Ġexpl": 1692,
      "reen": 1693,
      "Ġproduct": 1694,
      "els": 1695,
      "nTh": 1696,
      "Ġpub": 1697,
      "ify": 1698,
      "<<": 1699,
      "Ġbefore": 1700,
      "ì¼": 1701,
      "ìĹĲìĦľëĬĶ": 1702,
      "ĠíĹ": 1703,
      "read": 1704,
      "ock": 1705,
      "Ġoften": 1706,
      "ìĭ¤": 1707,
      "ets": 1708,
      "arth": 1709,
      "rent": 1710,
      "Ġfalse": 1711,
      "ĠìĤ°": 1712,
      "Ġfact": 1713,
      "ê²©": 1714,
      "200": 1715,
      "Ġduring": 1716,
      "ë²Ī": 1717,
      "ì§Ī": 1718,
      "Ġë§İ": 1719,
      "cient": 1720,
      "stand": 1721,
      "ëıħ": 1722,
      "iel": 1723,
      "ìª½": 1724,
      "Ġìŀ¬": 1725,
      "ants": 1726,
      "cl": 1727,
      "Ġanswer": 1728,
      "car": 1729,
      "Ġcle": 1730,
      "Ġaut": 1731,
      "Ġproble": 1732,
      "Ġmed": 1733,
      "Ġvis": 1734,
      "14": 1735,
      "ices": 1736,
      "ives": 1737,
      "Ġë§Ĳ": 1738,
      "ved": 1739,
      "ix": 1740,
      "Ġvery": 1741,
      "Ġimpro": 1742,
      "Ġcost": 1743,
      "Ġprote": 1744,
      "Ġchildren": 1745,
      "Ġhim": 1746,
      "ale": 1747,
      "ì´Ī": 1748,
      "cent": 1749,
      "Ġcell": 1750,
      "ĠPro": 1751,
      "gg": 1752,
      "íĿ": 1753,
      "ality": 1754,
      "ëĦ¤": 1755,
      "Ġgood": 1756,
      "Ġelect": 1757,
      "ĠìĹĨ": 1758,
      "íķĺê¸°": 1759,
      "ì§ģ": 1760,
      "íĴ": 1761,
      "iness": 1762,
      "ĠìķĪ": 1763,
      "Ġcor": 1764,
      "Ġdesign": 1765,
      "rect": 1766,
      "ì¦Ī": 1767,
      "Ġë°Ľ": 1768,
      "Ġ30": 1769,
      "Ġstate": 1770,
      "ven": 1771,
      "Ġair": 1772,
      "Ġgrou": 1773,
      "ëĳĲ": 1774,
      "dition": 1775,
      "Ġíķ¨": 1776,
      "ì¿": 1777,
      "Ġallow": 1778,
      "ĠëĨ": 1779,
      "Ġwom": 1780,
      "ĠìĺĪ": 1781,
      "17": 1782,
      "oh": 1783,
      "Ġ14": 1784,
      "ĠìļĶ": 1785,
      "Ġì¦": 1786,
      "Ġyear": 1787,
      "Ġpoin": 1788,
      "hip": 1789,
      "land": 1790,
      "ĠAl": 1791,
      "Ġap": 1792,
      "ards": 1793,
      "Ġless": 1794,
      "cept": 1795,
      "Ġschool": 1796,
      "tern": 1797,
      "ience": 1798,
      "ĠìĿ´íĽĦ": 1799,
      "ë§Ŀ": 1800,
      "Ġprogram": 1801,
      "Ġaw": 1802,
      "Ġ197": 1803,
      "Ġret": 1804,
      "Ġë¦": 1805,
      "Ġequ": 1806,
      "Ġav": 1807,
      "nG": 1808,
      "aining": 1809,
      "ustom": 1810,
      "30": 1811,
      "ìĭ¬": 1812,
      "ivers": 1813,
      "Ġexample": 1814,
      "Ġlarge": 1815,
      "ìĦĿ": 1816,
      "--": 1817,
      "Ġbody": 1818,
      "Ġíĥľ": 1819,
      "Ġagain": 1820,
      "60": 1821,
      "ger": 1822,
      "Ġactiv": 1823,
      "ince": 1824,
      "Ġmy": 1825,
      "Ġthose": 1826,
      "Ġì¶Ķ": 1827,
      "Ġpower": 1828,
      "Ġbus": 1829,
      "ë©´ìĦľ": 1830,
      "Ġappro": 1831,
      "Ġbook": 1832,
      "Ġser": 1833,
      "ĠíĬ¹": 1834,
      "here": 1835,
      "Ġcommon": 1836,
      "Ġhand": 1837,
      "ries": 1838,
      "cle": 1839,
      "ë²ł": 1840,
      "rol": 1841,
      "Ġì¢ħ": 1842,
      "ĠìĿĮ": 1843,
      "raph": 1844,
      "ì²Ń": 1845,
      "Ġhuman": 1846,
      "ëħĦìĹĲ": 1847,
      "Ġmet": 1848,
      "ê¸Ī": 1849,
      "Ġ*": 1850,
      "Ġlearning": 1851,
      "Ġlight": 1852,
      "Ġmem": 1853,
      "angu": 1854,
      "Ġìĸĳ": 1855,
      "ull": 1856,
      "ĠíĿ": 1857,
      "íķĺê²Į": 1858,
      "Ġì¡": 1859,
      "Ġenvironment": 1860,
      "Ġanim": 1861,
      "ì¶ľ": 1862,
      "Ġtest": 1863,
      "ë©Ķ": 1864,
      "line": 1865,
      "Ġris": 1866,
      "ret": 1867,
      "Ġbeg": 1868,
      "Ġë³Ģ": 1869,
      "acter": 1870,
      "bs": 1871,
      "Ġincluding": 1872,
      "ìħ": 1873,
      "ĠìĪ": 1874,
      "Ġstart": 1875,
      "Ġinte": 1876,
      "Ġdid": 1877,
      "Ġinst": 1878,
      "Ġì´Ī": 1879,
      "ëĭĪëĭ¤": 1880,
      "ats": 1881,
      "ĠAr": 1882,
      "ìľ¼ëĤĺ": 1883,
      "ìĪł": 1884,
      "Ġchange": 1885,
      "Łģ": 1886,
      "Ġsaid": 1887,
      "cing": 1888,
      "ë¸Į": 1889,
      "Ġstudy": 1890,
      "Ġbuild": 1891,
      "40": 1892,
      "Ġdr": 1893,
      "Ġbeh": 1894,
      "Ġpot": 1895,
      "Ġeng": 1896,
      "Ġhist": 1897,
      "Ġposs": 1898,
      "ours": 1899,
      "Ġì°¨": 1900,
      "math": 1901,
      "science": 1902,
      "Ġeas": 1903,
      "Ġì§ĢìĹŃ": 1904,
      "ĠâĢĺ": 1905,
      "íĸ¥": 1906,
      "ĠFor": 1907,
      "Ġchang": 1908,
      "vern": 1909,
      "ìŁģ": 1910,
      "Ġíıī": 1911,
      "Ġtem": 1912,
      "Ġ|": 1913,
      "Ġì¹´": 1914,
      "ĠCon": 1915,
      "io": 1916,
      "Ġë¬¼": 1917,
      "ave": 1918,
      "allenai": 1919,
      "nCon": 1920,
      "ec": 1921,
      "ern": 1922,
      "Ġë°ı": 1923,
      "####": 1924,
      "Ġcam": 1925,
      "carp": 1926,
      "ìĬ¹": 1927,
      "Ġë¦¬": 1928,
      "tokens": 1929,
      "Ġanother": 1930,
      ">\"]": 1931,
      "Ġ[\"<": 1932,
      ">\"]}": 1933,
      "()": 1934,
      "Ġknown": 1935,
      "Ġë¹": 1936,
      "Ġ/": 1937,
      "Ġperform": 1938,
      "13": 1939,
      "crib": 1940,
      "Ġlist": 1941,
      "ulation": 1942,
      "rest": 1943,
      "Ġgiven": 1944,
      "Ġ13": 1945,
      "Ġsom": 1946,
      "Ġlit": 1947,
      "Ġbre": 1948,
      "Ġdise": 1949,
      "ĵ°": 1950,
      "Ġele": 1951,
      "ìĤ": 1952,
      "Ġop": 1953,
      "ĠëĲĺìĹĪëĭ¤": 1954,
      "íĪ¬": 1955,
      "ìĨ¡": 1956,
      "ĠWhat": 1957,
      "Ġput": 1958,
      "ner": 1959,
      "ì¤Ģ": 1960,
      "gen": 1961,
      "to": 1962,
      "íĥĦ": 1963,
      "ital": 1964,
      "Ġnow": 1965,
      "µìĿĢ": 1966,
      "Ġcustom": 1967,
      "'t": 1968,
      "Ġocc": 1969,
      "Ġmil": 1970,
      "nR": 1971,
      "ì§¸": 1972,
      "ê³¡": 1973,
      "ĠìĤ¬ëŀĮ": 1974,
      "Ġtyp": 1975,
      "Ġunderstand": 1976,
      "air": 1977,
      "the": 1978,
      "ished": 1979,
      "Ġstand": 1980,
      "cond": 1981,
      "ĠíĻĶ": 1982,
      "íĮĲ": 1983,
      "Ġê³¼": 1984,
      "ĠëĿ¼": 1985,
      "Ġgreat": 1986,
      "ights": 1987,
      "Ġcomput": 1988,
      "Ġgu": 1989,
      "Ġíĳľ": 1990,
      "ìĬ¤íĬ¸": 1991,
      "ross": 1992,
      "Ġarea": 1993,
      "open": 1994,
      "Ġmat": 1995,
      "íķŃ": 1996,
      "ien": 1997,
      ",\\": 1998,
      "Ġsever": 1999,
      "ëŁī": 2000,
      "ash": 2001,
      "bers": 2002,
      "Ġmark": 2003,
      "Ġtop": 2004,
      "Ġindivid": 2005,
      "itive": 2006,
      "ters": 2007,
      "Ġmov": 2008,
      "``": 2009,
      "Ġadv": 2010,
      "Ġ~": 2011,
      "ute": 2012,
      "Ġìļ´": 2013,
      "Ġcaus": 2014,
      "Ġprovide": 2015,
      "ium": 2016,
      "Ġpur": 2017,
      "íħĮ": 2018,
      "ì²ł": 2019,
      "Ġx": 2020,
      "Ġwee": 2021,
      "Ġê±´": 2022,
      "ional": 2023,
      "ank": 2024,
      "nWh": 2025,
      "comm": 2026,
      "´ī": 2027,
      "ee": 2028,
      "Ġíĺķ": 2029,
      "ĠëķĮë¬¸": 2030,
      "Ġlangu": 2031,
      "Ġíģ": 2032,
      "íķĺëĭ¤": 2033,
      "Ġíģ¬": 2034,
      "ends": 2035,
      "ìĸ¸": 2036,
      "Ġë¯¼": 2037,
      "ìĦ¸ê¸°": 2038,
      "Ġëĭ¤ìĿĮ": 2039,
      "Ġinclude": 2040,
      "assage": 2041,
      "Ġsit": 2042,
      "Ġì¡°ìĦł": 2043,
      "Ġresearch": 2044,
      "pars": 2045,
      "ìķ½": 2046,
      "Ġtimes": 2047,
      "Ġcare": 2048,
      "parsed": 2049,
      "ĠëĶ°ëĿ¼": 2050,
      "íİĺ": 2051,
      "Ġmus": 2052,
      "Ġident": 2053,
      "Ġhome": 2054,
      "ately": 2055,
      "íķĻìŀĲ": 2056,
      "íĶ¼": 2057,
      "nN": 2058,
      "Ġseveral": 2059,
      "Ġbest": 2060,
      "Ġstru": 2061,
      "Ġìĭľìŀĳ": 2062,
      "Ġë²ł": 2063,
      "aterial": 2064,
      "Ġpain": 2065,
      "Ġìŀħ": 2066,
      "Ġcal": 2067,
      "Ġlearn": 2068,
      "ĠíĶ¼": 2069,
      "ë¶ģ": 2070,
      "ìŀħëĭĪëĭ¤": 2071,
      "ury": 2072,
      "Ġplace": 2073,
      "ills": 2074,
      "ëĤľ": 2075,
      "Ġì²ľ": 2076,
      "Ġve": 2077,
      ".\\\"": 2078,
      "Ġmust": 2079,
      "ê¸°ëıĦ": 2080,
      "ëĲľëĭ¤": 2081,
      "Ġtreat": 2082,
      "ĠDe": 2083,
      "Ġë¯¸êµŃ": 2084,
      "Ġold": 2085,
      "pr": 2086,
      "Ġíĸī": 2087,
      "ĠWe": 2088,
      "ê¸ī": 2089,
      "ëĭµìĿĢ": 2090,
      "Ġpos": 2091,
      "ìķħ": 2092,
      "Ġresult": 2093,
      "hers": 2094,
      "conom": 2095,
      "ared": 2096,
      "ìłķëĭµìĿĢ": 2097,
      "Ġpo": 2098,
      "imate": 2099,
      "ĠAd": 2100,
      "ëĬĶëį°": 2101,
      "ĠNew": 2102,
      "ex": 2103,
      "ëĭ¬": 2104,
      "ah": 2105,
      "Ġê·¸ë¦¬": 2106,
      "Ġê°ĻìĿĢ": 2107,
      "Ġsour": 2108,
      "ëŀĳìĬ¤": 2109,
      "Ġrest": 2110,
      "ĠëĲľ": 2111,
      "Ġëį°": 2112,
      "ral": 2113,
      "rodu": 2114,
      "Ġsupport": 2115,
      "ime": 2116,
      "atural": 2117,
      "ield": 2118,
      "ids": 2119,
      "Ġaff": 2120,
      "íİ¸": 2121,
      "Ġphys": 2122,
      "ìķĺëĭ¤": 2123,
      "Ġfew": 2124,
      "Ġmaking": 2125,
      "aj": 2126,
      "ë³ĳ": 2127,
      ".âĢĿ": 2128,
      "ë°°": 2129,
      ").\\": 2130,
      "educ": 2131,
      "ëĿ¼ëĬĶ": 2132,
      "ption": 2133,
      "AR": 2134,
      "utes": 2135,
      "ë¨": 2136,
      "Ġide": 2137,
      "Ġkeep": 2138,
      "ĠThese": 2139,
      "ĠìĻ¸": 2140,
      "ë£Į": 2141,
      "Ġë§¤": 2142,
      "Ġcalled": 2143,
      "Ġê°Ĳ": 2144,
      "ë³Ħ": 2145,
      "Ġë°°ìļ°": 2146,
      "orn": 2147,
      "Ġconf": 2148,
      "outh": 2149,
      "BC": 2150,
      "Ġìķ½": 2151,
      "Ġeduc": 2152,
      "ĠíļĮ": 2153,
      "ë³µ": 2154,
      "Ġanal": 2155,
      "ëł¨": 2156,
      "val": 2157,
      "Ġìłģ": 2158,
      "com": 2159,
      "ëĵ¤ìĿĺ": 2160,
      "ĠìĿ¼ë¶Ģ": 2161,
      "ì»": 2162,
      "ìĿ´ë©°": 2163,
      "ëĬ¥": 2164,
      "ĠUnited": 2165,
      "ĠëıĦìĭľ": 2166,
      "ëĲĺìĹĪ": 2167,
      "Ġrun": 2168,
      "ë¦¼": 2169,
      "Ġsl": 2170,
      "ĠThere": 2171,
      "ê´ĳ": 2172,
      "Ġprof": 2173,
      "80": 2174,
      "Ġsocial": 2175,
      "ì¿ł": 2176,
      "Ġdem": 2177,
      "ĠëįĶ": 2178,
      "aring": 2179,
      "nL": 2180,
      "Ġwrit": 2181,
      "Ġmaterial": 2182,
      "ëĵł": 2183,
      "iversity": 2184,
      "Ġpract": 2185,
      "ults": 2186,
      "Ġsentence": 2187,
      "Ġ25": 2188,
      "ëĵ¤ìĿĦ": 2189,
      "Ġstill": 2190,
      "ĠìĦ¸ê³Ħ": 2191,
      "onsense": 2192,
      "ision": 2193,
      "Ġê²½ìļ°": 2194,
      "Ġappe": 2195,
      "ĠOn": 2196,
      "uss": 2197,
      "ization": 2198,
      "ames": 2199,
      "qa": 2200,
      "Ġëł": 2201,
      "Ġë²Ī": 2202,
      "ĠíĥĢ": 2203,
      "..": 2204,
      "Ġiss": 2205,
      "Ġcondition": 2206,
      "Ġëĭ¤ë¥¸": 2207,
      "agn": 2208,
      "Ġquestion": 2209,
      "ton": 2210,
      "commonsense": 2211,
      "ìľ¡": 2212,
      "uation": 2213,
      "ìł¸": 2214,
      "ider": 2215,
      "oms": 2216,
      "nìĤ¬": 2217,
      "ond": 2218,
      "Ġpublic": 2219,
      "ĠìĦłìĪĺ": 2220,
      "Ġright": 2221,
      "ccess": 2222,
      "Ġdevelopment": 2223,
      "íıī": 2224,
      "Ġìĸ¸": 2225,
      "nContext": 2226,
      "ability": 2227,
      "go": 2228,
      "ĠíķľêµŃ": 2229,
      "å®": 2230,
      "íĴĪ": 2231,
      "ination": 2232,
      "Ġfore": 2233,
      "Ġsw": 2234,
      "ĠìĿ´ë¦Ħ": 2235,
      "Ġbusiness": 2236,
      "ĠìŀĦ": 2237,
      "Ġíĺ¸": 2238,
      "Ġ196": 2239,
      "Ġëĵ¤": 2240,
      "Ġobject": 2241,
      "ìĺĪ": 2242,
      "Ġteam": 2243,
      "Ġvari": 2244,
      "Ġmove": 2245,
      "Ġmeas": 2246,
      "Ġwithout": 2247,
      "nPassage": 2248,
      "Ġinvol": 2249,
      "Ġfeel": 2250,
      "ively": 2251,
      "Ġsum": 2252,
      "Ġê°Ģìŀ¥": 2253,
      "Ġì½Ķ": 2254,
      "Ġhapp": 2255,
      "port": 2256,
      "Ġneeds": 2257,
      "ê²°": 2258,
      "Ġball": 2259,
      "Ġì´Ŀ": 2260,
      "Ġsecond": 2261,
      "Ġmeans": 2262,
      "Ġmeth": 2263,
      "Ġimpact": 2264,
      "Ġpass": 2265,
      "ered": 2266,
      "ì¡Į": 2267,
      "Ġgovern": 2268,
      "Ġcreat": 2269,
      "Ġest": 2270,
      "Ġwant": 2271,
      "Ġë°ķ": 2272,
      "Ġfamily": 2273,
      "enef": 2274,
      "iod": 2275,
      "Ġtext": 2276,
      "ained": 2277,
      "ior": 2278,
      "ĠìľĦíķ´": 2279,
      "Ġthough": 2280,
      "Ġbetter": 2281,
      "Ġgroup": 2282,
      "ear": 2283,
      "Ġcreate": 2284,
      "íĻĺ": 2285,
      "Ġtype": 2286,
      "inal": 2287,
      "ìĺ¨": 2288,
      "icle": 2289,
      "Ġmonth": 2290,
      "Ġimprove": 2291,
      "Ġì§ĳ": 2292,
      "Ġplant": 2293,
      "Ġgener": 2294,
      "Ġhy": 2295,
      "Ġdri": 2296,
      "Ġê°ģ": 2297,
      "Ġcour": 2298,
      "Ġopp": 2299,
      "ĠìĨį": 2300,
      "ĠêµŃê°Ģ": 2301,
      "ories": 2302,
      "Ġstore": 2303,
      "ĠYou": 2304,
      "ways": 2305,
      "ĠìĬ¹": 2306,
      "Ġbir": 2307,
      "Ġì²´": 2308,
      "ots": 2309,
      "oney": 2310,
      "orts": 2311,
      "ìĿ´ëĤĺ": 2312,
      "Ġsun": 2313,
      "aves": 2314,
      "Ġfri": 2315,
      "Ġfour": 2316,
      "Ġgen": 2317,
      "Ġaccess": 2318,
      "ìłĪ": 2319,
      "Ġtoget": 2320,
      "ëŀľ": 2321,
      "Ġtogether": 2322,
      "ĶĮ": 2323,
      "ëĿ¼ê³ł": 2324,
      "Ġ194": 2325,
      "Ġìłķì¹ĺ": 2326,
      "Ġorder": 2327,
      "ĠìĹ´": 2328,
      "ëª©": 2329,
      "BS": 2330,
      "mpt": 2331,
      "Ġê°Ħ": 2332,
      "ental": 2333,
      "ertain": 2334,
      "atch": 2335,
      "Ġcap": 2336,
      "ĠíķĻ": 2337,
      "ĠëŁ": 2338,
      "Ġmight": 2339,
      "ling": 2340,
      "Ġcr": 2341,
      "oon": 2342,
      "Ġflow": 2343,
      "ĠëłĪ": 2344,
      "Ġlanguage": 2345,
      "iving": 2346,
      "Ġì¶ķ": 2347,
      "til": 2348,
      "±ħ": 2349,
      "icult": 2350,
      "Ġtemper": 2351,
      "Ġbased": 2352,
      "Ġrequi": 2353,
      "Ġpresent": 2354,
      "Ġland": 2355,
      "Ġwithin": 2356,
      "nThis": 2357,
      "Ġ24": 2358,
      "Ġtow": 2359,
      "lish": 2360,
      "Ġê·¸ëĬĶ": 2361,
      "illion": 2362,
      "Ġcontrol": 2363,
      "Ġdev": 2364,
      "Ġrespon": 2365,
      "ĠíĶĦëŀĳìĬ¤": 2366,
      "Ġscient": 2367,
      "å¤": 2368,
      "less": 2369,
      "Ġdon": 2370,
      "Ġwords": 2371,
      "ĠìĤ¬ìĿ´": 2372,
      "ĠEng": 2373,
      "ê»": 2374,
      "Ġtechnology": 2375,
      "ĠëĮĢíķľë¯¼êµŃ": 2376,
      "osp": 2377,
      "ĠìĦľìļ¸": 2378,
      "ĠíĻ©": 2379,
      "Ġëª©": 2380,
      "Ġmult": 2381,
      "ĠInd": 2382,
      "Ġincrease": 2383,
      "100": 2384,
      "ĠEarth": 2385,
      "Ġbecome": 2386,
      "ode": 2387,
      "rie": 2388,
      "Ġlaw": 2389,
      "ĠStates": 2390,
      "Ġì¡´": 2391,
      "rees": 2392,
      "Ġë¯¸êµŃìĿĺ": 2393,
      "Ġproject": 2394,
      "Ġamount": 2395,
      "Ġeconom": 2396,
      "Ġìķ¼": 2397,
      "br": 2398,
      "Ġrele": 2399,
      "Ġdel": 2400,
      "az": 2401,
      "Ġbenef": 2402,
      "Ġthink": 2403,
      "ĠAmerican": 2404,
      "Ġable": 2405,
      "ĠíķŃ": 2406,
      "ĠSo": 2407,
      "Ġhead": 2408,
      "Ġfil": 2409,
      "ĠíĶĦë¡ľ": 2410,
      "Ġproper": 2411,
      "ì§ĳ": 2412,
      "25": 2413,
      "Ġfunction": 2414,
      "Ġsignific": 2415,
      "ane": 2416,
      "Ġtri": 2417,
      "ording": 2418,
      "íķĺë©°": 2419,
      "ike": 2420,
      "ĠBut": 2421,
      "ĠWhen": 2422,
      "ering": 2423,
      "Ġcause": 2424,
      "Ġmethod": 2425,
      "Ġrisk": 2426,
      "Ġhold": 2427,
      "Ġdog": 2428,
      "Ġothers": 2429,
      "nd": 2430,
      "__": 2431,
      "íĥĪ": 2432,
      "Ġopen": 2433,
      "Ġprin": 2434,
      "Ġ100": 2435,
      "Ġlast": 2436,
      "ĠShe": 2437,
      "Ġprovid": 2438,
      "ients": 2439,
      "ĪĦ": 2440,
      "Ġë³¸": 2441,
      "ox": 2442,
      "Ġì²ł": 2443,
      "rop": 2444,
      "į¼": 2445,
      "Ġsal": 2446,
      "Ġreduce": 2447,
      "ĠHowever": 2448,
      "Ġdisease": 2449,
      "Ġnatural": 2450,
      "ĠìĤ¼": 2451,
      "Ġstep": 2452,
      "Ġsaf": 2453,
      "orth": 2454,
      "cul": 2455,
      "Ġëĭ¬": 2456,
      "Ġpotential": 2457,
      "Ġhours": 2458,
      "Ġdays": 2459,
      "Ġmar": 2460,
      "ê»ĺ": 2461,
      "Ġê´ĳ": 2462,
      "Ġlikely": 2463,
      "ĠíĻľ": 2464,
      "æľ": 2465,
      "ploy": 2466,
      "osed": 2467,
      "rite": 2468,
      "Ġë°±": 2469,
      "ê·¼": 2470,
      "ì¸ł": 2471,
      "ajor": 2472,
      "Ġleft": 2473,
      "ĠëķĮë¬¸ìĹĲ": 2474,
      "ëĤł": 2475,
      "ote": 2476,
      "ĠìĥĪ": 2477,
      "ëħĲ": 2478,
      "ĠPl": 2479,
      "aces": 2480,
      "Ġdirect": 2481,
      "Ġpossible": 2482,
      "dust": 2483,
      "iver": 2484,
      "ìłĢ": 2485,
      "Ġlet": 2486,
      "ĠWhich": 2487,
      "Ġplants": 2488,
      "Ġinterest": 2489,
      "Ġreal": 2490,
      "Ġcurrent": 2491,
      "Ġëĭ¹ìĭľ": 2492,
      "me": 2493,
      "ĠAnd": 2494,
      "ware": 2495,
      "Ġê·¸ëŁ¬": 2496,
      "Ġmean": 2497,
      "Ġblood": 2498,
      "ead": 2499,
      "íģ": 2500,
      "mp": 2501,
      "Ġsec": 2502,
      "ì²ĺ": 2503,
      "Ġoper": 2504,
      "ocus": 2505,
      "Ġoccur": 2506,
      "nìĿ´": 2507,
      "oid": 2508,
      "**": 2509,
      "Ġì§ģ": 2510,
      "gth": 2511,
      "ator": 2512,
      "Ġimm": 2513,
      "Ġcomb": 2514,
      "Ġspecies": 2515,
      "view": 2516,
      "Ġlow": 2517,
      "Ġuntil": 2518,
      "Ġsuccess": 2519,
      "Ġíİ¸": 2520,
      "itional": 2521,
      "oot": 2522,
      "ë¹": 2523,
      "Ġíķ©": 2524,
      "ĠIs": 2525,
      "Ġì°¸": 2526,
      "ication": 2527,
      "Ġter": 2528,
      "atures": 2529,
      "Ġminutes": 2530,
      "Ġhistory": 2531,
      "ĠAI": 2532,
      "ĠëıħìĿ¼": 2533,
      "Ġstruct": 2534,
      "ĠCl": 2535,
      "Ġhouse": 2536,
      "ĠëĺĲíķľ": 2537,
      "ĠíķĺëĤĺ": 2538,
      "Ġdeterm": 2539,
      "Ġexperience": 2540,
      "ëŁ½": 2541,
      "ived": 2542,
      "era": 2543,
      "Ġbas": 2544,
      "Ġê¸Ī": 2545,
      "ìĹ´": 2546,
      "ounds": 2547,
      "Ġess": 2548,
      "Ġì²ĺ": 2549,
      "Ġtakes": 2550,
      "ograph": 2551,
      "Ġì²Ń": 2552,
      "ables": 2553,
      "ìĶ": 2554,
      "ending": 2555,
      "Ġsystems": 2556,
      "íķĺì§Ģ": 2557,
      "ĠìłĢ": 2558,
      "Ġrece": 2559,
      "Ġdef": 2560,
      "ĠëŁ¬": 2561,
      "âĢľ": 2562,
      "ape": 2563,
      "íĨµëł¹": 2564,
      "str": 2565,
      "face": 2566,
      "Ġ50": 2567,
      "Ġaway": 2568,
      "Ġey": 2569,
      "ges": 2570,
      "lu": 2571,
      "atic": 2572,
      "ently": 2573,
      "Ġ195": 2574,
      "Ġsignificant": 2575,
      "ĠìłĲ": 2576,
      "ê²¬": 2577,
      "Ġgeneral": 2578,
      "Ġcult": 2579,
      "ĠìĿĺíķ´": 2580,
      "Ġë£": 2581,
      "ogn": 2582,
      "Ġyoun": 2583,
      "be": 2584,
      "alf": 2585,
      "ì¹Ń": 2586,
      "ĻìĿ´": 2587,
      "Ġíķ¨ê»ĺ": 2588,
      "Ġpri": 2589,
      "omp": 2590,
      "ë°±": 2591,
      "soci": 2592,
      "Ġvarious": 2593,
      "ĠêµĲíĻ©": 2594,
      "Ġname": 2595,
      "Ġë¡ľë§Ī": 2596,
      "ified": 2597,
      "Ġë©Ķ": 2598,
      "ina": 2599,
      "Ġë²ķ": 2600,
      "Ġmach": 2601,
      "nê¸°": 2602,
      "Ġweek": 2603,
      "ëĦĪ": 2604,
      "book": 2605,
      "Ġì»": 2606,
      "Ġhig": 2607,
      "Ġspecific": 2608,
      "22": 2609,
      "Ġmodel": 2610,
      "hor": 2611,
      "Ġ,": 2612,
      "Ġnext": 2613,
      "Ġê·¸ìĿĺ": 2614,
      "Ġê°Ģì§Ģ": 2615,
      "Ġshown": 2616,
      "Ġstory": 2617,
      "90": 2618,
      "asing": 2619,
      "Ġcells": 2620,
      ",âĢĿ": 2621,
      "Ġmen": 2622,
      "Ġkey": 2623,
      "Ġorig": 2624,
      "Ġ(~": 2625,
      "ëĲĺëĬĶ": 2626,
      "und": 2627,
      "work": 2628,
      "Ġìĵ°": 2629,
      "âĢĶ": 2630,
      "Ġmajor": 2631,
      "ëĵ±íķĻêµĲ": 2632,
      "ole": 2633,
      "Ġbro": 2634,
      "Ġareas": 2635,
      "ìķł": 2636,
      "Ġrepres": 2637,
      "ĠíĻķ": 2638,
      "ĠEx": 2639,
      "Ġthings": 2640,
      "Ġtool": 2641,
      "ieve": 2642,
      "Ġproblem": 2643,
      "21": 2644,
      "ug": 2645,
      "Ġëģ": 2646,
      "Ġavail": 2647,
      "ere": 2648,
      "Ġmarket": 2649,
      "ĠĠĠĠĠĠĠĠ": 2650,
      "erc": 2651,
      "ìĿ´ëĿ¼ê³ł": 2652,
      "Ġpie": 2653,
      "ARC": 2654,
      "Ġfocus": 2655,
      "Ġprom": 2656,
      "Ġfre": 2657,
      "stit": 2658,
      "Ġpred": 2659,
      "ĠCan": 2660,
      "man": 2661,
      "24": 2662,
      "Ġmoney": 2663,
      "ances": 2664,
      "ĠëĺĲëĬĶ": 2665,
      "Ġcharacter": 2666,
      "bon": 2667,
      "Ġcome": 2668,
      "Ġaffect": 2669,
      "par": 2670,
      "ke": 2671,
      "Ġchanges": 2672,
      "co": 2673,
      "ĠSe": 2674,
      "Ġintern": 2675,
      "Ġwomen": 2676,
      "ìĽĮ": 2677,
      "Ġcir": 2678,
      "Ġnet": 2679,
      "Ġprotect": 2680,
      "ples": 2681,
      "Ġë§İìĿĢ": 2682,
      "Ġparticul": 2683,
      "ìĹĲëıĦ": 2684,
      "ĠBe": 2685,
      "Ġhard": 2686,
      "Ġside": 2687,
      "ĠëĲľëĭ¤": 2688,
      "Ġtoo": 2689,
      "raw": 2690,
      "Ġìĺ¬": 2691,
      "Ġlevels": 2692,
      "amm": 2693,
      "Ġë³µ": 2694,
      "Ġred": 2695,
      "ĠìľĦì¹ĺ": 2696,
      "uro": 2697,
      "Ġearly": 2698,
      "·¨": 2699,
      "Ġlim": 2700,
      "Ġvol": 2701,
      "Ġê²Į": 2702,
      "Ġear": 2703,
      "ĠUniversity": 2704,
      "Ġalways": 2705,
      "ĠCol": 2706,
      "Ġmakes": 2707,
      "ĠAt": 2708,
      "Ġwhite": 2709,
      "ething": 2710,
      "Ġanimals": 2711,
      "Ġline": 2712,
      "ĠëĴ": 2713,
      "Ġens": 2714,
      "Ġshort": 2715,
      "acy": 2716,
      "||": 2717,
      ".\"],": 2718,
      "Ġsn": 2719,
      "Ġalong": 2720,
      "ĠSh": 2721,
      "ones": 2722,
      "ĠPh": 2723,
      "nThere": 2724,
      "ë§¤": 2725,
      "Ġdescrib": 2726,
      "nWhat": 2727,
      "Ġë§ģ": 2728,
      "ateg": 2729,
      "Ġheart": 2730,
      "Ġprevent": 2731,
      "ĠSp": 2732,
      "use": 2733,
      "Ġcountry": 2734,
      "ctor": 2735,
      "Ġwalk": 2736,
      "ortun": 2737,
      "Ġwar": 2738,
      "Ġagainst": 2739,
      "nê°": 2740,
      "Ġant": 2741,
      "Ġsing": 2742,
      "ĠíĺĦìŀ¬": 2743,
      "ê¸Ģ": 2744,
      "Ġfree": 2745,
      "ĠìŀĪìľ¼ë©°": 2746,
      "Ġword": 2747,
      "Ġ$<<": 2748,
      "íļ": 2749,
      "Ġspace": 2750,
      "Ġnon": 2751,
      "Ġage": 2752,
      "Ġcy": 2753,
      "Ġseen": 2754,
      "mb": 2755,
      "olution": 2756,
      "Ġì¦Ŀ": 2757,
      "ĠëĬ": 2758,
      "ems": 2759,
      "ission": 2760,
      "Ġreport": 2761,
      "Ġë³´ê¸°": 2762,
      "Ġconsum": 2763,
      "Ġleg": 2764,
      "Ġinvest": 2765,
      "ë¨¸": 2766,
      "ips": 2767,
      "ì³": 2768,
      "Ġcity": 2769,
      "Ġpoint": 2770,
      "Ġindust": 2771,
      "tin": 2772,
      "ined": 2773,
      "ì½": 2774,
      "Ġbehav": 2775,
      "ying": 2776,
      "Ġsoft": 2777,
      "Ġì°½": 2778,
      "Ġpaper": 2779,
      "lished": 2780,
      "Ġgovernment": 2781,
      "ĠìŀĲìĭł": 2782,
      "Ġcomputer": 2783,
      "nìĻ¸": 2784,
      "orld": 2785,
      "Ġgre": 2786,
      "~)\\": 2787,
      "Ġperiod": 2788,
      "ĠëĮĢíĨµëł¹": 2789,
      "Ġ23": 2790,
      "Ġpercent": 2791,
      "Ġfield": 2792,
      "Ġmot": 2793,
      "obal": 2794,
      "Ġblack": 2795,
      "Ġfar": 2796,
      "ëŀľëĵľ": 2797,
      "Ġchem": 2798,
      "Ġpost": 2799,
      "ëĥ": 2800,
      "Ġpast": 2801,
      "aster": 2802,
      "ward": 2803,
      "Ġpress": 2804,
      "Ġsomething": 2805,
      "ention": 2806,
      "Ġsince": 2807,
      "ological": 2808,
      "Ķëĭ¤": 2809,
      "agement": 2810,
      "etic": 2811,
      "ëĮĢíķľ": 2812,
      "Ġdig": 2813,
      "Ġ)": 2814,
      "íĹĺ": 2815,
      "ique": 2816,
      "ëĭĪìķĦ": 2817,
      "uture": 2818,
      "ìķĻ": 2819,
      "Ġ21": 2820,
      "ohn": 2821,
      "Ġë£¨": 2822,
      "ìĿ´ëĿ¼ëĬĶ": 2823,
      "Ġstrong": 2824,
      "ression": 2825,
      "Ġgreen": 2826,
      "Ġways": 2827,
      "Ġpopulation": 2828,
      "Ġlo": 2829,
      "Ġes": 2830,
      "Ġ22": 2831,
      "ogle": 2832,
      "ump": 2833,
      "Ġìº": 2834,
      "Ġbegin": 2835,
      "oes": 2836,
      "aut": 2837,
      "Ġê²ĥìĿĦ": 2838,
      "70": 2839,
      "Ġ40": 2840,
      "ĠëŁ¬ìĭľìķĦ": 2841,
      "Ġdue": 2842,
      "Ġë§ģíģ¬": 2843,
      "Ġê·¼": 2844,
      "self": 2845,
      "nê°ģ": 2846,
      "±Ħ": 2847,
      "Ġvir": 2848,
      "ird": 2849,
      "ches": 2850,
      "Ġopt": 2851,
      "Ġtrad": 2852,
      "Ġapplic": 2853,
      "ĠìłĦìŁģ": 2854,
      "Ġvalue": 2855,
      "ĠTo": 2856,
      "ì¼Ģ": 2857,
      "Ġel": 2858,
      "Ġyoung": 2859,
      "ìĺĢëĭ¤": 2860,
      "ê·¹": 2861,
      "ìĬ¤ìĿĺ": 2862,
      "Ġproblems": 2863,
      "ised": 2864,
      "Ġcertain": 2865,
      "Ġê·¸ëŁ¬ëĤĺ": 2866,
      "Ġíħ": 2867,
      "ĠìĤ´": 2868,
      "Ġphysical": 2869,
      "Ġwin": 2870,
      "ream": 2871,
      "ĠíķĦ": 2872,
      "ĠZ": 2873,
      "ì¶ķ": 2874,
      "ĠëĴ¤": 2875,
      "ured": 2876,
      "Ġavailable": 2877,
      "ze": 2878,
      "Ġê²ĥìľ¼ë¡ľ": 2879,
      "ì§ĢëĬĶ": 2880,
      "ĠFr": 2881,
      "Ġresults": 2882,
      "Ġwind": 2883,
      "nìĻ¸ë¶Ģ": 2884,
      "of": 2885,
      "199": 2886,
      "Ġacross": 2887,
      "ĠíĨł": 2888,
      "idence": 2889,
      "aging": 2890,
      "Ġgame": 2891,
      "Ġëĵ¤ìĸ´": 2892,
      "MBC": 2893,
      "ìĥī": 2894,
      "¸Ķ": 2895,
      "Ġlocal": 2896,
      "ìķĶ": 2897,
      "Ġpartic": 2898,
      "Ġ28": 2899,
      "Ġwhy": 2900,
      "nect": 2901,
      "Ġfish": 2902,
      "Ġlittle": 2903,
      "apt": 2904,
      "ëĬĶëĭ¤": 2905,
      "Ġenc": 2906,
      "ĠìĪĺëıĦ": 2907,
      "íĻĶêµŃ": 2908,
      "ëĮĢíķĻ": 2909,
      "Ġcolle": 2910,
      ",\\\"": 2911,
      "Ġworking": 2912,
      "Ġì¶ķêµ¬": 2913,
      "omes": 2914,
      "Ġlab": 2915,
      "Ġìļ©": 2916,
      "Ġstar": 2917,
      "Ġcut": 2918,
      "ĠâĢĶ": 2919,
      "sources": 2920,
      "Ġë§Įëĵ¤": 2921,
      "Ġcompany": 2922,
      "nê°ģì£¼": 2923,
      "icient": 2924,
      "ìĤ´": 2925,
      "ĠìŀĪìĹĪëĭ¤": 2926,
      "Ġfive": 2927,
      "Ġê¸°ë¡Ŀ": 2928,
      "Ģë¡ľ": 2929,
      "Ġresources": 2930,
      "Ġview": 2931,
      "Ġfall": 2932,
      "ences": 2933,
      "Ġbi": 2934,
      "Ġamong": 2935,
      "Ġsqu": 2936,
      "Ġê²ĥìĿ´": 2937,
      "eter": 2938,
      "ĠëĦ¤": 2939,
      "Ġproducts": 2940,
      "ī´": 2941,
      "ĠTe": 2942,
      "Ġrespons": 2943,
      "Ġnut": 2944,
      "uals": 2945,
      "Ġpersonal": 2946,
      "ìĪľ": 2947,
      "imes": 2948,
      "ê¸°ìĹĲ": 2949,
      "Ġground": 2950,
      "Ġeducation": 2951,
      "ott": 2952,
      "ä¸": 2953,
      "ì¡Įëĭ¤": 2954,
      "Ġfac": 2955,
      "ended": 2956,
      "ĠìĹŃìĤ¬": 2957,
      "Ġfuture": 2958,
      "Ġlay": 2959,
      "nê°ĻìĿ´": 2960,
      "ê¸°ë¥¼": 2961,
      "ëĮĢíķĻêµĲ": 2962,
      "Ġusually": 2963,
      "cri": 2964,
      "Ġcolor": 2965,
      "Ġevent": 2966,
      "Ġrange": 2967,
      "Ġchallen": 2968,
      "Ġturn": 2969,
      "Ġhere": 2970,
      "Ġfr": 2971,
      "ë¦¬ëĬĶ": 2972,
      "ĠìĭľëĮĢ": 2973,
      "ĠìĪľ": 2974,
      "Ġfam": 2975,
      "ëłĪìĿ´": 2976,
      "Ġgas": 2977,
      "ilities": 2978,
      "Ġheat": 2979,
      "side": 2980,
      "yn": 2981,
      "Ġpay": 2982,
      "ĠìĺģíĻĶ": 2983,
      "Ġgrowth": 2984,
      "ë³Ģ": 2985,
      "Ġclimate": 2986,
      "ì°½": 2987,
      "Ġë¸Į": 2988,
      "mber": 2989,
      "Ġuses": 2990,
      "Ġrad": 2991,
      "Ġhalf": 2992,
      "Ġbuilding": 2993,
      "Ġgoing": 2994,
      "Ġreason": 2995,
      "ìĬ¬": 2996,
      "ration": 2997,
      "ĠìĭĿ": 2998,
      "Ġer": 2999,
      "idd": 3000,
      "Ġ&": 3001,
      "Ġëĵľ": 3002,
      "Ġtalk": 3003,
      "atory": 3004,
      "Ġtypes": 3005,
      "Ġcountries": 3006,
      "ìĽ¨": 3007,
      "ĠìĹ¬ëŁ¬": 3008,
      "ggest": 3009,
      "nJ": 3010,
      "ë²Īì§¸": 3011,
      "Ġprofess": 3012,
      "by": 3013,
      "ront": 3014,
      "ilar": 3015,
      "une": 3016,
      "eds": 3017,
      "Ġrelations": 3018,
      "verage": 3019,
      "Ġë¨": 3020,
      "Ġach": 3021,
      "rist": 3022,
      "Ġcase": 3023,
      "ĠUS": 3024,
      "75": 3025,
      "int": 3026,
      "Ġemploy": 3027,
      "ĠëĨĴ": 3028,
      "ians": 3029,
      "Ġmultip": 3030,
      "Ġtemperature": 3031,
      "Ġfru": 3032,
      "Ġmass": 3033,
      "Ġwebs": 3034,
      "ĠOr": 3035,
      "Ġbreak": 3036,
      "Ġíģ°": 3037,
      "íļĮìĿĺ": 3038,
      "let": 3039,
      "Ġobs": 3040,
      "Ġtur": 3041,
      "Ġclean": 3042,
      "iting": 3043,
      "Ġtravel": 3044,
      "Ġwoman": 3045,
      "Ġtas": 3046,
      "Ġíı¬íķ¨": 3047,
      "Ġfull": 3048,
      "ming": 3049,
      "Ġphot": 3050,
      "Ġworks": 3051,
      "Ġwarm": 3052,
      "pa": 3053,
      "Ġmillion": 3054,
      "ëįĶ": 3055,
      "Ġquick": 3056,
      "ë´ī": 3057,
      "ìħĺ": 3058,
      "nìĹŃ": 3059,
      "gsm": 3060,
      "23": 3061,
      "openai": 3062,
      "ither": 3063,
      "Ġtoday": 3064,
      "Ġdefin": 3065,
      "Ġëª»": 3066,
      "ĠìĹ°êµ¬": 3067,
      "íĬ¹": 3068,
      "Ġê¶Į": 3069,
      "Ġcook": 3070,
      "urope": 3071,
      "ë³´ëĭ¤": 3072,
      "Ġconditions": 3073,
      "Ġê²ĥìĿ´ëĭ¤": 3074,
      "ĠìĿ´ë£¨": 3075,
      "ëıĦë¡ľ": 3076,
      "Ġíİĺ": 3077,
      "ĠWith": 3078,
      "ĠìĻĦ": 3079,
      "Ġonline": 3080,
      "Ġtable": 3081,
      "Ġìĭ¬": 3082,
      "oll": 3083,
      "Ġweight": 3084,
      "Ġz": 3085,
      "Ġsay": 3086,
      "Ġcamera": 3087,
      "ledge": 3088,
      "ĠíĪ¬": 3089,
      "ê°Ĳ": 3090,
      "Ġseason": 3091,
      "Ġ27": 3092,
      "Ġì¤ĳêµŃ": 3093,
      "Ġgive": 3094,
      "Ġability": 3095,
      "åħ": 3096,
      "ann": 3097,
      "ĠNational": 3098,
      "Ġìłķë¶Ģ": 3099,
      "Ġspecial": 3100,
      "Ġfeet": 3101,
      "Ġtreatment": 3102,
      "ators": 3103,
      "leep": 3104,
      "Ġrequire": 3105,
      "af": 3106,
      "eral": 3107,
      "Ġfur": 3108,
      "Ġ26": 3109,
      "Ġalg": 3110,
      "Ġ193": 3111,
      "Ġì¶©": 3112,
      "NA": 3113,
      ".âĢĿ\\": 3114,
      "ëĿ": 3115,
      "íį¼": 3116,
      "ring": 3117,
      "Ġstudent": 3118,
      "ĠWorld": 3119,
      "Ġì¢": 3120,
      "ĠíĨµíķ´": 3121,
      "ray": 3122,
      "£½": 3123,
      "ĠSome": 3124,
      "cially": 3125,
      "ëıĦìĿĺ": 3126,
      "Ġtree": 3127,
      "ëĲĺê³ł": 3128,
      "Ġjob": 3129,
      "Ġbat": 3130,
      "ĠComm": 3131,
      "ĠOne": 3132,
      "ĠëĤĺíĥĢ": 3133,
      "asy": 3134,
      "Ġbig": 3135,
      "Ġhaving": 3136,
      "oor": 3137,
      "Ġìĸ¸ìĸ´": 3138,
      "ìĶ¨": 3139,
      "though": 3140,
      "nSo": 3141,
      "Ġcomplex": 3142,
      "light": 3143,
      "ĠìĤ¬íļĮ": 3144,
      "over": 3145,
      "ĠíĸĪëĭ¤": 3146,
      "Ġdam": 3147,
      "Ġsure": 3148,
      "ì¶Ķ": 3149,
      "Ġeat": 3150,
      "ope": 3151,
      "Ġrepresent": 3152,
      "Ġsurface": 3153,
      "Ġconsider": 3154,
      "Ġsays": 3155,
      "Ġskills": 3156,
      "Ġëľ": 3157,
      "Ġdeath": 3158,
      "Ġcustomer": 3159,
      "Ġnever": 3160,
      "ëĤĺëĿ¼": 3161,
      "Ġcarbon": 3162,
      "nIf": 3163,
      "ored": 3164,
      "ney": 3165,
      "Ġì½": 3166,
      "illed": 3167,
      "ĠìĿ¸êµ¬": 3168,
      "nIt": 3169,
      "ae": 3170,
      "Ġteac": 3171,
      "thing": 3172,
      "aken": 3173,
      "Ġì¡´ìŀ¬": 3174,
      "Ġcontent": 3175,
      "hing": 3176,
      "Ġindividual": 3177,
      "íĿ¬": 3178,
      "ese": 3179,
      "irl": 3180,
      "ë¶Ģë¶Ħ": 3181,
      "Ġ60": 3182,
      "hem": 3183,
      "hy": 3184,
      "Ġmachine": 3185,
      "Ġneg": 3186,
      "Ġpoll": 3187,
      "ĠLe": 3188,
      "ĠëĤł": 3189,
      "ĠëıĮ": 3190,
      "Ġri": 3191,
      "archers": 3192,
      "ibility": 3193,
      "Ġreturn": 3194,
      "Ġsoil": 3195,
      "ĠX": 3196,
      "Ġhigher": 3197,
      "Ġcat": 3198,
      "Ġprim": 3199,
      "Ġoil": 3200,
      "Ġrole": 3201,
      "Ġbrain": 3202,
      "ivity": 3203,
      "íĺ¸ìĦł": 3204,
      "Ġê°ĢìĪĺ": 3205,
      "Ġactivities": 3206,
      "Ġterm": 3207,
      "ìļ°ìĬ¤": 3208,
      "Ġassoci": 3209,
      "ëĿ½": 3210,
      "Ġcancer": 3211,
      "vious": 3212,
      "Ġliving": 3213,
      "augh": 3214,
      "Ġcommunity": 3215,
      "ìĿ´ìĹĪëĭ¤": 3216,
      ";\\": 3217,
      "ë¦¬ë¥¼": 3218,
      "Ġlower": 3219,
      "ĠCent": 3220,
      "Ġdone": 3221,
      "ĠEurope": 3222,
      "rap": 3223,
      "ëŀĢëĵľ": 3224,
      "Ġill": 3225,
      "Ġëıħë¦½": 3226,
      "Ġhealthy": 3227,
      "Ġì·¨": 3228,
      "hell": 3229,
      "Ġglobal": 3230,
      "Ġlive": 3231,
      "ĠëĮĢíķĻ": 3232,
      "Ġëĸ": 3233,
      "Ġstop": 3234,
      "Ġchemical": 3235,
      "acks": 3236,
      "Ġ29": 3237,
      ".,": 3238,
      "Ġuser": 3239,
      "Ġservice": 3240,
      "action": 3241,
      "Ġì¤ĳìĭ¬": 3242,
      "sel": 3243,
      "=<<": 3244,
      "Ġask": 3245,
      "Ġarticle": 3246,
      "ë¡ľìĦľ": 3247,
      "ë¦¬ìĬ¤": 3248,
      "oring": 3249,
      "Ġsimilar": 3250,
      "Ġrate": 3251,
      "bo": 3252,
      "Ġhelps": 3253,
      "Ġed": 3254,
      "Ġsize": 3255,
      "Ġren": 3256,
      "aged": 3257,
      "Ġëª¨ëĵł": 3258,
      "ĠBy": 3259,
      "Ġdru": 3260,
      "Ġê·¸ë¦¬ê³ł": 3261,
      "Ġnear": 3262,
      "Ġrelationship": 3263,
      "lement": 3264,
      "Ġshows": 3265,
      "nparsed": 3266,
      "Ġvide": 3267,
      "ì¡´": 3268,
      "ipp": 3269,
      "Ġmeet": 3270,
      "Ġnecess": 3271,
      "Ġidentify": 3272,
      "ler": 3273,
      "not": 3274,
      "ument": 3275,
      "ëŁ°": 3276,
      "Ġdifficult": 3277,
      "urity": 3278,
      "contin": 3279,
      "cean": 3280,
      "nAn": 3281,
      "Ġlot": 3282,
      "ê²ĥ": 3283,
      "Ġtrees": 3284,
      "Ġmedia": 3285,
      "Ġsource": 3286,
      "Ġloss": 3287,
      "ë¦¬ì¹´": 3288,
      "ëĤ¬": 3289,
      "ì°°": 3290,
      "ëĪĦ": 3291,
      "Ġì¦ī": 3292,
      "Ġìĺ¨": 3293,
      "orith": 3294,
      "Ġì¹ĺ": 3295,
      "Ġopportun": 3296,
      "nAs": 3297,
      "rents": 3298,
      "Ġenough": 3299,
      "Ġproduce": 3300,
      "ëģ": 3301,
      "Ġactivity": 3302,
      "Ġlater": 3303,
      "Ġcourse": 3304,
      "ym": 3305,
      "ëħĦëĮĢ": 3306,
      "Ġessential": 3307,
      "aps": 3308,
      "Ġëĵ±ìĿĺ": 3309,
      "for": 3310,
      "ëįķ": 3311,
      "Ġindividuals": 3312,
      "¤Ħ": 3313,
      "Ġquality": 3314,
      "min": 3315,
      "ystem": 3316,
      "Ġrecogn": 3317,
      "Ġìķł": 3318,
      "app": 3319,
      "ìĦ¼": 3320,
      "ì´Ŀ": 3321,
      "ë°ķ": 3322,
      "Ġfriends": 3323,
      "Ġsoci": 3324,
      "Ġseries": 3325,
      "Ġdiscuss": 3326,
      "ging": 3327,
      "Ġcontrib": 3328,
      "ilt": 3329,
      "Ġengine": 3330,
      "ĠìĺģêµŃ": 3331,
      "ysis": 3332,
      "Ġbar": 3333,
      "Ġtaking": 3334,
      "ë²Ķ": 3335,
      "Ġleast": 3336,
      "Ġeffects": 3337,
      "Ġcrit": 3338,
      "íĻľ": 3339,
      "ĠíķĺëĬĶ": 3340,
      "istic": 3341,
      "ĠíĮĲ": 3342,
      "ired": 3343,
      "main": 3344,
      "most": 3345,
      "ĠëĶĶ": 3346,
      "Ġonce": 3347,
      "nìłķëĭµìĿĢ": 3348,
      "Ġroom": 3349,
      "Ġbegins": 3350,
      "):": 3351,
      "ĠìĿ´ìļ©": 3352,
      "elling": 3353,
      "Ġcollect": 3354,
      "ĠìĤ¬ë§Ŀ": 3355,
      "Ġcomes": 3356,
      "Ġabove": 3357,
      "mptoms": 3358,
      "íķĺìĺĢê³ł": 3359,
      "ĠìķĮëł¤": 3360,
      "Ġaddress": 3361,
      "Ġë²Ħ": 3362,
      "ails": 3363,
      "Ġprovides": 3364,
      "Ġself": 3365,
      "ê²¨": 3366,
      "aching": 3367,
      "|\\": 3368,
      "Ġsoftware": 3369,
      "ery": 3370,
      "ength": 3371,
      "Ġforest": 3372,
      "Ġblue": 3373,
      "lying": 3374,
      "ĠTr": 3375,
      "rown": 3376,
      "overed": 3377,
      "ìĿ´ê³ł": 3378,
      "enn": 3379,
      "duct": 3380,
      "Ġmaint": 3381,
      "Ġnight": 3382,
      "ĠAf": 3383,
      "Ġscience": 3384,
      "ĠAll": 3385,
      "ley": 3386,
      "iment": 3387,
      "íĥĪë¦¬ìķĦ": 3388,
      "Ġsuggest": 3389,
      "Ġê·ľ": 3390,
      "Ġwood": 3391,
      "Ġexerc": 3392,
      "Ġcentury": 3393,
      "gar": 3394,
      "ĠìĦ¤ë¦½": 3395,
      "Ġmiles": 3396,
      "´Į": 3397,
      "Ġsubject": 3398,
      "85": 3399,
      "Ġëľ»": 3400,
      "ection": 3401,
      "Ġëĭ¤ìĭľ": 3402,
      "Ġpolit": 3403,
      "Ġelectric": 3404,
      "mit": 3405,
      "Ġnorm": 3406,
      "ĠBl": 3407,
      "utions": 3408,
      "aving": 3409,
      "çİ": 3410,
      "ëħĢ": 3411,
      "ably": 3412,
      "Ġplaying": 3413,
      "Ġëª¨ëĳĲ": 3414,
      "yle": 3415,
      "Ġalgorith": 3416,
      "95": 3417,
      "ĠìŀĪìĹĪ": 3418,
      "Ġinflu": 3419,
      "Ġexist": 3420,
      "por": 3421,
      "ì³Ĳ": 3422,
      "Ġpoints": 3423,
      "ĠGo": 3424,
      "Ġincreased": 3425,
      "Ġauthor": 3426,
      "ising": 3427,
      "ĠíĻĺ": 3428,
      "Ġíķł": 3429,
      "Ġsens": 3430,
      "ë¡Ģ": 3431,
      "Ġmusic": 3432,
      "Ġver": 3433,
      "Ġknowledge": 3434,
      "ê·ľ": 3435,
      "ĠëĮĢíķ´": 3436,
      "ìĿ´ì§Ģ": 3437,
      "ĠíĻľëıĻ": 3438,
      "Ġcontain": 3439,
      "ì§ķ": 3440,
      "Ġsimple": 3441,
      "Ġë¬¸ìłľ": 3442,
      "Ġì§Ģë°©": 3443,
      "ĠìĿ´ìĥģ": 3444,
      "Ġsingle": 3445,
      "Ġaud": 3446,
      "íķĺë©´ìĦľ": 3447,
      "pos": 3448,
      "Ġquestions": 3449,
      "izing": 3450,
      "Ġexperien": 3451,
      "Ġclear": 3452,
      "ìĸ´ì§Ħ": 3453,
      "Ġface": 3454,
      "Ġêµ¬ìĦ±": 3455,
      "Ġbecame": 3456,
      "Ġë³Ħ": 3457,
      "æĿ": 3458,
      "Ġì²«": 3459,
      "45": 3460,
      "ĠWar": 3461,
      "Ġcirc": 3462,
      "ì¸µ": 3463,
      "Ġmedical": 3464,
      "aced": 3465,
      "ibr": 3466,
      "Ġfire": 3467,
      "Ġbenefits": 3468,
      "ĠCar": 3469,
      "ĠìķĦëĭĪ": 3470,
      "Ġlif": 3471,
      "Ġstress": 3472,
      "Ġpopular": 3473,
      "ëĿ¼ìĿ´": 3474,
      "icial": 3475,
      "Ġbelow": 3476,
      "ĠEnglish": 3477,
      "Ġwall": 3478,
      "Ġslow": 3479,
      "Ġice": 3480,
      "ìĿ¼ìĹĲ": 3481,
      "ĽĪ": 3482,
      "Row": 3483,
      "ĠìĿ¼ë°ĺ": 3484,
      "36": 3485,
      "anced": 3486,
      "Ġconnect": 3487,
      "ounts": 3488,
      "usion": 3489,
      "Ġëħ¼": 3490,
      "ification": 3491,
      "rieval": 3492,
      "Ġregul": 3493,
      "ows": 3494,
      "ìŀĲê°Ģ": 3495,
      "ison": 3496,
      "ë§ī": 3497,
      "ĠìĿĢ": 3498,
      "amp": 3499,
      "Ġabs": 3500,
      "gest": 3501,
      "ìĿ´ìŀĲ": 3502,
      "ì±ħ": 3503,
      "Ġë¬¸íĻĶ": 3504,
      "íģ´": 3505,
      "ì§Ģë¥¼": 3506,
      "tau": 3507,
      "nHow": 3508,
      "Ġanaly": 3509,
      "Ġensure": 3510,
      "way": 3511,
      "Ġwebsite": 3512,
      "íĹĮ": 3513,
      "openbook": 3514,
      "openbookqa": 3515,
      "ĠíĤ": 3516,
      "Ġmeaning": 3517,
      "Ġbooks": 3518,
      "Ġìłĳ": 3519,
      "Ġcompet": 3520,
      "Ġneeded": 3521,
      "Ġfront": 3522,
      "Ġservices": 3523,
      "88": 3524,
      "pecially": 3525,
      "ĠJohn": 3526,
      "ìĦ±ìĿĦ": 3527,
      "Ġskin": 3528,
      "ĠíĴ": 3529,
      "Ġdeep": 3530,
      "asw": 3531,
      "Ġunderstanding": 3532,
      "Ġexpect": 3533,
      "Ġíļ": 3534,
      "Ġmaterials": 3535,
      "ĠBrit": 3536,
      "ìłĳ": 3537,
      "ìĿ´ìĹĪ": 3538,
      "ĠMon": 3539,
      "ĠNe": 3540,
      "google": 3541,
      "Ġë³ĳ": 3542,
      "Ġstates": 3543,
      "Ġfeatures": 3544,
      "ged": 3545,
      "Ġsomeone": 3546,
      "Easy": 3547,
      "ding": 3548,
      "Ġissues": 3549,
      "ëŁ¼": 3550,
      "Ġhab": 3551,
      "ĠíŀĪ": 3552,
      "Ġspeed": 3553,
      "continuation": 3554,
      "!\\": 3555,
      "ele": 3556,
      "hellasw": 3557,
      "Rowan": 3558,
      "hellaswag": 3559,
      "Ġtar": 3560,
      "Ġstructure": 3561,
      "Ġhair": 3562,
      "Ġproduction": 3563,
      "éĩ": 3564,
      "rel": 3565,
      "¶ģ": 3566,
      "ĠíķĺìĺĢëĭ¤": 3567,
      "Ġeffective": 3568,
      "bool": 3569,
      "fer": 3570,
      "Ġâ": 3571,
      "Ġestab": 3572,
      "±¸": 3573,
      "Ġmic": 3574,
      "Ġsat": 3575,
      "Ġbehavior": 3576,
      "icy": 3577,
      ".\\\"\\": 3578,
      "ĠëĮĢë¶Ģë¶Ħ": 3579,
      "ĠêµŃìłľ": 3580,
      "Ġaverage": 3581,
      "Ġeither": 3582,
      "íĥĿ": 3583,
      "ìľĦìĽĲ": 3584,
      "84": 3585,
      "room": 3586,
      "Ġintrodu": 3587,
      "Ġaction": 3588,
      "Â°": 3589,
      "Ġnumbers": 3590,
      "Ġnature": 3591,
      "idered": 3592,
      "retrieval": 3593,
      "ram": 3594,
      "Ġ`": 3595,
      "Ġbox": 3596,
      "ëĮĢë¡ľ": 3597,
      "boolq": 3598,
      "Ġrepl": 3599,
      "astic": 3600,
      "ĠíĬ¸": 3601,
      "ades": 3602,
      "65": 3603,
      "ê°ľìĿĺ": 3604,
      "ĠĠĠĠĠĠĠ": 3605,
      "joy": 3606,
      "nY": 3607,
      "reate": 3608,
      "Ġaccur": 3609,
      "Ġì¶ľìĭł": 3610,
      "km": 3611,
      "Ġëĭ¤ìĿĮê³¼": 3612,
      "ĠìľĦíķľ": 3613,
      "ĠìĿ¼ë³¸ìĿĺ": 3614,
      "Ġspread": 3615,
      "72": 3616,
      "Ġveget": 3617,
      "æĸ": 3618,
      "Ġbur": 3619,
      "Ġsleep": 3620,
      "Ġcru": 3621,
      "selves": 3622,
      "Ġdecre": 3623,
      "Ġeasy": 3624,
      "ĠAfter": 3625,
      "Ch": 3626,
      "Ġann": 3627,
      "Ġclos": 3628,
      "Ġì£¼ìŀ¥": 3629,
      "ĠìĤ¬ê±´": 3630,
      "Ġet": 3631,
      "86": 3632,
      "ĠCal": 3633,
      "Ġconsidered": 3634,
      "Ġjoin": 3635,
      "89": 3636,
      "Ġdeg": 3637,
      "Ġsources": 3638,
      "ĠìĿ´ëĬĶ": 3639,
      "ë¯¼ì£¼": 3640,
      "Ġmembers": 3641,
      "Ġìµľì´Ī": 3642,
      "Ġpositive": 3643,
      "ĠëĨį": 3644,
      "Ġwon": 3645,
      "ìĤ¼": 3646,
      "In": 3647,
      "Ġtransport": 3648,
      "Ġwhether": 3649,
      "ë¬¸íĻĶ": 3650,
      "Ġassist": 3651,
      "uc": 3652,
      "âĢĵ": 3653,
      "nU": 3654,
      "Ġgirl": 3655,
      "de": 3656,
      "Ġfeed": 3657,
      "Ġbal": 3658,
      "ë°Ľ": 3659,
      "ĠíĶĮ": 3660,
      "ì°©": 3661,
      "Ð¸": 3662,
      "mon": 3663,
      "Ġperformance": 3664,
      "Ġhands": 3665,
      "ìĬ¤íģ¬": 3666,
      "Ġì¤Ģ": 3667,
      "Ġincreasing": 3668,
      "icate": 3669,
      "ìĿ´ëĬĶ": 3670,
      "ĠSc": 3671,
      "íĺģ": 3672,
      "Ġì¹ľ": 3673,
      "Ġresearchers": 3674,
      "Ġparts": 3675,
      "Ġì²ĺìĿĮ": 3676,
      "ĠAfric": 3677,
      "Ġallows": 3678,
      "Ġê¸¸": 3679,
      "Ġfactors": 3680,
      "lex": 3681,
      "edi": 3682,
      "ë§Ĳ": 3683,
      "Ġë°ľìĥĿ": 3684,
      "ready": 3685,
      "Ġgra": 3686,
      "etimes": 3687,
      "Ġpressure": 3688,
      "ë¥´íģ¬": 3689,
      "Ġsymptoms": 3690,
      "ìĿĳ": 3691,
      "Ġdiet": 3692,
      "Ġì±Ħ": 3693,
      "Ġaddition": 3694,
      "nHe": 3695,
      "íĺĳ": 3696,
      "ball": 3697,
      "Ġda": 3698,
      "ĩ´": 3699,
      "Ġox": 3700,
      "Ġë°ľê²¬": 3701,
      "ìĿ¸ë¯¼": 3702,
      "Ġ.": 3703,
      "ency": 3704,
      "Ġdoing": 3705,
      "å¾": 3706,
      "Ġshare": 3707,
      "Ġìĺģíĸ¥": 3708,
      "Ġnews": 3709,
      "iven": 3710,
      "ìª½ìľ¼ë¡ľ": 3711,
      "Ġincludes": 3712,
      "Ġíģ´": 3713,
      "Ġur": 3714,
      "Ġcontinu": 3715,
      "Ġrecomm": 3716,
      "Ġdeveloped": 3717,
      "Ġparticip": 3718,
      "Ġstat": 3719,
      "Ġjour": 3720,
      "ites": 3721,
      "----": 3722,
      "ãģ": 3723,
      "ales": 3724,
      "87": 3725,
      "Ġsand": 3726,
      "Ġmonths": 3727,
      "Ġlives": 3728,
      "Ġaccording": 3729,
      "ma": 3730,
      "ìĬ¨": 3731,
      "ords": 3732,
      "å®Ĺ": 3733,
      "ê±°ëĤĺ": 3734,
      "erve": 3735,
      "Ġ2010": 3736,
      "Ġì£½": 3737,
      "ĠíıĲ": 3738,
      "erous": 3739,
      "nê·¸": 3740,
      "Ġtook": 3741,
      "ĠMar": 3742,
      "Ġwaste": 3743,
      "96": 3744,
      "Ġespecially": 3745,
      "gress": 3746,
      "Ġfoot": 3747,
      "Ġconcer": 3748,
      "Ġrock": 3749,
      "Ġla": 3750,
      "dom": 3751,
      "Ġ2000": 3752,
      "Ġeconomic": 3753,
      "çİĭ": 3754,
      "ĠChrist": 3755,
      "ìĬµ": 3756,
      "Ġfu": 3757,
      "Ġdifference": 3758,
      "Ġcreated": 3759,
      "Ġavoid": 3760,
      "Ġappear": 3761,
      "Ġdest": 3762,
      "Ġfurther": 3763,
      "å¸": 3764,
      "ĠìĦ¬": 3765,
      "Ġê²ĥìĿĢ": 3766,
      "ellig": 3767,
      "íķĺë©´": 3768,
      "ëŁ¬íķľ": 3769,
      "ĠìķĦìĿ´": 3770,
      "li": 3771,
      "ë¦Ń": 3772,
      "íĦ´": 3773,
      "Ġbehind": 3774,
      "Ġge": 3775,
      "nFor": 3776,
      "ĠIntern": 3777,
      "ĠGerm": 3778,
      "erson": 3779,
      "ĠDr": 3780,
      "enerate": 3781,
      "Ġposition": 3782,
      "mosp": 3783,
      "Ġrain": 3784,
      "64": 3785,
      "83": 3786,
      "Ġalready": 3787,
      "Ġcontinue": 3788,
      "Ġlog": 3789,
      "Ġthird": 3790,
      "Ġëī´": 3791,
      "aches": 3792,
      "ĠìĿ¼ìĸ´": 3793,
      "ëĮĢíķľë¯¼": 3794,
      "Ġcode": 3795,
      "ĠNorth": 3796,
      "Ġsolar": 3797,
      "Ġvac": 3798,
      "ĠìĦ¤ì¹ĺ": 3799,
      "Ġleaves": 3800,
      "Ġcases": 3801,
      "Ġsuper": 3802,
      "Ġfrequ": 3803,
      "erence": 3804,
      "Ġcheck": 3805,
      "Ġevents": 3806,
      "į¨": 3807,
      "lo": 3808,
      "ëħĦìĹĲëĬĶ": 3809,
      "Ġra": 3810,
      "99": 3811,
      "Ġport": 3812,
      "íĶĮ": 3813,
      "nDes": 3814,
      "Ġobserv": 3815,
      "''": 3816,
      "ĠìĽĶ": 3817,
      "ìĬ¤íĤ¤": 3818,
      "Ġsuff": 3819,
      "Ġflu": 3820,
      "ì¦Ŀ": 3821,
      "Ġanimal": 3822,
      "imately": 3823,
      "pir": 3824,
      "Ġinit": 3825,
      "Ġê´Ģê³Ħ": 3826,
      "¸ëĭ¤": 3827,
      "Ġste": 3828,
      "Ġë³¼": 3829,
      "ĠìŀĪìĸ´": 3830,
      "ief": 3831,
      "icles": 3832,
      "Ġtarget": 3833,
      "82": 3834,
      "Ġdesigned": 3835,
      "Ġdrink": 3836,
      "sy": 3837,
      "ë¹ĦìķĦ": 3838,
      "ìĬ¤ëĬĶ": 3839,
      "Ġtraining": 3840,
      "Ġhot": 3841,
      "ĠìĿĺë¯¸": 3842,
      "Ġì¿": 3843,
      "ì¸¡": 3844,
      "ê¸°ìĿĺ": 3845,
      "Ġcauses": 3846,
      "Ġëĳ": 3847,
      "Ġlove": 3848,
      "Ġ2012": 3849,
      "ening": 3850,
      "alks": 3851,
      "lor": 3852,
      "ëħĦë¶ĢíĦ°": 3853,
      "Ġscreen": 3854,
      "lt": 3855,
      "Ġstay": 3856,
      "ĠHealth": 3857,
      "Ġi": 3858,
      "amed": 3859,
      "Ġmess": 3860,
      "nOn": 3861,
      "ĠìľłëŁ½": 3862,
      "Ġìľ¡": 3863,
      "osis": 3864,
      "Ġmount": 3865,
      "ìĬĪ": 3866,
      "Ġnetwork": 3867,
      "Ġdoc": 3868,
      "tt": 3869,
      "Ġidea": 3870,
      "oose": 3871,
      "ê·ł": 3872,
      "stant": 3873,
      "ĠëıĻìķĪ": 3874,
      "Ġê°ľë°ľ": 3875,
      "ĠëģĿ": 3876,
      "aur": 3877,
      "Ġsense": 3878,
      "ë¯Ģë¡ľ": 3879,
      "ĠíĻį": 3880,
      "issions": 3881,
      "ĠAmerica": 3882,
      "iction": 3883,
      "ìľ¨": 3884,
      "ìĥģìĿĦ": 3885,
      "íĤ¨": 3886,
      "Ġweather": 3887,
      "Ġtaken": 3888,
      "Ġsite": 3889,
      "nGenerate": 3890,
      "Ġmind": 3891,
      "rict": 3892,
      "Ġever": 3893,
      "artment": 3894,
      "Ġgroups": 3895,
      "Ġcustomers": 3896,
      "76": 3897,
      "ëĳ": 3898,
      "itud": 3899,
      "Ġupon": 3900,
      "Ġelements": 3901,
      "iddle": 3902,
      "ìĤ¬ë¥¼": 3903,
      "Ġtasks": 3904,
      "Ġ2005": 3905,
      "Ġê²½ìłľ": 3906,
      "Ġwhole": 3907,
      "Ġpan": 3908,
      "epend": 3909,
      "Ġê³µìĭĿ": 3910,
      "´´": 3911,
      "ĠMed": 3912,
      "Ġrelated": 3913,
      "ëł¥ìĿĦ": 3914,
      "ume": 3915,
      "Ġinj": 3916,
      "Ġmeasure": 3917,
      "nOne": 3918,
      "ĠAm": 3919,
      "Ġexc": 3920,
      "struct": 3921,
      "ĠìĻķì¡°": 3922,
      "Ġvariety": 3923,
      "ĠìŀĳíĴĪ": 3924,
      "ê¸°ê°Ģ": 3925,
      "ĠíĮ¨": 3926,
      "ĠíĹĪ": 3927,
      "ĳ¸": 3928,
      "(,": 3929,
      "ĠíħĮ": 3930,
      "Ġpatients": 3931,
      "ĠGe": 3932,
      "Ġ190": 3933,
      "ils": 3934,
      "ellow": 3935,
      "Ġnecessary": 3936,
      "ned": 3937,
      "Ġusers": 3938,
      "Ġpractice": 3939,
      "Ġbring": 3940,
      "Ġíĺĳ": 3941,
      "Ġëĵ±ìĿ´": 3942,
      "ĠìĿ´íĥĪë¦¬ìķĦ": 3943,
      "ìĵ°": 3944,
      "fact": 3945,
      "Ġarg": 3946,
      "itation": 3947,
      "Ġremov": 3948,
      "íĶ": 3949,
      "Ġcommunication": 3950,
      "Ġlooking": 3951,
      "Ġcosts": 3952,
      "Ġgetting": 3953,
      "Ġtrack": 3954,
      "ĠìķĶ": 3955,
      "Ġprep": 3956,
      "Ġcaused": 3957,
      "Ġfat": 3958,
      "nìĹŃìĤ¬": 3959,
      "Ġìľ¤": 3960,
      "Ġíŀ": 3961,
      "Ġoutside": 3962,
      "Ġrecord": 3963,
      "Ġsearch": 3964,
      "Ġsurv": 3965,
      "Ġsteps": 3966,
      "ëĭ´": 3967,
      "ê³¨": 3968,
      "Ġprob": 3969,
      "Ġhowever": 3970,
      "ĠìłľêµŃ": 3971,
      "ëĭĮ": 3972,
      "Ġgets": 3973,
      "ung": 3974,
      "Ġcomplete": 3975,
      "Ġentire": 3976,
      "81": 3977,
      "Ġpack": 3978,
      "Ġharm": 3979,
      "íľ": 3980,
      "onstr": 3981,
      "Ġaccount": 3982,
      "Ġ**": 3983,
      "Ġgoal": 3984,
      "Ġíĸīìłķ": 3985,
      "Ġê¸°ìĽĲ": 3986,
      "Ġbegan": 3987,
      "Ġ2008": 3988,
      "Ġmanagement": 3989,
      "oration": 3990,
      "Ġatmosp": 3991,
      "isions": 3992,
      "Ġrev": 3993,
      "ĠìĿ´ëŁ¬íķľ": 3994,
      "ë¶Ī": 3995,
      "Ġterms": 3996,
      "Ġmor": 3997,
      "Ġtowards": 3998,
      "Ġevidence": 3999,
      "Ġconc": 4000,
      "ĠPe": 4001,
      "Ġthought": 4002,
      "Ġscientists": 4003,
      "Ġenjoy": 4004,
      "Ġparents": 4005,
      "Ġroad": 4006,
      "Ġearth": 4007,
      "ë¡ľë¶ĢíĦ°": 4008,
      "ĠìĿ´ìłĦ": 4009,
      "ìĭľíĤ¤": 4010,
      "Ġcup": 4011,
      "ĠGr": 4012,
      "Âł": 4013,
      "åŃ": 4014,
      "ping": 4015,
      "Ġlength": 4016,
      "ì´Į": 4017,
      "Ġë©´": 4018,
      "Ġforce": 4019,
      "ì¹ľ": 4020,
      "Ġleading": 4021,
      "94": 4022,
      "Ġquickly": 4023,
      "35": 4024,
      "ops": 4025,
      "ëķĮ": 4026,
      "ë¡ľëĬĶ": 4027,
      "Ġinside": 4028,
      "ê¸°ëĬĶ": 4029,
      "amin": 4030,
      "ada": 4031,
      "ensive": 4032,
      "ĠGod": 4033,
      "Ġapproach": 4034,
      "ĠMan": 4035,
      "ĠëĮĢíĳľ": 4036,
      "ìĹĶ": 4037,
      "Ġrequired": 4038,
      "ĠHere": 4039,
      "sequ": 4040,
      "ĠìĿ´ë¥¼": 4041,
      "ĠìĨĲ": 4042,
      "Ġwatch": 4043,
      "ëıĦë¥¼": 4044,
      "Ġdraw": 4045,
      "Ġsepar": 4046,
      "uck": 4047,
      "ĠíĤ¤": 4048,
      "Ðº": 4049,
      "Ġsound": 4050,
      "Ġstudies": 4051,
      "SA": 4052,
      "ises": 4053,
      "ER": 4054,
      "icien": 4055,
      "Ġunique": 4056,
      "ìľĦë¥¼": 4057,
      "ëĨ": 4058,
      "íļį": 4059,
      "ëĬĺ": 4060,
      "ĠQu": 4061,
      "Ġcame": 4062,
      "Ġthroughout": 4063,
      "Ġvideo": 4064,
      "rast": 4065,
      "Ġcorrect": 4066,
      "ĠSun": 4067,
      "ì°¸": 4068,
      "ìŀĲìĿĺ": 4069,
      "yl": 4070,
      "ĠëĮĢíķĻêµĲ": 4071,
      "Ġmultiple": 4072,
      "Ġassociated": 4073,
      "92": 4074,
      "66": 4075,
      "Ġì¤ĳìķĻ": 4076,
      "Ġcreating": 4077,
      "Ġê°ĸ": 4078,
      "Ġcontact": 4079,
      "Ġtell": 4080,
      "based": 4081,
      "ched": 4082,
      "Ġdispl": 4083,
      "ëĸ": 4084,
      "oud": 4085,
      "Ġproviding": 4086,
      "ival": 4087,
      "Ġsea": 4088,
      "nTo": 4089,
      "ë¦¬ìĹĲ": 4090,
      "Ġemot": 4091,
      "aim": 4092,
      "Ġsuccessful": 4093,
      "Ġcannot": 4094,
      "å¤§": 4095,
      "ications": 4096,
      "ĠìĦĿ": 4097,
      "Ġë³Ģê²½": 4098,
      "Ġdetermine": 4099,
      "Ġcalcul": 4100,
      "Ġcontinues": 4101,
      "ĠStud": 4102,
      "nëĮĢíķľë¯¼": 4103,
      "Ġsust": 4104,
      "oe": 4105,
      "Ġtax": 4106,
      "Ġreally": 4107,
      "Ġfarm": 4108,
      "pose": 4109,
      "Ġê³³": 4110,
      "Ġpath": 4111,
      "ë°Ģ": 4112,
      "Ġê±¸": 4113,
      "ĠAust": 4114,
      "Ġtools": 4115,
      "ĠSouth": 4116,
      "Ġ31": 4117,
      "Ġì¼": 4118,
      "ster": 4119,
      "Ġocean": 4120,
      "íĸĪê³ł": 4121,
      "na": 4122,
      "Th": 4123,
      "ĠêµĲìľ¡": 4124,
      "Ġmix": 4125,
      "Ġmethods": 4126,
      "ĠíĻ©ìłľ": 4127,
      "Ġindustry": 4128,
      "ww": 4129,
      "Ð¾": 4130,
      "Ġanalysis": 4131,
      "Ġissue": 4132,
      "Ġut": 4133,
      "Ġ80": 4134,
      "Ġlonger": 4135,
      "Ġdry": 4136,
      "Ġnational": 4137,
      "chan": 4138,
      "Ġbeaut": 4139,
      "Ġë§ī": 4140,
      "êµ°ìĿĺ": 4141,
      "Ġê°Ī": 4142,
      "Ġweb": 4143,
      "Ġ2011": 4144,
      "Ġwriting": 4145,
      "Ġrul": 4146,
      "Ġenvironmental": 4147,
      "93": 4148,
      "inks": 4149,
      "Ġpriv": 4150,
      "Ġvers": 4151,
      "ĠíıŃ": 4152,
      "ublic": 4153,
      "Ġbott": 4154,
      "Ñģ": 4155,
      "78": 4156,
      "Ġbab": 4157,
      "Ġpage": 4158,
      "Ġhyd": 4159,
      "Ġkind": 4160,
      "Ġwild": 4161,
      "resh": 4162,
      "íĿ¥": 4163,
      "itor": 4164,
      "Ġëĵ±ìĿĦ": 4165,
      "nal": 4166,
      "Ġclose": 4167,
      "Ġê°Ĳëıħ": 4168,
      "Ġarch": 4169,
      "Ġhistor": 4170,
      "Ġfilm": 4171,
      "ucle": 4172,
      "Ġìļ´ëıĻ": 4173,
      "Ġdistance": 4174,
      "Ġdemonstr": 4175,
      "Ġsumm": 4176,
      "ë¦¬ê°Ģ": 4177,
      "Ġ2009": 4178,
      "ĠíĥĦ": 4179,
      "ëĵ¤ê³¼": 4180,
      "Ġmatter": 4181,
      "Ġimplement": 4182,
      "Ġparticular": 4183,
      "28": 4184,
      "Ġthemselves": 4185,
      "Ġhor": 4186,
      "ëĤĺë¬´": 4187,
      "Ġpublished": 4188,
      "ëĤ¬ëĭ¤": 4189,
      "Ġcompan": 4190,
      "ivil": 4191,
      "ĠThat": 4192,
      "åľ": 4193,
      "Ġprevious": 4194,
      "ìĿ´íĬ¸": 4195,
      "ìĿ¸ë¯¼ê³µ": 4196,
      "Ġitems": 4197,
      "ê°Ī": 4198,
      "Ġgoes": 4199,
      "ĠìĥĪë¡ľ": 4200,
      "Ġê·¹": 4201,
      "íĭĢ": 4202,
      "Ġdark": 4203,
      "Ġrights": 4204,
      "Ġreach": 4205,
      "ĠPar": 4206,
      "emic": 4207,
      "Ġheav": 4208,
      "ought": 4209,
      "reg": 4210,
      "Ġdaily": 4211,
      "ground": 4212,
      "ĠìĿĮìķħ": 4213,
      "Ġì§Ī": 4214,
      "isms": 4215,
      "Ġrather": 4216,
      "ìŀĲë¥¼": 4217,
      "ĠWest": 4218,
      "Ġsold": 4219,
      "Ġthrow": 4220,
      "ìļĶíķľ": 4221,
      "Ġê³łëł¤": 4222,
      "ĠWhile": 4223,
      "74": 4224,
      "Ġê°ĢëĬ¥": 4225,
      "Ġstren": 4226,
      "ners": 4227,
      "Ġcool": 4228,
      "ĠPr": 4229,
      "istics": 4230,
      "Ġìķ¼êµ¬": 4231,
      "iation": 4232,
      "Ġpict": 4233,
      "ĠYork": 4234,
      "Ġprice": 4235,
      "ê³łëĵ±íķĻêµĲ": 4236,
      "Ġcompon": 4237,
      "Ġ``": 4238,
      "cip": 4239,
      "nìĿ¸": 4240,
      "Ġdom": 4241,
      "æľĿ": 4242,
      "Ġreading": 4243,
      "Ġbase": 4244,
      "ĩ¼": 4245,
      "Ġideas": 4246,
      "91": 4247,
      "back": 4248,
      "ë²Ħì§Ģ": 4249,
      "sp": 4250,
      "Ġprovided": 4251,
      "ìĦ¬": 4252,
      "ìį¨": 4253,
      "ë¦¬ìĿĺ": 4254,
      "Ġpredict": 4255,
      "Ġë°Ģ": 4256,
      "apan": 4257,
      "ened": 4258,
      "like": 4259,
      "Ġemer": 4260,
      "ìĪĺìĿĺ": 4261,
      "Ġplanet": 4262,
      "Ġmodern": 4263,
      "vert": 4264,
      "Ġlink": 4265,
      "ores": 4266,
      "Ġhumans": 4267,
      "Ġstatement": 4268,
      "ìĿ¸ìĿĺ": 4269,
      "iciency": 4270,
      "ĵ¨": 4271,
      "Ġ2007": 4272,
      "Ġbuy": 4273,
      "my": 4274,
      "ëĦĲ": 4275,
      "ining": 4276,
      "Ġì¹¨": 4277,
      "Ġê·Ģ": 4278,
      "26": 4279,
      "íķĺìĺĢìľ¼ë©°": 4280,
      "Ġachieve": 4281,
      "Ġveh": 4282,
      "ggs": 4283,
      "rought": 4284,
      "hood": 4285,
      "hib": 4286,
      "Ġinput": 4287,
      "ëıĦë¡Ŀ": 4288,
      "Ġinvolves": 4289,
      "ober": 4290,
      "ror": 4291,
      "iques": 4292,
      "pri": 4293,
      "Ġfast": 4294,
      "oph": 4295,
      "ĠMay": 4296,
      "urch": 4297,
      "Ġautom": 4298,
      "Ġìłķì¹ĺìĿ¸": 4299,
      "Ġfamil": 4300,
      "ĠìĭłëĿ¼": 4301,
      "Ġled": 4302,
      "Ġcoun": 4303,
      "Ġcop": 4304,
      "Ġtry": 4305,
      "ĠìĹĨëĭ¤": 4306,
      "Ġencour": 4307,
      "27": 4308,
      "Ġsix": 4309,
      "ony": 4310,
      "Ġrecent": 4311,
      "Ġpurch": 4312,
      "tic": 4313,
      "vant": 4314,
      "Ġbasic": 4315,
      "care": 4316,
      "Ġfig": 4317,
      "'re": 4318,
      "ĠìĨ¡": 4319,
      "níķľ": 4320,
      "Ġstanding": 4321,
      "ĠPres": 4322,
      "Ġthing": 4323,
      "ìĦľëĬĶ": 4324,
      "Ġcold": 4325,
      "abet": 4326,
      "ĠìºĲ": 4327,
      "Ġcard": 4328,
      "Ġappl": 4329,
      "Ð°": 4330,
      "Ġì¸": 4331,
      "íĮ¨": 4332,
      "Ġgard": 4333,
      "ìĺ¬": 4334,
      "ister": 4335,
      "Ġmagn": 4336,
      "Ġep": 4337,
      "ì°¬": 4338,
      "ancial": 4339,
      "Ġeye": 4340,
      "ìĿį": 4341,
      "nWhen": 4342,
      "Ġalmost": 4343,
      "ë§¥": 4344,
      "Ġmel": 4345,
      "Ġreducing": 4346,
      "```": 4347,
      "fect": 4348,
      "Ġhour": 4349,
      "Ġspeak": 4350,
      "Ġfail": 4351,
      "ëıĮ": 4352,
      "rem": 4353,
      "ĠSu": 4354,
      "Ġpolitical": 4355,
      "ygen": 4356,
      "ìŀĪ": 4357,
      "aling": 4358,
      "lease": 4359,
      "Ġbacter": 4360,
      "Ġbag": 4361,
      "ìŀ¥ìĿĦ": 4362,
      "Ġwide": 4363,
      "Ġec": 4364,
      "terns": 4365,
      "íĬ¹ë³Ħ": 4366,
      "Ġexercise": 4367,
      "ĠìĿ´ìĸ´": 4368,
      "Ġefficient": 4369,
      "ĠìŀĲìĭłìĿĺ": 4370,
      "120": 4371,
      "ì¹Ļ": 4372,
      "Ġoverall": 4373,
      "Ġing": 4374,
      "Ġstri": 4375,
      "Ġwritten": 4376,
      "Ð¸Ð": 4377,
      "ried": 4378,
      "Ġkids": 4379,
      "Ġíķĺì§Ģë§Į": 4380,
      "Ġìĸ»": 4381,
      "Ġfriend": 4382,
      "Ġsociety": 4383,
      "Ġconduct": 4384,
      "Ġcontains": 4385,
      "Ġ2004": 4386,
      "Ġregion": 4387,
      "sych": 4388,
      "Ġgreater": 4389,
      "Ġpen": 4390,
      "Ġoffer": 4391,
      "Ġdecision": 4392,
      "ĠëĲĺìĸ´": 4393,
      "Ġsugar": 4394,
      "Ġeasily": 4395,
      "irt": 4396,
      "Ġdiv": 4397,
      "Ġreview": 4398,
      "Ġbuilt": 4399,
      "Ġimage": 4400,
      "cks": 4401,
      "Ġ2006": 4402,
      "Ġactually": 4403,
      "Ġê²ĮìŀĦ": 4404,
      "Ġë§ŀ": 4405,
      "nEx": 4406,
      "Ġê°ĻìĿ´": 4407,
      "67": 4408,
      "Ġitself": 4409,
      "Ġrespect": 4410,
      "Ġoriginal": 4411,
      "bor": 4412,
      "åį": 4413,
      "idge": 4414,
      "ĠGu": 4415,
      "ìĭľìĹĲ": 4416,
      "Ġrunning": 4417,
      "äº": 4418,
      "itary": 4419,
      "68": 4420,
      "Ġë²Īì§¸": 4421,
      "Ġsecurity": 4422,
      "ë²Į": 4423,
      "ìĨĲ": 4424,
      "nìĤ¬ê±´": 4425,
      "ëħĦê¹Įì§Ģ": 4426,
      "Ġdiagn": 4427,
      "ĠAct": 4428,
      "cribe": 4429,
      "inally": 4430,
      "come": 4431,
      "åı": 4432,
      "ronic": 4433,
      "Ġnegative": 4434,
      "Ġwid": 4435,
      "ëıĦê°Ģ": 4436,
      "ply": 4437,
      "Ã©": 4438,
      "Ġforms": 4439,
      "Ġobjects": 4440,
      "Ġsafety": 4441,
      "Ġeyes": 4442,
      "Ġdeveloping": 4443,
      "Ġê¸°ì¤Ģ": 4444,
      "Ġë¶Ģë¶Ħ": 4445,
      "time": 4446,
      "icks": 4447,
      "Ġvisit": 4448,
      "ìĬ¤íĥĦ": 4449,
      "Ġsafe": 4450,
      "iol": 4451,
      "íĵ¨": 4452,
      "Ġmental": 4453,
      "Ġconcept": 4454,
      "ìĦ±ìĿ´": 4455,
      "ìŀĲë¡ľ": 4456,
      "Ġë°ľíĳľ": 4457,
      "ĠEm": 4458,
      "ëĮĢìĿĺ": 4459,
      "ìµľ": 4460,
      "nìĿ¼": 4461,
      "Ġì¤Ħ": 4462,
      "arr": 4463,
      "iding": 4464,
      "ĠëĭĪ": 4465,
      "urs": 4466,
      "Ġpark": 4467,
      "Ġhar": 4468,
      "Ġdat": 4469,
      "ided": 4470,
      "order": 4471,
      "ĠDes": 4472,
      "Ġbirth": 4473,
      "Ġê´Ģëł¨": 4474,
      "elligence": 4475,
      "Ġê²°ìłķ": 4476,
      "Ġeggs": 4477,
      "ëłĮ": 4478,
      "Ġbow": 4479,
      "32": 4480,
      "unch": 4481,
      "vey": 4482,
      "Ġë¥": 4483,
      "ift": 4484,
      "71": 4485,
      "Ġgrad": 4486,
      "Ġgrowing": 4487,
      "nWe": 4488,
      "Ġdevices": 4489,
      "é«": 4490,
      "udd": 4491,
      "ID": 4492,
      "ĠìĿ¸íķ´": 4493,
      "Ġpieces": 4494,
      "íĺ¼": 4495,
      "´íĵ¨": 4496,
      "ams": 4497,
      "ìļ´ëıĻ": 4498,
      "Ġtypically": 4499,
      "Ġíĺķíĥľ": 4500,
      "inary": 4501,
      "ula": 4502,
      "ĠKe": 4503,
      "Ġtraditional": 4504,
      "ĠII": 4505,
      "ìĽĢ": 4506,
      "Ġglass": 4507,
      "níĥĦ": 4508,
      "board": 4509,
      "yes": 4510,
      "ë¥Ļ": 4511,
      "Ġ2013": 4512,
      "Ġminim": 4513,
      "Ġcapt": 4514,
      "79": 4515,
      "Ġvalues": 4516,
      "Ġpatterns": 4517,
      "verse": 4518,
      "elebr": 4519,
      "ĠìŀĲìľł": 4520,
      "uted": 4521,
      "Ġbreat": 4522,
      "ocks": 4523,
      "round": 4524,
      "Ġproduced": 4525,
      "Ġgames": 4526,
      "Ġê²Ģ": 4527,
      "Ġwa": 4528,
      "Ġ2017": 4529,
      "ĪĪ": 4530,
      "Ġexpress": 4531,
      "ĠíĬ¹íŀĪ": 4532,
      "Ġprograms": 4533,
      "Ġweeks": 4534,
      "ember": 4535,
      "ĠíĹ¤": 4536,
      "Ġfoods": 4537,
      "Ġê·¸ë¦¬ìĬ¤": 4538,
      "Ġsam": 4539,
      "ĠDep": 4540,
      "Ġsquare": 4541,
      "ufact": 4542,
      "Ġliqu": 4543,
      "ë¥´ëĬĶ": 4544,
      "íı´": 4545,
      "ë¸Ķ": 4546,
      "raft": 4547,
      "ĠìłķìĿĺ": 4548,
      "Ġmechan": 4549,
      "Ġtechniques": 4550,
      "Ġê²°ê³¼": 4551,
      "Ġsometimes": 4552,
      "ees": 4553,
      "ĠìłĦíĪ¬": 4554,
      "Ġstarted": 4555,
      "bit": 4556,
      "Ġêµ¬ì¡°": 4557,
      "Ġë°ĽìķĦ": 4558,
      "ĠìĿ´ìĹĲ": 4559,
      "oke": 4560,
      "cies": 4561,
      "Ġhabit": 4562,
      "pro": 4563,
      "ĠCom": 4564,
      "ĠComp": 4565,
      "med": 4566,
      "Ġcit": 4567,
      "éĩĳ": 4568,
      "ëĲĺìĹĪê³ł": 4569,
      "níĥĦìĥĿ": 4570,
      "avor": 4571,
      "Ġelectr": 4572,
      "íĭ´": 4573,
      "Ġê³¼ìłķ": 4574,
      "ë¶ĢìĿĺ": 4575,
      "lands": 4576,
      "Ġsolution": 4577,
      "pper": 4578,
      "ĠApp": 4579,
      "ë²¨": 4580,
      "Ġsustain": 4581,
      "Ġonto": 4582,
      "Ġìŀĺ": 4583,
      "Ġgoals": 4584,
      "aly": 4585,
      "vere": 4586,
      "73": 4587,
      "ì¶©": 4588,
      "Ġinteract": 4589,
      "Ġatmosphere": 4590,
      "Ġmoving": 4591,
      "nCreate": 4592,
      "ĠRese": 4593,
      "ĠKing": 4594,
      "Ġliter": 4595,
      "Ġimages": 4596,
      "ëªħìĿ´": 4597,
      "ìĭľìĿĺ": 4598,
      "ush": 4599,
      "Ġshop": 4600,
      "Ġadapt": 4601,
      "ana": 4602,
      "Ġlargest": 4603,
      "Ġmom": 4604,
      "Ġnormal": 4605,
      "ìº": 4606,
      "rench": 4607,
      "98": 4608,
      "Ġswe": 4609,
      "rogen": 4610,
      "ĠëĤĺëĿ¼": 4611,
      "Ġë¯¼ì¡±": 4612,
      "____": 4613,
      "ĠJapan": 4614,
      "ĠìĿĮëł¥": 4615,
      "Ġinn": 4616,
      "icine": 4617,
      "48": 4618,
      "íĶĦíĬ¸": 4619,
      "cription": 4620,
      "æĺ": 4621,
      "Ġprimary": 4622,
      "ĠBritish": 4623,
      "77": 4624,
      "Ġlands": 4625,
      "ëªħìĿĺ": 4626,
      "ederal": 4627,
      "Ġconsist": 4628,
      "Ġadded": 4629,
      "nìĤ¬ë§Ŀ": 4630,
      "Ġrefer": 4631,
      "Ġ1990": 4632,
      "Ġwent": 4633,
      "aff": 4634,
      "ìĸµ": 4635,
      "ccording": 4636,
      "Ġpiece": 4637,
      "ìĹĲìĦľëıĦ": 4638,
      "Ġlarger": 4639,
      "Ġê°Ļëĭ¤": 4640,
      "ìŀĲëĬĶ": 4641,
      "ĠDis": 4642,
      "Ġ2016": 4643,
      "Ġregular": 4644,
      "aries": 4645,
      "ĠHis": 4646,
      "Ġ2018": 4647,
      "ëªħìĿĦ": 4648,
      ":**": 4649,
      "ĠìŀĪê³ł": 4650,
      "Ġtwice": 4651,
      "Ġshape": 4652,
      "ificial": 4653,
      "Ġdang": 4654,
      "ĠUse": 4655,
      "Ġsnow": 4656,
      "Ġoxygen": 4657,
      "Ġrob": 4658,
      "Ġsky": 4659,
      "kn": 4660,
      "ĠRep": 4661,
      "ìĭľì¼": 4662,
      "íĴį": 4663,
      "Ġjump": 4664,
      "orks": 4665,
      "ĠëĮĢìłĦ": 4666,
      "Ġíķ´ëĭ¹": 4667,
      "ĠìĻĢ": 4668,
      "ĠìĤ¬ìĭ¤": 4669,
      "êµ¬ìĿĺ": 4670,
      "Ġparticularly": 4671,
      "Ġapplications": 4672,
      "yth": 4673,
      "ì§Ģë¡ľ": 4674,
      "ë§¹": 4675,
      "Ġbirds": 4676,
      "Ġíļ¨": 4677,
      "ÃĹ": 4678,
      "íķĻê³¼": 4679,
      "Ġattention": 4680,
      "Ġë§¤ìļ°": 4681,
      "che": 4682,
      "omet": 4683,
      "Ġë°ľìłĦ": 4684,
      "ìĹĺ": 4685,
      "ĠCoun": 4686,
      "Ġculture": 4687,
      "Ġfem": 4688,
      "ĠíĶĦë¡ľê·¸": 4689,
      "Ġê°Ģì§Ģê³ł": 4690,
      "Ġ||": 4691,
      "]\\": 4692,
      "Ġdeb": 4693,
      "Ġì£¼ë¡ľ": 4694,
      "Ġpatient": 4695,
      "Ġscientific": 4696,
      "Ġtit": 4697,
      "ĠëĲĺìĹĪ": 4698,
      "´íĵ¨íĦ°": 4699,
      "Ġputs": 4700,
      "ached": 4701,
      "Ġeating": 4702,
      "ĠIm": 4703,
      "ĠUs": 4704,
      "Ġfinal": 4705,
      "íĽĪ": 4706,
      "Ġdou": 4707,
      "Ġhit": 4708,
      "Ġmodels": 4709,
      "hold": 4710,
      "âĢ¦": 4711,
      "Ġvirus": 4712,
      "ìĤ¬ê°Ģ": 4713,
      "Ġcenter": 4714,
      "Ġfinancial": 4715,
      "Ġinstead": 4716,
      "Ġëĭ¤ìĸĳ": 4717,
      "Ġsyn": 4718,
      "ervation": 4719,
      "Ġschools": 4720,
      "Ġëŀ": 4721,
      "Ġì±ħ": 4722,
      "Ġsex": 4723,
      "Ġgives": 4724,
      "Ġìķŀ": 4725,
      "ĠMany": 4726,
      "ĠìŀĲìĹ°": 4727,
      "Ġëĵ±ìŀ¥": 4728,
      "itude": 4729,
      "Ġcompanies": 4730,
      "house": 4731,
      "oming": 4732,
      "Ġcelebr": 4733,
      "Ġadditional": 4734,
      "ES": 4735,
      "Ġ2014": 4736,
      "Ġmother": 4737,
      "plain": 4738,
      "ì¡°ìĦł": 4739,
      "Ġappropri": 4740,
      "umb": 4741,
      "Ġemissions": 4742,
      "Ġcover": 4743,
      "69": 4744,
      "ĠCo": 4745,
      "ë¥´íĬ¸": 4746,
      "Ġdogs": 4747,
      "Ġgenerally": 4748,
      "Ġ--": 4749,
      "ëį¸": 4750,
      "Ġ2002": 4751,
      "Ġcarry": 4752,
      "Ġmovement": 4753,
      "Ġsil": 4754,
      "tered": 4755,
      "íĶ½": 4756,
      "Ġ2003": 4757,
      "Ġintegr": 4758,
      "Ġdigital": 4759,
      "Ġê°ľíĨµ": 4760,
      "Ġìĸ´ëĸ": 4761,
      "stitute": 4762,
      "atform": 4763,
      "gricult": 4764,
      "Ġgot": 4765,
      "500": 4766,
      "ech": 4767,
      "nK": 4768,
      "oint": 4769,
      "Ġë°©ìĨ¡": 4770,
      "Ġdiseases": 4771,
      "Ġë§İìĿ´": 4772,
      "Ġíľ": 4773,
      "Ġthreat": 4774,
      "nìķĦ": 4775,
      "ĠëĪĦ": 4776,
      "Ġ2020": 4777,
      "ĠìłĪ": 4778,
      "é«ĺ": 4779,
      "hat": 4780,
      "Ġstandard": 4781,
      "97": 4782,
      "nì§Ģ": 4783,
      "Ġíĥľìĸ´": 4784,
      "ologies": 4785,
      "ĠAìŀħëĭĪëĭ¤": 4786,
      "ests": 4787,
      "Ġê¸°ìĪł": 4788,
      "Ġtalking": 4789,
      "head": 4790,
      "Ġ2015": 4791,
      "Ġì¿ł": 4792,
      "Ġsmaller": 4793,
      "eff": 4794,
      "ties": 4795,
      "Ġprogress": 4796,
      "ëĵ¤ìĹĲê²Į": 4797,
      "ires": 4798,
      "Ġselect": 4799,
      "ius": 4800,
      "ìĿ´ìĬ¤": 4801,
      "Ġdistrib": 4802,
      "Ġlat": 4803,
      "Ġdire": 4804,
      "Ġboard": 4805,
      "Ġkm": 4806,
      "ĠBr": 4807,
      "Ġrequires": 4808,
      "Ġstarts": 4809,
      "ĠAustral": 4810,
      "rial": 4811,
      "Ġêµ¬ê°Ħ": 4812,
      "ĠState": 4813,
      "fort": 4814,
      "Ġlate": 4815,
      "ĠíĺĦëĮĢ": 4816,
      "Ġlost": 4817,
      "Ġprot": 4818,
      "...": 4819,
      "org": 4820,
      "osing": 4821,
      "Ġimportance": 4822,
      "Ġtrying": 4823,
      "ë¥ł": 4824,
      "Ġseem": 4825,
      "Ġaudience": 4826,
      "Ġresponse": 4827,
      "Ġreflect": 4828,
      "ĠìĿ´ê²ĥ": 4829,
      "Ġnucle": 4830,
      "ĠWhere": 4831,
      "íĨ¨": 4832,
      "Ġbelieve": 4833,
      "Ġë¸Ķ": 4834,
      "ĠìĿ´ë¡ł": 4835,
      "Ġblock": 4836,
      "ĠìĨĮìĪĺ": 4837,
      "Ġyet": 4838,
      "\\\",": 4839,
      "ĠMe": 4840,
      "water": 4841,
      "hel": 4842,
      "Ġcred": 4843,
      "Ġmanufact": 4844,
      "Ġë°©ë²ķ": 4845,
      "æ°": 4846,
      "ìĿ´ìħĺ": 4847,
      "Ġíĭ": 4848,
      "ĠíĹĮ": 4849,
      "pped": 4850,
      "Ġlocated": 4851,
      "actions": 4852,
      "AT": 4853,
      "ëłī": 4854,
      "Ġequal": 4855,
      "atives": 4856,
      "Ġriver": 4857,
      "ocr": 4858,
      "Ġrelig": 4859,
      "ĠPol": 4860,
      "Ġrow": 4861,
      "Ġdamage": 4862,
      "Ġëĭ´": 4863,
      "Ġcross": 4864,
      "ìĭŃ": 4865,
      "æĹ": 4866,
      "Ġpair": 4867,
      "asc": 4868,
      "ĠSchool": 4869,
      "Ġemp": 4870,
      "Ġë´ī": 4871,
      "Ġago": 4872,
      "Ġmole": 4873,
      "Ġassess": 4874,
      "Ġtown": 4875,
      "iles": 4876,
      "Ġìĭľê°Ħ": 4877,
      "Ġspent": 4878,
      "ê¸¸": 4879,
      "Ġsimply": 4880,
      "Ġë¶Ħë¥ĺ": 4881,
      "Ġë°Ŀ": 4882,
      "icated": 4883,
      "iber": 4884,
      "ëĬĲ": 4885,
      "Ġstrateg": 4886,
      "Ġmilk": 4887,
      "Ġpowerful": 4888,
      "ìĸ´ë¡ľ": 4889,
      "Ġful": 4890,
      "Ġíĺ¼": 4891,
      "arily": 4892,
      "Ġsummer": 4893,
      "Ġnamed": 4894,
      "Ġplaces": 4895,
      "Ġprocesses": 4896,
      "ìķķ": 4897,
      "æŃ": 4898,
      "ìĭĿìĿĦ": 4899,
      "ê¶ĮìĿĦ": 4900,
      "Ġlocation": 4901,
      "Ġlack": 4902,
      "ĠAb": 4903,
      "redients": 4904,
      "duc": 4905,
      "Ġir": 4906,
      "ĠCO": 4907,
      "ieved": 4908,
      "wo": 4909,
      "Ġì§ĢìĽĲ": 4910,
      "Ġrap": 4911,
      "ĠìĪĺìĥģ": 4912,
      "Ġeval": 4913,
      "ohol": 4914,
      "reet": 4915,
      "ëŀ¨": 4916,
      "ê°Ŀ": 4917,
      "Ġdecisions": 4918,
      "29": 4919,
      "Ġìĥģíĥľ": 4920,
      "ĠíĸĪ": 4921,
      "Ġsou": 4922,
      "Ġcars": 4923,
      "inc": 4924,
      "Ġofficial": 4925,
      "Ġindepend": 4926,
      "Ġatte": 4927,
      "Ġelement": 4928,
      "ìĽĶìĹĲ": 4929,
      "Ġmicro": 4930,
      "iforn": 4931,
      "Ġ90": 4932,
      "Ġrenew": 4933,
      "ĠSm": 4934,
      "Ġregard": 4935,
      "cohol": 4936,
      "Ġpet": 4937,
      "Ġactive": 4938,
      "can": 4939,
      "ĠHist": 4940,
      "Ġbul": 4941,
      "ìĦ¸ëĬĶ": 4942,
      "Ġdifferences": 4943,
      "Ġfloor": 4944,
      "Ġtou": 4945,
      "Ġfit": 4946,
      "ê´´": 4947,
      "Ġplatform": 4948,
      "Ġang": 4949,
      "Ġhol": 4950,
      "Ġpurpose": 4951,
      "ãĥ": 4952,
      "Ġbusinesses": 4953,
      "Ġfund": 4954,
      "Ġíı´": 4955,
      "Ġpollution": 4956,
      "Ġextra": 4957,
      "ĠêµŃë¯¼": 4958,
      "ĠìĺģêµŃìĿĺ": 4959,
      "imin": 4960,
      "Ġì§Ģíķĺ": 4961,
      "Ĳëĭ¤": 4962,
      "Ġast": 4963,
      "ĠChina": 4964,
      "ç¾": 4965,
      "Ġprop": 4966,
      "Ġwrite": 4967,
      "Ġplastic": 4968,
      "Ġíķĺê³ł": 4969,
      "ĠìĥĿê°ģ": 4970,
      "Ġstage": 4971,
      "ëıĦëĬĶ": 4972,
      "ĠìĥĪë¡ľìļ´": 4973,
      "//": 4974,
      "izes": 4975,
      "Ġnutri": 4976,
      "Ġsupply": 4977,
      "Ġëĳĺ": 4978,
      "íķĦ": 4979,
      "ì§Ģê°Ģ": 4980,
      "Ġoffice": 4981,
      "ë¶ĢìĹĲ": 4982,
      "omen": 4983,
      "ìĸ´ë¥¼": 4984,
      "ĠíĶĦëŀĳìĬ¤ìĿĺ": 4985,
      "Ġinvolved": 4986,
      "Ġfight": 4987,
      "ĠìĬ¤íİĺ": 4988,
      "Ġbacteria": 4989,
      "Ġê³ĦìĨį": 4990,
      "Ġinvestig": 4991,
      "ifornia": 4992,
      "ë¦´": 4993,
      "ĠPre": 4994,
      "Ġpromot": 4995,
      "Ġsequ": 4996,
      "Ġê³µíĻĶêµŃ": 4997,
      "ĠEach": 4998,
      "Ġaccept": 4999,
      "Ġsituation": 5000,
      "pite": 5001,
      "atively": 5002,
      "íķĺê¸°ëıĦ": 5003,
      "Ġ70": 5004,
      "ĠDay": 5005,
      "Ġsave": 5006,
      "life": 5007,
      "å·": 5008,
      "Ġì§Ģìłķ": 5009,
      "Ġadj": 5010,
      "Ġfresh": 5011,
      "ìĿ¸ìĿ´": 5012,
      "ĠDNA": 5013,
      "ì»¤": 5014,
      "Ġíķµ": 5015,
      "Ġbecomes": 5016,
      "Ġeveryone": 5017,
      "nDescribe": 5018,
      "Ġtiss": 5019,
      "Ġclaim": 5020,
      "Ġdetect": 5021,
      "Ġallowing": 5022,
      "term": 5023,
      "ë§ģ": 5024,
      "Ġcomplet": 5025,
      "itch": 5026,
      "Ġtele": 5027,
      "nV": 5028,
      "uate": 5029,
      "ĠìĦłê±°": 5030,
      "dent": 5031,
      "ĠPer": 5032,
      "useum": 5033,
      "Ġadvant": 5034,
      "Ġ#": 5035,
      "ĠìłĦì²´": 5036,
      "Ġì°¨ì§Ģ": 5037,
      "Ġopportunities": 5038,
      "no": 5039,
      "iter": 5040,
      "Ġdevice": 5041,
      "Ġsides": 5042,
      "sect": 5043,
      "ìľ¼ë¡ľìĦľ": 5044,
      "Ġholding": 5045,
      "ography": 5046,
      "ef": 5047,
      "inct": 5048,
      "Ġmaintain": 5049,
      "Ġì¹¼": 5050,
      "ĠCons": 5051,
      "Ġíĸ¥": 5052,
      "ĠResearch": 5053,
      "íļ¨": 5054,
      "ĠMin": 5055,
      "ìĬ¤íĦ°": 5056,
      "Ġìŀĳê³¡": 5057,
      "SBS": 5058,
      "íĸĪìľ¼ë©°": 5059,
      "gin": 5060,
      "Ġrout": 5061,
      "ëıĻì°¨": 5062,
      "rew": 5063,
      "Ġcitiz": 5064,
      "Ġconstant": 5065,
      "Ġê¸°ìĽĲìłĦ": 5066,
      "Ġtre": 5067,
      "Ġchallenges": 5068,
      "Ġten": 5069,
      "ĠìķĦëĵ¤": 5070,
      "Ġê¸Ģ": 5071,
      "Ġê±°ìĿĺ": 5072,
      "fl": 5073,
      "ĠIndia": 5074,
      "ups": 5075,
      "ì¹¨": 5076,
      "Ġquant": 5077,
      "obile": 5078,
      "Ġacid": 5079,
      "othes": 5080,
      "ãĢĭ(": 5081,
      "ĠìķĦëĭĪëĿ¼": 5082,
      "Ġdocument": 5083,
      "¿Ĳ": 5084,
      "Ġhighly": 5085,
      "Ġfuel": 5086,
      "nëĮĢíķľë¯¼êµŃìĿĺ": 5087,
      "abetes": 5088,
      "Ġbeginning": 5089,
      "ê¸°ë¡ľ": 5090,
      "ĠìķĦë²Ħì§Ģ": 5091,
      "Ġreceived": 5092,
      "Ġabsor": 5093,
      "lection": 5094,
      "Ġwalking": 5095,
      "Ġalgorithm": 5096,
      "ê°ĦìĿĺ": 5097,
      "nWrite": 5098,
      "Ġinternational": 5099,
      "Ġvit": 5100,
      "ously": 5101,
      "ãĢī": 5102,
      "Ġsurround": 5103,
      "Ġìľłëªħ": 5104,
      "wh": 5105,
      "Ġconne": 5106,
      "ĠìķĬëĬĶëĭ¤": 5107,
      "ìĬ¤ê°Ģ": 5108,
      "Ġwalks": 5109,
      "ĠBìŀħëĭĪëĭ¤": 5110,
      "acters": 5111,
      "íĩ´": 5112,
      "Ġì£¼ìļĶ": 5113,
      "íĶĦë¦¬ì¹´": 5114,
      "Ġdoesn": 5115,
      "Ġeverything": 5116,
      "Ġappears": 5117,
      "Ġcommit": 5118,
      "å¸Ŀ": 5119,
      "ëĲł": 5120,
      "ĠíĺķìĦ±": 5121,
      "Ġresponsible": 5122,
      "në¯¸": 5123,
      "Ġremain": 5124,
      "Ġê¸ī": 5125,
      "Ġdirectly": 5126,
      "ìŀ¥ìĿ´": 5127,
      "Ġcommonly": 5128,
      "Ġrise": 5129,
      "ban": 5130,
      "Ġaim": 5131,
      "Ġwat": 5132,
      "êµ¬ëł¤": 5133,
      "Ġteeth": 5134,
      "Ġbad": 5135,
      "ocol": 5136,
      "Ġfruit": 5137,
      "Ġyourself": 5138,
      "ìĸ´ëĬĶ": 5139,
      "ìĥĪ": 5140,
      "Ġoptim": 5141,
      "Ġvisual": 5142,
      "rush": 5143,
      "Ġdead": 5144,
      "Ġvirt": 5145,
      "Ġetc": 5146,
      "cell": 5147,
      "ëł¸ëĭ¤": 5148,
      "Ġdrive": 5149,
      "Ġdoll": 5150,
      "Ġserious": 5151,
      "Ġimmedi": 5152,
      "Ġcritical": 5153,
      "ìĪĺë¥¼": 5154,
      "gency": 5155,
      "Ġcateg": 5156,
      "Ġpow": 5157,
      "Ġflowers": 5158,
      "ëĵĿ": 5159,
      "Ġcompared": 5160,
      "ë¨¸ëĭĪ": 5161,
      "Ġappropriate": 5162,
      "Ġapplication": 5163,
      "Ġmemory": 5164,
      "Ġë¬¼ë¦¬": 5165,
      "ç¥": 5166,
      "ĠYour": 5167,
      "ì²ĺëŁ¼": 5168,
      "Ġ2001": 5169,
      "ĠOnce": 5170,
      "Ġtheory": 5171,
      "ìĪĺê°Ģ": 5172,
      "Ġpsych": 5173,
      "Ġenh": 5174,
      "ä»": 5175,
      "Ġdoctor": 5176,
      "Ġmoon": 5177,
      "Ġlines": 5178,
      "oxide": 5179,
      "Ġmetal": 5180,
      "ffee": 5181,
      "Ġì¸¡": 5182,
      "Ġaltern": 5183,
      "ĠìĹ°ë°©": 5184,
      "Ġmax": 5185,
      "Ġëªĩ": 5186,
      "Ġcommunities": 5187,
      "iet": 5188,
      "ĠInc": 5189,
      "ĠHar": 5190,
      "ĠLear": 5191,
      "Ġking": 5192,
      "ë¯¼ì£¼ì£¼ìĿĺ": 5193,
      "Ġones": 5194,
      "-\\": 5195,
      "uge": 5196,
      "ĠíĳľíĺĦ": 5197,
      "íľĺ": 5198,
      "Ġpages": 5199,
      "Ġmiddle": 5200,
      "Ġdro": 5201,
      "nSt": 5202,
      "Ġstick": 5203,
      "izations": 5204,
      "Ġì¼Ģ": 5205,
      "We": 5206,
      "ĠNo": 5207,
      "Ġconcl": 5208,
      "illi": 5209,
      "ĠìŀĳìĿĢ": 5210,
      "íĸĪëįĺ": 5211,
      "Ġbit": 5212,
      "ê³¼ìĿĺ": 5213,
      "Ġthinking": 5214,
      "ields": 5215,
      "Ġë²Ķ": 5216,
      "Ġmiss": 5217,
      "ĠDo": 5218,
      "\\\"\\": 5219,
      "Ġ1998": 5220,
      "rig": 5221,
      "Ġíŀĺ": 5222,
      "Ġpick": 5223,
      "Ġìļ´ìĺģ": 5224,
      "Ġdisplay": 5225,
      "ëŀµ": 5226,
      "ĠCont": 5227,
      "Ġmovie": 5228,
      "allenge": 5229,
      "Ġmag": 5230,
      "ille": 5231,
      "ìĦľìļ¸": 5232,
      "itions": 5233,
      "Ġ35": 5234,
      "ixt": 5235,
      "ÑģÐº": 5236,
      "ĠScience": 5237,
      "Ġprofessional": 5238,
      "ìĦ¸ìĿĺ": 5239,
      "Ġyellow": 5240,
      "iful": 5241,
      "Ġpoor": 5242,
      "Ġgrass": 5243,
      "ĠìĥĿìĤ°": 5244,
      "ëĲĺìĹĪìľ¼ë©°": 5245,
      "å±": 5246,
      "300": 5247,
      "Ġplaced": 5248,
      "Ġconcent": 5249,
      "Ġstrength": 5250,
      "Ġemb": 5251,
      "mbol": 5252,
      "ĠíķĻêµĲ": 5253,
      "Ġë¯¼ì£¼": 5254,
      "ê¶ģ": 5255,
      "Ġpounds": 5256,
      "Ġìŀ¡": 5257,
      "Ġprior": 5258,
      "ĠCalifornia": 5259,
      "ê³¼íķĻ": 5260,
      "It": 5261,
      "ê·Ģ": 5262,
      "Ġviol": 5263,
      "ĠHer": 5264,
      "ĠíĻĪ": 5265,
      "Ġgold": 5266,
      "Ġtopic": 5267,
      "ìľĦìĽĲíļĮ": 5268,
      "Ġheld": 5269,
      "itable": 5270,
      "Ġìķħ": 5271,
      "Ġì¡¸": 5272,
      "Ġeasier": 5273,
      "Ġmeasures": 5274,
      "°ëĭ¤": 5275,
      "ament": 5276,
      "Ġcharacters": 5277,
      "Ġeth": 5278,
      "ĠReg": 5279,
      "Ġelectricity": 5280,
      "ÑĢ": 5281,
      "ibrary": 5282,
      "ĠSte": 5283,
      "hern": 5284,
      "Ġinstruction": 5285,
      "zz": 5286,
      "ë¡¯": 5287,
      "orpor": 5288,
      "ĠFrench": 5289,
      "Ġresist": 5290,
      "ĠìĦľë¡ľ": 5291,
      "ĠChar": 5292,
      "íĺĢ": 5293,
      "ension": 5294,
      "nYou": 5295,
      "Ġintelligence": 5296,
      "íķ´ìĦľ": 5297,
      "Ġê³¼íķĻ": 5298,
      "://": 5299,
      "ama": 5300,
      "Ġstyle": 5301,
      "ĠìĿ´ìľł": 5302,
      "ìĺ¥": 5303,
      "Ġliquid": 5304,
      "ë¹Ī": 5305,
      "éģ": 5306,
      "Ġsong": 5307,
      "Ġarri": 5308,
      "Ġ1999": 5309,
      "Ġreleased": 5310,
      "ĠJan": 5311,
      "Ġeconomy": 5312,
      "ino": 5313,
      "ĠJu": 5314,
      "ìļ´ëį°": 5315,
      "ĠëĤľ": 5316,
      "ëį´": 5317,
      "nHere": 5318,
      "ìĬ¤íĥĢ": 5319,
      "odes": 5320,
      "ë£¹": 5321,
      "Ġvegetables": 5322,
      "Ġperfect": 5323,
      "Ġprotein": 5324,
      "Ġspend": 5325,
      "Ġtask": 5326,
      "ube": 5327,
      "ĠíĥĪ": 5328,
      "Ġpractices": 5329,
      "ulations": 5330,
      "Ġconvers": 5331,
      "Ġtesting": 5332,
      "ashing": 5333,
      "Ġtherap": 5334,
      "Ġë²Į": 5335,
      "ìľ¼ë¡ľë¶ĢíĦ°": 5336,
      "ìľ¼ë¡ľìį¨": 5337,
      "Ġult": 5338,
      "Ġrapid": 5339,
      "ont": 5340,
      "Ġreceive": 5341,
      "ica": 5342,
      "ë¦¬ìĺ¤": 5343,
      "ĠCanada": 5344,
      "mat": 5345,
      "ìĹ¼": 5346,
      "Ġgraph": 5347,
      "nAl": 5348,
      "Ġcontext": 5349,
      "lin": 5350,
      "Ġreprodu": 5351,
      "Ġìµľê³ł": 5352,
      "ĠëĦĺ": 5353,
      "Ġmill": 5354,
      "ĠCenter": 5355,
      "Ġbaby": 5356,
      "ì§Ħëĭ¤": 5357,
      "Ġì½ĺ": 5358,
      "overy": 5359,
      "Ġaspect": 5360,
      "Ġcolors": 5361,
      "Ġpaint": 5362,
      "FA": 5363,
      "ĠìĦ±ìļ°": 5364,
      "Ġlimited": 5365,
      "34": 5366,
      "gn": 5367,
      "Ġparty": 5368,
      "ëıħêµĲ": 5369,
      "Ð¾Ð": 5370,
      "Ġupd": 5371,
      "umps": 5372,
      "itect": 5373,
      "Ġteachers": 5374,
      "łëĭ¤": 5375,
      "Ġhun": 5376,
      "Ġdemand": 5377,
      "IN": 5378,
      "isf": 5379,
      "ĠìĹ°ê²°": 5380,
      "Ġdetail": 5381,
      "Ġwinter": 5382,
      "su": 5383,
      "ìĦ±ìĿĺ": 5384,
      "Ġsaw": 5385,
      "Ġhope": 5386,
      "Ġì¶ľìĥĿ": 5387,
      "Ġinnov": 5388,
      "pts": 5389,
      "ìĬ¤íħ": 5390,
      "ĠìĨĮëł¨": 5391,
      "ancy": 5392,
      "cture": 5393,
      "orthern": 5394,
      "Ġhealthcare": 5395,
      "cles": 5396,
      "Ġreve": 5397,
      "ë¨¼": 5398,
      "ython": 5399,
      "195": 5400,
      "110": 5401,
      "åĲ": 5402,
      "Ġord": 5403,
      "Ġclim": 5404,
      "Ġfollowed": 5405,
      "ì¦Į": 5406,
      "Ġinstall": 5407,
      "ĠìĿ´ë£¨ìĸ´": 5408,
      "rs": 5409,
      "ĠRom": 5410,
      "ĠìĿ´ë¦ĦìĿĦ": 5411,
      "Ġì»´íĵ¨íĦ°": 5412,
      "IS": 5413,
      "ìĸ´ìĿĺ": 5414,
      "êµĲìľ¡": 5415,
      "Ġincreases": 5416,
      "ĠìĹĨëĬĶ": 5417,
      "uries": 5418,
      "ĠìĨĮìĦ¤": 5419,
      "Ġelse": 5420,
      "=\\\"": 5421,
      "St": 5422,
      "ìĹĲìĦľìĿĺ": 5423,
      "ĠEuropean": 5424,
      "ĠPa": 5425,
      "Ġ1995": 5426,
      "Ġsalt": 5427,
      "Ġgar": 5428,
      "Ġstars": 5429,
      "Ġleave": 5430,
      "ìĿ¸ëĭ¤": 5431,
      "ë¥¸ëĭ¤": 5432,
      "ecause": 5433,
      "Ġoptions": 5434,
      "Ġê´Ģíķľ": 5435,
      "fully": 5436,
      "Ġcycle": 5437,
      "anks": 5438,
      "illing": 5439,
      "Ġexperiences": 5440,
      "Ġsummary": 5441,
      "Ġphr": 5442,
      "Ġreasons": 5443,
      "Ġbatter": 5444,
      "në¬¸íĻĶ": 5445,
      "âĢ¢": 5446,
      "éĿ": 5447,
      "Ġimpl": 5448,
      "Ġprinci": 5449,
      "Ġëĸ¨": 5450,
      "Ġ1980": 5451,
      "osystem": 5452,
      "Ġgenerate": 5453,
      "ë°©ìĨ¡": 5454,
      "ĠëĤ´ìļ©": 5455,
      "Ġbalance": 5456,
      "ffic": 5457,
      "uary": 5458,
      "Ġborn": 5459,
      "verall": 5460,
      "ì§ĢìĿĺ": 5461,
      "Ġremains": 5462,
      "nBut": 5463,
      "ëĶĶìĺ¤": 5464,
      "400": 5465,
      "eding": 5466,
      "Ġvill": 5467,
      "ĠMost": 5468,
      "Ġsevere": 5469,
      "Ġ1996": 5470,
      "ĠìķĬìķĺëĭ¤": 5471,
      "Ġtransportation": 5472,
      "Ġìĺģíĸ¥ìĿĦ": 5473,
      "hest": 5474,
      "Ġê³µê²©": 5475,
      "Ġbrought": 5476,
      "íĻķ": 5477,
      "Ġíĺģ": 5478,
      "Ġsouth": 5479,
      "thern": 5480,
      "Ġì°¾": 5481,
      "Ġsubst": 5482,
      ".)": 5483,
      "ìĿµ": 5484,
      "II": 5485,
      "Ġsell": 5486,
      "33": 5487,
      "nìľł": 5488,
      "Ġgarden": 5489,
      "Ġnorth": 5490,
      "Ġsoon": 5491,
      "Ġìĺ¤ìĬ¤íĬ¸": 5492,
      "orage": 5493,
      "Ġexamples": 5494,
      "ĠìĿ¸ëıĦ": 5495,
      "ĠëĶ°ë¥´": 5496,
      "itc": 5497,
      "roll": 5498,
      "Ġtransform": 5499,
      "ĠMore": 5500,
      "cript": 5501,
      "Ġancient": 5502,
      "êµ¬ìĹŃ": 5503,
      "Ġgenetic": 5504,
      "Ġestim": 5505,
      "Ġë°Ľìķĺëĭ¤": 5506,
      "ìĿ¸ë¯¼ê³µíĻĶêµŃ": 5507,
      "Ġcourt": 5508,
      "Ġì»¤": 5509,
      "Ġê°Ģìļ´ëį°": 5510,
      "cape": 5511,
      "Ġboy": 5512,
      "Ġruns": 5513,
      "Ġexplore": 5514,
      "Ġwest": 5515,
      "ì¿Ħ": 5516,
      "Ġmilitary": 5517,
      "ì½ľ": 5518,
      "Ġë§Įëĵ¤ìĸ´": 5519,
      "elt": 5520,
      "Ġchoose": 5521,
      "ìĤ¬ìĿĺ": 5522,
      "Ġuseful": 5523,
      "Ġcollab": 5524,
      "ìĸ´ê°Ģ": 5525,
      "ê¸´": 5526,
      "Ġê±´ìĦ¤": 5527,
      "AN": 5528,
      "Ġoffers": 5529,
      "Ġbottom": 5530,
      "Ġpolicy": 5531,
      "ditionally": 5532,
      "ĠëĶ°ëĿ¼ìĦľ": 5533,
      "Ġapprox": 5534,
      "stitution": 5535,
      "ancing": 5536,
      "Ġmouth": 5537,
      "ìĦ¸ê°Ģ": 5538,
      "ĠëĤĺë": 5539,
      "uth": 5540,
      "ĠWater": 5541,
      "Ġattack": 5542,
      "Ġbed": 5543,
      "Ġstream": 5544,
      "Ġ45": 5545,
      "Ġneigh": 5546,
      "Ġê¸°ìĹħ": 5547,
      "Ġexact": 5548,
      "minist": 5549,
      "Ġrecommend": 5550,
      "Ġfoss": 5551,
      "Ġoutput": 5552,
      "ëĦ·": 5553,
      "Ġingredients": 5554,
      "Ġwants": 5555,
      "Ġcentral": 5556,
      "Ġalcohol": 5557,
      "ĠìķĬê³ł": 5558,
      "ìĹĦ": 5559,
      "Ġforward": 5560,
      "Ġolder": 5561,
      "Ġcou": 5562,
      "ĠìĭľìłĪ": 5563,
      "ĠArt": 5564,
      "Ġtemperatures": 5565,
      "Ġdate": 5566,
      "ìŀĲë¦¬": 5567,
      "ëĲĺì§Ģ": 5568,
      "ìĻĢìĿĺ": 5569,
      "Ġteacher": 5570,
      "Ġgave": 5571,
      "igr": 5572,
      "ĠEduc": 5573,
      "ì¢": 5574,
      "Ġphone": 5575,
      "ëĮĢë¥¼": 5576,
      "Ġrot": 5577,
      "Ġemail": 5578,
      "ipment": 5579,
      "ĠíĴį": 5580,
      "Ġhost": 5581,
      "Ġeffort": 5582,
      "ë²ĦìĬ¤": 5583,
      "ĠAc": 5584,
      "ìľ¤": 5585,
      "Ġê³łêµ¬ëł¤": 5586,
      "Ġê°ģê°ģ": 5587,
      "ëĥĲ": 5588,
      "aren": 5589,
      "yd": 5590,
      "Ġbright": 5591,
      "íķĺìŀĲ": 5592,
      "Ġleaders": 5593,
      "ëĤĺëĬĶ": 5594,
      "ìĪĻ": 5595,
      "Ġamounts": 5596,
      "Ðµ": 5597,
      "nAnd": 5598,
      "ensity": 5599,
      "Ġbroad": 5600,
      "gers": 5601,
      "ĠEl": 5602,
      "vention": 5603,
      "íĿĲ": 5604,
      "Ġìħ": 5605,
      "Ġhear": 5606,
      "Ġroll": 5607,
      "Ġinitial": 5608,
      "Ġconsequ": 5609,
      "Ġë§ĪìĿ´": 5610,
      "Ġì¢ħêµĲ": 5611,
      "ĠëıĮìķĦ": 5612,
      "reme": 5613,
      "Ġë¨¸": 5614,
      "Ġinterp": 5615,
      "ìĿ´ê°Ģ": 5616,
      "ĠãĢĪ": 5617,
      "æ´": 5618,
      "ëĤĺëĭ¤": 5619,
      "Ġthous": 5620,
      "Ġprotection": 5621,
      "Ġcivil": 5622,
      "ëĭĺ": 5623,
      "idents": 5624,
      "Ġcoffee": 5625,
      "Ġinstru": 5626,
      "ĠPresident": 5627,
      "nì°¸": 5628,
      "Ġmis": 5629,
      "Ġtechnologies": 5630,
      "aught": 5631,
      "42": 5632,
      "Challenge": 5633,
      "ĠêµŃìĻķ": 5634,
      "Ġnation": 5635,
      "ĠìĹĶ": 5636,
      "This": 5637,
      "Ġspeech": 5638,
      "Ġincluded": 5639,
      "Ġcoast": 5640,
      "ued": 5641,
      "()\\": 5642,
      "éĥ": 5643,
      "Ġcards": 5644,
      "ĠìĮ": 5645,
      "Ġsitting": 5646,
      "Ġequation": 5647,
      "Ġcapital": 5648,
      "Ġì¢ĭ": 5649,
      "load": 5650,
      "Ġcro": 5651,
      "ìĹ°íĺ¸": 5652,
      "pril": 5653,
      "Ġëªħì¹Ń": 5654,
      "Ġhimself": 5655,
      "Ġhyp": 5656,
      "Ġoccurs": 5657,
      "Ġtend": 5658,
      "Ġexplain": 5659,
      "vest": 5660,
      "ĠÂ·": 5661,
      "ìŀ¡": 5662,
      "Ġnovel": 5663,
      "Ġchanging": 5664,
      "hemat": 5665,
      "where": 5666,
      "ĠInt": 5667,
      "Ġsymbol": 5668,
      "iling": 5669,
      "ê³³": 5670,
      "Ġcompl": 5671,
      "Ġpeace": 5672,
      "nìĥĿ": 5673,
      "ĠíķĺìĹ¬": 5674,
      "Ġcausing": 5675,
      "Ġkil": 5676,
      "right": 5677,
      "ì¹¸": 5678,
      "Ġformed": 5679,
      "Ġrefers": 5680,
      "Ġfeeling": 5681,
      "Ġreported": 5682,
      "anc": 5683,
      "Ġlegs": 5684,
      "ìĪĺëĬĶ": 5685,
      "ĠìĿ¸ìłķ": 5686,
      "Ġ1994": 5687,
      "ì²łëıĦ": 5688,
      "osition": 5689,
      "ĠìŀĪëįĺ": 5690,
      "Ġproperty": 5691,
      "Ġestablished": 5692,
      "44": 5693,
      "Ġëª°": 5694,
      "ìłľë¡ľ": 5695,
      "Ġmarketing": 5696,
      "Ġìłķë³´": 5697,
      "Ð¸Ð¹": 5698,
      "Ġfair": 5699,
      "agon": 5700,
      "ĠíĦ": 5701,
      "ìķĮ": 5702,
      "êµ°ìĿ´": 5703,
      "Ġpull": 5704,
      "ĠPark": 5705,
      "cil": 5706,
      "Ġdepend": 5707,
      "Ġstation": 5708,
      "Ġì¤ĳíĻĶ": 5709,
      "ë¦¼íĶ½": 5710,
      "nê¸°ëħĦ": 5711,
      "Ġinternet": 5712,
      "Ġworkers": 5713,
      "|-\\": 5714,
      "Ġmoves": 5715,
      "Ġëĸł": 5716,
      "éĻ": 5717,
      "undred": 5718,
      "Ġopportunity": 5719,
      "ê¹Ģ": 5720,
      "Ġsolid": 5721,
      "ĠCity": 5722,
      "ĠNot": 5723,
      "Ġinches": 5724,
      "ĠìķĦë¥´": 5725,
      "Ġë¶ĢìĤ°": 5726,
      "Ġgiving": 5727,
      "inated": 5728,
      "æĹ¥": 5729,
      "åĮ": 5730,
      "nShe": 5731,
      "ĠíĮĶ": 5732,
      "íķĺìĺĢìľ¼ëĤĺ": 5733,
      "Ġìķķ": 5734,
      "oses": 5735,
      "Ġprocessing": 5736,
      "Ġattract": 5737,
      "Ġì¡¸ìĹħ": 5738,
      "éº": 5739,
      "Ġê³¨": 5740,
      "ĠFirst": 5741,
      "ìĺĢëįĺ": 5742,
      "æĿİ": 5743,
      "Ġìµľì´ĪìĿĺ": 5744,
      "Ġvacc": 5745,
      "ìĬ¤ë¥¼": 5746,
      "ĠìĬĪ": 5747,
      "Ġ1997": 5748,
      "Ġinfection": 5749,
      "Ġrules": 5750,
      "Ġhous": 5751,
      "Ġshowing": 5752,
      "iable": 5753,
      "ss": 5754,
      "vision": 5755,
      "ĠInstitute": 5756,
      "ĠGl": 5757,
      "ios": 5758,
      "Ġbought": 5759,
      "ĠEd": 5760,
      "ĠìķĦëŀĺ": 5761,
      "Ġefficiency": 5762,
      "Ġfamilies": 5763,
      ".)\\": 5764,
      "Ġactions": 5765,
      "atur": 5766,
      "Ġë¹Ħë¡¯": 5767,
      "Ġremove": 5768,
      "Ġfaster": 5769,
      "ĠMarch": 5770,
      "ara": 5771,
      "Ġexcept": 5772,
      "Ġchoice": 5773,
      "ì²Ļ": 5774,
      "Ġcurrently": 5775,
      "Ġcry": 5776,
      "ëª¬": 5777,
      "ĠJune": 5778,
      "ĠëĤ¨ìķĦ": 5779,
      "Ġchanged": 5780,
      "acing": 5781,
      "izz": 5782,
      "erg": 5783,
      "Ġkin": 5784,
      "anges": 5785,
      "Ġquite": 5786,
      "Ġvary": 5787,
      "Ġadults": 5788,
      "Ġë°ĺëĮĢ": 5789,
      "Ġlegal": 5790,
      "Ġlabor": 5791,
      "Ġcities": 5792,
      "Ġìļ¸": 5793,
      "Ġscale": 5794,
      "asts": 5795,
      "Ġrich": 5796,
      "nìłĦ": 5797,
      "Ġdecl": 5798,
      "used": 5799,
      "ĠìĿ¸ë¬¼": 5800,
      "Ġecosystem": 5801,
      "odies": 5802,
      "ĠSpe": 5803,
      "ky": 5804,
      "Ġadop": 5805,
      "Ġpool": 5806,
      "Ġstands": 5807,
      "Ġcollection": 5808,
      "ìłľë¥¼": 5809,
      "ãĤ": 5810,
      "ooth": 5811,
      "Ġì¡°ìķ½": 5812,
      "Ġë°ĶìĿ´": 5813,
      "yond": 5814,
      "Ġcomponents": 5815,
      "uments": 5816,
      "Ġëį°ìĿ´": 5817,
      "Ġsection": 5818,
      "ìĽĲìĿĦ": 5819,
      "Ġê²°êµŃ": 5820,
      "Ġeventually": 5821,
      "ON": 5822,
      "ico": 5823,
      "Ġseeds": 5824,
      "Ġì¡°ì§ģ": 5825,
      "¹ìĿĢ": 5826,
      "Ġmotion": 5827,
      "Ġagricult": 5828,
      "Ġthus": 5829,
      "Ġeffectively": 5830,
      "ny": 5831,
      "sc": 5832,
      "Ġ2019": 5833,
      "Ġdiabetes": 5834,
      "Ġartificial": 5835,
      "ha": 5836,
      "Ġlived": 5837,
      "Ġorganisms": 5838,
      "Ġbenefit": 5839,
      "rote": 5840,
      "Ġiron": 5841,
      "ĠìĿ¸íĦ°": 5842,
      "Ġrelevant": 5843,
      "ĠëıħìĿ¼ìĿĺ": 5844,
      "Ġìłľìŀĳ": 5845,
      "ĠAfrica": 5846,
      "Ġfather": 5847,
      "ĠTV": 5848,
      "ĠRiver": 5849,
      "Ġdeal": 5850,
      "Ġbutter": 5851,
      "ĠëĨĴìĿĢ": 5852,
      "equ": 5853,
      "ĠDevelop": 5854,
      "ê´ĳìĹŃ": 5855,
      "Ġrepe": 5856,
      "Ġjourney": 5857,
      "Ġprivate": 5858,
      "Ġì§Ģêµ¬": 5859,
      "Ġ1991": 5860,
      "Ġstrategies": 5861,
      "IC": 5862,
      "íĻĶêµŃìĿĺ": 5863,
      "Ġefforts": 5864,
      "Ġstorage": 5865,
      "ëĤ¨ëıĦ": 5866,
      "ĠíĥĢìĿ´": 5867,
      "Ġrelease": 5868,
      "ĠThen": 5869,
      "rim": 5870,
      "Ġinsect": 5871,
      "ĠFrom": 5872,
      "Ġë¸ĮëĿ¼": 5873,
      "ĠDepartment": 5874,
      "'ll": 5875,
      "ĠOther": 5876,
      "Ġanything": 5877,
      "Ġë¶Ļ": 5878,
      "Ġmaxim": 5879,
      "OR": 5880,
      "ĠDuring": 5881,
      "Ġarr": 5882,
      "Ġdegrees": 5883,
      "Ġimag": 5884,
      "íĻĶë¥¼": 5885,
      "Ġì¤ĳìļĶíķľ": 5886,
      "Ġexec": 5887,
      "Ġ300": 5888,
      "Ġroot": 5889,
      "Ġinfluence": 5890,
      "Ġìĩ¼": 5891,
      "Ġexperiment": 5892,
      "Ġrelationships": 5893,
      "Ġtall": 5894,
      "nThen": 5895,
      "ëł¥ìĿ´": 5896,
      "Ġspeaking": 5897,
      "ĠìĿĳ": 5898,
      "ìĬ¤ì½Ķ": 5899,
      "Ġdioxide": 5900,
      "Ġnumerous": 5901,
      "ĠìĤ¬ìĿ´ìĹĲ": 5902,
      "ĠìĹŃíķł": 5903,
      "Ġdiscovered": 5904,
      "Ġì§Ģë°°": 5905,
      "Ġsav": 5906,
      "ester": 5907,
      "ĠíĶĦë¡ľê·¸ëŀ¨": 5908,
      "íŀ": 5909,
      "ìłķìĿĦ": 5910,
      "Ġdescribe": 5911,
      "Ġseek": 5912,
      "nëĮĢ": 5913,
      "ĠêµĲíļĮ": 5914,
      "ĠìĦ±ê³µ": 5915,
      "Ġtooth": 5916,
      "Ġvision": 5917,
      "Ġmid": 5918,
      "å±±": 5919,
      "ĠRuss": 5920,
      "ë£¡": 5921,
      "Ġì²łëıĦ": 5922,
      "Ġindic": 5923,
      "Ġì§Ħíĸī": 5924,
      "',": 5925,
      "ategy": 5926,
      "ìĬ¤íħľ": 5927,
      "Ġwaves": 5928,
      "Ġbird": 5929,
      "Ġprobably": 5930,
      "ìĩ": 5931,
      "ĠNA": 5932,
      "Ġrecently": 5933,
      "Ġserve": 5934,
      "ĠGreat": 5935,
      "ĠìĿ´ìĤ¬": 5936,
      "Ġmanage": 5937,
      "ìĭľìķĦìĿĺ": 5938,
      "iny": 5939,
      "Ġbrown": 5940,
      "Ġíģ¬ê²Į": 5941,
      "ĠíķŃê³µ": 5942,
      "Ġobt": 5943,
      "çĶ": 5944,
      "êµ´": 5945,
      "ĠìŀĲë£Į": 5946,
      "Ġju": 5947,
      "Ġdepending": 5948,
      "Ġlaws": 5949,
      "Ġê³łëĮĢ": 5950,
      "rong": 5951,
      "Ġë¹ł": 5952,
      "bre": 5953,
      "att": 5954,
      "Ġshap": 5955,
      "ken": 5956,
      "Ġfix": 5957,
      "estic": 5958,
      "Ġconstruction": 5959,
      "Ġsetting": 5960,
      "Ġaffected": 5961,
      "Ġteaching": 5962,
      "bing": 5963,
      "íķĺëįĺ": 5964,
      "Ġinstit": 5965,
      "ĠIndian": 5966,
      "Ġê±°ì£¼": 5967,
      "ÑģÐºÐ¸Ð¹": 5968,
      "Ġê¸°ëıħêµĲ": 5969,
      "Ġrecy": 5970,
      "Ġbran": 5971,
      "Ġtests": 5972,
      "ë¦ī": 5973,
      "ĠJew": 5974,
      "Ġremaining": 5975,
      "Ġfa": 5976,
      "Ġìŀł": 5977,
      "ĠìłĦì²ł": 5978,
      "Ġswim": 5979,
      "Ġcitizens": 5980,
      "Ġì£¼ë³Ģ": 5981,
      "Ġêµ°ìĤ¬": 5982,
      "ìĽĲìĿĺ": 5983,
      "īê¸Ģ": 5984,
      "Ġemployees": 5985,
      "Ġalthough": 5986,
      "osure": 5987,
      "ĠëıĻë¬¸": 5988,
      "ĠìĹĲëĦĪ": 5989,
      "ĠEngland": 5990,
      "Ġgrav": 5991,
      "bur": 5992,
      "Ġnearly": 5993,
      "íĮĢ": 5994,
      "Ġcand": 5995,
      "Ġrates": 5996,
      "nGiven": 5997,
      "Ġdecrease": 5998,
      "Ġblow": 5999,
      "ĠAug": 6000,
      "ĠGree": 6001,
      "Ġbank": 6002,
      "Ġlooks": 6003,
      "Ġdivid": 6004,
      "mission": 6005,
      "ĠìłľìĻ¸": 6006,
      "AC": 6007,
      "bed": 6008,
      "Ġder": 6009,
      "ì§ĢìĹĲ": 6010,
      "Ġ1992": 6011,
      "Ġnutrients": 6012,
      "off": 6013,
      "Ġspir": 6014,
      "ĠìĹ°íķ©": 6015,
      "Ġdirection": 6016,
      "Ġfilled": 6017,
      "ĠServ": 6018,
      "ĠPeople": 6019,
      "ëł¬": 6020,
      "Ġtherefore": 6021,
      "Ġproperties": 6022,
      "Ġnav": 6023,
      "íķĻìłģ": 6024,
      "ê³Ħë¥¼": 6025,
      "ĠìķĮëł¤ìł¸": 6026,
      "works": 6027,
      "ì¹¼": 6028,
      "ë¶Ģë¥¼": 6029,
      "Ġleads": 6030,
      "xi": 6031,
      "anish": 6032,
      "ĠSystem": 6033,
      "Ġstrugg": 6034,
      "Ġsatisf": 6035,
      "Ġalgorithms": 6036,
      "ì²´ìĿĺ": 6037,
      "IV": 6038,
      "ĠÂ": 6039,
      "ìĻĦ": 6040,
      "íĸīìłķ": 6041,
      "Ġpric": 6042,
      "Ġ180": 6043,
      "Ġassign": 6044,
      "Ġ1970": 6045,
      "Ġinteresting": 6046,
      "150": 6047,
      "Ġrare": 6048,
      "Ġ32": 6049,
      "ĠìĥĿíĻľ": 6050,
      "ĠëĤ®": 6051,
      "bles": 6052,
      "Ġê²©": 6053,
      "ëĵľëĬĶ": 6054,
      "ĠSw": 6055,
      "Ġcompletely": 6056,
      "mm": 6057,
      "Ĳë¦¬": 6058,
      "ìľ¼ë¡ľëĬĶ": 6059,
      "OS": 6060,
      "ķħ": 6061,
      "ìŀĲìĿ¸": 6062,
      "Ġorganization": 6063,
      "ì»µ": 6064,
      "ĠJuly": 6065,
      "yp": 6066,
      "ĠHigh": 6067,
      "Ġtren": 6068,
      "Ġhom": 6069,
      "ĠOct": 6070,
      "erences": 6071,
      "tr": 6072,
      "ĠApril": 6073,
      "ëĿ¼ë§Ī": 6074,
      "Ġê³Ħíļį": 6075,
      "Ġclassroom": 6076,
      "ì¢Į": 6077,
      "enses": 6078,
      "ë¦¬ì¦Ī": 6079,
      "ĠëĿ¼ìĿ´": 6080,
      "Ġëĭ¤ìĸĳíķľ": 6081,
      "å°": 6082,
      "urt": 6083,
      "ĠìĦłì¶ľ": 6084,
      "Ġsets": 6085,
      "oday": 6086,
      "Ġfamous": 6087,
      "Ġrequ": 6088,
      "ĠSep": 6089,
      "Ġwhose": 6090,
      "ĠTechn": 6091,
      "Ġprojects": 6092,
      "paign": 6093,
      "Ġtrain": 6094,
      "Ġcoll": 6095,
      "ĠChild": 6096,
      "Ġwarming": 6097,
      "Ġheight": 6098,
      "Ġê³¡": 6099,
      "Ġplayer": 6100,
      "zing": 6101,
      "Ġends": 6102,
      "Ġê°ľìĿĺ": 6103,
      "Ġë°±ìłľ": 6104,
      "Ġbeautiful": 6105,
      "ĠíĨµíķ©": 6106,
      "Ġload": 6107,
      "ëĵ¤ìĹĲ": 6108,
      "Ġlimit": 6109,
      "Ġmessage": 6110,
      "īê¸Ģëŀľëĵľ": 6111,
      "Ġê¸°ë³¸": 6112,
      "ìĿĮìĿĦ": 6113,
      "Ġì´Īê¸°": 6114,
      "ĠìłľêµŃìĿĺ": 6115,
      "Ġrocks": 6116,
      "Ġexpand": 6117,
      "Ġequipment": 6118,
      "Ġmoment": 6119,
      "31": 6120,
      "EC": 6121,
      "ëıĻìĿĦ": 6122,
      "ctors": 6123,
      "åľĭ": 6124,
      "íĳ¸": 6125,
      "Ġhundred": 6126,
      "ĠìĽĲëħĦ": 6127,
      "ĠAdditionally": 6128,
      "ĠëĶ°ë¥´ë©´": 6129,
      "```\\": 6130,
      "Ġrenewable": 6131,
      "39": 6132,
      "Ġsubs": 6133,
      "Ġarchitect": 6134,
      "Ġfunctions": 6135,
      "year": 6136,
      "Ġincome": 6137,
      "ections": 6138,
      "ì§Ģê³ł": 6139,
      "ëıĦìĹĲ": 6140,
      "Ġestablish": 6141,
      "Ġready": 6142,
      "Ġsustainable": 6143,
      "nê³ł": 6144,
      "Ġhelping": 6145,
      "Ġworth": 6146,
      "íĥķ": 6147,
      "ĠBar": 6148,
      "Ġbowl": 6149,
      "å¾Į": 6150,
      "orders": 6151,
      "Ġfederal": 6152,
      "Ġë§¡": 6153,
      "ĠìĻĦìłĦ": 6154,
      "KBS": 6155,
      "Ġmo": 6156,
      "ìĹ°êµ¬": 6157,
      "Ġtold": 6158,
      "irm": 6159,
      "íķĺëł¤": 6160,
      "ching": 6161,
      "ìĽĲìĿ´": 6162,
      "Ġê³µê°Ħ": 6163,
      "Ġgall": 6164,
      "ĠíĿ¬": 6165,
      "Ġholds": 6166,
      "Ġdescribed": 6167,
      "Ġfert": 6168,
      "ĠëĮĢìĭł": 6169,
      "Ġì§ģìłĳ": 6170,
      "Ġcloth": 6171,
      "íĻį": 6172,
      "Ġnote": 6173,
      "Ġë¦¬ê·¸": 6174,
      "Ġíĭ°": 6175,
      "rief": 6176,
      "Ġsignificantly": 6177,
      "Ġ2021": 6178,
      "æĸ°": 6179,
      "ĠInternational": 6180,
      "Ġadjust": 6181,
      "ingu": 6182,
      "otic": 6183,
      "nCl": 6184,
      "angle": 6185,
      "ĠíķĦìļĶ": 6186,
      "Ġfavor": 6187,
      "Ġtrade": 6188,
      "å¹": 6189,
      "Ġseems": 6190,
      "Ġ1993": 6191,
      "Ġdidn": 6192,
      "Ġë²¨": 6193,
      "Ġillness": 6194,
      "known": 6195,
      "Ġfinding": 6196,
      "Ġmountain": 6197,
      "ĠìłĦìŀĲ": 6198,
      "Ġtraffic": 6199,
      "Ġconflic": 6200,
      "¾¸": 6201,
      "ëįľ": 6202,
      "Ġsmart": 6203,
      "cling": 6204,
      "Ġfro": 6205,
      "Ġhon": 6206,
      "Ġ500": 6207,
      "Ġìľłì§Ģ": 6208,
      "Ġconce": 6209,
      "105": 6210,
      "Ġexpected": 6211,
      "mar": 6212,
      "ë¦¬ê³ł": 6213,
      "Ġplayers": 6214,
      "Ġsunlight": 6215,
      "Ġdrug": 6216,
      "46": 6217,
      "lation": 6218,
      "Ġ36": 6219,
      "Ġenter": 6220,
      "Ġapproximately": 6221,
      "ì±Ħ": 6222,
      "37": 6223,
      "ëĭ¤ê°Ģ": 6224,
      "Ġìĭ¤ìĭľ": 6225,
      "lier": 6226,
      "Ġcoming": 6227,
      "Ġì§ĢëıĦ": 6228,
      "Ġmorning": 6229,
      "2000": 6230,
      "ava": 6231,
      "Ġbecoming": 6232,
      "nWith": 6233,
      "Ġsolutions": 6234,
      "iar": 6235,
      "Ġbillion": 6236,
      "Ġ150": 6237,
      "Ġbot": 6238,
      "ulate": 6239,
      "nì°¸ê³ł": 6240,
      "ager": 6241,
      "Ġstarting": 6242,
      "ĠìĹ¼": 6243,
      "Ġstring": 6244,
      "Ġround": 6245,
      "ĠëĲĺëĬĶ": 6246,
      "abilities": 6247,
      "ĠìĿ´ë¥´": 6248,
      "Ġê²½ê¸°": 6249,
      "ĠGerman": 6250,
      "ares": 6251,
      "Ġbehavi": 6252,
      "55": 6253,
      "eration": 6254,
      "ĠìĹħ": 6255,
      "ĠFl": 6256,
      "ĠìĿ´ëģ": 6257,
      "Ġmember": 6258,
      "Ġì§ĳíķ©": 6259,
      "Ġasked": 6260,
      "Ġconclusion": 6261,
      "Ġsolve": 6262,
      "Ġì¢Į": 6263,
      "Ġfile": 6264,
      "Ġê°Ģë¦¬": 6265,
      "íģ¬ë¡ľ": 6266,
      "Ġadvanced": 6267,
      "ĠìĤ°ìĹħ": 6268,
      "Ġfruits": 6269,
      "wards": 6270,
      "104": 6271,
      "ìŀĪëĬĶ": 6272,
      "ĠìĿ¼ìľ¼": 6273,
      "Ġfemale": 6274,
      "Ġìĸ´ëĸ¤": 6275,
      "dentify": 6276,
      "£Ħ": 6277,
      "Ġê¸°ëĬ¥": 6278,
      "Ġaccurate": 6279,
      "ĠDìŀħëĭĪëĭ¤": 6280,
      "airs": 6281,
      "ped": 6282,
      "Ġstorm": 6283,
      "íķĻìĿĺ": 6284,
      "ĠìķĬëĬĶ": 6285,
      "Ġturns": 6286,
      "nes": 6287,
      "nìłľ": 6288,
      "wide": 6289,
      "ê¸°ëħĲ": 6290,
      "Ġhappen": 6291,
      "Ġpassed": 6292,
      "Ġgain": 6293,
      "ë¡ľë§Ī": 6294,
      "Ġíİ¸ìŀħ": 6295,
      "Ġpu": 6296,
      "Ġcapac": 6297,
      "æ³": 6298,
      "ĠìľĦì¹ĺíķľ": 6299,
      "Ġcomfort": 6300,
      "place": 6301,
      "ĠAfrican": 6302,
      "Ġsod": 6303,
      "ëłĩ": 6304,
      "Ġplayed": 6305,
      "Ġjud": 6306,
      "rows": 6307,
      "æľ¬": 6308,
      "Ġattempt": 6309,
      "ule": 6310,
      "Ġrace": 6311,
      "Ġlayer": 6312,
      "Ġreduced": 6313,
      "Ġletter": 6314,
      "38": 6315,
      "aint": 6316,
      "Ġinstance": 6317,
      "ëĥĪëĭ¤": 6318,
      "ì§Ģë§ī": 6319,
      "Ġìĺ¬ë¦¼íĶ½": 6320,
      "iers": 6321,
      "Ġcast": 6322,
      "abs": 6323,
      "ìĤ¬ë¡ľ": 6324,
      "Ġadds": 6325,
      "orge": 6326,
      "Ġarm": 6327,
      "Ġcommer": 6328,
      "Ġstrategy": 6329,
      "ospital": 6330,
      "ëĬĺëĤł": 6331,
      "Ġelectrical": 6332,
      "Ġmeat": 6333,
      "Ġê°ľëħĲ": 6334,
      "Ġprec": 6335,
      "Ġtransfer": 6336,
      "Ġdatab": 6337,
      "Ġalone": 6338,
      "Ġrestaur": 6339,
      "Ġì·¨ìŀĦ": 6340,
      "Ġallowed": 6341,
      "Ġê¼": 6342,
      "tember": 6343,
      "ìļķ": 6344,
      "Ġwearing": 6345,
      "nAfter": 6346,
      "Ġarray": 6347,
      "íĨ¨ë¦Ń": 6348,
      "Ġìŀĳê°Ģ": 6349,
      "Ġsett": 6350,
      "Ġguide": 6351,
      "Ġcultural": 6352,
      "Ġmal": 6353,
      "ìĨĮë¥¼": 6354,
      "Ġvolume": 6355,
      "Ġsort": 6356,
      "Ġhomes": 6357,
      "IT": 6358,
      "ĠìŀĲì¹ĺ": 6359,
      "Ġcombination": 6360,
      "Ġfeedback": 6361,
      "Ġworked": 6362,
      "Ġagree": 6363,
      "nAt": 6364,
      "Ġcolon": 6365,
      "ĠìĹŃìĭľ": 6366,
      "Ġë°©ìĭĿ": 6367,
      "ĠAlthough": 6368,
      "ĠMars": 6369,
      "ĠMark": 6370,
      "Ġflood": 6371,
      "Ġpromote": 6372,
      "Ġconsumption": 6373,
      "ĠOur": 6374,
      "Ġì°¸ìĹ¬": 6375,
      "ĠMake": 6376,
      "ĠOf": 6377,
      "nExplain": 6378,
      "Ġì£¼ë¯¼": 6379,
      "Ġêµ¬ìĹŃ": 6380,
      "Ġguid": 6381,
      "ĠìĺģíĨł": 6382,
      "Ġê¶ģ": 6383,
      "Ġcloud": 6384,
      "ĠSol": 6385,
      "Ġcore": 6386,
      "Ġ1960": 6387,
      "108": 6388,
      "Ġìĭľì¦Į": 6389,
      "ĠíĥĲ": 6390,
      "ĠìķĦëĭĮ": 6391,
      "Ġë¨¹": 6392,
      "Ġheavy": 6393,
      "Ġê·¸ê°Ģ": 6394,
      "Ġíĥľìĸĳ": 6395,
      "ìļ±": 6396,
      "now": 6397,
      "Ġ{": 6398,
      "Ġchance": 6399,
      "ĠDav": 6400,
      "Ġê³µìĤ°": 6401,
      "Ġtitle": 6402,
      "å¯": 6403,
      "anging": 6404,
      "Ġfollows": 6405,
      "omy": 6406,
      "ë©Ķë¦¬ì¹´": 6407,
      "Ġë¹Ī": 6408,
      "Ġíĳľê¸°": 6409,
      "Ġhighest": 6410,
      "Ġrule": 6411,
      "nì£¼": 6412,
      "Ġprint": 6413,
      "rupt": 6414,
      "ĠìĹĺ": 6415,
      "ĠìŀĪëĬĶëį°": 6416,
      "ãĢĭ\\": 6417,
      "ë¶ģëıĦ": 6418,
      "ë¶ĢëĬĶ": 6419,
      "Ġê¸°ê´Ģ": 6420,
      "Ġbeyond": 6421,
      "Ġremember": 6422,
      "Ġìī": 6423,
      "iday": 6424,
      "Ġdecided": 6425,
      "Ġbeach": 6426,
      "ëıĦìĭľ": 6427,
      "ĠêµĲìĪĺ": 6428,
      "EN": 6429,
      "ĠíĽ": 6430,
      "ĠëĮĢêµ¬": 6431,
      "ìĥģìĿĺ": 6432,
      "Ġcovered": 6433,
      "Ġfields": 6434,
      "ĠìłķëıĦ": 6435,
      "uman": 6436,
      "Ġlearned": 6437,
      "ĠCìŀħëĭĪëĭ¤": 6438,
      "hens": 6439,
      "Ġsales": 6440,
      "Ġcombined": 6441,
      "Ġbrother": 6442,
      "ĠTrans": 6443,
      "amic": 6444,
      "bl": 6445,
      "Ġwidely": 6446,
      "ëįľëŀĢëĵľ": 6447,
      "Ġcharacteristics": 6448,
      "raction": 6449,
      "ĠSim": 6450,
      "Ġ1989": 6451,
      "ĠAmericans": 6452,
      "enty": 6453,
      "Ġcontrast": 6454,
      "ceed": 6455,
      "Ġgreenhouse": 6456,
      "Ġvoice": 6457,
      "Ġdescribes": 6458,
      "Ġplans": 6459,
      "Ġmobile": 6460,
      "Ġphotos": 6461,
      "nê²½": 6462,
      "Ġtour": 6463,
      "ĠìĿ´ë¯¸": 6464,
      "Ġstories": 6465,
      "ashington": 6466,
      "Ġê²¸": 6467,
      "force": 6468,
      "edom": 6469,
      "Ġhtt": 6470,
      "ë³¼": 6471,
      "ĠAustralia": 6472,
      "ìĿ´ìĿĺ": 6473,
      "Ġlad": 6474,
      "íħĶ": 6475,
      "Ġfully": 6476,
      "phas": 6477,
      "Ġextrem": 6478,
      "Ġpaid": 6479,
      "Ġorganizations": 6480,
      "nì¤ĳ": 6481,
      "aled": 6482,
      "cember": 6483,
      "Ġshel": 6484,
      "Ġexpression": 6485,
      "ĠInternet": 6486,
      "íĬ¹ë³Ħìĭľ": 6487,
      "Ġreaction": 6488,
      "íİĺìĿ´ì§Ģ": 6489,
      "ĠìĭĿë¯¼": 6490,
      "uk": 6491,
      "ĠSince": 6492,
      "Ġfigure": 6493,
      "êµ°ìĿĢ": 6494,
      "ĠGermany": 6495,
      "nìłķ": 6496,
      "Ġíĳ¸": 6497,
      "ilos": 6498,
      "Ġcreative": 6499,
      "haps": 6500,
      "Ġê³łëĵ±íķĻêµĲ": 6501,
      "Ġdriving": 6502,
      "Ġkid": 6503,
      "ris": 6504,
      "inese": 6505,
      "Ġtoward": 6506,
      "ĠHistory": 6507,
      "Ġì¡°ìĦłë¯¼ì£¼ì£¼ìĿĺ": 6508,
      "Ġê³µëıĻ": 6509,
      "ìĦłìĿĺ": 6510,
      "Ġinfect": 6511,
      "ĠíĮĢ": 6512,
      "andom": 6513,
      "ìĭľëĮĢ": 6514,
      "Ġsitu": 6515,
      "ĠEducation": 6516,
      "xiety": 6517,
      "600": 6518,
      "uable": 6519,
      "íķµ": 6520,
      "ĠMy": 6521,
      "ĠíĶĦë¦¬": 6522,
      "ĠSocial": 6523,
      "190": 6524,
      "Ġìĸ´ë¨¸ëĭĪ": 6525,
      "Ġcampaign": 6526,
      "Ġcomputers": 6527,
      "Ġpicture": 6528,
      "Ġflex": 6529,
      "ìĻĶëĭ¤": 6530,
      "ibly": 6531,
      "Ġqual": 6532,
      "Ġë¶Ħìķ¼": 6533,
      "Ġseparate": 6534,
      "ĠSan": 6535,
      "Ġchick": 6536,
      "Ġlanguages": 6537,
      "Ġ75": 6538,
      "AS": 6539,
      "change": 6540,
      "istry": 6541,
      "Ġë§Īì§Ģë§ī": 6542,
      "Ġpresence": 6543,
      "Ġ1988": 6544,
      "Ġë¬¼ì§Ī": 6545,
      "ëĲĺë©´ìĦľ": 6546,
      "cers": 6547,
      "ãĢĬ": 6548,
      "ographic": 6549,
      "Ġparticles": 6550,
      "ĠìķĮëłī": 6551,
      "Ġmeeting": 6552,
      "ED": 6553,
      "Ġplate": 6554,
      "}\\": 6555,
      "Ġdetails": 6556,
      "Ġexisting": 6557,
      "see": 6558,
      "ĠNet": 6559,
      "nìĿ¼ë³¸": 6560,
      "ero": 6561,
      "Ġfinally": 6562,
      "Įë¦¬": 6563,
      "ĠìĦ¤ëªħ": 6564,
      "ĠMus": 6565,
      "Ġhistorical": 6566,
      "Ġrat": 6567,
      "Ġpregn": 6568,
      "ĠíĽĦìĹĲ": 6569,
      "ĠFrance": 6570,
      "Ġì§Ģê¸Ī": 6571,
      "Ġexposure": 6572,
      "Ġnotes": 6573,
      "Ġnames": 6574,
      "Ġgather": 6575,
      "ĠAugust": 6576,
      "Ġresource": 6577,
      "Ġíĳľì¤Ģ": 6578,
      "Ġmuscle": 6579,
      "uild": 6580,
      "Ġther": 6581,
      "ì¦ĺ": 6582,
      "Ġcats": 6583,
      "Ġacad": 6584,
      "ĠìķĬìĿĢ": 6585,
      "AM": 6586,
      "Ġmap": 6587,
      "pons": 6588,
      "Ġstandards": 6589,
      "Ġresulting": 6590,
      "Ġspl": 6591,
      "Ġë§Ŀ": 6592,
      "olic": 6593,
      "ĠProgram": 6594,
      "Ġë§¥": 6595,
      "Ġêµ¬ë¶Ħ": 6596,
      "ë¦°ëĭ¤": 6597,
      "ĠëķĮë¬¸ìĿ´ëĭ¤": 6598,
      "ĠìŀĦëªħ": 6599,
      "orial": 6600,
      "íıŃ": 6601,
      "Ġë¶Ģë¥´": 6602,
      "Ġapplied": 6603,
      "Ġvict": 6604,
      "Ġìłķì±ħ": 6605,
      "Ġìĸ¼": 6606,
      "ĠImp": 6607,
      "Ġbread": 6608,
      "Ġdin": 6609,
      "íĺ¸ë¥¼": 6610,
      "ëłĪìĬ¤": 6611,
      "Ġoperations": 6612,
      "arian": 6613,
      "101": 6614,
      "Ġadding": 6615,
      "formation": 6616,
      "ovember": 6617,
      "Ġsmooth": 6618,
      "Ġchallenge": 6619,
      "Ġimproving": 6620,
      "Ġvehicles": 6621,
      "ĠêµŃë¦½": 6622,
      "Ġgirls": 6623,
      "Ġforces": 6624,
      "ĠCong": 6625,
      "ëłĢ": 6626,
      "ì¶ĺ": 6627,
      "Ġsites": 6628,
      "ĠCommun": 6629,
      "areness": 6630,
      "wise": 6631,
      "nBy": 6632,
      "íĮĶ": 6633,
      "Ġìļ°ì£¼": 6634,
      "Ġdream": 6635,
      "Ġíķľíİ¸": 6636,
      "ĠJames": 6637,
      "Ġretur": 6638,
      "ĠíĿĲ": 6639,
      "ìĦ¼íĦ°": 6640,
      "atically": 6641,
      "102": 6642,
      "Ġsurpr": 6643,
      "'m": 6644,
      "ĠìĿ´ìķ¼": 6645,
      "Ġadvent": 6646,
      "nOverall": 6647,
      "Ġrevolution": 6648,
      "æĻ": 6649,
      "Ġvot": 6650,
      "ida": 6651,
      "ê²¼": 6652,
      "Ġë³´íĨµ": 6653,
      "do": 6654,
      "ye": 6655,
      "char": 6656,
      "íĻĶê°Ģ": 6657,
      "êµĲíļĮ": 6658,
      "ĠìĥģëĮĢ": 6659,
      "Ġdollars": 6660,
      "Ġmedicine": 6661,
      "Ġversion": 6662,
      "ĠJanuary": 6663,
      "Ġpus": 6664,
      "Ġperspect": 6665,
      "106": 6666,
      "Ġplanning": 6667,
      "Ġbuildings": 6668,
      "Ġphrase": 6669,
      "Ġíĺ¹ìĿĢ": 6670,
      "Ġê°ľìµľ": 6671,
      "Ġgrand": 6672,
      "Ġwanted": 6673,
      "éºĹ": 6674,
      "ìķ¡": 6675,
      "Ġê¸°ë°ĺ": 6676,
      "Ġtrust": 6677,
      "Ġbackground": 6678,
      "Ġson": 6679,
      "Ġisn": 6680,
      "Ġteach": 6681,
      "Ġëħ¸ëıĻ": 6682,
      "ì³¤": 6683,
      "Ġconnected": 6684,
      "volution": 6685,
      "itis": 6686,
      "Ġlov": 6687,
      "Ġfear": 6688,
      "ĠAssoci": 6689,
      "Ġgeneration": 6690,
      "Ġfossil": 6691,
      "63": 6692,
      "Ġburn": 6693,
      "Ġìĵ": 6694,
      "ĠìĭľìĬ¤íħľ": 6695,
      "Ġë§Įëĵł": 6696,
      "nê°Ģ": 6697,
      "urance": 6698,
      "Ġcollege": 6699,
      "ìŀ¥ìľ¼ë¡ľ": 6700,
      "ëĵľë¡ľ": 6701,
      "eles": 6702,
      "ĠIts": 6703,
      "Ġëª©ë¡Ŀ": 6704,
      "åįĹ": 6705,
      "gal": 6706,
      "107": 6707,
      "åº": 6708,
      "icious": 6709,
      "Ġmut": 6710,
      "Ġmamm": 6711,
      "ĠAre": 6712,
      "ì¹ł": 6713,
      "ĠData": 6714,
      "nThese": 6715,
      "ĠSeptember": 6716,
      "ĠBoth": 6717,
      "ĠìĿ¸ì²ľ": 6718,
      "Ġdegree": 6719,
      "Ġìĺ¥": 6720,
      "Ġrespond": 6721,
      "Ġtrip": 6722,
      "Ġbasis": 6723,
      "Ġdrugs": 6724,
      "ĠTheir": 6725,
      "ĠMex": 6726,
      "Ġëª½": 6727,
      "ëĭĪë©Ķ": 6728,
      "ĠBo": 6729,
      "Ġexcess": 6730,
      "Ġfeature": 6731,
      "oyal": 6732,
      "ĠGovern": 6733,
      "ĠìĽĶëĵľ": 6734,
      "ĠJust": 6735,
      "êµ°ìĿĦ": 6736,
      "nPro": 6737,
      "Ġrub": 6738,
      "imal": 6739,
      "ĠWashington": 6740,
      "Ġorganic": 6741,
      "nName": 6742,
      "ï¼": 6743,
      "ëĲĺë©°": 6744,
      "Ġstructures": 6745,
      "Ġtips": 6746,
      "Ġpul": 6747,
      "Ġmist": 6748,
      "iverse": 6749,
      "Ġë¿Ĳ": 6750,
      "Ġmath": 6751,
      "ĠVal": 6752,
      "Ġdefined": 6753,
      "ML": 6754,
      "sol": 6755,
      "çĻ": 6756,
      "Ġtick": 6757,
      "ì§ĢìĹŃ": 6758,
      "Ġeducational": 6759,
      "ê°ĢìĻĢ": 6760,
      "Ġplays": 6761,
      "ìĿ´ìĹĪëįĺ": 6762,
      "craft": 6763,
      "antic": 6764,
      "ë²¤": 6765,
      "Ġê°ĢíĨ¨ë¦Ń": 6766,
      "Ġclin": 6767,
      "ìŀĲìĻĢ": 6768,
      "Ġunit": 6769,
      "Ġcommunicate": 6770,
      "Ġtissue": 6771,
      "ë©ĺ": 6772,
      "ĠDon": 6773,
      "Ġspring": 6774,
      "ĠëĪĪ": 6775,
      "109": 6776,
      "Ġì¤ĳìĭ¬ìľ¼ë¡ľ": 6777,
      "Ġê²½ìĥģ": 6778,
      "ĠëĶ¸": 6779,
      "ìĿ´ë¥¼": 6780,
      "nìĪĺ": 6781,
      "Ġconver": 6782,
      "ĠQ": 6783,
      "Ġdie": 6784,
      "íĨ¤": 6785,
      "æµ": 6786,
      "Ġcrucial": 6787,
      "Ġhorse": 6788,
      "ĠìĿ´ëıĻ": 6789,
      "ĠëĨĵ": 6790,
      "Ġprogramming": 6791,
      "Ġmale": 6792,
      "ĠìĹĦ": 6793,
      "Ġì²ľìĹ°": 6794,
      "½ĥ": 6795,
      "íĺľ": 6796,
      "ìłķíķľ": 6797,
      "Ġvia": 6798,
      "emy": 6799,
      "Ġê²½ê¸°ëıĦ": 6800,
      "Ġinvolve": 6801,
      "ëģ¼": 6802,
      "ĠOctober": 6803,
      "ĠRead": 6804,
      "ĠUnion": 6805,
      "Ġdetermined": 6806,
      "Ġì¡°ì§Ģ": 6807,
      "umber": 6808,
      "que": 6809,
      "ĠëıĦì¿Ħ": 6810,
      "ĠíıĲì§Ģ": 6811,
      "alt": 6812,
      "Ġpopulations": 6813,
      "ĠëĬ¥": 6814,
      "Ġcrow": 6815,
      "Ġbrush": 6816,
      "Ġshar": 6817,
      "Ġutil": 6818,
      "Ð°Ð": 6819,
      "ìĤ¬ëĬĶ": 6820,
      "ĠìĽĮ": 6821,
      "ĠMod": 6822,
      "ìĦłìĿĦ": 6823,
      "ì²´ê°Ģ": 6824,
      "ĠìĦ¸íı¬": 6825,
      "ĠìĽĲìĨĮ": 6826,
      "Ġpolic": 6827,
      "dd": 6828,
      "iments": 6829,
      "ê´ĳìĹŃìĭľ": 6830,
      "nìĺ¤": 6831,
      "ëī´": 6832,
      "Ġwet": 6833,
      "Ġscen": 6834,
      "Ġanyone": 6835,
      "ë¬¼ìĿĦ": 6836,
      "ìĭľë§Ī": 6837,
      "Ġnothing": 6838,
      "ĠìĦłìĸ¸": 6839,
      "125": 6840,
      "Ġproperly": 6841,
      "Ġdance": 6842,
      "ìĿ´ëĵľ": 6843,
      "ste": 6844,
      "ĠSec": 6845,
      "ìĬ¤ë¡ľ": 6846,
      "Ġmathemat": 6847,
      "Ġhappens": 6848,
      "ĠíĦ°": 6849,
      "Ġsigns": 6850,
      "Ġopin": 6851,
      "He": 6852,
      "íıĲ": 6853,
      "Ġdied": 6854,
      "ĠíĽĦë³´": 6855,
      "Ġì§Ģíķĺì²ł": 6856,
      "rehens": 6857,
      "ìĬ¤ì¹´": 6858,
      "ondon": 6859,
      "Ġtail": 6860,
      "Ġapples": 6861,
      "Ġ2022": 6862,
      "103": 6863,
      "Ġquar": 6864,
      "Ġrisks": 6865,
      "ĠMc": 6866,
      "íĹ¤": 6867,
      "ĠìĿ¸êµ¬ëĬĶ": 6868,
      "Ġcontribute": 6869,
      "Ġpal": 6870,
      "ĠAir": 6871,
      "ĠWilli": 6872,
      "cop": 6873,
      "íķĺì§Ģë§Į": 6874,
      "ĠGeneral": 6875,
      "ìŀ¥ìĿĢ": 6876,
      "ĠCounty": 6877,
      "nìŀĲ": 6878,
      "riend": 6879,
      "Ġadult": 6880,
      "ĠìļĶêµ¬": 6881,
      "Ġbra": 6882,
      "Ġseven": 6883,
      "Ġapply": 6884,
      "ĠëĦĵ": 6885,
      "Ġbrand": 6886,
      "Ġimpacts": 6887,
      "ĠPlan": 6888,
      "Ġrequirements": 6889,
      "Ġcontinued": 6890,
      "ç¾ħ": 6891,
      "ìĬ¤ìĻĢ": 6892,
      "comes": 6893,
      "ĠìĬ¹ê²©": 6894,
      "ĠìĬ¤íİĺìĿ¸": 6895,
      "Ġimmediately": 6896,
      "mark": 6897,
      "Ġmission": 6898,
      "ĠPat": 6899,
      "íķ´ìķ¼": 6900,
      "Ġrecords": 6901,
      "ructure": 6902,
      "Ġ400": 6903,
      "Ġvalid": 6904,
      "Ġimmune": 6905,
      "Ġdestro": 6906,
      "47": 6907,
      "ishes": 6908,
      "ĠDecember": 6909,
      "ĠPart": 6910,
      "Ġë°ĺìĿĳ": 6911,
      "nSince": 6912,
      "Ġê¸´": 6913,
      "Ġmeters": 6914,
      "Ġdangerous": 6915,
      "Ġwrote": 6916,
      "umn": 6917,
      "ĠInst": 6918,
      "Ġcredit": 6919,
      "thes": 6920,
      "Ġthick": 6921,
      "Ġdiscover": 6922,
      "Ġnative": 6923,
      "ifically": 6924,
      "Ġconnection": 6925,
      "ulf": 6926,
      "cious": 6927,
      "ĠHouse": 6928,
      "Ġì²ĺìĿĮìľ¼ë¡ľ": 6929,
      "ìĭľê°Ħ": 6930,
      "Ġillust": 6931,
      "Ġ1950": 6932,
      "ĠWeb": 6933,
      "Ġshared": 6934,
      "Ġinvent": 6935,
      "Ġimproved": 6936,
      "rus": 6937,
      "êµĲíĨµ": 6938,
      "Ġìľłëŀĺ": 6939,
      "Ġban": 6940,
      "Ġbudget": 6941,
      "Ġformer": 6942,
      "ĠFI": 6943,
      "Ġadvance": 6944,
      "Ġanalyze": 6945,
      "ĠLearning": 6946,
      "An": 6947,
      "ĠIS": 6948,
      "Ġturned": 6949,
      "Ġíİĺë¥´": 6950,
      "rition": 6951,
      "Ġê·¸ëŀĺ": 6952,
      "ìłĲìĿĦ": 6953,
      "Ġì¶Ķê°Ģ": 6954,
      "Ġrepresents": 6955,
      "related": 6956,
      "Ġslic": 6957,
      "ĠMoon": 6958,
      "Ġê¸°íĥĢ": 6959,
      "apter": 6960,
      "ĠChinese": 6961,
      "Ġtechnique": 6962,
      "Ġpresident": 6963,
      "ĠAss": 6964,
      "ĠìĬ¹ê°ķ": 6965,
      "ĠìĿ¼ë°ĺìłģìľ¼ë¡ľ": 6966,
      "ference": 6967,
      "ìĿ´ê¸°ëıĦ": 6968,
      "Ġëĭ¨ìľĦ": 6969,
      "kin": 6970,
      "Ġrelax": 6971,
      "Ġpattern": 6972,
      "Ġslight": 6973,
      "Ġvirtual": 6974,
      "Ġtherapy": 6975,
      "oons": 6976,
      "Ġ120": 6977,
      "ëĮĢíĳľ": 6978,
      "ìĽĲìľ¼ë¡ľ": 6979,
      "Ġdivers": 6980,
      "Ġhappy": 6981,
      "49": 6982,
      "ran": 6983,
      "Ġfactor": 6984,
      "Ġìŀĳê³¡ê°Ģ": 6985,
      "Ġconsequences": 6986,
      "62": 6987,
      "ìĿ´ìĸ´": 6988,
      "Ġwonder": 6989,
      "omb": 6990,
      "Ġspect": 6991,
      "Ġë³´ê³ł": 6992,
      "Ġfing": 6993,
      "ĠLab": 6994,
      "Ġmonit": 6995,
      "Ġstreet": 6996,
      "umin": 6997,
      "Ġìĺģìĸ´": 6998,
      "ĠìĿĺíķľ": 6999,
      "111": 7000,
      "Ġmajority": 7001,
      "nê°ľ": 7002,
      "asp": 7003,
      "sec": 7004,
      "Ġìĺ®": 7005,
      "ĠìłĦë¬¸": 7006,
      "Ġìĥī": 7007,
      "ĠëıĻìĭľìĹĲ": 7008,
      "Ġjournal": 7009,
      "ĠSam": 7010,
      "Ġsem": 7011,
      "ìķ¼ë§Ī": 7012,
      "Ġband": 7013,
      "Ġê°Ģì§Ħ": 7014,
      "ework": 7015,
      "Ġshot": 7016,
      "Ġcontract": 7017,
      "ĠAccording": 7018,
      "Ġë¶Ħë¦¬": 7019,
      "ĠMary": 7020,
      "ìłķë¶Ģ": 7021,
      "Ġsche": 7022,
      "Ġìłķì°©": 7023,
      "mal": 7024,
      "Ġplease": 7025,
      "Ġden": 7026,
      "ĠAut": 7027,
      "ĠíĬ¹ë³Ħ": 7028,
      "Ġë¹Į": 7029,
      "ĠĠĠĠĠĠĠĠĠĠĠ": 7030,
      "Ġconcerns": 7031,
      "ëĭ¤ëĬĶ": 7032,
      "Ġstra": 7033,
      "ado": 7034,
      "ĠìĬ¬": 7035,
      "Ġemphas": 7036,
      "Ġcream": 7037,
      "Ġtrou": 7038,
      "Ġletters": 7039,
      "Ġsuggests": 7040,
      "PS": 7041,
      "ê°ĢëĬĶ": 7042,
      "ĠìĤ¬ìĹħ": 7043,
      "ĠìĽĲìŀĲ": 7044,
      "Ġnavig": 7045,
      "Ġbodies": 7046,
      "Ġvaluable": 7047,
      "ilit": 7048,
      "Ġë¬ĺ": 7049,
      "íĶĦë¡ľ": 7050,
      "Ġcatch": 7051,
      "ifying": 7052,
      "ë·": 7053,
      "Ġfly": 7054,
      "Ġisland": 7055,
      "ĠFeb": 7056,
      "Ġìĥ¤": 7057,
      "ĠìĻķêµŃ": 7058,
      "Ġpainting": 7059,
      "Ġradiation": 7060,
      "ĠìķĬìķĺ": 7061,
      "Ġlake": 7062,
      "ìĥ¤": 7063,
      "lim": 7064,
      "more": 7065,
      "ĠAv": 7066,
      "Ġbreast": 7067,
      "Ġcollected": 7068,
      "AL": 7069,
      "Ġple": 7070,
      "ĠAng": 7071,
      "Ġêµ°ìĿ¸": 7072,
      "Ġcommand": 7073,
      "Ġìĺ¤ëĬĺëĤł": 7074,
      "ëĤ´ëĬĶ": 7075,
      "ëĭĪë©ĶìĿ´ìħĺ": 7076,
      "=$": 7077,
      "col": 7078,
      "ĠìłĦíĨµ": 7079,
      "ĠíĨµìĿ¼": 7080,
      "Ġmotiv": 7081,
      "Ġtables": 7082,
      "ëĭ¹ìĿĺ": 7083,
      "ĠRoman": 7084,
      "Ġegg": 7085,
      "ĠAnt": 7086,
      "å»": 7087,
      "ê³±": 7088,
      "oles": 7089,
      "íĦ¸": 7090,
      "ĠProf": 7091,
      "rate": 7092,
      "ìĭ±": 7093,
      "ĠíķĻìĥĿ": 7094,
      "Ġtomat": 7095,
      "Ġvast": 7096,
      "ĠNovember": 7097,
      "Ġë§Ĳíķľëĭ¤": 7098,
      "Ġblog": 7099,
      "Ġë°ľëĭ¬": 7100,
      "oo": 7101,
      "zen": 7102,
      "ëĺĲ": 7103,
      "Ġdyn": 7104,
      "Ġclasses": 7105,
      "Ġincorpor": 7106,
      "43": 7107,
      "een": 7108,
      "Ġbound": 7109,
      "ĠìĿ´ëķĮ": 7110,
      "ĠBecause": 7111,
      "nRe": 7112,
      "Ġballs": 7113,
      "--------": 7114,
      "Ġanxiety": 7115,
      "ĠEast": 7116,
      "Ġìłľê³µ": 7117,
      "ĠìĿ¸ê°Ħ": 7118,
      "Ġpurchase": 7119,
      "ĠìĹŃíķłìĿĦ": 7120,
      "ricul": 7121,
      "ë¦¬ì§Ģ": 7122,
      "Ġfindings": 7123,
      "Ġë©´ìłģ": 7124,
      "çĲ": 7125,
      "Ġìļ°ìĬ¹": 7126,
      "åĮĹ": 7127,
      "Ġstim": 7128,
      "Ġknew": 7129,
      "Ġpun": 7130,
      "ê¸°ê´Ģ": 7131,
      "Ġregions": 7132,
      "ĠíĬ¹ì§ķ": 7133,
      "ĠSoci": 7134,
      "nìĺģ": 7135,
      "rome": 7136,
      "ĠMic": 7137,
      "conds": 7138,
      "Ġì¶Ķìłķ": 7139,
      "Ġessay": 7140,
      "Ġreferred": 7141,
      ")Â·": 7142,
      "Ġtox": 7143,
      "ĠEven": 7144,
      "Ġhandle": 7145,
      "Ġthousands": 7146,
      "gu": 7147,
      "ĠTwo": 7148,
      "print": 7149,
      "iveness": 7150,
      "Ġvehicle": 7151,
      "ixture": 7152,
      "æĪ": 7153,
      "Ġexhib": 7154,
      "ĠAdd": 7155,
      "ulated": 7156,
      "onic": 7157,
      "ĠChe": 7158,
      "ĠCor": 7159,
      "ìłľê°Ģ": 7160,
      "Ġíķĺë©°": 7161,
      "ĠVir": 7162,
      "rep": 7163,
      "Ġflo": 7164,
      "Ġpoem": 7165,
      "Ġiniti": 7166,
      "Ġextremely": 7167,
      "61": 7168,
      "west": 7169,
      "ĠMich": 7170,
      "Ġsurvey": 7171,
      "ĠEnvironment": 7172,
      "Ġì¢ħë¥ĺ": 7173,
      "being": 7174,
      "Ġnuclear": 7175,
      "Ġroutine": 7176,
      "Ġwatching": 7177,
      "Ġcapacity": 7178,
      "Ġpump": 7179,
      "iring": 7180,
      "Ġurban": 7181,
      "CC": 7182,
      "íĮħ": 7183,
      "Ġsentences": 7184,
      "Ġmoved": 7185,
      "itchen": 7186,
      "Ġìŀīê¸Ģëŀľëĵľ": 7187,
      "ĠìľłìĿ¼": 7188,
      "ĠSy": 7189,
      "ĠGreen": 7190,
      "Ġstored": 7191,
      "Ġstock": 7192,
      "ressed": 7193,
      "Ġeight": 7194,
      "ĠìĨĮìĨį": 7195,
      "Ġoption": 7196,
      "íķĢ": 7197,
      "Ġ1987": 7198,
      "ë¦¬ìķĦìĿĺ": 7199,
      "ĠìķĮëłīìĤ°": 7200,
      "iant": 7201,
      "åŁ": 7202,
      "ĠMount": 7203,
      "Ġbelief": 7204,
      "Ġ1945": 7205,
      "oking": 7206,
      "ĠìĤ¬ìĥģ": 7207,
      "ĠìłĦêµŃ": 7208,
      "Ġsports": 7209,
      "æĺİ": 7210,
      "alax": 7211,
      "Ġë¹ĦêµĲ": 7212,
      "Ġengage": 7213,
      "Ġtouch": 7214,
      "Ġpas": 7215,
      "Ġexcell": 7216,
      "Ġíį¼": 7217,
      "Ġcompar": 7218,
      "ìłĦìĿĦ": 7219,
      "Ġexplains": 7220,
      "DA": 7221,
      "Ġëķħ": 7222,
      "ĠSur": 7223,
      "ìĬ·": 7224,
      "Ġshoes": 7225,
      "ìĹĪê³ł": 7226,
      "Ġengineering": 7227,
      "Ġcounter": 7228,
      "ìŀĶ": 7229,
      "ĠìĦ±ë¦½": 7230,
      "elines": 7231,
      "active": 7232,
      "\\\".\\": 7233,
      "uit": 7234,
      "uses": 7235,
      "ëĤ¸": 7236,
      "pping": 7237,
      "íĬ¸ë¡ľ": 7238,
      "ì¢ħìĿĺ": 7239,
      "Ġbill": 7240,
      "Ġleaving": 7241,
      "ĠëĦ¤ëįľëŀĢëĵľ": 7242,
      "cast": 7243,
      "níĺĦ": 7244,
      "Ġcm": 7245,
      "Ġwrong": 7246,
      "Ġatom": 7247,
      "ishing": 7248,
      "ì²´ë¥¼": 7249,
      "ĠGoogle": 7250,
      "Ġhuge": 7251,
      "ĠíĽĪ": 7252,
      "ìĿ¼ìĿĢ": 7253,
      "Ġëª¸": 7254,
      "Ġì£¼êµĲ": 7255,
      "ĠíĨµì¹ĺ": 7256,
      "Ġdistinct": 7257,
      "Ġintroduced": 7258,
      "Ġhabitat": 7259,
      "Ġshopping": 7260,
      "set": 7261,
      "Ġign": 7262,
      "ĠTru": 7263,
      "ĠMat": 7264,
      "Ġmedium": 7265,
      "Ġdeliver": 7266,
      "uting": 7267,
      "ĠNow": 7268,
[...]
